{
  "version": "1.0",
  "truncation": {
    "direction": "Right",
    "max_length": 128,
    "strategy": "LongestFirst",
    "stride": 0
  },
  "padding": {
    "strategy": "BatchLongest",
    "direction": "Right",
    "pad_to_multiple_of": null,
    "pad_id": 1,
    "pad_type_id": 0,
    "pad_token": "<pad>"
  },
  "added_tokens": [
    {
      "id": 0,
      "content": "<mask>",
      "single_word": false,
      "lstrip": false,
      "rstrip": false,
      "normalized": false,
      "special": true
    },
    {
      "id": 1,
      "content": "<pad>",
      "single_word": false,
      "lstrip": false,
      "rstrip": false,
      "normalized": false,
      "special": true
    },
    {
      "id": 2,
      "content": "<unk>",
      "single_word": false,
      "lstrip": false,
      "rstrip": false,
      "normalized": false,
      "special": true
    },
    {
      "id": 3,
      "content": "<s>",
      "single_word": false,
      "lstrip": false,
      "rstrip": false,
      "normalized": false,
      "special": true
    },
    {
      "id": 4,
      "content": "</s>",
      "single_word": false,
      "lstrip": false,
      "rstrip": false,
      "normalized": false,
      "special": true
    }
  ],
  "normalizer": null,
  "pre_tokenizer": {
    "type": "ByteLevel",
    "add_prefix_space": true,
    "trim_offsets": true,
    "use_regex": true
  },
  "post_processor": {
    "type": "RobertaProcessing",
    "sep": [
      "</s>",
      4
    ],
    "cls": [
      "<s>",
      3
    ],
    "trim_offsets": true,
    "add_prefix_space": true
  },
  "decoder": {
    "type": "ByteLevel",
    "add_prefix_space": true,
    "trim_offsets": true,
    "use_regex": true
  },
  "model": {
    "type": "BPE",
    "dropout": null,
    "unk_token": "<unk>",
    "continuing_subword_prefix": null,
    "end_of_word_suffix": null,
    "fuse_unk": false,
    "byte_fallback": false,
    "vocab": {
      "<mask>": 0,
      "<pad>": 1,
      "<unk>": 2,
      "<s>": 3,
      "</s>": 4,
      "!": 5,
      ",": 6,
      ".": 7,
      "?": 8,
      "_": 9,
      "¡": 10,
      "¢": 11,
      "¤": 12,
      "¦": 13,
      "§": 14,
      "¨": 15,
      "©": 16,
      "ª": 17,
      "Ì": 18,
      "×": 19,
      "Ċ": 20,
      "Ġ": 21,
      "ģ": 22,
      "Į": 23,
      "Ĳ": 24,
      "ĳ": 25,
      "Ĵ": 26,
      "ĵ": 27,
      "Ķ": 28,
      "ķ": 29,
      "ĸ": 30,
      "Ĺ": 31,
      "ĺ": 32,
      "Ļ": 33,
      "ļ": 34,
      "Ľ": 35,
      "ľ": 36,
      "Ŀ": 37,
      "ŀ": 38,
      "Ł": 39,
      "ł": 40,
      "Ġ×": 41,
      "×ķ": 42,
      "×Ļ": 43,
      "×Ķ": 44,
      "×ķ×": 45,
      "Ġ×Ĳ": 46,
      "×Ļ×": 47,
      "Ġ?": 48,
      "Ġ×Ķ": 49,
      "×ª": 50,
      "Ġ×ľ": 51,
      "Ġ×ŀ": 52,
      "Ġ.": 53,
      "Ġ,": 54,
      "×¨": 55,
      "×Ĳ": 56,
      "×ľ": 57,
      "Ġ×Ĳ×ª": 58,
      "×©": 59,
      "×ĳ": 60,
      "Ġ×¢": 61,
      "Ġ×ŀ×Ķ": 62,
      "×ł": 63,
      "Ġ×ĳ": 64,
      "×Ľ": 65,
      "ĸ×Ķ": 66,
      "Ġ×©": 67,
      "×Ĺ": 68,
      "Ġ×ł": 69,
      "Ġ×Ļ": 70,
      "Ġ×ĸ×Ķ": 71,
      "Ġ×Ľ": 72,
      "×Ļ×Ŀ": 73,
      "Ġ×ª": 74,
      "Ġ×ľ×Ĳ": 75,
      "Ġ×¨": 76,
      "×¢": 77,
      "×ŀ": 78,
      "×¤": 79,
      "×ĵ": 80,
      "×Ĵ": 81,
      "×ķ×¨": 82,
      "×Ł": 83,
      "Ġ×Ĳ×Ļ×": 84,
      "×ķ×ľ": 85,
      "×§": 86,
      "×Ŀ": 87,
      "×ķ×Ł": 88,
      "×ķ×ĵ": 89,
      "×ķ×ª": 90,
      "Ġ×ķ": 91,
      "Ġ×¨×ķ×": 92,
      "×¡": 93,
      "Ġ×Ĺ": 94,
      "¦×Ķ": 95,
      "×ļ": 96,
      "Ġ×§": 97,
      "×ķ×Ĳ": 98,
      "¤×Ķ": 99,
      "Ġ×¨×ķ×¦×Ķ": 100,
      "Ġ×¡": 101,
      "Ġ×Ĵ": 102,
      "×ł×Ļ": 103,
      "Ġ×Ĳ×ª×Ķ": 104,
      "Ġ×ł×Ľ": 105,
      "Ġ×ł×Ľ×ķ×Ł": 106,
      "×ĸ": 107,
      "×ķ×ĳ": 108,
      "×¨×Ļ": 109,
      "×Ļ×Ĳ": 110,
      "Ġ×©×ľ": 111,
      "×¦": 112,
      "Ġ×ĺ": 113,
      "Ġ×Ĳ×ł×Ļ": 114,
      "×ĺ": 115,
      "×ķ×©": 116,
      "Ġ×Ķ×Ĵ": 117,
      "Ġ×Ļ×©": 118,
      "Ġ×¦": 119,
      "Ġ×¢×ľ": 120,
      "×Ļ×ª": 121,
      "Ġ×Ĳ×ĳ": 122,
      "×Ļ×¨": 123,
      "Ġ×ľ×ļ": 124,
      "Ġ×Ķ×Ĵ×¨×Ļ": 125,
      "×Ļ×ķ": 126,
      "×ł×Ķ": 127,
      "Ġ×ŀ×Ļ": 128,
      "Ġ×ĵ": 129,
      "Ġ×Ĳ×Ļ×¤×Ķ": 130,
      "Ġ×¤": 131,
      "Ġ×Ľ×Ł": 132,
      "Ġ×Ķ×ķ×Ĳ": 133,
      "Ġ×¢×ķ×ĵ": 134,
      "Ġ×¢×Ľ": 135,
      "×©×Ļ×ķ": 136,
      "Ġ×¢×Ľ×©×Ļ×ķ": 137,
      "Ġ×ľ×Ķ": 138,
      "Ġ×¤×Ķ": 139,
      "Ġ×Ĳ×ķ×": 140,
      "Ġ×¢×ķ×©": 141,
      "×ķ×Ŀ": 142,
      "Ġ×Ĳ×ĸ": 143,
      "×Ļ×¤": 144,
      "Ġ×Ķ×ł×Ķ": 145,
      "Ġ×ĳ×ķ×Ĳ": 146,
      "Ġ×¢×ķ×©×Ķ": 147,
      "×ŀ×Ķ": 148,
      "×ķ×§": 149,
      "×Ļ×§": 150,
      "×ķ×¤": 151,
      "×Ļ×Ķ": 152,
      "×ĳ×ª": 153,
      "×¨×Ĳ": 154,
      "Ġ×ľ×Ļ": 155,
      "×Ļ×ĵ": 156,
      "Ġ×ĺ×ķ×ĳ": 157,
      "Ġ×Ĳ×ķ×ª": 158,
      "×¤×¨": 159,
      "×©×Ķ": 160,
      "Ġ×ľ×Ļ×Ĳ": 161,
      "Ġ×ľ×Ļ×Ĳ×ķ×¨": 162,
      "Ġ×Ĳ×ĳ×ľ": 163,
      "×ł×ķ": 164,
      "Ġ×ľ×©": 165,
      "×ĳ×¨": 166,
      "Ġ×Ĳ×ķ": 167,
      "Ġ×Ĳ×Ĺ": 168,
      "×Ļ×ľ": 169,
      "×Ļ×ł": 170,
      "×Ļ×Ļ×Ŀ": 171,
      "Ġ×ĸ": 172,
      "Ġ×¢×Ŀ": 173,
      "Ġ×Ĳ×Ļ×ĸ×Ķ": 174,
      "×ķ×ł": 175,
      "×Ĺ×Ĺ": 176,
      "Ġ×Ĺ×Ĺ×Ĺ": 177,
      "×Ľ×ľ": 178,
      "×¨×Ķ": 179,
      "×¢×ª": 180,
      "ŀ×Ĳ": 181,
      "Ġ×Ĳ×Ļ×ŀ×Ĳ": 182,
      "×¨×ª": 183,
      "Ġ×Ĵ×Ŀ": 184,
      "Ġ×Ľ×Ĳ": 185,
      "×Ľ×ķ×ľ": 186,
      "Ġ×ľ×ŀ×Ķ": 187,
      "×¤×ª": 188,
      "Ġ×ĳ×ķ×Ĳ×Ļ": 189,
      "×¤×Ķ": 190,
      "×ķ×Ĺ": 191,
      "×ķ×Ľ": 192,
      "Ġ×Ĳ×ĳ×Ĳ": 193,
      "×ķ×ŀ": 194,
      "Ġ×Ľ×Ĳ×Ł": 195,
      "Ġ×Ĳ×Ķ": 196,
      "Ġ×Ķ×Ļ×Ĳ": 197,
      "×ķ×¡": 198,
      "×¨×Ļ×": 199,
      "×¢×©": 200,
      "Ġ×Ľ×ķ×ľ": 201,
      "×ľ×Ķ": 202,
      "×Ľ×Ķ": 203,
      "×ĸ×Ķ": 204,
      "×Ĳ×ª": 205,
      "×Ĳ×ķ×ĵ": 206,
      "×ķ×ľ×Ļ": 207,
      "Ġ×ª×©": 208,
      "Ġ×ª×¡": 209,
      "×ķ×¤×Ļ": 210,
      "×ĵ×¨": 211,
      "×ķ×ĸ": 212,
      "×ĳ×¢": 213,
      "Ġ×ľ×ķ": 214,
      "Ġ×ŀ×¡": 215,
      "Ġ×Ļ×ķ×ĵ": 216,
      "×ķ×ĵ×Ķ": 217,
      "×Ĺ×ª": 218,
      "Ġ×ŀ×ª": 219,
      "Ġ×Ĳ×ķ×ľ×Ļ": 220,
      "×Ĵ×Ļ×ĵ": 221,
      "×ĳ×Ļ×Ĳ": 222,
      "Ġ×Ĳ×ķ×¨": 223,
      "Ġ×ŀ×©": 224,
      "Ġ×Ĳ×Ļ×Ł": 225,
      "Ġ×Ļ×ľ": 226,
      "Ġ!": 227,
      "×ķ×ļ": 228,
      "×ľ×Ļ": 229,
      "×ķ×Ĵ": 230,
      "×Ļ×ĳ": 231,
      "Ġ×Ļ×ķ×¤×Ļ": 232,
      "×ľ×ª": 233,
      "Ġ×Ĳ×ł": 234,
      "Ġ×¦×¨×Ļ×": 235,
      "Ġ×Ĳ×Ļ×ļ": 236,
      "Ġ×ŀ×Ľ": 237,
      "×Ļ×¡": 238,
      "Ġ×Ļ×ľ×ĵ": 239,
      "Ġ×ľ×Ļ×Ĳ×ķ×¨×Ļ": 240,
      "Ġ×©×ŀ": 241,
      "Ġ×¢×©": 242,
      "Ġ×¨×ķ×Ĳ": 243,
      "Ġ×Ĳ×ŀ": 244,
      "×Ĵ×ľ": 245,
      "Ġ×ł×¢": 246,
      "Ġ×Ķ×Ļ": 247,
      "×ķ×¢": 248,
      "Ġ×Ļ×ķ×ĵ×¢×ª": 249,
      "×Ľ×ª": 250,
      "Ġ×¡×¤×¨": 251,
      "×Ļ×ĺ": 252,
      "×Ļ×ŀ": 253,
      "Ġ×Ļ×ĵ": 254,
      "Ġ×ŀ×§": 255,
      "Ġ×Ĳ×ķ×ĺ": 256,
      "Ġ×ł×©": 257,
      "×Ļ×¦": 258,
      "×Ĺ×§": 259,
      "Ġ×ľ×¢×©": 260,
      "Ġ×ľ×¢×©×ķ×ª": 261,
      "Ġ×ľ×ĳ": 262,
      "×¤×©": 263,
      "Ġ×Ļ×¤×Ķ": 264,
      "×ł×ĵ": 265,
      "Ġ×¨×ķ×Ĳ×Ķ": 266,
      "×Ļ×Ł": 267,
      "×Ļ×¤×ķ×¨": 268,
      "Ġ×ª×¨×Ĳ": 269,
      "Ġ×ĺ×Ļ": 270,
      "Ġ×Ĳ×¨": 271,
      "×ľ×ĳ": 272,
      "Ġ×¨×Ĳ": 273,
      "Ġ×¡×ĳ×ª": 274,
      "Ġ×ª×Ĵ×Ļ×ĵ": 275,
      "Ġ×Ľ×Ļ": 276,
      "Ġ×¦×ĳ×¢": 277,
      "×ł×¡": 278,
      "Ġ×¡×ĳ×ª×Ĳ": 279,
      "×¨×ĳ": 280,
      "Ġ×Ĳ×ķ×ª×ķ": 281,
      "Ġ×§×¨×Ķ": 282,
      "Ġ×ŀ×Ĳ×ķ×ĵ": 283,
      "×¦×Ļ": 284,
      "Ġ×§×ĺ": 285,
      "Ġ×Ĳ×Ĺ×¨": 286,
      "Ġ×Ĳ×ķ×ĺ×ķ": 287,
      "Ġ×Ĺ×ŀ": 288,
      "Ġ×Ĳ×ķ×Ļ": 289,
      "Ġ×Ľ×Ľ×Ķ": 290,
      "Ġ×ĺ×Ļ×Ļ×¤": 291,
      "×Ĺ×ł×ķ": 292,
      "×¢×Ŀ": 293,
      "Ġ×ĳ×Ĳ": 294,
      "Ġ×Ĳ×ł×Ĺ×ł×ķ": 295,
      "×Ļ×ķ×ª": 296,
      "Ġ×Ĵ×ĵ": 297,
      "Ġ×©×ľ×ļ": 298,
      "Ġ×Ĳ×ķ×Ľ": 299,
      "Ġ×ľ×Ĳ×Ł": 300,
      "×¨×§": 301,
      "×ª×Ľ×ľ": 302,
      "Ġ×Ķ×ķ×ľ": 303,
      "×¡×ĵ×¨": 304,
      "Ġ×Ķ×Ŀ": 305,
      "Ġ×Ļ×Ľ×ķ×ľ": 306,
      "Ġ×¢×©×Ļ×ª": 307,
      "Ġ×Ĵ×ĵ×ķ×ľ": 308,
      "×ľ×ķ×Ł": 309,
      "×ľ×ļ": 310,
      "Ġ×ĳ×ª": 311,
      "Ġ×ŀ×Ĺ": 312,
      "×ķ×¦": 313,
      "Ġ×ľ×Ĳ×ķ×¨": 314,
      "Ġ×¦×¨×Ļ×ļ": 315,
      "Ġ×Ķ×Ļ×ķ×Ŀ": 316,
      "Ġ×ª×ŀ": 317,
      "Ġ×Ĵ×ŀ": 318,
      "×Ļ×Ĺ": 319,
      "×Ĵ×ķ×¨": 320,
      "×Ĺ×Ļ": 321,
      "Ġ×Ĳ×ľ": 322,
      "Ġ×©×Ŀ": 323,
      "Ġ×ª×¨×Ĳ×Ļ": 324,
      "Ġ×ľ×§": 325,
      "Ġ×§×ķ×¨": 326,
      "Ġ×¡×Ļ×¤×ķ×¨": 327,
      "Ġ×ŀ×¦": 328,
      "Ġ×Ľ×ĳ×¨": 329,
      "Ġ×ľ×ŀ": 330,
      "Ġ×¡×ĳ": 331,
      "×¦×ª": 332,
      "Ġ×Ķ×Ĵ×¨": 333,
      "Ġ×Ĳ×ķ×ŀ": 334,
      "Ġ×ĳ×¡×ĵ×¨": 335,
      "Ġ×Ĵ×Ł": 336,
      "Ġ×¨×§": 337,
      "×ķ×ł×Ķ": 338,
      "Ġ×ľ×©×Ļ×Ŀ": 339,
      "×¦×Ļ×Ļ×¨": 340,
      "×Ĳ×Ļ×Ŀ": 341,
      "Ġ×Ķ×Ļ×Ķ": 342,
      "×Ĵ×¢": 343,
      "Ġ×Ĳ×Ŀ": 344,
      "Ġ×ł×Ļ×¦": 345,
      "Ġ×Ĳ×ķ×ª×ļ": 346,
      "Ġ×ľ×¡": 347,
      "×Ļ×ł×Ķ": 348,
      "×¤×¢×Ŀ": 349,
      "Ľ×Ķ": 350,
      "Ġ×Ĳ×ķ×Ľ×ľ": 351,
      "×ķ×ĳ×Ļ": 352,
      "Ġ×ľ×Ĳ×Ľ×ķ×ľ": 353,
      "Ġ×ł×ķ": 354,
      "Ġ×©×ł×Ļ": 355,
      "×ĳ×§": 356,
      "Ġ×ł×¤": 357,
      "Ġ×Ļ×Ķ": 358,
      "×Ļ×§×Ķ": 359,
      "Ġ×ĺ×ľ": 360,
      "×ł×Ļ×Ŀ": 361,
      "Ġ×ĳ×Ļ×ª": 362,
      "×¤×©×¨": 363,
      "×¤×¨×Ļ": 364,
      "Ġ×¨×Ĳ×©": 365,
      "Ġ×ĳ×ª×ķ×ļ": 366,
      "×Ľ×ļ": 367,
      "×Ļ×Ĵ": 368,
      "×¨×ķ×§": 369,
      "×ĵ×ĳ×¨": 370,
      "×¢×Ļ×Ŀ": 371,
      "×ĵ×ª": 372,
      "×¡×Ķ": 373,
      "×ŀ×Ĳ×ķ×ĵ": 374,
      "Ġ×ľ×Ĳ×ķ×¨×Ļ": 375,
      "Ġ×Ľ×ŀ": 376,
      "Ġ×¨×Ĵ×¢": 377,
      "Ġ×¨×¦": 378,
      "Ġ×Ĳ×ĵ": 379,
      "×¨×Ĺ": 380,
      "×ķ×Ľ×Ķ": 381,
      "×ł×ª": 382,
      "×¨×Ļ×Ŀ": 383,
      "Ġ×ŀ×Ĵ": 384,
      "×ķ×¨×Ķ": 385,
      "×ķ×ĳ×Ķ": 386,
      "Ġ×ĳ×ł×ĵ": 387,
      "×Ļ×¨×Ļ": 388,
      "Ġ×ª×Ĵ×Ļ×ĵ×Ļ": 389,
      "Ġ×ª×ĳ×Ļ×Ĳ": 390,
      "Ġ×Ĵ×ľ": 391,
      "Ġ×ł×¢×ľ": 392,
      "Ġ×ŀ×Ļ×Ŀ": 393,
      "Ġ×ŀ×©×Ĺ×§": 394,
      "×Ļ×ĺ×Ķ": 395,
      "Ġ×ª×§": 396,
      "Ġ×Ĳ×Ĺ×ĵ": 397,
      "Ġ×¡×ĳ×Ĳ": 398,
      "Ġ×ĸ×Ĳ×ª": 399,
      "Ġ×ĳ×ĺ": 400,
      "Ġ×Ľ×ĵ": 401,
      "×ľ×Ľ×ª": 402,
      "Ġ×Ľ×Ļ×¡": 403,
      "Ġ×Ĳ×¡": 404,
      "×ĺ×Ķ": 405,
      "Ġ×Ļ×Ķ×Ļ×Ķ": 406,
      "Ġ×ĳ×ł×ĵ×Ļ": 407,
      "×Ļ×¢": 408,
      "×¨×Ĳ×Ķ": 409,
      "Ġ×¨×Ĵ×ľ": 410,
      "Ġ×Ĺ×ķ×©": 411,
      "Ġ×Ĵ×ĳ": 412,
      "Ġ×ª×¡×ª×Ľ×ľ": 413,
      "Ġ×Ĺ×ª": 414,
      "Ġ×§×¦×ª": 415,
      "Ġ×Ľ×ŀ×ķ": 416,
      "×©×Ķ×ķ": 417,
      "×Ļ×ŀ×Ļ": 418,
      "Ġ×ŀ×ľ": 419,
      "Ġ×ĵ×ķ×ĳ×Ļ": 420,
      "×¨×ĳ×Ķ": 421,
      "Ġ×ł×¤×ľ": 422,
      "Ġ×Ĳ×Ļ": 423,
      "Ġ×Ļ×ķ×ª": 424,
      "Ġ×ŀ×©×Ķ×ķ": 425,
      "×¨×Ĳ×ķ×ª": 426,
      "Ġ×Ļ×ľ×ĵ×Ķ": 427,
      "×ķ×ķ×ĸ": 428,
      "Ġ×Ķ×ª": 429,
      "Ġ×ª×¢": 430,
      "Ġ×§×ĺ×Ł": 431,
      "Ġ×ŀ×ĺ": 432,
      "Ġ×ª×¡×¤×¨×Ļ": 433,
      "×Ļ×ľ×Ķ": 434,
      "Ġ×ľ×ĳ×ĵ": 435,
      "Ġ×ľ×Ĺ": 436,
      "Ġ×Ĺ×ķ×ľ": 437,
      "×ĸ×Ĳ×ª": 438,
      "Ġ×ĵ×Ļ": 439,
      "Ġ×ľ×¤×ª": 440,
      "Ġ×ľ×¤×ª×ķ×Ĺ": 441,
      "Ġ×ł×Ļ×¨": 442,
      "×ķ×ĺ": 443,
      "Ġ×©×Ļ×¨": 444,
      "×Ĺ×Ł": 445,
      "Ġ×ł×§": 446,
      "×Ĵ×ŀ": 447,
      "×ĳ×Ļ": 448,
      "×Ĺ×ķ×ľ": 449,
      "Ġ×§×ķ×¨×Ĳ×Ļ×Ŀ": 450,
      "Ġ×ĳ×ķ×Ľ×Ķ": 451,
      "Ġ×¤×ª": 452,
      "Ġ×Ĳ×ķ×Ķ": 453,
      "Ġ×ŀ×ł": 454,
      "×§×ª": 455,
      "Ġ×©×ŀ×Ķ": 456,
      "Ġ×Ĳ×Ļ×©": 457,
      "Ġ×Ľ×Ļ×¡×Ĳ": 458,
      "Ġ×ª×Ĳ": 459,
      "Ġ×ª×Ĺ": 460,
      "×ķ×ĵ×Ŀ": 461,
      "Ġ×Ĵ×ķ×Ĵ": 462,
      "×Ļ×©": 463,
      "Ġ×ĳ×ľ×ķ×Ł": 464,
      "×ķ×ľ×Ĺ×Ł": 465,
      "Ġ×Ĺ×ŀ×ķ×ĵ×Ķ": 466,
      "Ġ×©×ķ×ľ×Ĺ×Ł": 467,
      "×ķ×¨×Ļ×ĵ": 468,
      "Ġ×¢×ķ×©×Ļ×Ŀ": 469,
      "×Ļ×Ľ": 470,
      "Ġ×Ĺ×¨": 471,
      "Ġ×¨×¦×¤×Ķ": 472,
      "Ġ×Ľ×ª": 473,
      "Ġ×Ľ×ķ×Ĳ": 474,
      "Ġ×§×ķ×ĵ×Ŀ": 475,
      "Ġ×Ļ×ķ×©": 476,
      "Ġ×Ļ×Ľ×ķ×ľ×Ķ": 477,
      "Ġ×©×ķ×ŀ": 478,
      "×ŀ×ª": 479,
      "Ġ×§×Ĺ×Ļ": 480,
      "×ĸ×ķ×¨": 481,
      "×Ļ×ł×ķ×§": 482,
      "×¤×ª×Ļ": 483,
      "Ġ×ł×Ļ×¦×Ł": 484,
      "Ġ×Ļ×ķ×ª×¨": 485,
      "Ġ×ŀ×Ļ×ĺ×Ķ": 486,
      "Ġ×§×¨": 487,
      "Ġ×ľ×ł×ķ": 488,
      "×©×Ļ×Ŀ": 489,
      "Ġ×ł×ķ×¡": 490,
      "Ġ×¡×¤×ª×Ļ": 491,
      "Ġ×ľ×ľ×Ľ×ª": 492,
      "Ġ×¦×Ļ": 493,
      "×Ļ×ª×Ķ": 494,
      "Ġ×¢×ķ×Ĵ": 495,
      "Ġ×ł×¡": 496,
      "Ġ×ĵ×ĳ×¨": 497,
      "Ġ×ľ×©×ķ×Ł": 498,
      "Ġ×ĵ×ķ×ĵ×Ķ": 499,
      "Ġ×¤×¨": 500,
      "Ġ×©×¢": 501,
      "×ķ×ŀ×Ķ": 502,
      "Ġ×ŀ×¨": 503,
      "Ġ×ª×ĳ×Ļ×Ĳ×Ļ": 504,
      "×ĵ×ľ": 505,
      "Ġ×Ĺ×ĸ": 506,
      "Ġ×ŀ×§×ķ×Ŀ": 507,
      "Ġ×Ľ×ĵ×ķ×¨": 508,
      "Ġ×Ķ×Ĳ": 509,
      "Ġ×Ķ×¨×ĳ×Ķ": 510,
      "×ľ×Ĳ": 511,
      "Ġ×ł×ª": 512,
      "Ġ×Ľ×©": 513,
      "Ġ×Ľ×Ĺ×ķ×ľ": 514,
      "×¦×Ĳ": 515,
      "Ġ×Ĺ×¨×ķ×ĸ": 516,
      "Ġ×ŀ×Ĳ": 517,
      "×©×ª": 518,
      "Ġ×ľ×¢": 519,
      "Ġ×ĺ×¢×Ļ×Ŀ": 520,
      "Ġ×ľ×¦×Ļ×Ļ×¨": 521,
      "Ġ×¢×Ļ×ł": 522,
      "×¤×ķ×Ł": 523,
      "Ġ×Ļ×ª": 524,
      "×ķ×Ķ": 525,
      "Ġ×Ľ×ķ×Ĳ×ĳ": 526,
      "Ġ×¢×Ļ×ł×Ļ×Ļ×Ŀ": 527,
      "Ġ×ĳ×¨": 528,
      "Ġ×ĳ×ķ×ĳ×Ķ": 529,
      "Ġ×Ľ×¨": 530,
      "×Ļ×ł×ķ": 531,
      "×Ľ×ĳ": 532,
      "Ġ×Ĳ×ĵ×ķ×Ŀ": 533,
      "×¨×ł×ķ": 534,
      "Ġ×ĳ×§": 535,
      "×ĵ×Ļ": 536,
      "Ġ×§×ķ×¤": 537,
      "Ġ×Ķ×ĳ": 538,
      "×Ļ×¤×Ļ": 539,
      "Ġ×Ĳ×ŀ×¨×ª": 540,
      "Ġ×ľ×¨×Ĳ×ķ×ª": 541,
      "×Ļ×¨×Ķ": 542,
      "Ġ×¦×Ļ×ķ×¨": 543,
      "×¦×Ķ": 544,
      "Ġ×ª×¢×©": 545,
      "Ġ×©×ľ×Ļ": 546,
      "×Ļ×ĵ×Ķ": 547,
      "×ķ×¦×Ļ×Ĳ": 548,
      "Ġ×ª×ŀ×ķ×ł×Ķ": 549,
      "Ġ×Ĺ×ķ×©×ĳ×ª": 550,
      "×Ľ×Ļ×Ŀ": 551,
      "Ġ×Ľ×ŀ×Ķ": 552,
      "×ŀ×¢": 553,
      "Ġ×Ĳ×Ļ×ª": 554,
      "Ġ×ª×¢×©×Ļ": 555,
      "Ġ×ĸ×Ķ×ķ": 556,
      "×Ĳ×¤×©×¨": 557,
      "×ª×Ļ": 558,
      "Ġ×ŀ×¢": 559,
      "Ġ×Ĳ×ķ×ª×Ķ": 560,
      "Ġ×ª×¨": 561,
      "Ġ×ª×¤": 562,
      "Ġ×Ĳ×Ľ×ľ": 563,
      "Ġ×Ļ×¨×ķ×§": 564,
      "Ġ×ª×Ļ×ł×ķ×§": 565,
      "Ġ×ĺ×ľ×ķ×ķ×ĸ": 566,
      "Ġ×ĺ×ľ×ķ×ķ×ĸ×Ļ×Ķ": 567,
      "Ġ×§×ľ": 568,
      "Ġ×ĵ×ľ×ª": 569,
      "×§×ľ": 570,
      "Ġ×§×ķ×ĳ": 571,
      "×ł×ķ×ª": 572,
      "Ġ×ł×ŀ": 573,
      "Ġ×Ķ×ķ×ľ×Ľ×ª": 574,
      "Ġ×¡×ķ×¡": 575,
      "×¤×ª×Ĺ": 576,
      "Ġ×¢×Ĵ": 577,
      "Ġ×¢×©×Ķ": 578,
      "Ġ×ª×ķ×ĵ×Ķ": 579,
      "Ġ×Ļ×ĵ×Ļ×Ļ×Ŀ": 580,
      "Ġ×ª×ĳ": 581,
      "×¢×ľ×Ķ": 582,
      "Ġ×Ĳ×Ĺ×ª": 583,
      "Ġ×Ĳ×ķ×¨×ľ×Ļ": 584,
      "Ġ×¦×Ķ": 585,
      "Ġ×ĸ×ķ": 586,
      "Ġ×ŀ×§×ľ": 587,
      "×Ľ×Ļ": 588,
      "Ġ×ľ×Ķ×ĳ×Ļ×Ĳ": 589,
      "Ġ×Ĺ×ª×ķ×ľ": 590,
      "×ł×ĳ": 591,
      "Ġ×¦×¨×Ļ×Ľ×Ķ": 592,
      "Ġ×ľ×ŀ×¢×ľ×Ķ": 593,
      "Ġ×ľ×©×ĳ×ª": 594,
      "Ġ×Ĵ×ŀ×¨×ª": 595,
      "×Ļ×ļ": 596,
      "×§×Ļ": 597,
      "×ķ×ĳ×ĳ": 598,
      "Ġ×Ĳ×ķ×ŀ×¨": 599,
      "Ġ×Ĳ×ķ×ŀ×¨×ª": 600,
      "Ġ×ł×¢×©×Ķ": 601,
      "Ġ×Ķ×ľ×ļ": 602,
      "×Ĺ×ķ×¨": 603,
      "Ġ×ł×¨": 604,
      "Ġ×ł×ľ×ļ": 605,
      "×¢×¦": 606,
      "Ġ×ª×©×Ļ×Ŀ": 607,
      "Ġ×ľ×¡×¤×¨": 608,
      "×Ĳ×ĳ": 609,
      "×ł×Ĵ": 610,
      "Ġ×¢×¦": 611,
      "Ġ×ĳ×ĳ×§": 612,
      "Ġ×ł×Ĺ": 613,
      "Ġ×Ľ×ľ×ĳ": 614,
      "Ġ×ª×Ķ": 615,
      "Ġ×ł×¨×Ĳ×Ķ": 616,
      "×¦×ľ": 617,
      "Ġ×ŀ×Ľ×ķ×ł": 618,
      "Ġ×ĳ×ĳ×§×©×Ķ": 619,
      "Ġ×¢×ĵ": 620,
      "×¡×ª": 621,
      "Ġ×ª×Ĳ×Ľ×ľ": 622,
      "Ġ×ĳ×ł": 623,
      "×¦×¢": 624,
      "Ġ×Ĳ×Ĺ×¨×Ļ": 625,
      "Ġ×ŀ×ĵ×ĳ×¨": 626,
      "Ġ×ª×¡×ª×Ľ×ľ×Ļ": 627,
      "×Ļ×¤×Ķ": 628,
      "×Ľ×ķ": 629,
      "×ķ×ł×Ļ×Ŀ": 630,
      "Ġ×Ĵ×ĵ×ķ×ľ×Ķ": 631,
      "Ġ×ł×¢×ľ×Ļ×Ļ×Ŀ": 632,
      "×Ļ×¦×Ķ": 633,
      "Ġ×Ķ×Ľ×ķ×ľ": 634,
      "×©×ĳ": 635,
      "×ł×Ļ×Ļ×Ŀ": 636,
      "Ġ×ľ×¡×Ĵ×ķ×¨": 637,
      "Ġ×Ĺ×ľ": 638,
      "Ġ×ľ×Ķ×ª": 639,
      "Ġ×ŀ×ĳ": 640,
      "×ķ×§×Ļ": 641,
      "Ġ×ĳ×Ĳ×ŀ×ª": 642,
      "Ġ×Ĳ×¤×©×¨": 643,
      "Ġ×©×ķ×ŀ×¢×ª": 644,
      "Ġ×§×ķ×¤×¡×Ķ": 645,
      "Ġ×¡×Ĵ": 646,
      "Ġ×Ĳ×ķ×ª×Ŀ": 647,
      "×Ļ×ľ×Ļ": 648,
      "Ġ×Ķ×ķ×ľ×Ľ×Ļ×Ŀ": 649,
      "×¨×Ļ×Ķ": 650,
      "Ġ×©×ľ×ķ": 651,
      "Ġ×ª×©×Ļ×ŀ×Ļ": 652,
      "Ġ×Ļ×ķ×©×ĳ": 653,
      "Ġ×Ļ×¢": 654,
      "Ġ×ª×Ľ": 655,
      "×¤×Ļ×§": 656,
      "Ġ×Ĵ×ŀ×¨×ł×ķ": 657,
      "Ġ×Ķ×ľ": 658,
      "Ġ×ľ×ŀ×ĺ×Ķ": 659,
      "Ġ×Ĺ×Ŀ": 660,
      "Ġ×Ķ×ķ×ľ×ļ": 661,
      "Ġ×Ĳ×¡×ķ×¨": 662,
      "Ġ×©×ĺ": 663,
      "Ġ×ª×Ļ×§": 664,
      "Ġ×ŀ×¡×¤×¨": 665,
      "×ķ×¢×Ļ×Ŀ": 666,
      "Ġ×ŀ×ķ×ĸ": 667,
      "Ġ×ŀ×Ļ×ª": 668,
      "Ġ×¦×ľ": 669,
      "Ġ×ĸ×¨×§": 670,
      "×Ļ×ķ×¤×Ļ": 671,
      "Ġ×©×¤": 672,
      "Ġ×Ľ×¤": 673,
      "Ġ×ľ×©×Ĺ×§": 674,
      "Ġ×Ļ×ľ×ĵ×Ļ×Ŀ": 675,
      "Ġ×¦×ĳ×¢×Ļ×Ŀ": 676,
      "Ġ×¢×Ļ×Ĵ": 677,
      "Ġ×Ľ×ķ×ľ×Ŀ": 678,
      "Ġ×ŀ×¡×¤×Ļ×§": 679,
      "Ġ×Ļ×ķ×ĵ×¢": 680,
      "Ġ×Ĺ×ŀ×ķ×ĵ": 681,
      "Ġ×ľ×§×Ĺ×ª": 682,
      "Ġ×¦×Ķ×ķ×ĳ": 683,
      "×ķ×Ļ×¨": 684,
      "Ġ×¦×Ļ×¤×ķ×¨": 685,
      "Ġ×Ĵ×ľ×Ļ×ĵ×Ķ": 686,
      "Ġ×©×Ĳ": 687,
      "×Ĺ×Ķ": 688,
      "Ġ×ª×¦": 689,
      "Ġ×¡×ľ": 690,
      "Ġ×¢×Ļ×Ĵ×ķ×ľ": 691,
      "×ĵ×Ļ×Ŀ": 692,
      "Ġ×ŀ×Ľ×ł×¡": 693,
      "Ġ×Ĳ×ª×Ł": 694,
      "×©×Ļ": 695,
      "Ġ×©×§": 696,
      "Ġ×Ľ×ķ×¡": 697,
      "Ġ×§×Ĺ": 698,
      "Ġ×ĳ×ĺ×Ł": 699,
      "Ġ×ł×©×Ļ×Ŀ": 700,
      "Ġ×§×ĺ×ł×Ķ": 701,
      "Ġ×ĳ×§×ĳ": 702,
      "Ġ×ľ×Ķ×Ļ×ķ×ª": 703,
      "Ġ×Ĳ×ŀ×¨": 704,
      "Ġ×ĳ×Ĺ": 705,
      "Ġ×ª×ł": 706,
      "×ķ×ł×ķ×ª": 707,
      "Ġ×Ĳ×¤": 708,
      "Ġ×Ľ×ĳ": 709,
      "×ķ×¨×Ĳ": 710,
      "Ġ×Ĺ×ľ×ķ×Ł": 711,
      "Ġ×Ĳ×ķ×ª×Ļ": 712,
      "Ġ×ĸ×ķ×Ľ": 713,
      "×Ļ×ĸ×Ķ": 714,
      "Ġ×ľ×ķ×Ĺ": 715,
      "Ġ×ŀ×ķ×ª": 716,
      "Ġ×Ĳ×ŀ×ĳ": 717,
      "×¨×ķ×ª": 718,
      "Ġ×ĳ×ľ": 719,
      "Ġ×Ľ×ĸ×Ķ": 720,
      "Ġ×Ĳ×ķ×¤": 721,
      "Ġ×Ĳ×ķ×Ľ×ľ×ª": 722,
      "×ª×Ļ×Ļ×Ŀ": 723,
      "Ġ×Ļ×©×Ł": 724,
      "Ġ×ľ×¤": 725,
      "Ġ×ŀ×Ķ×¨": 726,
      "×¤×Ļ×Ļ×Ŀ": 727,
      "Ġ×¡×Ļ×¨": 728,
      "×ĳ×Ĺ": 729,
      "Ġ×§×ķ×ĳ×Ļ×ķ×ª": 730,
      "Ġ×ŀ×Ľ×ł×¡×Ļ×Ļ×Ŀ": 731,
      "Ġ×Ĳ×ŀ×ĳ×ĺ": 732,
      "×Ĳ×ķ×Ŀ": 733,
      "×ł×§": 734,
      "Ġ×Ĺ×ĵ": 735,
      "Ġ×ľ×Ĵ": 736,
      "Ġ×ľ×Ļ×¦": 737,
      "×Ļ×¨×ķ×ª": 738,
      "×ķ×ł×ª": 739,
      "Ġ×ŀ×ª×ł×Ķ": 740,
      "×Ļ×ĳ×Ķ": 741,
      "Ġ×ĺ×ľ×¤×ķ×Ł": 742,
      "Ġ×Ĳ×Ľ×ľ×ª": 743,
      "Ġ×ŀ×Ļ×ª×Ĺ×ª": 744,
      "Ġ×ª×ª": 745,
      "Ġ×§×¡": 746,
      "Ġ×©×ŀ×Ļ×Ŀ": 747,
      "Ġ×¢×ķ×Ĵ×Ķ": 748,
      "×ł×Ļ×¡": 749,
      "Ġ×Ĳ×ķ×ķ×Ļ×¨": 750,
      "Ġ×ŀ×ķ×ĸ×Ļ×§×Ķ": 751,
      "Ġ×Ĳ×©": 752,
      "Ġ×©×ĳ": 753,
      "×Ĺ×ĵ": 754,
      "Ġ×ł×Ĵ×ŀ": 755,
      "×ŀ×Ł": 756,
      "Ġ×Ĳ×ķ×Ķ×ĳ×ª": 757,
      "Ġ×ŀ×ł×ķ×¨×Ķ": 758,
      "Ġ×ĵ×ĳ×¨×Ļ×Ŀ": 759,
      "×ľ×Ļ×Ŀ": 760,
      "Ġ×Ĺ×ķ×¨": 761,
      "Ġ×¦×¢×¦": 762,
      "Ġ×¨×Ĳ×Ļ×ª": 763,
      "Ġ×ŀ×ĺ×ĳ×Ĺ": 764,
      "Ġ×Ĳ×ŀ×ĳ×ĺ×Ļ×Ķ": 765,
      "Ġ×ľ×ª": 766,
      "Ġ×ŀ×Ľ×Ķ": 767,
      "×ķ×ľ×Ķ": 768,
      "Ġ×©×¨": 769,
      "×ŀ×ĵ": 770,
      "×ĸ×¨×ķ×§": 771,
      "×ķ×ĳ×¢": 772,
      "Ġ×Ķ×Ļ×Ļ×ª": 773,
      "Ġ×Ĺ×ĵ×¨": 774,
      "Ġ×Ĺ×ķ×ľ×¦×Ķ": 775,
      "×ŀ×¢×ĺ": 776,
      "×¤×ķ×ļ": 777,
      "Ġ×§×Ļ×ĳ": 778,
      "Ġ×¡×ł×ĵ": 779,
      "Ġ×Ĵ×ķ×ľ": 780,
      "Ġ×ĵ×Ĵ": 781,
      "Ġ×ľ×©×ŀ": 782,
      "×Ļ×ŀ×Ķ": 783,
      "Ġ×ŀ×ŀ": 784,
      "Ġ×¨×¢": 785,
      "Ġ×Ĺ×¡": 786,
      "Ġ×©×¢×ķ×Ł": 787,
      "×ª×Ķ": 788,
      "Ġ×ľ×Ĺ×Ļ": 789,
      "Ġ×ª×ľ": 790,
      "×¤×Ļ×Ŀ": 791,
      "Ġ×§×§×Ļ": 792,
      "Ġ×ľ×Ķ×ķ×¨×Ļ×ĵ": 793,
      "Ġ×§×¡×ĺ×Ķ": 794,
      "Ġ×ŀ×Ĺ×¨": 795,
      "Ġ×ľ×Ĺ×Ŀ": 796,
      "Ġ×ª×¦×Ļ×¨×Ļ": 797,
      "Ġ×Ķ×ĳ×Ļ×Ĳ": 798,
      "Ġ×ŀ×ĸ": 799,
      "×¨×ķ×ĵ": 800,
      "×Ľ×ĳ×ª": 801,
      "Ġ×ł×ķ×ª": 802,
      "Ġ×Ļ×ķ×Ŀ": 803,
      "Ġ×ľ×©×ª": 804,
      "×ķ×ŀ×Ļ": 805,
      "Ġ×ª×¨×Ĳ×Ķ": 806,
      "Ġ×©×§×Ļ×ª": 807,
      "Ġ×©×ľ×ķ×Ŀ": 808,
      "Ġ×¤×¢×Ŀ": 809,
      "Ġ×ŀ×ĳ×Ļ×ł×Ķ": 810,
      "Ġ×ĳ×Ļ×Ĺ": 811,
      "Ġ×¨×Ĵ×ľ×Ļ×Ļ×Ŀ": 812,
      "Ġ×ŀ×¨×©×Ķ": 813,
      "Ġ×©×ĺ×Ļ×Ĺ": 814,
      "Ġ×ŀ×ķ×ª×§": 815,
      "Ġ×ľ×©×ª×ķ×ª": 816,
      "Ġ×ĳ×Ļ×Ĺ×ĵ": 817,
      "Ġ×©×ľ×ķ×©": 818,
      "Ġ×ľ×Ķ×Ĵ×Ļ×ĵ": 819,
      "Ġ×ł×ķ×¡×¢": 820,
      "Ġ×Ĺ×ĸ×§": 821,
      "Ġ×ľ×©×ŀ×ķ×¢": 822,
      "Ġ×ĳ×¤": 823,
      "Ġ×Ļ×ĳ": 824,
      "Ġ×¤×Ļ×¤×Ļ": 825,
      "Ġ×Ĳ×ł×©×Ļ×Ŀ": 826,
      "Ġ×ł×Ļ×¦×ł": 827,
      "Ġ×ĸ×ķ×Ľ×¨×ª": 828,
      "Ġ×ĳ×¤×ł×Ļ×Ŀ": 829,
      "×Ļ×Ľ×Ķ": 830,
      "Ġ×ŀ×ķ×¦": 831,
      "×Ĳ×ľ×Ķ": 832,
      "Ġ×ł×ĵ": 833,
      "Ġ×¦×ĵ": 834,
      "×Ĳ×Ļ": 835,
      "Ġ×©×Ļ×ŀ×Ļ": 836,
      "Ġ×§×©": 837,
      "Ġ×ŀ×¦×Ĺ": 838,
      "Ġ×ľ×¨": 839,
      "Ġ×ľ×ĺ": 840,
      "Ġ×ľ×ĸ×¨×ķ×§": 841,
      "Ġ×Ľ×ľ": 842,
      "Ġ×ª×ł×Ļ": 843,
      "×ķ×ľ×ĵ×ª": 844,
      "×ĸ×¨×Ķ": 845,
      "Ġ×ŀ×¡×ª×Ľ×ľ": 846,
      "Ġ×ª×Ĳ×Ľ×ľ×Ļ": 847,
      "Ġ×ł×Ĵ×ŀ×¨": 848,
      "Ġ×Ķ×Ļ×ª×Ķ": 849,
      "Ġ×ŀ×¤": 850,
      "×ľ×Ļ×ª": 851,
      "Ġ×ĳ×©×ĳ": 852,
      "Ġ×ł×Ľ×ł×¡": 853,
      "Ġ×ĺ×ķ×¡": 854,
      "Ġ×ľ×Ķ×Ŀ": 855,
      "×Ľ×ľ×ľ": 856,
      "×Ļ×Ľ×ł×¡": 857,
      "Ġ×Ķ×ķ×¤": 858,
      "×ª×Ŀ": 859,
      "Ġ×ŀ×¦×Ļ×Ļ×¨": 860,
      "Ġ×Ļ×ķ×ŀ×Ķ": 861,
      "Ġ×¡×Ĵ×ķ×¨": 862,
      "Ġ×¤×Ļ×ľ": 863,
      "Ġ×¢×ķ×ŀ": 864,
      "Ġ×Ļ×Ĳ": 865,
      "Ġ×¡×ķ×¤": 866,
      "×ķ×§×¨": 867,
      "Ġ×Ĵ×ĳ×ķ×Ķ": 868,
      "Ġ×¦×ľ×Ĺ×ª": 869,
      "Ġ×Ĳ×ķ×ķ×Ļ×¨×ķ×Ł": 870,
      "Ġ×Ĵ×ķ×ľ×Ĵ": 871,
      "Ġ×ľ×Ľ": 872,
      "×¨×ĺ": 873,
      "Ġ×ĳ×Ľ×ľ×ľ": 874,
      "Ġ×Ľ×ķ×ĳ×¢": 875,
      "Ġ×Ĵ×¨": 876,
      "Ġ×©×ľ×Ķ": 877,
      "Ġ×ĸ×ķ×¨": 878,
      "Ġ×Ĳ×¨×Ļ×§": 879,
      "Ġ×ŀ×Ĵ×ĵ×ľ": 880,
      "Ġ×¦×¢×¦×ķ×¢×Ļ×Ŀ": 881,
      "Ġ×ĳ×©×ĳ×Ļ×ľ": 882,
      "Ġ×¢×ĳ": 883,
      "Ġ×ĳ×Ļ×¦×Ķ": 884,
      "Ġ×¨×Ľ×ĳ×ª": 885,
      "Ġ×¡×ª×Ŀ": 886,
      "Ġ×¤×¦×¢": 887,
      "Ġ×ª×¡×¤×¨": 888,
      "×Ļ×¡×Ķ": 889,
      "Ġ×ŀ×Ĺ×ĸ": 890,
      "×ķ×¤×Ķ": 891,
      "Ġ×ŀ×ĵ": 892,
      "Ġ×ĳ×Ķ": 893,
      "Ġ×©×ª×Ļ×Ļ×Ŀ": 894,
      "Ġ×Ĺ×ķ×Ŀ": 895,
      "Ġ×ŀ×¡×ª": 896,
      "Ġ×ŀ×ª×Ļ": 897,
      "Ġ×ł×©×Ļ×§×Ķ": 898,
      "Ġ×ŀ×Ľ×ķ×ł×Ļ×ª": 899,
      "Ġ×ĳ×§×ĳ×ķ×§": 900,
      "Ġ×Ĳ×Ĳ": 901,
      "Ġ×Ĳ×¢": 902,
      "×ĳ×Ķ": 903,
      "Ġ×¢×ĺ": 904,
      "×Ľ×Ļ×Ł": 905,
      "Ġ×Ĳ×ķ×¤×ł×Ļ×Ļ×Ŀ": 906,
      "×Ĺ×Ļ×Ŀ": 907,
      "Ġ×ł×ķ×¨×Ĳ": 908,
      "Ġ×¦×Ļ×¨": 909,
      "Ġ×ŀ×©×§": 910,
      "Ġ×¤×ª×ķ×Ĺ": 911,
      "Ġ×Ĳ×ķ×Ķ×ĳ": 912,
      "Ġ×Ķ×ľ×Ľ×Ķ": 913,
      "Ġ×¢×Ļ×Ł": 914,
      "Ġ×¢×ł×ĳ": 915,
      "Ġ×¤×ķ×ª": 916,
      "×Ļ×¤×ķ×ľ": 917,
      "×Ļ×ľ×ķ": 918,
      "Ġ×ŀ×ľ×¤": 919,
      "Ġ×Ĵ×ķ×Ĵ×Ļ": 920,
      "Ġ×©×¤×Ł": 921,
      "Ġ×ĳ×Ĺ×ĸ×¨×Ķ": 922,
      "Ġ×Ľ×ľ×ķ×Ŀ": 923,
      "×Ĳ×Ķ": 924,
      "×ŀ×ķ×ľ": 925,
      "Ġ×Ĳ×ķ×ĸ": 926,
      "Ġ×ĸ×ŀ×Ł": 927,
      "Ġ×ł×¢×Ļ×Ŀ": 928,
      "Ġ×Ĳ×¨×ĳ×¢": 929,
      "Ġ×ª×ŀ×ķ×ł×ķ×ª": 930,
      "×Ľ×ĳ×ķ×ĵ": 931,
      "Ġ×¢×Ĵ×ľ×Ķ": 932,
      "Ġ×Ļ×ĳ×ķ×Ĳ": 933,
      "×¨×ĵ": 934,
      "Ġ×ĳ×¨×Ļ×": 935,
      "Ġ×ĳ×Ĳ×Ķ": 936,
      "Ġ×Ĳ×§": 937,
      "Ġ×Ĳ×ª×ŀ×ķ×ľ": 938,
      "Ġ×¨×Ĺ": 939,
      "×¤×ª×Ĳ×ķ×Ŀ": 940,
      "Ġ×ŀ×Ľ×¡×Ķ": 941,
      "Ġ×ĳ×¨×Ļ×Ľ×Ķ": 942,
      "Ġ×Ļ×§": 943,
      "×¢×ŀ": 944,
      "×Ļ×ķ×Ļ×ķ": 945,
      "Ġ×ª×©×Ļ×¨×Ļ": 946,
      "Ġ×ŀ×ª×Ĳ×Ļ×Ŀ": 947,
      "Ġ×Ĺ×¨×ķ×ĸ×Ļ×Ŀ": 948,
      "Ġ×ĳ×ł×ł×Ķ": 949,
      "Ġ×Ľ×¤×Ļ×ª": 950,
      "Ġ×ľ×ĵ×ĳ×¨": 951,
      "×Ĵ×Ł": 952,
      "×ķ×©×Ļ": 953,
      "Ġ×§×ķ×¨×Ķ": 954,
      "Ġ×ĸ×¨×§×ª": 955,
      "×ķ×ķ": 956,
      "×Ĳ×¨": 957,
      "×¤×¡": 958,
      "Ġ×§×©×Ķ": 959,
      "×ĺ×Ļ×§": 960,
      "×Ļ×§×Ļ": 961,
      "Ġ×¨×ķ×Ĳ×Ļ×Ŀ": 962,
      "Ġ×Ĳ×ŀ×¨×Ķ": 963,
      "Ġ×ª×¢×©×Ķ": 964,
      "Ġ×Ľ×ª×ķ×ĳ": 965,
      "Ġ×Ĳ×¦": 966,
      "×ĳ×ķ": 967,
      "×ł×ĺ": 968,
      "Ġ×Ĺ×ĳ": 969,
      "Ġ×¤×ľ": 970,
      "Ġ×ľ×ĳ×Ł": 971,
      "Ġ×Ĳ×¨×ķ×Ĺ": 972,
      "Ġ×©×Ĺ×ķ×¨": 973,
      "Ġ×¦×ķ×¨×Ķ": 974,
      "Ġ×Ļ×ķ×ŀ×Ķ×ķ×ľ×ĵ×ª": 975,
      "Ġ×ŀ×©×§×¤×Ļ×Ļ×Ŀ": 976,
      "Ġ×ŀ×ľ×¤×¤×ķ×Ł": 977,
      "Ġ×ľ×Ļ×ľ×Ķ": 978,
      "Ġ×ĳ×ķ": 979,
      "Ġ×Ĵ×Ļ×¨": 980,
      "Ġ×ŀ×©×Ĺ×§×Ļ×Ŀ": 981,
      "Ġ×ª×Ĺ×¤×©": 982,
      "×Ľ×Ł": 983,
      "Ġ×©×ķ×ĳ": 984,
      "Ġ×©×ķ×§": 985,
      "Ġ×ª×Ļ×ĸ×Ķ": 986,
      "×¤×Ļ": 987,
      "Ġ×¡×ķ×Ľ": 988,
      "Ġ×Ĵ×ĳ×Ļ×ł×Ķ": 989,
      "Ġ×ª×¤×ķ×Ĺ": 990,
      "×Ļ×ĸ": 991,
      "Ġ×ľ×ķ×§": 992,
      "Ġ×ľ×Ļ×ĵ": 993,
      "Ġ×¤×¨×Ĺ": 994,
      "Ġ×Ĵ×ľ×Ĵ×ľ": 995,
      "×Ļ×¢×Ķ": 996,
      "Ġ×©×¢×¨×ķ×ª": 997,
      "Ġ×ľ×¢×ĸ×ķ×¨": 998,
      "Ġ×ĳ×¨×ķ×ķ×ĸ": 999,
      "Ġ×Ĳ×¨×Ļ×Ķ": 1000,
      "Ġ×ľ×§×¨×Ĳ": 1001,
      "Ġ×Ĺ×ĵ×©": 1002,
      "Ġ×ľ×Ĵ×¢×ª": 1003,
      "Ġ×ľ×ª×ª": 1004,
      "×ľ×ķ×ª": 1005,
      "Ġ×ª×Ļ×¨": 1006,
      "×§×Ļ×Ŀ": 1007,
      "×ĵ×ľ×Ļ×§": 1008,
      "Ġ×ľ×¤×ł×Ļ": 1009,
      "×Ĺ×Ļ×ľ": 1010,
      "Ġ×ª×ķ×Ľ": 1011,
      "×ĵ×ĳ": 1012,
      "Ġ×ķ×¨×ķ×ĵ": 1013,
      "×ł×Ļ×Ķ": 1014,
      "Ġ×ĺ×Ļ×ĺ": 1015,
      "Ġ×Ĳ×ķ×Ļ×ķ×Ļ×ķ": 1016,
      "Ġ×Ļ×ķ×©×ĳ×ª": 1017,
      "Ġ×©×Ĳ×ķ×ľ×Ļ": 1018,
      "Ġ×ľ×ł": 1019,
      "×ł×Ļ×ª": 1020,
      "×ł×Ļ×§": 1021,
      "Ġ×ĳ×ĵ×Ļ": 1022,
      "Ġ×©×ķ×Ŀ": 1023,
      "Ġ×©×ĳ×Ļ": 1024,
      "×§×©": 1025,
      "Ġ×¨×ķ×Ĺ": 1026,
      "Ġ×Ĵ×Ĵ": 1027,
      "Ġ×¤×¡": 1028,
      "×¢×ª×Ļ": 1029,
      "Ġ×ŀ×§×ķ×ľ": 1030,
      "Ġ×Ĳ×¦×ľ": 1031,
      "×¨×ķ×Ł": 1032,
      "Ġ×¢×ķ×ĳ": 1033,
      "Ġ×ĳ×¨×Ĳ": 1034,
      "Ġ×Ļ×ķ×¨": 1035,
      "×¢×Ķ": 1036,
      "×§×¨": 1037,
      "Ġ×¤×Ĺ": 1038,
      "Ġ×ľ×Ļ×¦×ł×Ļ": 1039,
      "Ġ×ĳ×ĵ×Ļ×ķ×§": 1040,
      "Ġ×Ĳ×ľ×Ķ": 1041,
      "Ġ×§×Ļ×¤×Ļ": 1042,
      "Ġ×©×ľ×ł×ķ": 1043,
      "×ĺ×ľ": 1044,
      "×ĺ×ķ×ĳ": 1045,
      "Ġ×Ĳ×Ĺ×¨×ª": 1046,
      "Ġ×ª×©×Ĳ": 1047,
      "Ġ×©×ŀ×ª": 1048,
      "Ġ×Ĵ×ķ×Ĵ×Ķ": 1049,
      "Ġ×ŀ×Ĳ×Ĺ×ķ×¨": 1050,
      "Ġ×ŀ×ĵ×ĳ×¨×ª": 1051,
      "Ġ×ª×Ļ×¨×¡": 1052,
      "×Ļ×Ļ×ľ": 1053,
      "Ġ×¡×ľ×ķ×Ł": 1054,
      "×ĸ×¨": 1055,
      "Ġ×Ĳ×ķ×Ľ×ľ×Ļ×Ŀ": 1056,
      "Ġ×¤×¨×Ļ×ľ×Ļ": 1057,
      "Ġ×ª×ĳ×ķ×Ĳ": 1058,
      "Ġ×ľ×¨×ĵ×ª": 1059,
      "Ġ×¢×ĳ×ķ×ĵ×Ķ": 1060,
      "Ġ×ľ×Ľ×ľ": 1061,
      "Ġ×Ĺ×ľ×ĳ": 1062,
      "Ġ×ľ×Ķ×¡": 1063,
      "Ġ×ľ×Ķ×ķ×¦×Ļ×Ĳ": 1064,
      "×Ļ×ł×Ļ": 1065,
      "Ġ×ł×©×Ĺ×§": 1066,
      "Ġ×Ľ×ª×ķ×Ŀ": 1067,
      "Ġ×ĳ×¨×Ĳ×ĳ×ķ": 1068,
      "Ġ×Ķ×ŀ": 1069,
      "×Ĳ×Ļ×ª": 1070,
      "Ġ×ĳ×ľ×Ļ": 1071,
      "Ġ×ĳ×ķ×§×¨": 1072,
      "Ġ×¨×¢×©": 1073,
      "Ġ×¢×ľ×Ļ": 1074,
      "×Ĵ×ľ×Ĵ×ľ": 1075,
      "×Ļ×Ĺ×Ķ": 1076,
      "Ġ×¡×ĳ×ķ×Ł": 1077,
      "Ġ×Ĳ×ķ×ŀ×¨×Ļ×Ŀ": 1078,
      "Ġ×Ĵ×ķ×ľ×Ĵ×Ļ": 1079,
      "Ġ×ĺ×Ļ×ĺ×ķ×ľ": 1080,
      "Ġ×Ĳ×ķ×Ļ×ķ×Ļ×ķ×Ļ": 1081,
      "Ġ×Ĳ×©×Ķ": 1082,
      "Ġ×Ķ×Ĺ": 1083,
      "Ġ×ŀ×ķ×¨": 1084,
      "×Ĳ×Ł": 1085,
      "Ġ×Ļ×ķ×¦": 1086,
      "Ġ×ª×Ĵ×ŀ": 1087,
      "Ġ×¡×ŀ": 1088,
      "Ġ×Ĳ×ķ×¨×Ļ": 1089,
      "Ġ×ŀ×Ĺ×¤×©": 1090,
      "Ġ×Ĵ×ķ×Ĵ×ķ": 1091,
      "×Ľ×ķ×ķ×ł×ª": 1092,
      "×Ļ×Ļ": 1093,
      "Ġ×Ĳ×ľ×Ļ": 1094,
      "Ġ×Ķ×¨": 1095,
      "×ĳ×Ļ×Ŀ": 1096,
      "×ĵ×Ķ": 1097,
      "Ġ×¨×ķ×¤": 1098,
      "Ġ×Ĺ×ĳ×¨": 1099,
      "Ġ×§×ķ": 1100,
      "Ġ×ĵ×¨": 1101,
      "Ġ×©×ŀ×©": 1102,
      "Ġ×¡×¤×¨×Ļ×Ŀ": 1103,
      "Ġ×Ķ×ĳ×Ļ×ª×Ķ": 1104,
      "Ġ×Ĺ×¡×¨": 1105,
      "Ġ×Ĳ×Ĵ": 1106,
      "Ġ×ľ×ķ×ĳ": 1107,
      "Ġ×ľ×¦": 1108,
      "Ġ×ĳ×Ļ": 1109,
      "Ġ×©×ķ×Ĳ": 1110,
      "Ġ×Ĵ×©": 1111,
      "Ġ×ĵ×ķ×ĵ": 1112,
      "Ġ×ľ×©×Ļ×¨": 1113,
      "Ġ×ŀ×©×Ĳ×Ļ×ª": 1114,
      "Ġ×ĺ×ķ×¡×Ļ×§": 1115,
      "Ġ×¡×ķ×¤×¨": 1116,
      "Ġ×Ĳ×¦×ĳ×¢": 1117,
      "Ġ×©×Ľ": 1118,
      "Ġ×ł×Ķ": 1119,
      "Ġ×ł×ķ×¤": 1120,
      "×ŀ×ļ": 1121,
      "×¤×ķ": 1122,
      "Ġ×§×ķ×§×Ļ": 1123,
      "Ġ×¡×ķ×Ĵ": 1124,
      "×ķ×ĳ×ķ×¡": 1125,
      "×Ļ×ª×Ł": 1126,
      "Ġ×Ĳ×ķ×ĺ×ķ×ĳ×ķ×¡": 1127,
      "Ġ×ŀ×¦×Ĳ×ª": 1128,
      "Ġ×Ĳ×©×Ļ×Ŀ": 1129,
      "Ġ×ª×ķ×¦×Ļ×Ĳ": 1130,
      "×ķ×¨×Ļ×Ŀ": 1131,
      "Ġ×¡×Ļ×¤": 1132,
      "Ġ×Ĵ×ł": 1133,
      "Ġ×ĺ×Ļ×¤": 1134,
      "Ġ×ł×ķ×¡×¢×ª": 1135,
      "Ġ×Ľ×¨×ķ×ĳ×Ļ": 1136,
      "Ġ×Ĳ×¤×¨": 1137,
      "×ľ×ķ": 1138,
      "Ġ×¨×ķ×¦": 1139,
      "Ġ×Ĵ×ĸ×¨": 1140,
      "Ġ×Ĳ×ĳ×Ļ×Ĳ": 1141,
      "Ġ×ĸ×Ĳ×ĳ": 1142,
      "Ġ×ľ×ĳ×ķ×Ĳ": 1143,
      "Ġ×ŀ×¦×ľ": 1144,
      "Ġ×Ĺ×ª×Ļ×Ľ×Ķ": 1145,
      "Ġ×ł×§×ł×Ļ×§": 1146,
      "Ġ×§×Ļ×ĳ×ľ×ª": 1147,
      "Ġ×ŀ×ķ×Ĵ": 1148,
      "Ġ×ĳ×Ĵ": 1149,
      "Ġ×Ĵ×¨×ĳ": 1150,
      "Ġ×ª×©×ĳ": 1151,
      "Ġ×©×ł×Ļ×Ķ": 1152,
      "Ġ×©×ł×Ļ×Ļ×Ŀ": 1153,
      "×ĸ×Ĳ×ª×Ļ": 1154,
      "Ġ×¡×ł×ĵ×ľ×Ļ×Ŀ": 1155,
      "Ġ×ŀ×¦×Ļ×Ļ×¨×ª": 1156,
      "Ġ×ŀ×ķ×Ĵ×ľ×Ļ": 1157,
      "×Ļ×ķ×Ł": 1158,
      "Ġ×¢×Ļ×ª": 1159,
      "×ŀ×ķ×ĵ": 1160,
      "×ĸ×ķ": 1161,
      "Ġ×ľ×Ķ×Ļ×Ľ×ł×¡": 1162,
      "Ġ×¢×©×ª×Ķ": 1163,
      "×ľ×ĳ×Ļ×©": 1164,
      "Ġ×ŀ×¦×Ĺ×Ļ×§": 1165,
      "Ġ×Ķ×Ļ×Ĵ": 1166,
      "Ġ×©×ķ×ª": 1167,
      "×Ĵ×¨": 1168,
      "Ġ×Ĺ×©": 1169,
      "Ġ×§×ķ×§": 1170,
      "×ķ×Ĳ×¨": 1171,
      "×ĺ×¨": 1172,
      "×ķ×Ľ×ľ": 1173,
      "Ġ×ŀ×Ľ×Ļ×¨×Ķ": 1174,
      "Ġ×¡×Ļ×¤×ķ×¨×Ļ×Ŀ": 1175,
      "Ġ×ĳ×ĺ×ķ×Ĺ": 1176,
      "Ġ×¤×¨×¤×¨": 1177,
      "Ġ×Ĳ×Ļ×ª×Ļ": 1178,
      "Ġ×ª×Ļ×ĸ×Ķ×¨×Ļ": 1179,
      "×ķ×Ļ": 1180,
      "Ġ×ª×ł×¡": 1181,
      "×ķ×ľ×ĵ": 1182,
      "×ĺ×ª": 1183,
      "Ġ×ª×©×Ĺ×§": 1184,
      "Ġ×Ĳ×¨×ķ×Ł": 1185,
      "Ġ×ĳ×ĺ×Ĺ": 1186,
      "Ġ×ĳ×§×©×Ķ": 1187,
      "Ġ×ł×ŀ×¦×Ĳ": 1188,
      "Ġ×ľ×ĺ×Ļ×Ļ×ľ": 1189,
      "Ġ×Ĵ×©×Ŀ": 1190,
      "Ġ×¡×¤×Ķ": 1191,
      "Ġ×¡×¨×ĺ": 1192,
      "Ġ×¢×©×Ļ×ł×ķ": 1193,
      "Ġ×¨×¦×Ļ×ª": 1194,
      "Ġ×ŀ×¢×ł": 1195,
      "Ġ×§×ķ×ĳ×Ļ×Ķ": 1196,
      "Ġ×ŀ×¡×¤×¨×ª": 1197,
      "Ġ×ł×ĵ×ł×ĵ": 1198,
      "Ġ×ľ×Ľ×ľ×ķ×ļ": 1199,
      "×ķ×ķ×¨": 1200,
      "Ġ×Ĳ×Ļ×Ķ": 1201,
      "Ġ×ľ×ľ": 1202,
      "Ġ×©×Ļ×Ĺ": 1203,
      "Ġ×Ļ×¦×Ĳ": 1204,
      "Ġ×ª×¤×ª×Ĺ": 1205,
      "Ġ×Ĺ×Ļ×Ļ×Ŀ": 1206,
      "Ġ×¡×¨×Ķ": 1207,
      "Ġ×ĵ×ķ×ĳ": 1208,
      "Ġ×ª×©×ĳ×Ļ": 1209,
      "Ġ×ł×©×ĳ×¨": 1210,
      "Ġ×ł×ª×Ł": 1211,
      "Ġ×¢×¦×ķ×ĳ": 1212,
      "Ġ×ł×Ļ×¦×ł×ķ×©": 1213,
      "Ġ×ŀ×§×ķ×ľ×§×ľ": 1214,
      "Ġ×Ķ×ŀ×ķ×Ł": 1215,
      "Ġ×ª×ĸ": 1216,
      "Ġ×¦×ķ": 1217,
      "Ġ×¤×¨×Ķ": 1218,
      "Ġ×Ĳ×ķ×ł": 1219,
      "×Ļ×§×Ĺ": 1220,
      "×¨×Ļ×ŀ": 1221,
      "Ġ×ŀ×ª×Ĺ": 1222,
      "Ġ×Ĺ×ķ×©×ļ": 1223,
      "Ġ×ĳ×ľ×Ĵ×Ł": 1224,
      "Ġ×Ĳ×¨×ķ×Ĺ×ª": 1225,
      "Ġ×¢×ł": 1226,
      "×Ľ×ķ×ª": 1227,
      "Ġ×Ļ×¡": 1228,
      "Ġ×Ľ×ķ×¢": 1229,
      "Ġ×¨×Ļ×ĳ": 1230,
      "×¤×Ĺ": 1231,
      "×§×Ķ": 1232,
      "×ĸ×ľ": 1233,
      "Ġ×ĺ×ķ×§": 1234,
      "×ķ×ł×Ļ": 1235,
      "Ġ×ŀ×ª×Ľ×ķ×ķ×ł×ª": 1236,
      "Ġ×Ĳ×¡×¤×¨": 1237,
      "Ġ×¤×ª×Ĺ×ª": 1238,
      "Ġ×Ľ×¨×Ļ×ª": 1239,
      "Ġ×ŀ×ŀ×©": 1240,
      "Ġ×¢×ķ×ŀ×ĵ": 1241,
      "Ġ×Ĳ×Ĳ×Ĺ×ĵ": 1242,
      "Ġ×Ĳ×Ľ": 1243,
      "Ġ×Ķ×¤×ķ×ļ": 1244,
      "Ġ×ŀ×ĳ×Ļ×Ĳ": 1245,
      "Ġ×ł×¤×ª×Ĺ": 1246,
      "Ġ×§×ķ×ľ": 1247,
      "×¨×Ļ×ķ×ª": 1248,
      "Ġ×Ĳ×ķ×¨×ĸ": 1249,
      "×Ļ×ĳ×Ļ": 1250,
      "Ġ×©×ŀ×¢×ª×Ļ": 1251,
      "Ġ×ŀ×¦×ĳ": 1252,
      "Ġ×ŀ×Ľ×ķ×ł×Ļ×ķ×ª": 1253,
      "Ġ×¢×ĵ×ł×Ķ": 1254,
      "Ġ×¡×Ĵ×¨×ª": 1255,
      "Ġ×ľ×Ķ×¡×ª×Ľ×ľ": 1256,
      "×ķ×¦×Ķ": 1257,
      "Ġ×ŀ×Ļ×ŀ": 1258,
      "Ġ×¢×Ļ×¤": 1259,
      "Ġ×©×ķ×Ľ": 1260,
      "Ġ×ł×ķ×ŀ×Ļ": 1261,
      "Ġ×Ĺ×¦×Ļ": 1262,
      "Ġ×ª×¡×Ĵ×ķ×¨": 1263,
      "Ġ×ŀ×Ĵ×ĳ×ª": 1264,
      "Ġ×ª×¢×ĸ": 1265,
      "Ġ×Ķ×ĳ×Ĳ×ª": 1266,
      "Ġ×¢×Ĵ×ĳ": 1267,
      "×ł×Ĵ×ĳ": 1268,
      "Ġ×¡×Ĵ×ķ×ľ": 1269,
      "Ġ×ŀ×Ĺ×ĸ×Ļ×§×Ķ": 1270,
      "Ġ×¦×Ļ×¨×ª": 1271,
      "Ġ×ŀ×Ĳ×Ĺ×ķ×¨×Ļ": 1272,
      "Ġ×Ļ×ķ×¦×Ĳ": 1273,
      "Ġ×ª×Ĵ×ŀ×¨×Ļ": 1274,
      "Ġ×¢×Ļ×ª×ķ×Ł": 1275,
      "Ġ×ŀ×¢×ł×Ļ×Ł": 1276,
      "Ġ×¢×Ļ×¤×¨×ķ×Ł": 1277,
      "Ġ×ŀ×¨×Ĳ×Ķ": 1278,
      "×ľ×Ļ×ĺ": 1279,
      "Ġ×ĳ×Ĵ×ľ": 1280,
      "Ġ×©×ª×Ļ": 1281,
      "Ġ×©×ķ×ĳ×ĳ": 1282,
      "Ġ×ª×ķ×ļ": 1283,
      "×ķ×Ĳ×ª": 1284,
      "Ġ×¦×¨×Ļ×Ľ": 1285,
      "Ġ×ª×Ķ×Ļ×Ķ": 1286,
      "×ŀ×ĵ×¨×Ļ": 1287,
      "Ġ×¤×ľ×¡": 1288,
      "Ġ×¨×ķ×¦×Ļ×Ŀ": 1289,
      "Ġ×ª×ł×¡×Ļ": 1290,
      "Ġ×ĳ×Ĵ×ľ×ľ": 1291,
      "Ġ×ľ×¡×ĵ×¨": 1292,
      "Ġ×ŀ×¨×Ļ×Ŀ": 1293,
      "Ġ×ĳ×ķ×ĳ": 1294,
      "Ġ×ĳ×Ļ×ł": 1295,
      "Ġ×Ļ×Ŀ": 1296,
      "Ġ×Ĺ×ł×ķ×ª": 1297,
      "Ġ×§×Ļ×¨": 1298,
      "Ġ×¡×¤": 1299,
      "Ġ×¡×ŀ×ĵ×¨×Ļ": 1300,
      "Ġ×¢×ľ×Ļ×ķ": 1301,
      "Ġ×ĺ×ķ×ĳ×Ķ": 1302,
      "Ġ×ŀ×§×¨": 1303,
      "Ġ×ĺ×Ļ×ķ×ľ": 1304,
      "Ġ×ŀ×§×ľ×Ļ×ĺ": 1305,
      "Ġ×ª×ª×ł×Ļ": 1306,
      "Ġ×¦×ķ×ķ×Ĳ×¨": 1307,
      "Ġ×ľ×ł×¡": 1308,
      "Ġ×ŀ×Ļ×Ł": 1309,
      "Ġ×ŀ×Ļ×ľ×Ķ": 1310,
      "Ġ×ĳ×ĵ": 1311,
      "Ġ×ł×Ĳ": 1312,
      "Ġ×ª×ĳ×§": 1313,
      "Ġ×ŀ×¡×ĺ×Ļ×§": 1314,
      "Ġ×ª×Ĺ×ĸ": 1315,
      "Ġ×ł×ķ×¡×¢×Ļ×Ŀ": 1316,
      "Ġ×ł×¡×Ĵ×ķ×¨": 1317,
      "Ġ×ł×ª×ª": 1318,
      "×¦×Ĳ×Ļ": 1319,
      "Ġ×ĳ×ľ×ķ×ł×Ļ×Ŀ": 1320,
      "Ġ×¨×¢×Ļ×ķ×Ł": 1321,
      "Ġ×ł×ķ×ª×Ł": 1322,
      "¦×Ļ×§": 1323,
      "Ġ×Ķ×Ľ": 1324,
      "Ġ×ŀ×ķ×¨×Ļ×ĵ": 1325,
      "Ġ×ĳ×ķ×Ŀ": 1326,
      "Ġ×ª×ķ×¨×Ļ×ĵ": 1327,
      "×ŀ×Ļ": 1328,
      "Ġ×Ĳ×Ļ×¦×Ļ×§": 1329,
      "Ġ×Ĵ×Ĳ": 1330,
      "Ġ×ĺ×¢": 1331,
      "Ġ×ĵ×ķ": 1332,
      "Ġ×¤×ĺ": 1333,
      "Ġ×ľ×Ķ×©": 1334,
      "Ġ×ŀ×©×ķ×ľ": 1335,
      "Ġ×ŀ×©×Ĺ×Ķ": 1336,
      "Ġ×ľ×ĳ×§×¨": 1337,
      "Ġ×Ĳ×ľ×ķ": 1338,
      "Ġ×Ĺ×ĸ×¨×Ķ": 1339,
      "Ġ×Ĺ×ľ×§": 1340,
      "Ġ×ł×ķ×ª×ł×ª": 1341,
      "Ġ×Ĳ×¢×©×Ķ": 1342,
      "Ġ×¨×Ĺ×ķ×§": 1343,
      "Ġ×¨×ķ×¤×Ĳ": 1344,
      "Ġ×©×ķ×ª×Ķ": 1345,
      "Ġ×¦×¨×Ļ×Ľ×Ļ×Ŀ": 1346,
      "Ġ×Ķ×ľ×Ľ×ª": 1347,
      "Ġ×ŀ×ķ×©": 1348,
      "Ġ×Ĳ×ª×Ŀ": 1349,
      "×ĳ×Ĳ": 1350,
      "Ġ×¢×ķ×ľ×Ķ": 1351,
      "Ġ×©×¨×Ķ": 1352,
      "Ġ×Ľ×¡": 1353,
      "Ġ×¡×ķ": 1354,
      "Ġ×ĵ×ĳ": 1355,
      "Ġ×¤×ĸ×ľ": 1356,
      "Ġ×ľ×§×ķ×Ŀ": 1357,
      "Ġ×Ĵ×ľ×Ļ×ľ": 1358,
      "Ġ×ŀ×Ĳ×ķ×ķ×¨": 1359,
      "Ġ×ª×¨×ł×Ĵ": 1360,
      "Ġ×¤×ķ×ª×Ĺ×Ļ×Ŀ": 1361,
      "Ġ×Ĳ×ķ×ĸ×Ł": 1362,
      "Ġ×ª×Ĺ×¤×©×Ļ": 1363,
      "Ġ×ĵ×¨×ļ": 1364,
      "Ġ×ª×ķ×¦×Ļ×Ĳ×Ļ": 1365,
      "Ġ×ŀ×Ĳ×ķ×ķ×¨×¨": 1366,
      "Ġ×ª×¨×ł×Ĵ×ķ×ľ": 1367,
      "Ġ×ŀ×ĵ×¨": 1368,
      "Ġ×ŀ×¨×§": 1369,
      "Ġ×©×Ļ×Ŀ": 1370,
      "Ġ×ª×Ĺ×ª": 1371,
      "×ĵ×ķ": 1372,
      "Ġ×§×¦": 1373,
      "Ġ×§×¨×Ĳ": 1374,
      "Ġ×¤×ł×Ļ×Ŀ": 1375,
      "Ġ×Ķ×Ļ×Ļ×ł×ķ": 1376,
      "Ġ×§×ĺ×ł×Ļ×Ŀ": 1377,
      "×Ĵ×ŀ×ķ×¨": 1378,
      "Ġ×ŀ×ł×Ĵ": 1379,
      "Ġ×Ļ×¢×©×Ķ": 1380,
      "Ġ×ª×Ļ×§×Ĺ": 1381,
      "Ġ×§×Ļ×ĳ×ľ": 1382,
      "Ġ×ł×ķ×¤×ľ": 1383,
      "Ġ×Ķ×Ļ×ķ": 1384,
      "Ġ×Ľ×ļ": 1385,
      "Ġ×ľ×Ĳ×ĺ": 1386,
      "×ŀ×Ļ×ł×Ļ": 1387,
      "Ġ×Ĺ×Ļ×ª": 1388,
      "×ĺ×ķ×¨": 1389,
      "Ġ×©×ŀ×ª×Ļ": 1390,
      "Ġ×Ĳ×¨×ł×ĳ": 1391,
      "Ġ×Ľ×ĵ×Ļ": 1392,
      "Ġ×Ķ×ª×Ĺ": 1393,
      "Ġ×Ĺ×ķ×ľ×Ķ": 1394,
      "Ġ×Ķ×ĳ×ł×ª": 1395,
      "Ġ×§×ľ×ĺ×ª": 1396,
      "Ġ×ĵ×Ĵ×Ļ×Ŀ": 1397,
      "Ġ×¡×Ļ×¤×¨×ª": 1398,
      "Ġ×Ķ×Ļ×¤": 1399,
      "Ġ×ŀ×ķ×Ľ": 1400,
      "Ġ×ĳ×¢×¦": 1401,
      "Ġ×©×ĳ×¢": 1402,
      "Ġ×Ľ×ķ×ª": 1403,
      "Ġ×Ľ×¤×ª": 1404,
      "Ġ×ª×ĵ×ĳ": 1405,
      "×¢×ł×ķ": 1406,
      "Ġ×Ĺ×Ļ×Ķ": 1407,
      "Ġ×¡×¤×¨×Ļ": 1408,
      "Ġ×¤×©": 1409,
      "×Ļ×ŀ×ķ×©": 1410,
      "Ġ×ł×©×Ļ×¨": 1411,
      "×ľ×ĳ×©": 1412,
      "Ġ×Ĵ×ŀ×¨": 1413,
      "Ġ×¡×ł×ĵ×ľ": 1414,
      "Ġ×©×ķ×§×ķ×ľ×ĵ": 1415,
      "Ġ×¢×Ĵ×ĳ×ł×Ļ×Ķ": 1416,
      "Ġ×Ĺ×Ļ×ª×ķ×ľ": 1417,
      "Ġ×ľ×ĵ": 1418,
      "×©×Ļ×ŀ×ķ×©": 1419,
      "×Ĵ×Ļ×¢": 1420,
      "×§×Ł": 1421,
      "Ġ×Ļ×©×Ļ×Ŀ": 1422,
      "Ġ×¦×ķ×ĵ": 1423,
      "Ġ×ĵ×ķ×ŀ×Ķ": 1424,
      "×Ļ×ĳ×ķ×ĵ": 1425,
      "Ġ×ŀ×Ľ×ł×Ļ×¡": 1426,
      "×ł×¡×Ķ": 1427,
      "Ġ×ł×¤×ľ×ª": 1428,
      "Ġ×Ĳ×ĵ×ķ×ŀ×Ķ": 1429,
      "Ġ×ł×§×¨×Ĳ": 1430,
      "×Ľ×ĳ×Ķ": 1431,
      "Ġ×Ĳ×ķ×ĸ×ł×Ļ×Ļ×Ŀ": 1432,
      "Ġ×ľ×ķ×§×Ĺ×ª": 1433,
      "Ġ×Ĵ×ľ×Ĵ×ľ×Ļ×Ŀ": 1434,
      "×¨×Ļ×ŀ×Ļ": 1435,
      "Ġ×ľ×ł×¡×ķ×¢": 1436,
      "Ġ×Ķ×©": 1437,
      "Ġ×Ķ×ķ×¤×Ķ": 1438,
      "Ġ×ŀ×Ļ×Ľ": 1439,
      "Ġ×ł×Ļ×§×Ĺ": 1440,
      "×Ĵ×ĸ": 1441,
      "Ġ×¤×Ļ×ł×ķ×§": 1442,
      "Ġ×ŀ×¡×¨×§": 1443,
      "Ġ×Ĳ×Ļ×ª×ķ": 1444,
      "Ġ×Ļ×ķ×©×ĳ×Ļ×Ŀ": 1445,
      "Ġ×ĳ×§×ĳ×ķ×§×Ļ": 1446,
      "Ġ×ª×ľ×Ľ×Ļ": 1447,
      "Ġ×¤×¨×Ĺ×Ļ×Ŀ": 1448,
      "Ġ×¨×Ļ×ĳ×ķ×¢": 1449,
      "Ġ×©×ķ×©×Ļ": 1450,
      "Ġ×ł×¤×ª": 1451,
      "Ġ×Ļ×ķ": 1452,
      "Ġ×Ļ×¨": 1453,
      "Ġ×Ļ×ĳ×Ļ×Ĳ": 1454,
      "Ġ×¨×ĺ×ķ×ĳ": 1455,
      "×ŀ×¨": 1456,
      "×¤×ľ": 1457,
      "Ġ×§×Ļ×¤": 1458,
      "Ġ×ĵ×ł×Ļ": 1459,
      "Ġ×ľ×Ķ×¨×Ĳ×ķ×ª": 1460,
      "×Ľ×ľ×ª": 1461,
      "×ł×ĵ×ł×ĵ": 1462,
      "Ġ×ŀ×©×Ĺ×§×ª": 1463,
      "Ġ×ł×§×ł×§": 1464,
      "Ġ×ª×¨×ķ×¤×Ķ": 1465,
      "Ġ×ª×Ļ×ł×ķ×§×ª": 1466,
      "Ġ×¡×ľ×ĺ": 1467,
      "Ġ×ĳ×Ĺ×ķ": 1468,
      "Ġ×ª×ł×Ļ×Ł": 1469,
      "Ġ×ĳ×ĺ×ķ×Ĺ×Ķ": 1470,
      "Ġ×©×Ļ×Ĺ×§×ª": 1471,
      "Ġ×Ľ×ķ×¢×¡×ª": 1472,
      "Ġ×ł×¤×ª×ľ×Ļ": 1473,
      "×ª×Ĺ": 1474,
      "×Ĳ×ķ": 1475,
      "×ĳ×Ļ×¨×Ļ": 1476,
      "Ġ×¢×ķ×ĸ": 1477,
      "Ġ×Ļ×Ĺ": 1478,
      "Ġ×Ļ×Ļ×¤×ķ×ľ": 1479,
      "Ġ×Ľ×ĸ×Ĳ×ª": 1480,
      "Ġ×ª×ķ×ª": 1481,
      "Ġ×¨×¦×Ķ": 1482,
      "×¢×¡": 1483,
      "×ķ×ľ×Ŀ": 1484,
      "Ġ×Ĺ×ķ×¤": 1485,
      "Ġ×Ļ×©×ĳ": 1486,
      "Ġ×¦×ķ×¢": 1487,
      "×Ļ×¨×Ļ×Ŀ": 1488,
      "Ġ×ĵ×Ļ×¡×Ķ": 1489,
      "Ġ×ĸ×¨": 1490,
      "Ġ×ĸ×ł×ĳ": 1491,
      "×ķ×Ľ×ķ": 1492,
      "Ġ×ŀ×©×ª": 1493,
      "×Ľ×ª×ķ×ĳ": 1494,
      "Ġ×ª×ŀ×©": 1495,
      "Ġ×ŀ×Ĵ×¨×ĵ": 1496,
      "×ķ×ĺ×ķ": 1497,
      "Ġ×¢×ķ×Ĵ×Ļ×Ķ": 1498,
      "Ġ×ª×¤×¡": 1499,
      "Ġ×§×ľ×Ļ×¤×Ķ": 1500,
      "Ġ×ŀ×§×ľ×Ĺ×ª": 1501,
      "Ġ×¦×Ļ×¤×ķ×¨×ª": 1502,
      "Ġ×Ĳ×¤×Ļ×ľ×ķ": 1503,
      "Ġ×¢×ł×ĳ×Ļ×Ŀ": 1504,
      "Ġ×ª×©×Ĺ×§×Ļ": 1505,
      "Ġ×Ķ×¨×Ĳ": 1506,
      "×ĳ×ķ×¨": 1507,
      "Ġ×¢×ĸ": 1508,
      "Ġ×ĳ×Ļ×§": 1509,
      "Ġ×ª×Ļ": 1510,
      "Ġ×ª×Ľ×ľ×ª": 1511,
      "×¢×Ļ": 1512,
      "×ķ×¨×Ļ×Ļ×Ŀ": 1513,
      "×ķ×ľ×Ļ×Ŀ": 1514,
      "Ġ×¨×ķ×§": 1515,
      "Ġ×¡×ĵ×¨": 1516,
      "Ġ×Ĵ×¨×Ķ": 1517,
      "Ġ×©×ľ×ķ×ŀ": 1518,
      "Ġ×¦×ķ×¨": 1519,
      "Ġ×Ĳ×ĳ×Ļ×ĺ": 1520,
      "Ġ×ĵ×ľ×Ļ": 1521,
      "Ġ×¤×ķ": 1522,
      "Ġ×¤×ķ×ŀ": 1523,
      "Ġ×ľ×Ķ×ĵ×ľ×Ļ×§": 1524,
      "Ġ×Ľ×Ĳ×ľ×Ķ": 1525,
      "Ġ×¢×©×Ļ×ª×Ļ": 1526,
      "Ġ×ª×ŀ×¦×Ĳ×Ļ": 1527,
      "Ġ×ĸ×Ĳ×ª×Ļ": 1528,
      "Ġ×¤×ª×Ĳ×ķ×Ŀ": 1529,
      "Ġ×©×ķ×ŀ×¢": 1530,
      "Ġ×Ĺ×ĸ×Ļ×¨": 1531,
      "×ķ×Ķ×ķ×¨×Ļ×Ļ×Ŀ": 1532,
      "Ġ×§×ľ×¤×Ļ×Ŀ": 1533,
      "Ġ×ł×Ĺ×ŀ×ĵ": 1534,
      "Ġ×ľ×Ļ×¦×Ł": 1535,
      "Ġ×Ķ×ĳ×Ļ×Ĳ×Ķ": 1536,
      "Ġ×ŀ×Ĺ×ĸ×Ļ×§": 1537,
      "Ġ×Ļ×ķ×¨×ĵ": 1538,
      "Ġ×ª×©×Ĳ×ľ×Ļ": 1539,
      "Ġ×ľ×¦×Ĳ×ª": 1540,
      "Ġ×¡×ķ×Ĵ×¨": 1541,
      "Ġ×Ĳ×¤×¨×ķ×Ĺ": 1542,
      "Ġ×§×Ļ×¤×ķ×ĵ": 1543,
      "×Ķ×Ĳ": 1544,
      "Ġ×Ķ×¦": 1545,
      "Ġ×Ķ×¦×ľ": 1546,
      "Ġ×ľ×ł×Ĵ×ĳ": 1547,
      "Ġ×ľ×ķ×ĺ×ķ": 1548,
      "Ġ×ŀ×¤×¨": 1549,
      "Ġ×ŀ×ľ×ļ": 1550,
      "×Ĺ×ķ×ª": 1551,
      "Ġ×Ľ×Ļ×¤×Ķ": 1552,
      "×¢×ĺ": 1553,
      "×¤×¦": 1554,
      "Ġ×Ĳ×ĳ×ķ×§": 1555,
      "Ġ×Ĳ×ķ×§": 1556,
      "Ġ×ŀ×ª×ķ×§": 1557,
      "×ľ×ĳ×ķ×©": 1558,
      "Ġ×¨×Ĳ×Ļ×ł×ķ": 1559,
      "Ġ×Ĺ×ŀ×©": 1560,
      "Ġ×Ļ×Ķ×Ļ×ķ": 1561,
      "Ġ×ĳ×Ļ×ª×©×Ļ×ŀ×ķ×©": 1562,
      "Ġ×ª×§×Ĺ×Ļ": 1563,
      "Ġ×ŀ×ľ×ķ×Ľ": 1564,
      "Ġ×ŀ×ĺ×¤": 1565,
      "Ġ×©×Ļ×¨×Ļ×Ŀ": 1566,
      "Ġ×¤×¨×¦": 1567,
      "Ġ×Ľ×¨×ķ×ĳ": 1568,
      "Ġ×¦×Ķ×ķ×ĳ×Ķ": 1569,
      "Ġ×ª×Ķ×Ļ×Ļ": 1570,
      "Ġ×¢×Ļ×Ĵ×ķ×ľ×Ļ×Ŀ": 1571,
      "Ġ×ĳ×Ķ×Ļ×¨": 1572,
      "Ġ×Ĳ×¢×ĸ×ķ×¨": 1573,
      "Ġ×ª×ķ×Ľ×Ļ": 1574,
      "Ġ×Ĳ×ĳ×ķ×§×ĵ×ķ": 1575,
      "Ġ×Ķ×Ķ": 1576,
      "Ġ×ľ×Ļ×¨×ķ×ª": 1577,
      "Ġ×ĳ×ŀ": 1578,
      "Ġ×ĳ×ķ×¨": 1579,
      "Ġ×ĸ×Ķ×Ļ×¨×ķ×ª": 1580,
      "×ŀ×Ļ×Ŀ": 1581,
      "×Ĵ×¨×Ļ": 1582,
      "×§×ķ×Ŀ": 1583,
      "×§×¦×ª": 1584,
      "Ġ×§×ĳ": 1585,
      "Ġ×Ĵ×ķ": 1586,
      "Ġ×¦×ĳ": 1587,
      "Ġ×¦×ķ×Ĺ": 1588,
      "Ġ×¤×Ĳ": 1589,
      "Ġ×¤×ł×¡": 1590,
      "×ķ×§×Ĳ": 1591,
      "×Ļ×ł×Ļ×Ŀ": 1592,
      "×ķ×ł×Ļ×ª": 1593,
      "Ġ×ª×¡×ĳ×Ļ×¨×Ļ": 1594,
      "Ġ×ŀ×¡×Ľ": 1595,
      "×ķ×¢×ľ": 1596,
      "Ġ×ł×©×Ĳ": 1597,
      "Ġ×Ĳ×¨×ķ×Ľ×Ķ": 1598,
      "Ġ×Ĳ×Ĺ×¨×Ļ×Ŀ": 1599,
      "Ġ×ľ×§×¤×ķ": 1600,
      "Ġ×¨×Ĳ×©×ķ×Ł": 1601,
      "Ġ×ŀ×ľ×Ĳ": 1602,
      "Ġ×ĳ×¨×Ļ×Ĳ": 1603,
      "Ġ×Ĳ×ŀ×¨×ª×Ļ": 1604,
      "Ġ×ł×Ĺ×¤×©": 1605,
      "Ġ×ª×Ľ×ł×Ļ×¡": 1606,
      "Ġ×¡×ķ×Ľ×¨": 1607,
      "Ġ×¡×ķ×Ľ×¨×Ļ×Ķ": 1608,
      "Ġ×©×Ľ×Ĺ×ª": 1609,
      "Ġ×ł×Ķ×ĵ×¨": 1610,
      "Ġ×ŀ×©×ķ×ľ×©": 1611,
      "Ġ×ª×Ĺ×ª×ķ×ł×Ļ×Ŀ": 1612,
      "Ġ×Ķ×ĳ×ł×ª×Ļ": 1613,
      "Ġ×¤×©×ķ×ĺ": 1614,
      "Ġ×Ĳ×ľ×ĳ": 1615,
      "Ġ×ľ×ķ×§×Ļ": 1616,
      "Ġ×ľ×ľ×ĳ×ķ×©": 1617,
      "×ĳ×ľ": 1618,
      "Ġ×¢×ŀ": 1619,
      "Ġ×ĳ×©": 1620,
      "Ġ×ĳ×¢": 1621,
      "Ġ×ł×¦×Ļ×Ļ×¨": 1622,
      "Ġ×Ľ×ł": 1623,
      "Ġ×Ĺ×Ľ×Ļ": 1624,
      "Ġ×ł×Ľ×ĳ×Ķ": 1625,
      "Ġ×ľ×Ķ×¨×Ļ×Ŀ": 1626,
      "Ġ×ŀ×§×©": 1627,
      "Ġ×Ĳ×Ĺ×¨×ķ×Ł": 1628,
      "Ġ×Ĺ×ŀ×ķ×¨": 1629,
      "Ġ×¢×©×Ļ×ª×Ŀ": 1630,
      "Ġ×ľ×§×ł×ķ×ª": 1631,
      "×ł×ª×¨": 1632,
      "Ġ×ł×¡×ª×Ľ×ľ": 1633,
      "×§×ľ×Ļ×ĺ": 1634,
      "Ġ×Ĳ×¤×ķ×¨": 1635,
      "Ġ×Ľ×ĳ×ĵ": 1636,
      "Ġ×ŀ×¡×ª×Ľ×ľ×ª": 1637,
      "Ġ×Ķ×Ĺ×ķ×¦×Ķ": 1638,
      "Ġ×ĳ×Ĵ×ĵ×Ļ×Ŀ": 1639,
      "Ġ×ł×ĵ×ł×ĵ×Ķ": 1640,
      "Ġ×ŀ×¦×ĳ×Ļ×¢×Ķ": 1641,
      "Ġ×ĵ×ķ×ķ×§×Ĳ": 1642,
      "Ġ×Ĳ×ľ×ĳ×ķ×Ŀ": 1643,
      "Ġ×Ķ×¡": 1644,
      "Ġ×Ķ×¤×ª": 1645,
      "Ġ×ĳ×¨×Ĺ": 1646,
      "×Ĺ×ľ": 1647,
      "Ġ×ł×ĳ": 1648,
      "Ġ×Ļ×¨×§": 1649,
      "Ġ×Ļ×Ĺ×ĵ": 1650,
      "Ġ×Ľ×ķ×¨": 1651,
      "Ġ×ª×ĺ": 1652,
      "×Ĵ×ķ×ª": 1653,
      "Ġ×Ĺ×Ļ×ķ×ª": 1654,
      "Ġ×Ĵ×Ļ×ĳ": 1655,
      "Ġ×Ĳ×ĳ×Ł": 1656,
      "×Ļ×ĵ×Ļ": 1657,
      "Ġ×ľ×©×¤×ķ×ļ": 1658,
      "×Ļ×ľ×Ļ×Ŀ": 1659,
      "Ġ×ĸ×Ľ": 1660,
      "Ġ×Ĳ×¨×ķ×ļ": 1661,
      "×¨×§×Ļ": 1662,
      "Ġ×ŀ×Ĺ×Ľ×Ķ": 1663,
      "×¤×¨×Ļ×Ļ×Ŀ": 1664,
      "×ł×ª×Ķ": 1665,
      "Ġ×ŀ×Ĵ×Ļ×¨×Ķ": 1666,
      "Ġ×ŀ×ľ×Ĺ": 1667,
      "Ġ×ª×Ĳ×¡": 1668,
      "Ġ×Ľ×ª×¤×Ļ×Ļ×Ŀ": 1669,
      "Ġ×Ķ×Ĳ×ľ×ķ": 1670,
      "Ġ×Ĺ×ª×ķ×ľ×Ķ": 1671,
      "Ġ×ł×¨×ķ×ª": 1672,
      "Ġ×¢×¦×ŀ×ļ": 1673,
      "Ġ×¦×Ļ×¤×ķ×¨×Ļ×Ŀ": 1674,
      "Ġ×¢×ľ×Ļ×Ļ×ļ": 1675,
      "Ġ×§×ķ×§×ķ": 1676,
      "Ġ×ŀ×ĳ×Ļ×Ĳ×Ķ": 1677,
      "Ġ×ŀ×Ļ×Ľ×ľ": 1678,
      "Ġ×Ĳ×ĳ×Ļ×ĺ×ľ": 1679,
      "Ġ×Ľ×ķ×¨×¡×Ķ": 1680,
      "Ġ×Ķ×¤": 1681,
      "Ġ×ľ×Ļ×ŀ": 1682,
      "Ġ×ŀ×ķ×¦×Ļ×Ĳ": 1683,
      "×Ĳ×ĵ": 1684,
      "×©×¢×©": 1685,
      "×ł×ķ×¨×Ĳ": 1686,
      "Ġ×©×ķ×¨×Ķ": 1687,
      "Ġ×©×©×Ļ": 1688,
      "×Ĺ×ķ": 1689,
      "×¢×¨×ĳ": 1690,
      "×ĵ×¨×ª": 1691,
      "×Ĵ×Ķ": 1692,
      "×ķ×¨×Ļ": 1693,
      "Ġ×§×¤": 1694,
      "Ġ×§×ł×ª×Ķ": 1695,
      "Ġ×¡×ĵ": 1696,
      "Ġ×¦×ł": 1697,
      "Ġ×ľ×Ķ×¡×ª": 1698,
      "×¤×¨×ĵ": 1699,
      "Ġ×©×ŀ×ķ×ł×Ķ": 1700,
      "Ġ×©×ŀ×Ļ×Ľ×Ķ": 1701,
      "Ġ×ł×©×Ĳ×¨": 1702,
      "Ġ×ľ×¡×ķ×ĳ×ĳ": 1703,
      "×Ļ×Ĵ×Ļ": 1704,
      "Ġ×ª×§×ľ×Ļ×ĺ": 1705,
      "Ġ×Ľ×Ĺ×ķ×ľ×Ķ": 1706,
      "Ġ×Ĺ×ŀ×ķ×ĵ×Ļ": 1707,
      "Ġ×ŀ×¤×Ĺ": 1708,
      "Ġ×ĸ×ķ×¨×§×ª": 1709,
      "Ġ×Ĵ×Ļ×¨×¤×Ķ": 1710,
      "Ġ×ľ×ķ×ĳ×©×ª": 1711,
      "Ġ×©×ķ×Ĳ×ľ": 1712,
      "Ġ×Ĵ×ł×©×¢×©": 1713,
      "Ġ×ĳ×Ļ×ł×ª×Ļ×Ļ×Ŀ": 1714,
      "Ġ×Ľ×¤×ª×ķ×¨": 1715,
      "Ġ×¤×ķ×ŀ×ľ×Ļ×ª": 1716,
      "Ġ×Ĵ×ł×©×¢×©×ķ×¢×Ļ×Ŀ": 1717,
      "Ġ×Ĳ×¤×ª×Ĺ": 1718,
      "Ġ×Ķ×Ł": 1719,
      "Ġ×ŀ×¨×ĳ": 1720,
      "Ġ×ŀ×ł×¡×Ķ": 1721,
      "×©×ľ": 1722,
      "Ġ×¢×Ļ": 1723,
      "×ł×ķ×¢": 1724,
      "Ġ×©×ĳ×ª": 1725,
      "Ġ×ł×ķ×Ŀ": 1726,
      "Ġ×ł×ĳ×Ļ×Ĳ": 1727,
      "Ġ×ł×Ļ×¡×Ķ": 1728,
      "Ġ×Ļ×¨×Ĺ": 1729,
      "Ġ×ª×ĵ": 1730,
      "×¤×Ĳ": 1731,
      "Ġ×Ĺ×Ļ": 1732,
      "Ġ×Ĺ×ł": 1733,
      "Ġ×§×ł": 1734,
      "Ġ×¡×Ľ×Ļ×Ł": 1735,
      "Ġ×Ļ×©×ł×Ķ": 1736,
      "Ġ×ĵ×ķ×¨": 1737,
      "Ġ×ĵ×ķ×¤": 1738,
      "Ġ×ĵ×ĳ×§": 1739,
      "×ĳ×ª×Ļ": 1740,
      "Ġ×Ĳ×ķ×ª×Ļ×ķ×ª": 1741,
      "×ķ×ŀ×¨": 1742,
      "Ġ×©×ŀ×ľ×Ķ": 1743,
      "×ĳ×§×Ķ": 1744,
      "Ġ×ľ×Ĺ×¤×©": 1745,
      "Ġ×ł×Ļ×¨×ķ×ª": 1746,
      "Ġ×¦×Ļ×ķ×¨×Ļ×Ŀ": 1747,
      "Ġ×ł×ŀ×¦": 1748,
      "Ġ×Ķ×ľ×Ľ×ķ": 1749,
      "Ġ×Ľ×ĳ×Ļ×©": 1750,
      "Ġ×ľ×ł×¤×Ĺ": 1751,
      "Ġ×ª×ĸ×¨×§×Ļ": 1752,
      "Ġ×ĳ×¢×¦×ŀ×ļ": 1753,
      "Ġ×¤×Ļ×ł×ķ×§×Ļ": 1754,
      "×ķ×ķ×Ķ": 1755,
      "Ġ×Ķ×ĵ": 1756,
      "Ġ×Ķ×ķ×¨": 1757,
      "Ġ×ľ×¨×Ĺ": 1758,
      "×ĳ×Ļ×ĳ": 1759,
      "Ġ×¢×ĳ×¨": 1760,
      "Ġ×ĳ×Ļ×¡": 1761,
      "Ġ×Ļ×¤×Ļ×Ŀ": 1762,
      "×ŀ×Ļ×Ł": 1763,
      "×¤×ķ×¨": 1764,
      "×¤×Ļ×ľ": 1765,
      "×Ĵ×ĳ": 1766,
      "×§×¡": 1767,
      "Ġ×§×ķ×ľ×Ķ": 1768,
      "Ġ×Ĵ×Ļ×ł×Ķ": 1769,
      "×ĸ×Ļ×¨": 1770,
      "Ġ×ĺ×ķ×©": 1771,
      "Ġ×¦×¤×¨×ĵ": 1772,
      "Ġ×ľ×Ķ×Ľ×Ļ×Ł": 1773,
      "×Ľ×ľ×ļ": 1774,
      "Ġ×Ľ×Ĳ×Ļ×ľ×ķ": 1775,
      "Ġ×¢×©×ķ": 1776,
      "Ġ×ł×©×¤": 1777,
      "Ġ×Ľ×ŀ×¢×ĺ": 1778,
      "Ġ×Ķ×ª×¤": 1779,
      "Ġ×¤×ª×Ĺ": 1780,
      "Ġ×ł×¨×ĵ": 1781,
      "Ġ×Ĺ×ľ×ľ×Ļ×ª": 1782,
      "Ġ×ľ×Ķ×ª×¨×Ĺ": 1783,
      "Ġ×Ĳ×ŀ×¨×ķ": 1784,
      "Ġ×¨×Ĳ×Ļ×ª×Ļ": 1785,
      "Ġ×Ķ×ķ×¤×ľ×Ķ": 1786,
      "Ġ×ľ×Ľ×Ĳ×Ł": 1787,
      "Ġ×©×ķ×§×ķ": 1788,
      "Ġ×¤×¡×ł×ª×¨": 1789,
      "Ġ×©×ķ×Ĳ×ľ×ª": 1790,
      "Ġ×ł×Ĳ×Ľ×ľ": 1791,
      "Ġ×ª×ĳ×§×©": 1792,
      "Ġ×ĺ×¢×Ļ×ŀ×Ķ": 1793,
      "Ġ×ŀ×ĵ×¨×Ĵ×ķ×ª": 1794,
      "Ġ×ł×§×ł×§×Ļ×Ķ": 1795,
      "Ġ×Ķ×Ķ×Ŀ": 1796,
      "Ġ×ŀ×¡×Ľ×Ļ×ŀ×Ķ": 1797,
      "Ġ×Ľ×ł×¨×Ĳ×Ķ": 1798,
      "Ġ×Ķ×¤×ª×¢×Ķ": 1799,
      "Ġ×ĸ×Ľ×ķ×Ľ": 1800,
      "×¨×ķ": 1801,
      "×©×ķ": 1802,
      "Ġ×©×Ļ×ļ": 1803,
      "Ġ×ł×ĸ": 1804,
      "Ġ×Ļ×Ĵ×Ļ×ĵ": 1805,
      "Ġ×Ļ×¨×ĵ": 1806,
      "Ġ×Ľ×Ķ": 1807,
      "Ġ×ª×Ł": 1808,
      "Ġ×¨×ĵ": 1809,
      "Ġ×¨×Ļ×§": 1810,
      "×ĵ×Ĳ×Ļ": 1811,
      "×§×§": 1812,
      "Ġ×ķ×ĵ×Ĳ×Ļ": 1813,
      "Ġ×§×¤×Ķ": 1814,
      "Ġ×§×ķ×ŀ": 1815,
      "Ġ×¡×Ļ×¨×Ķ": 1816,
      "Ġ×¡×ķ×ľ×Ŀ": 1817,
      "×¦×Ļ×Ŀ": 1818,
      "Ġ×¢×ľ×Ļ×Ķ": 1819,
      "Ġ×ĵ×ľ": 1820,
      "×ķ×¤×ķ": 1821,
      "×ķ×¤×¨": 1822,
      "×¨×Ļ×Ĺ": 1823,
      "Ġ×ŀ×ª×Ĵ×ľ×Ĵ×ľ": 1824,
      "Ġ×ŀ×Ľ×Ĺ×ķ×ľ": 1825,
      "Ġ×©×ŀ×Ĺ×Ķ": 1826,
      "×Ļ×¦×Ļ": 1827,
      "Ġ×ĳ×ª×ķ×Ľ×ķ": 1828,
      "Ġ×ª×ŀ×Ļ×ĵ": 1829,
      "Ġ×Ĵ×ŀ×ľ": 1830,
      "Ġ×ł×¤×ľ×Ķ": 1831,
      "Ġ×ł×¡×¢": 1832,
      "Ġ×ľ×¢×¦": 1833,
      "Ġ×ª×ł×ķ×¨": 1834,
      "Ġ×ŀ×ĸ×ľ": 1835,
      "Ġ×ĸ×ķ×¨×§": 1836,
      "Ġ×ŀ×¡×ª×ķ×ĳ×ĳ": 1837,
      "Ġ×ª×¢×ĸ×¨×Ļ": 1838,
      "Ġ×ª×Ľ×ł×Ļ×¡×Ļ": 1839,
      "Ġ×ª×Ĳ×¡×¤×Ļ": 1840,
      "×Ķ×ª×Ĺ": 1841,
      "Ġ×Ĳ×¨×Ĳ×Ķ": 1842,
      "Ġ×ľ×ķ×ľ×Ļ": 1843,
      "Ġ×ŀ×ĳ×§": 1844,
      "Ġ×ĳ×Ļ×Ł": 1845,
      "Ġ×ł×Ļ×ª×Ł": 1846,
      "Ġ×Ļ×Ľ": 1847,
      "×¤×ĵ": 1848,
      "×ĵ×Ļ×ŀ×Ķ": 1849,
      "Ġ×Ĵ×¤×¨": 1850,
      "Ġ×¦×Ļ×¨×Ļ": 1851,
      "Ġ×ĵ×ł": 1852,
      "Ġ×ĵ×ķ×§": 1853,
      "Ġ×ĵ×Ļ×¨×Ķ": 1854,
      "Ġ×Ĳ×ķ×¡": 1855,
      "Ġ×ª×¡×Ĵ×¨×Ļ": 1856,
      "Ġ×ŀ×¡×ĵ×¨×ª": 1857,
      "Ġ×ª×§×¨×Ĳ": 1858,
      "Ġ×Ķ×ª×¢×ŀ": 1859,
      "Ġ×Ĳ×Ļ×ª×ļ": 1860,
      "Ġ×ł×ŀ×¨": 1861,
      "Ġ×ľ×Ķ×ª×¨×Ĳ×ķ×ª": 1862,
      "Ġ×ĸ×ķ×Ľ×¨": 1863,
      "Ġ×¢×ķ×ŀ×ĵ×ª": 1864,
      "Ġ×Ļ×Ĳ×Ľ×ľ": 1865,
      "Ġ×ľ×Ľ×Ŀ": 1866,
      "Ġ×Ĳ×§×Ĺ": 1867,
      "Ġ×Ĺ×ĳ×ľ": 1868,
      "Ġ×ľ×ķ×§×Ĺ": 1869,
      "Ġ×¢×ķ×ĳ×ĵ": 1870,
      "Ġ×ŀ×Ĺ×¤×©×ª": 1871,
      "Ġ×¢×Ļ×Ļ×¤×Ķ": 1872,
      "Ġ×¨×ĵ×Ļ×ķ": 1873,
      "×Ķ×ª×Ĺ×ľ×Ķ": 1874,
      "Ġ×Ķ×ª×¢×ŀ×ľ×ķ×ª": 1875,
      "Ġ×ľ×Ľ×ª×ķ×ĳ": 1876,
      "Ġ×ŀ×ĳ×¨": 1877,
      "Ġ×ŀ×ķ×©×Ļ": 1878,
      "Ġ×¢×Ļ×¨": 1879,
      "Ġ×¢×ĵ×Ļ": 1880,
      "Ġ×©×Ļ×¢": 1881,
      "Ġ×ł×Ļ×Ĵ": 1882,
      "Ġ×Ļ×ł": 1883,
      "Ġ×ª×¦×Ļ×Ļ×¨": 1884,
      "Ġ×ª×Ļ×ª×Ł": 1885,
      "×¢×Ļ×ľ": 1886,
      "×Ĵ×Ļ": 1887,
      "×Ĵ×ĵ": 1888,
      "Ġ×Ĵ×ķ×ł": 1889,
      "Ġ×¦×ŀ": 1890,
      "Ġ×¢×ľ×Ķ": 1891,
      "×Ļ×ª×Ļ": 1892,
      "Ġ×ľ×Ķ×Ĺ": 1893,
      "Ġ×ľ×Ķ×ĸ": 1894,
      "Ġ×ľ×Ķ×ĵ×ĳ": 1895,
      "Ġ×ľ×©×Ŀ": 1896,
      "Ġ×ŀ×ª×Ĵ×ľ": 1897,
      "Ġ×ł×©×ĳ": 1898,
      "Ġ×Ĳ×ĵ×ķ×ŀ": 1899,
      "Ġ×ª×§×¨×Ķ": 1900,
      "Ġ×ª×¢×ĸ×ķ×¨": 1901,
      "Ġ×Ľ×ķ×Ĳ×ĳ×ª": 1902,
      "Ġ×§×¨×ķ×ĳ": 1903,
      "Ġ×ł×ª×ł×Ķ": 1904,
      "Ġ×Ĳ×Ļ×ª×ł×ķ": 1905,
      "Ġ×ª×¤×ķ×ĸ": 1906,
      "Ġ×¡×ķ×¡×Ļ×Ŀ": 1907,
      "Ġ×ª×ĳ×ĵ": 1908,
      "Ġ×Ļ×¢×ľ": 1909,
      "Ġ×Ľ×¤×Ļ": 1910,
      "Ġ×©×¨×ķ×ļ": 1911,
      "Ġ×¤×ķ×ª×Ĺ": 1912,
      "Ġ×Ĺ×ĳ×Ļ×ª×Ķ": 1913,
      "Ġ×¢×ķ×ĳ×ĵ×ª": 1914,
      "Ġ×¡×ŀ×ĵ×¨": 1915,
      "Ġ×ľ×ķ×ĳ×©": 1916,
      "Ġ×ŀ×¦×Ĳ×ª×Ļ": 1917,
      "Ġ×Ĳ×ķ×ł×Ļ×Ķ": 1918,
      "Ġ×Ĳ×¨×ķ×Ĺ×ª×¢×¨×ĳ": 1919,
      "Ġ×ŀ×§×¨×¨": 1920,
      "Ġ×ª×ķ×¨×Ļ×ĵ×Ļ": 1921,
      "Ġ×Ľ×ķ×ª×ĳ×ª": 1922,
      "Ġ×ª×ĵ×ĳ×¨×Ļ": 1923,
      "Ġ×Ĳ×ķ×§×¨": 1924,
      "Ġ×§×ĳ×ľ×Ķ": 1925,
      "Ġ×Ķ×ª×¤×ķ×¦": 1926,
      "Ġ×ĸ×Ľ×ķ×Ľ×Ļ×ª": 1927,
      "Ġ×ĵ×ķ×§×ĺ×ķ×¨": 1928,
      "Ġ×¢×ĵ×Ļ×Ļ×Ł": 1929,
      "Ġ×ľ×Ķ×ĵ×ĳ×Ļ×§": 1930,
      "Ġ×ŀ×Ļ×¡": 1931,
      "×ľ×ľ×Ķ": 1932,
      "×ĳ×ľ×Ļ": 1933,
      "Ġ×ĳ×ĸ×Ķ": 1934,
      "Ġ×©×©": 1935,
      "×Ĺ×¨×ķ×ĵ": 1936,
      "Ġ×ł×ķ×Ľ×ľ": 1937,
      "Ġ×ª×Ļ×¤×ķ×ľ": 1938,
      "×¤×ķ×ª": 1939,
      "×ķ×ĵ×ķ×ª": 1940,
      "×¡×Ļ": 1941,
      "Ġ×Ĺ×Ļ×¤": 1942,
      "Ġ×Ļ×©×ł×Ļ×Ŀ": 1943,
      "Ġ×¤×Ļ×ķ": 1944,
      "Ġ×¤×¢×ŀ": 1945,
      "Ġ×ľ×Ķ×©×ª": 1946,
      "Ġ×Ĳ×ķ×Ĵ": 1947,
      "Ġ×Ĳ×¨×ĺ×Ļ×§": 1948,
      "Ġ×§×ĺ×¨": 1949,
      "Ġ×Ĵ×ĵ×ķ×ľ×Ļ×Ŀ": 1950,
      "Ġ×¡×ĳ×Ļ×ĳ": 1951,
      "Ġ×ª×§×¨": 1952,
      "Ġ×Ĺ×ķ×©×ĳ": 1953,
      "×Ļ×Ľ×ķ×ª": 1954,
      "Ġ×§×¨×ķ×Ł": 1955,
      "Ġ×ľ×¢×ŀ×ķ×ĵ": 1956,
      "Ġ×ł×Ĺ×©": 1957,
      "Ġ×Ļ×¢×ĸ×ķ×¨": 1958,
      "Ġ×¨×¢×Ļ×Ķ": 1959,
      "Ġ×Ĵ×ķ×ľ×Ĵ×Ļ×Ķ": 1960,
      "Ġ×Ĵ×Ļ×¨×Ļ×Ŀ": 1961,
      "Ġ×ĵ×ķ×ĵ×Ļ": 1962,
      "Ġ×Ĵ×ł×ł×ª": 1963,
      "Ġ×ĺ×Ļ×¤×¡": 1964,
      "Ġ×ŀ×ª×Ĺ×ĳ×Ĳ": 1965,
      "Ġ×¤×ĺ×Ļ×©": 1966,
      "Ġ×ĳ×Ļ×§×©×ª": 1967,
      "Ġ×¦×¤×¨×ĵ×¢": 1968,
      "Ġ×ŀ×Ļ×¡×ĳ×Ļ×ĳ": 1969,
      "Ġ×ĳ×ĸ×Ķ×Ļ×¨×ķ×ª": 1970,
      "Ġ×Ķ×ķ×¦": 1971,
      "Ġ×ľ×Ĵ×ŀ×ķ×¨": 1972,
      "Ġ×ŀ×ľ×ĳ": 1973,
      "Ġ×ŀ×¤×ª×Ĺ": 1974,
      "Ġ×ŀ×Ļ×ĵ×Ļ": 1975,
      "×ĳ×ķ×ĵ": 1976,
      "Ġ×¢×¨×ĳ": 1977,
      "Ġ×ĳ×ķ×ĳ×Ļ": 1978,
      "Ġ×©×ĳ×¨": 1979,
      "×Ĺ×ķ×§": 1980,
      "×Ĺ×Ļ×ľ×Ļ": 1981,
      "Ġ×ł×¨×Ĺ": 1982,
      "Ġ×Ļ×¦": 1983,
      "Ġ×ª×ķ×ľ": 1984,
      "Ġ×ª×ľ×ļ": 1985,
      "Ġ×§×ł×Ķ": 1986,
      "Ġ×Ĵ×ķ×ĸ": 1987,
      "×ĺ×¢": 1988,
      "Ġ×¦×Ĳ": 1989,
      "Ġ×¤×Ł": 1990,
      "×ķ×Ĵ×ľ": 1991,
      "×Ļ×ĳ×ª": 1992,
      "×Ļ×ĳ×¨": 1993,
      "Ġ×ŀ×Ľ×Ļ×ł×Ķ": 1994,
      "×ľ×ĳ×©×Ļ": 1995,
      "Ġ×¨×Ĳ×Ļ": 1996,
      "Ġ×Ĳ×ĵ×Ŀ": 1997,
      "Ġ×©×ķ×ŀ×¢×Ļ×Ŀ": 1998,
      "×ľ×Ĳ×Ļ×ĳ×ķ×ĵ": 1999,
      "Ġ×ŀ×¢×ľ×Ļ×ª": 2000,
      "Ġ×Ĵ×ŀ×¨×ª×Ļ": 2001,
      "Ġ×¦×ľ×Ĺ×ķ×ª": 2002,
      "×Ļ×ĸ×Ķ×¨": 2003,
      "Ġ×ľ×¤×Ļ": 2004,
      "Ġ×ŀ×ķ×¦×¦×Ļ": 2005,
      "Ġ×§×©×ķ×Ĳ": 2006,
      "Ġ×Ļ×Ĳ×ľ×ľ×Ķ": 2007,
      "Ġ×ĸ×ķ×¨×§×Ļ×Ŀ": 2008,
      "Ġ×¨×Ĺ×ķ×ĳ": 2009,
      "Ġ×Ļ×§×¨×Ķ": 2010,
      "Ġ×Ķ×¨×Ľ×ĳ×Ķ": 2011,
      "Ġ×Ĺ×ĳ×¨×Ķ": 2012,
      "Ġ×©×ķ×Ľ×ĳ": 2013,
      "Ġ×©×ķ×ĳ×ĳ×Ķ": 2014,
      "Ġ×ĳ×ķ×ĳ×ķ×ª": 2015,
      "Ġ×¨×ķ×§×ĵ": 2016,
      "Ġ×¤×ł×¡×Ļ×Ŀ": 2017,
      "Ġ×ĵ×ł×Ļ×Ĳ": 2018,
      "Ġ×ª×ĳ×ĵ×§×Ļ": 2019,
      "Ġ×Ĳ×ľ×ļ": 2020,
      "Ġ×ľ×ĳ×¨": 2021,
      "Ġ×ľ×ķ×ł×Ķ": 2022,
      "Ġ×ŀ×Ļ×¤": 2023,
      "×©×Ļ×ļ": 2024,
      "×Ľ×Ļ×ĳ": 2025,
      "Ġ×ł×ķ×Ĺ": 2026,
      "Ġ×ª×¨×Ļ×ŀ×Ļ": 2027,
      "Ġ×¨×ŀ": 2028,
      "×ĵ×¨×Ļ": 2029,
      "Ġ×ķ×¨": 2030,
      "×¡×Ļ×ĺ×Ķ": 2031,
      "Ġ×Ĺ×Ĵ": 2032,
      "Ġ×Ĺ×Ļ×ĳ": 2033,
      "Ġ×Ļ×©×ł×ª": 2034,
      "Ġ×ĵ×Ļ×ł×Ķ": 2035,
      "Ġ×¢×Ľ×ĳ×¨": 2036,
      "Ġ×ľ×Ķ×ľ×ĳ×Ļ×©": 2037,
      "Ġ×ľ×Ķ×§×ľ×Ļ×ĺ": 2038,
      "Ġ×ŀ×Ľ×ª": 2039,
      "Ġ×Ĳ×ŀ×ª": 2040,
      "Ġ×Ĳ×ŀ×¦×¢": 2041,
      "Ġ×ł×©×ŀ×¢": 2042,
      "×Ļ×¦×Ļ×Ŀ": 2043,
      "Ġ×Ĳ×ľ×Ļ×ķ": 2044,
      "Ġ×§×ķ×¨×Ĳ": 2045,
      "Ġ×ŀ×ł×§×Ķ": 2046,
      "Ġ×ł×¡×Ĵ×¨": 2047,
      "Ġ×ľ×¢×ľ×ķ×ª": 2048,
      "Ġ×ª×¨×¦×Ļ": 2049,
      "Ġ×Ļ×¨×ķ×§×Ķ": 2050,
      "Ġ×Ĳ×ķ×¤×ł×ķ×¢": 2051,
      "Ġ×Ĺ×ĵ×©×Ķ": 2052,
      "Ġ×©×ĳ×ķ×¨": 2053,
      "Ġ×¦×¢×¦×ķ×¢": 2054,
      "Ġ×ª×ľ×Ĺ": 2055,
      "Ġ×ŀ×¦×ľ×Ļ×Ĺ×Ķ": 2056,
      "Ġ×Ķ×Ļ×Ĵ×¢×ł×ķ": 2057,
      "Ġ×Ĳ×ķ×ł×Ļ×ĳ×¨": 2058,
      "Ġ×¢×ł×ł×Ļ×Ŀ": 2059,
      "Ġ×¡×Ĵ×¨×ª×Ļ": 2060,
      "Ġ×¤×ľ×¡×ĺ×¨": 2061,
      "Ġ×ª×Ĺ×ĸ×Ļ×§×Ļ": 2062,
      "Ġ×ŀ×ķ×¨×Ļ×ĵ×Ķ": 2063,
      "Ġ×ª×Ļ×Ļ×©": 2064,
      "Ġ×Ķ×¦×ľ×Ĺ×ª": 2065,
      "Ġ×ŀ×ľ×ķ×Ľ×ľ×ļ": 2066,
      "Ġ×ŀ×Ļ×¤×ĺ×ľ": 2067,
      "Ġ×Ĳ×ķ×ł×Ļ×ĳ×¨×¡×Ļ×ĺ×Ķ": 2068,
      "×ķ×Ļ×ķ×ª": 2069,
      "Ġ×ľ×ł×§": 2070,
      "Ġ×ľ×Ļ×¤×ķ×ľ": 2071,
      "Ġ×ŀ×¤×Ķ": 2072,
      "Ġ×ŀ×ľ×ķ×Ł": 2073,
      "Ġ×¢×Ļ×ĸ": 2074,
      "Ġ×ĳ×¡": 2075,
      "×Ľ×ł×ķ": 2076,
      "Ġ×Ļ×ķ×ł×ª": 2077,
      "Ġ×ª×ķ": 2078,
      "Ġ×ª×ľ×ĳ×©×Ļ": 2079,
      "Ġ×¨×©": 2080,
      "Ġ×Ĺ×ķ×ª": 2081,
      "Ġ×§×¦×Ķ": 2082,
      "Ġ×§×ĵ×Ļ×ŀ×Ķ": 2083,
      "×ĸ×Ļ×§": 2084,
      "Ġ×©×ľ×Ĵ": 2085,
      "×ĺ×Ļ×¡": 2086,
      "Ġ×¦×Ļ×¤×Ļ": 2087,
      "Ġ×ĵ×Ļ×¡": 2088,
      "Ġ×ľ×Ķ×¨×ĳ": 2089,
      "Ġ×Ĳ×ķ×¦": 2090,
      "×Ļ×ł×ķ×¨": 2091,
      "×Ļ×ł×ķ×ª": 2092,
      "×ķ×Ľ×Ļ×Ŀ": 2093,
      "×ķ×Ľ×ķ×ª": 2094,
      "×ķ×ŀ×¨×ª": 2095,
      "Ġ×ª×©×Ľ": 2096,
      "Ġ×ª×©×ª×Ļ": 2097,
      "Ġ×ª×¡×ĵ×¨×Ļ": 2098,
      "Ġ×Ļ×ľ×ļ": 2099,
      "Ġ×ł×¢×ķ×ŀ×Ļ": 2100,
      "Ġ×ª×¨×Ĳ×ķ": 2101,
      "Ġ×¨×Ĳ×Ķ": 2102,
      "Ġ×Ĺ×ŀ×Ĳ×Ķ": 2103,
      "Ġ×ľ×§×Ĺ": 2104,
      "Ġ×ŀ×¦×Ļ×¨×Ļ×Ŀ": 2105,
      "Ġ×ł×§×Ļ": 2106,
      "Ġ×¢×ķ×Ĵ×Ļ×ķ×ª": 2107,
      "Ġ×ł×ª×Ĺ×Ļ×ľ": 2108,
      "Ġ×Ľ×¨×ĺ×Ļ×¡": 2109,
      "Ġ×Ĳ×Ļ×ª×Ķ": 2110,
      "Ġ×ł×ŀ×ľ×Ķ": 2111,
      "Ġ×Ĺ×ľ×§×Ļ×Ŀ": 2112,
      "Ġ×¡×Ĵ×¨": 2113,
      "Ġ×ŀ×¡×¤×¨×Ļ×Ŀ": 2114,
      "Ġ×ĸ×¨×§×Ķ": 2115,
      "Ġ×Ķ×Ļ×Ļ×ª×Ļ": 2116,
      "Ġ×Ĳ×¨×ķ×Ĺ×Ķ": 2117,
      "Ġ×ĳ×Ĵ×ĵ": 2118,
      "Ġ×Ļ×¡×¤×¨": 2119,
      "Ġ×ĵ×ĳ×©": 2120,
      "Ġ×¦×ķ×ĵ×§×ª": 2121,
      "Ġ×Ĺ×ķ×¤×©": 2122,
      "Ġ×§×ł×Ļ×ł×ķ": 2123,
      "Ġ×ŀ×ĳ×¨×©×ª": 2124,
      "Ġ×ª×§×¨×¢×Ļ": 2125,
      "Ġ×Ķ×ķ×¦×Ĳ×ª": 2126,
      "Ġ×¢×Ļ×ĸ×Ļ×Ŀ": 2127,
      "Ġ×Ļ×ķ×ł×ª×Ł": 2128,
      "Ġ×Ŀ": 2129,
      "Ġ×Ķ×ĵ×ľ": 2130,
      "Ġ×Ķ×©×ª": 2131,
      "Ġ×ľ×ķ×ľ": 2132,
      "Ġ×ľ×Ľ×ĳ×ķ×ĵ": 2133,
      "×ľ×Ĺ": 2134,
      "×ĳ×ľ×ĳ": 2135,
      "Ġ×ĳ×Ł": 2136,
      "Ġ×ĳ×ķ×ĵ": 2137,
      "Ġ×ĳ×ķ×ł×Ķ": 2138,
      "×¢×ľ": 2139,
      "×¢×ķ×¡": 2140,
      "×Ĵ×Ĳ": 2141,
      "×§×ľ×ª": 2142,
      "Ġ×¨×ķ×Ľ": 2143,
      "Ġ×¨×ķ×ł": 2144,
      "Ġ×Ĺ×ķ×ĺ": 2145,
      "Ġ×§×ķ×Ĳ": 2146,
      "Ġ×¡×Ļ×ŀ": 2147,
      "Ġ×¡×ł×ĺ": 2148,
      "Ġ×Ĵ×ĵ×¨": 2149,
      "×ĸ×ķ×ĸ": 2150,
      "×ķ×ĳ×ĳ×ª": 2151,
      "×ĺ×ķ×ĳ×Ķ": 2152,
      "Ġ×¦×ķ×Ķ×ķ×¨×Ļ×Ļ×Ŀ": 2153,
      "Ġ×ĵ×ķ×ł": 2154,
      "Ġ×ľ×Ķ×Ļ×ĸ×Ķ×¨": 2155,
      "×¨×Ĳ×Ĺ": 2156,
      "×Ļ×ľ×ķ×Ł": 2157,
      "×¨×Ļ×¡": 2158,
      "×¨×Ļ×ĺ": 2159,
      "Ġ×ª×©×¢": 2160,
      "×ĳ×¢×ķ×ľ": 2161,
      "Ġ×ŀ×ª×Ĺ×Ļ×ľ": 2162,
      "×Ļ×¡×¢": 2163,
      "Ġ×©×ŀ×Ĺ": 2164,
      "Ġ×ľ×ĳ×ł×ķ×ª": 2165,
      "×¨×§×ķ×ĵ": 2166,
      "Ġ×ł×Ļ×¦×ł×Ļ": 2167,
      "Ġ×ł×Ļ×¦×ł×§": 2168,
      "Ġ×ª×§×©": 2169,
      "Ġ×ł×¤×ľ×ķ": 2170,
      "Ġ×ŀ×ĺ×ķ×¡": 2171,
      "Ġ×ł×¡×¢×Ķ": 2172,
      "Ġ×ŀ×¨×¤": 2173,
      "Ġ×ŀ×¨×Ĵ": 2174,
      "Ġ×ª×Ļ×ł×ķ×§×Ļ": 2175,
      "×Ĳ×ĳ×ķ×Ļ": 2176,
      "×ł×Ĵ×Ł": 2177,
      "Ġ×ĳ×ł×ł×ķ×ª": 2178,
      "Ġ×Ķ×ľ×Ľ×ł×ķ": 2179,
      "Ġ×ł×Ļ×¦×ł×ķ×Ł": 2180,
      "Ġ×§×©×§×©": 2181,
      "Ġ×ĳ×©×ĳ×Ļ×ľ×ļ": 2182,
      "Ġ×ŀ×¡×ª×ª": 2183,
      "Ġ×¨×ķ×¤×Ĳ×Ķ": 2184,
      "Ġ×Ĵ×¨×ĳ×Ļ×Ļ×Ŀ": 2185,
      "Ġ×¦×ķ×ĵ×§": 2186,
      "Ġ×ŀ×Ľ×ł×Ļ×¡×Ķ": 2187,
      "Ġ×¢×ķ×ĸ×¨": 2188,
      "Ġ×ĳ×©×¨": 2189,
      "Ġ×¦×ł×ķ×ł×Ļ×ª": 2190,
      "Ġ×ł×©×¤×ļ": 2191,
      "Ġ×Ĵ×ķ×ł×ĸ×ķ": 2192,
      "Ġ×ŀ×ľ×ĳ×Ł": 2193,
      "Ġ×Ĳ×ķ×¦×Ļ×Ĳ": 2194,
      "Ġ×Ĳ×¦×Ļ×Ļ×¨": 2195,
      "Ġ×Ķ×ĸ": 2196,
      "Ġ×Ķ×¨×ĳ": 2197,
      "Ġ×ŀ×ķ": 2198,
      "Ġ×ŀ×¨×Ļ×ŀ×Ļ": 2199,
      "×Ľ×Ŀ": 2200,
      "×Ľ×Ļ×Ļ×Ŀ": 2201,
      "Ġ×©×ª": 2202,
      "Ġ×©×ł×ª": 2203,
      "Ġ×ł×Ĵ×Ļ×ĵ": 2204,
      "Ġ×Ļ×Ļ×Ľ×ł×¡": 2205,
      "Ġ×ª×¤×ª": 2206,
      "Ġ×¨×Ļ×Ĺ": 2207,
      "×¢×Ĳ": 2208,
      "×¢×Ł": 2209,
      "×ŀ×ķ×¨": 2210,
      "×ŀ×ĵ×Ļ": 2211,
      "×Ĵ×¢×ª": 2212,
      "×ķ×¨×ĵ×Ļ": 2213,
      "Ġ×Ĳ×Ļ×ĸ": 2214,
      "Ġ×Ĳ×Ļ×ľ": 2215,
      "×§×ķ×©": 2216,
      "Ġ×Ĺ×Ĵ×ķ×¨": 2217,
      "Ġ×§×ķ×ŀ×Ķ": 2218,
      "Ġ×©×ľ×ķ×ľ": 2219,
      "×¦×Ĺ": 2220,
      "×ķ×©×ľ": 2221,
      "Ġ×Ļ×©×¨": 2222,
      "Ġ×¤×ł": 2223,
      "Ġ×ľ×Ķ×Ľ": 2224,
      "×Ļ×§×ķ×ª": 2225,
      "Ġ×ľ×Ļ×Ĳ×ķ×¨×ª": 2226,
      "Ġ×ĸ×§×Ł": 2227,
      "Ġ×ª×©×ª": 2228,
      "Ġ×ŀ×¡×ĵ×¨": 2229,
      "Ġ×Ĳ×ł×ĺ": 2230,
      "Ġ×Ĳ×ŀ×¨×ł×ķ": 2231,
      "×Ļ×ŀ×Ļ×Ŀ": 2232,
      "Ġ×Ĳ×¨×Ĵ×ĸ": 2233,
      "Ġ×ŀ×Ĺ×ľ": 2234,
      "Ġ×ŀ×Ĺ×Ľ×Ļ×Ŀ": 2235,
      "Ġ×ľ×ŀ×ĵ×ª": 2236,
      "Ġ×ĳ×Ļ×ª×Ķ": 2237,
      "Ġ×ĳ×ĺ×¨×Ļ×ķ×ª": 2238,
      "Ġ×Ĳ×¡×Ĵ×ķ×¨": 2239,
      "Ġ×Ĵ×ĳ×Ļ": 2240,
      "Ġ×Ļ×ķ×ª×ŀ×Ļ": 2241,
      "Ġ×ł×¡×¤×¨": 2242,
      "Ġ×©×¢×Ķ": 2243,
      "×ľ×Ĳ×Ķ": 2244,
      "Ġ×ĳ×¨×Ľ×Ļ×Ļ×Ŀ": 2245,
      "×Ľ×ĳ×ķ×ª": 2246,
      "Ġ×ª×¤×ľ×Ļ": 2247,
      "Ġ×¢×¦×ķ×ĳ×Ķ": 2248,
      "Ġ×ŀ×ĵ×ĳ×¨×Ļ×Ŀ": 2249,
      "Ġ×Ĺ×ľ×Ļ×ľ": 2250,
      "Ġ×Ļ×¢×¨": 2251,
      "Ġ×©×Ĳ×ľ×Ķ": 2252,
      "Ġ×Ľ×ĳ×©×Ķ": 2253,
      "Ġ×Ľ×ĳ×Ļ×¡×Ķ": 2254,
      "Ġ×ŀ×ķ×ª×¨": 2255,
      "Ġ×ľ×Ĵ×ķ": 2256,
      "Ġ×¤×Ļ×ľ×Ļ×Ŀ": 2257,
      "×¨×ĺ×ķ×ĺ": 2258,
      "Ġ×Ĳ×§×ķ×¨×ĵ×Ļ": 2259,
      "Ġ×ª×Ļ×ĸ×Ķ×¨": 2260,
      "×§×©×¨": 2261,
      "Ġ×Ļ×ķ×¨×ĵ×Ļ×Ŀ": 2262,
      "Ġ×¡×ŀ×¨×ĺ×ķ×ĺ": 2263,
      "Ġ×Ĺ×ĳ×¨×Ļ×Ŀ": 2264,
      "Ġ×¡×Ļ×¤×¨": 2265,
      "Ġ×ĺ×Ļ×¤×ķ×ª": 2266,
      "Ġ×¤×ª×Ĺ×ª×Ļ": 2267,
      "Ġ×ŀ×¦×ĳ×Ļ×¢": 2268,
      "Ġ×¡×¤×ķ×Ĵ": 2269,
      "Ġ×ª×ŀ×©×Ľ×Ļ": 2270,
      "Ġ×©×ľ×ķ×ŀ×ķ": 2271,
      "Ġ×ŀ×ª×ķ×§×Ķ": 2272,
      "Ġ×ŀ×ĺ×¤×¡×ª": 2273,
      "Ġ×§×ķ×ŀ×§×ķ×Ŀ": 2274,
      "Ġ×ľ×Ķ×ĸ×Ļ×ĸ": 2275,
      "Ġ×Ĳ×ķ×Ĵ×Ļ": 2276,
      "Ġ×¡×ĳ×Ļ×ĳ×ķ×Ł": 2277,
      "Ġ×ŀ×Ľ×ª×ĳ": 2278,
      "Ġ×ľ×ł×§×ķ×ª": 2279,
      "Ġ×©×ľ×Ĵ×Ļ×Ķ": 2280,
      "Ġ×ĵ×Ļ×¡×§": 2281,
      "×¨×Ļ×ĺ×Ķ": 2282,
      "Ġ×ł×Ļ×¦×ł×§×ķ": 2283,
      "Ġ×ª×¤×ª×Ĺ×Ļ": 2284,
      "Ġ×Ĺ×Ĵ×ķ×¨×Ķ": 2285,
      "Ġ×Ĳ×§×ķ×¨×ĵ×Ļ×ķ×Ł": 2286,
      "×ķ×Ļ×Ł": 2287,
      "Ġ×Ĳ×Ĵ×Ļ×ĵ": 2288,
      "Ġ×Ķ×¡×ª": 2289,
      "Ġ×ŀ×Ļ×ľ": 2290,
      "Ġ×ŀ×ķ×Ĺ": 2291,
      "×¨×Ĺ×Ļ": 2292,
      "×Ĳ×Ĺ×ĵ": 2293,
      "Ġ×¢×§": 2294,
      "Ġ×¢×Ļ×Ļ": 2295,
      "Ġ×ŀ×Ķ×Ŀ": 2296,
      "Ġ×ĳ×ł×ķ": 2297,
      "×Ľ×Ļ×¨": 2298,
      "Ġ×©×Ķ": 2299,
      "Ġ×Ľ×ķ×Ľ": 2300,
      "Ġ×ª×¤×¨": 2301,
      "×ŀ×ľ": 2302,
      "×ŀ×ł×ĺ": 2303,
      "×ĵ×ĸ": 2304,
      "×ķ×ĵ×¨": 2305,
      "×ķ×ĵ×Ĳ×Ļ": 2306,
      "Ġ×§×¨×§": 2307,
      "×Ļ×Ĳ×ķ×ª": 2308,
      "Ġ×ĺ×ķ": 2309,
      "Ġ×ĺ×¨×Ĳ×Ĺ": 2310,
      "Ġ×ĺ×ĳ×¢×ķ×ľ": 2311,
      "Ġ×ĵ×ŀ×¢": 2312,
      "Ġ×¤×ķ×¨": 2313,
      "×ķ×Ĺ×¨": 2314,
      "Ġ×ŀ×¡×ķ×Ľ": 2315,
      "Ġ×Ļ×ķ×ĵ×¢×Ļ×Ŀ": 2316,
      "Ġ×Ĳ×ķ×¨×Ļ×ĵ": 2317,
      "×ľ×ª×Ļ": 2318,
      "Ġ×Ĳ×¨×Ļ×Ŀ": 2319,
      "Ġ×§×ĺ×ł×ķ×ª": 2320,
      "Ġ×Ĵ×ŀ×ķ×¨": 2321,
      "Ġ×ľ×§×ľ": 2322,
      "Ġ×§×ķ×¨×Ļ×Ŀ": 2323,
      "Ġ×ª×§×ľ": 2324,
      "Ġ×Ľ×ĵ×Ĳ×Ļ": 2325,
      "Ġ×Ĳ×¡×ľ×Ķ": 2326,
      "Ġ×Ļ×ķ×ª×Ŀ": 2327,
      "Ġ×ŀ×ĺ×¤×¡": 2328,
      "Ġ×¦×Ļ×ķ×ł×Ķ": 2329,
      "Ġ×Ľ×Ĺ×ķ×ľ×Ļ×Ŀ": 2330,
      "Ġ×ľ×¢×ĳ×ķ×ĵ": 2331,
      "Ġ×ĳ×¨×ĸ": 2332,
      "Ġ×ŀ×¢×ľ": 2333,
      "Ġ×ª×¨×Ľ": 2334,
      "Ġ×ª×¨×ĵ×Ļ": 2335,
      "Ġ×ª×Ļ×ł×ķ×§×ķ×ª": 2336,
      "Ġ×§×ľ×ŀ×ł×ĺ": 2337,
      "×§×ľ×Ĺ": 2338,
      "Ġ×¢×¦×Ļ×Ŀ": 2339,
      "Ġ×ľ×Ķ×ª×ľ×ĳ×©": 2340,
      "Ġ×©×ĺ×ķ×Ļ×ķ×ª": 2341,
      "Ġ×Ĺ×ŀ×ķ×ĵ×Ļ×Ŀ": 2342,
      "Ġ×¡×ľ×Ļ×Ĺ×Ķ": 2343,
      "Ġ×©×ľ×ķ×©×Ķ": 2344,
      "Ġ×¡×Ĵ×ķ×¨×Ķ": 2345,
      "Ġ×ŀ×¡×ª×¨×§": 2346,
      "Ġ×¢×ł×ĳ×ľ": 2347,
      "Ġ×¤×ķ×ª×Ĺ×ª": 2348,
      "×¤×¡×ľ": 2349,
      "Ġ×ĳ×ķ×ķ×ĵ×Ĳ×Ļ": 2350,
      "Ġ×Ĺ×ĵ×©×ķ×ª": 2351,
      "Ġ×ľ×ł×ķ×Ĺ": 2352,
      "Ġ×Ķ×Ĺ×ľ": 2353,
      "Ġ×¡×ŀ×Ĺ×Ķ": 2354,
      "Ġ×Ĳ×Ĵ×¡": 2355,
      "Ġ×Ĳ×Ĵ×ĵ×ĸ": 2356,
      "Ġ×Ĺ×©×ķ×ĳ": 2357,
      "Ġ×ŀ×Ļ×ŀ×ļ": 2358,
      "Ġ×ª×¨×ł×Ĵ×ķ×ľ×ª": 2359,
      "Ġ×§×¨×Ĳ×ķ": 2360,
      "Ġ×ľ×ĵ×¢×ª": 2361,
      "Ġ×ŀ×Ľ×ł×Ļ×¡×Ļ×Ŀ": 2362,
      "Ġ×ĸ×¨×Ļ×§×Ķ": 2363,
      "Ġ×ª×¤×¡×Ļ×§×Ļ": 2364,
      "Ġ×©×ľ×ķ×ŀ×ļ": 2365,
      "Ġ×ŀ×¤×¨×Ļ×¢": 2366,
      "Ġ×Ļ×¨×§×ķ×ª": 2367,
      "Ġ×Ĵ×Ļ×ĳ×ķ×¨": 2368,
      "Ġ×¡×ĵ×Ļ×Ł": 2369,
      "Ġ×ŀ×¤×Ĺ×Ļ×ĵ": 2370,
      "×¤×Ĳ×¨×§": 2371,
      "Ġ×Ķ×ķ×¨×ĵ×ª": 2372,
      "Ġ×ĵ×ľ×§×ª": 2373,
      "Ġ×©×Ļ×¢×¨": 2374,
      "Ġ×ª×ķ×ľ×¢×ª": 2375,
      "×Ķ×ķ×ľ×ĵ×ª": 2376,
      "Ġ×Ĳ×ļ": 2377,
      "Ġ×Ĳ×ł×Ķ": 2378,
      "Ġ×Ĳ×©×ĳ": 2379,
      "Ġ×Ķ×ľ×Ĳ×Ķ": 2380,
      "Ġ×ŀ×Ĵ×ľ": 2381,
      "×Ĳ×ł×ķ": 2382,
      "×ľ×Ľ×ľ×ļ": 2383,
      "×©×Ĳ": 2384,
      "×ĳ×Ļ×§": 2385,
      "×ĳ×ķ×¢": 2386,
      "Ġ×ĳ×¦": 2387,
      "Ġ×©×Ļ×ł×Ķ": 2388,
      "Ġ×©×ĵ×Ķ": 2389,
      "Ġ×ł×Ĵ": 2390,
      "Ġ×ł×ķ×Ĵ": 2391,
      "Ġ×ł×ĵ×ĳ×¨": 2392,
      "Ġ×ł×ľ×ĳ×Ļ×©": 2393,
      "Ġ×Ľ×¢": 2394,
      "Ġ×Ľ×Ļ×ĳ": 2395,
      "Ġ×ª×¨×Ļ×Ŀ": 2396,
      "×¤×ĺ×ľ": 2397,
      "×Ĵ×ª": 2398,
      "Ġ×¨×ķ×ĳ": 2399,
      "Ġ×Ĺ×ķ×ŀ": 2400,
      "Ġ×Ĺ×©×ĳ": 2401,
      "Ġ×§×ł×ķ": 2402,
      "Ġ×§×ķ×ĺ": 2403,
      "Ġ×¡×ķ×¨": 2404,
      "Ġ×¡×¤×¡×ľ": 2405,
      "×¦×ķ×Ķ×ķ×¨×Ļ×Ļ×Ŀ": 2406,
      "Ġ×ĺ×¨×§": 2407,
      "Ġ×ĺ×Ļ×¤×Ķ": 2408,
      "Ġ×ĺ×¨×ķ": 2409,
      "Ġ×Ĳ×ĳ×ķ×Ĳ": 2410,
      "Ġ×ĵ×§": 2411,
      "Ġ×¤×Ļ×ª×Ķ": 2412,
      "Ġ×¤×§×§": 2413,
      "Ġ×ľ×Ķ×¨": 2414,
      "×Ļ×ľ×ļ": 2415,
      "×Ļ×ł×©": 2416,
      "Ġ×ª×©×Ļ×¨": 2417,
      "Ġ×ŀ×¡×Ļ×ĳ×Ķ": 2418,
      "Ġ×ŀ×¡×¤×¨×Ļ×Ļ×Ŀ": 2419,
      "Ġ×©×ŀ×¢×ª": 2420,
      "Ġ×Ļ×ĵ×¢": 2421,
      "Ġ×Ĳ×ķ×ĺ×ķ×Ĵ×ľ": 2422,
      "Ġ×ľ×ĳ×Ľ×ķ×ª": 2423,
      "Ġ×Ĵ×ĳ×Ļ×ł×©": 2424,
      "Ġ×ŀ×ľ×ķ×Ľ×ľ": 2425,
      "Ġ×ŀ×ĺ×ĳ×¢": 2426,
      "Ġ×ľ×Ĺ×©": 2427,
      "Ġ×ł×§×ķ×ĵ×ķ×ª": 2428,
      "Ġ×ª×ĳ×Ľ×Ļ": 2429,
      "Ġ×Ĳ×¤×ķ×ł×Ķ": 2430,
      "Ġ×ª×ª×Ĺ×Ļ×ľ×Ļ": 2431,
      "Ġ×©×ĳ×ķ×¢": 2432,
      "Ġ×Ĺ×¡×¨×Ķ": 2433,
      "Ġ×Ļ×ķ×ŀ×Ķ×Ķ×ķ×ľ×ĵ×ª": 2434,
      "Ġ×¢×ķ×ŀ×ĵ×Ļ×Ŀ": 2435,
      "Ġ×ĳ×Ķ×Ĺ×ľ": 2436,
      "Ġ×Ļ×§×¨×Ĳ": 2437,
      "Ġ×ª×Ĵ×ŀ×ķ×¨": 2438,
      "Ġ×Ĳ×ľ×Ļ×Ļ×ļ": 2439,
      "Ġ×Ĺ×©×ŀ×ľ": 2440,
      "Ġ×Ĳ×Ľ×¤×ª": 2441,
      "Ġ×ª×ĳ×§×©×Ļ": 2442,
      "Ġ×Ķ×ª×Ĺ×ľ×ª": 2443,
      "Ġ×ª×ĵ×ĳ×Ļ×§×Ļ": 2444,
      "Ġ×Ķ×©×Ĳ": 2445,
      "Ġ×Ļ×¨×ķ×©×ľ": 2446,
      "Ġ×¦×ķ×¢×§×ª": 2447,
      "Ġ×ŀ×©×ª×ķ×ľ": 2448,
      "Ġ×Ķ×¡×ª×Ľ×ľ": 2449,
      "Ġ×ŀ×¨×ĳ×Ļ×¦×Ķ": 2450,
      "Ġ×Ĵ×¤×¨×ķ×¨": 2451,
      "Ġ×§×ķ×Ĳ×Ĳ": 2452,
      "Ġ×ĵ×ķ×ł×ĵ": 2453,
      "Ġ×ª×§×©×Ļ×ĳ×Ļ": 2454,
      "Ġ×ŀ×¡×ª×ª×¨": 2455,
      "Ġ×Ĳ×Ļ×ĸ×ķ": 2456,
      "Ġ×ľ×Ķ×Ľ×ł×Ļ×¡": 2457,
      "Ġ×Ĳ×ł×ĺ×ł×Ķ": 2458,
      "Ġ×§×¨×§×¡": 2459,
      "Ġ×ĵ×ŀ×¢×ķ×ª": 2460,
      "Ġ×§×ľ×ŀ×ł×ĺ×Ļ×ł×Ķ": 2461,
      "Ġ×Ĳ×ķ×ĺ×ķ×Ĵ×ľ×Ļ×ĵ×Ķ": 2462,
      "Ġ×ĳ×Ķ×Ĺ×ľ×ĺ": 2463,
      "Ġ×Ļ×¨×ķ×©×ľ×Ļ×Ļ×Ŀ": 2464,
      "Ġ×Ĳ×¤×¨×Ļ×Ļ×Ŀ": 2465,
      "Ġ×Ķ×¦×¢": 2466,
      "Ġ×ľ×¨×§×ķ×ĵ": 2467,
      "Ġ×ŀ×Ŀ": 2468,
      "Ġ×ŀ×Ļ×Ĳ": 2469,
      "×Ĳ×ķ×ŀ×¨×ª": 2470,
      "Ġ×¢×ķ": 2471,
      "×Ľ×Ļ×ĳ×Ķ": 2472,
      "Ġ×©×Ļ": 2473,
      "Ġ×©×ł×Ķ": 2474,
      "Ġ×©×¨×ª": 2475,
      "Ġ×©×ķ×ĺ": 2476,
      "Ġ×ł×¦": 2477,
      "Ġ×ł×¡×ĵ×¨": 2478,
      "Ġ×Ļ×ŀ": 2479,
      "Ġ×ª×Ļ×Ľ×ł×¡": 2480,
      "Ġ×ª×¨×Ļ×¡": 2481,
      "Ġ×¨×¢×Ŀ": 2482,
      "×¢×ķ×ª": 2483,
      "×Ĵ×©×Ļ": 2484,
      "×§×©×ª": 2485,
      "Ġ×ķ×ķ": 2486,
      "Ġ×Ĺ×ķ": 2487,
      "Ġ×Ĺ×ķ×ĸ": 2488,
      "Ġ×Ĺ×ł×Ļ×Ķ": 2489,
      "Ġ×§×Ĳ": 2490,
      "Ġ×§×ł×Ļ×ª": 2491,
      "Ġ×¡×ķ×ĳ": 2492,
      "Ġ×¡×Ļ×ł×ķ×¨": 2493,
      "×ł×Ļ×ķ×ª": 2494,
      "Ġ×ĺ×ķ×¨": 2495,
      "×ķ×©×Ķ": 2496,
      "Ġ×Ļ×©×ĳ×¨": 2497,
      "Ġ×ĵ×ķ×ľ": 2498,
      "Ġ×ĵ×Ļ×ĳ": 2499,
      "Ġ×¤×Ļ×Ĵ": 2500,
      "Ġ×ľ×Ķ×Ĵ×Ļ×¢": 2501,
      "×¨×ª×Ļ": 2502,
      "×ķ×Ĺ×Ķ": 2503,
      "Ġ×Ĳ×Ķ×Ķ": 2504,
      "Ġ×©×ŀ×ķ": 2505,
      "Ġ×ľ×ĳ×ł×Ķ": 2506,
      "Ġ×Ļ×Ľ×ķ×ľ×Ļ×Ŀ": 2507,
      "Ġ×ĳ×ª×Ļ×Ŀ": 2508,
      "Ġ×ĳ×ª×Ĳ×ĳ": 2509,
      "×Ļ×Ĺ×Ļ": 2510,
      "Ġ×ľ×§×Ĺ×Ķ": 2511,
      "Ġ×ŀ×¦×ķ×Ļ×¨": 2512,
      "Ġ×ľ×ŀ×©×ľ": 2513,
      "Ġ×ŀ×Ĵ×ł×ĺ": 2514,
      "Ġ×ª×§×ĳ×ľ×Ļ": 2515,
      "Ġ×Ĺ×ª×Ļ×Ľ×ķ×ª": 2516,
      "Ġ×ł×¤×ľ×ł×ķ": 2517,
      "Ġ×Ķ×ª×¨×Ĺ": 2518,
      "Ġ×ª×¢×ľ×Ķ": 2519,
      "Ġ×ª×¢×ŀ×ĵ×Ļ": 2520,
      "Ġ×ŀ×ł×Ĵ×Ł": 2521,
      "×Ļ×Ľ×Ļ": 2522,
      "Ġ×¢×ķ×Ĵ×ª": 2523,
      "Ġ×Ľ×ĵ×ķ×¨×Ļ×Ŀ": 2524,
      "Ġ×ł×ª×ł×ķ": 2525,
      "Ġ×ŀ×Ĳ×ķ×Ĺ×¨": 2526,
      "Ġ×ĳ×¨×ļ": 2527,
      "Ġ×ŀ×¢×ĵ": 2528,
      "Ġ×ŀ×¢×¨×ĳ": 2529,
      "Ġ×ŀ×§×ľ×Ļ×ĺ×Ķ": 2530,
      "Ġ×ĳ×ł×§": 2531,
      "Ġ×¡×Ĵ×¨×ł×ķ": 2532,
      "Ġ×ª×Ľ×Ĳ": 2533,
      "Ġ×ŀ×Ļ×ª×ķ×ļ": 2534,
      "Ġ×©×§×ĺ": 2535,
      "Ġ×ľ×¤×¢×ŀ": 2536,
      "Ġ×©×ĳ×Ļ×ľ": 2537,
      "Ġ×ŀ×¤×ľ": 2538,
      "Ġ×ł×Ľ×ł×¡×Ļ×Ŀ": 2539,
      "Ġ×ľ×Ľ×Ł": 2540,
      "×¤×¡×Ļ": 2541,
      "Ġ×ª×ķ×Ľ×ľ×Ļ": 2542,
      "×ĺ×ľ×Ļ×ł×Ķ": 2543,
      "Ġ×Ĳ×¦×ĳ×¢×ķ×ª": 2544,
      "Ġ×ŀ×¦×ľ×Ļ×Ĺ": 2545,
      "Ġ×Ķ×Ļ×Ĵ×Ļ×¢×Ķ": 2546,
      "Ġ×Ĺ×©×ĳ×ª×Ļ": 2547,
      "Ġ×¡×¨×ĺ×Ł": 2548,
      "Ġ×©×ķ×Ľ×ĳ×ª": 2549,
      "Ġ×ª×¢×ĸ×ĳ×Ļ": 2550,
      "Ġ×Ķ×ĳ×Ĳ×ª×Ļ": 2551,
      "Ġ×¤×ľ×¡×ĺ×ľ×Ļ×ł×Ķ": 2552,
      "Ġ×ľ×Ķ×©×Ĳ×¨": 2553,
      "Ġ×¢×ķ×ĸ×¨×ª": 2554,
      "Ġ×ĳ×ŀ×ĳ×Ļ": 2555,
      "Ġ×¦×ķ×Ĺ×§": 2556,
      "Ġ×¦×ķ×Ĺ×§×ª": 2557,
      "Ġ×ł×ŀ×¦×Ĳ×Ļ×Ŀ": 2558,
      "Ġ×ľ×¨×Ĺ×ķ": 2559,
      "Ġ×ĵ×ł×Ļ×Ĳ×ľ×Ķ": 2560,
      "Ġ×¨×ķ×ł×Ļ": 2561,
      "Ġ×©×ł×ª×Ļ×Ļ×Ŀ": 2562,
      "Ġ×©×ľ×ķ×ľ×Ļ×ª": 2563,
      "Ġ×ĺ×¨×§×ĺ×ķ×¨": 2564,
      "Ġ×Ķ×¦×¢×Ķ": 2565,
      "Ġ×¤×Ļ×Ĵ×ŀ×Ķ": 2566,
      "Ġ×ĳ×ª×Ĳ×ĳ×ķ×Ł": 2567,
      "Ġ×ľ×¤×¢×ŀ×Ļ×Ŀ": 2568,
      "Ġ×Ķ×Ľ×Ļ": 2569,
      "Ġ×ŀ×¨×Ļ×Ĺ": 2570,
      "×Ĳ×ķ×ª": 2571,
      "×Ĳ×¡": 2572,
      "Ġ×Ĳ×ª×ļ": 2573,
      "×©×ķ×¤": 2574,
      "×ĳ×Ł": 2575,
      "×ĳ×ķ×§×¨": 2576,
      "Ġ×¢×ķ×ľ×Ļ×Ŀ": 2577,
      "Ġ×ĳ×Ľ": 2578,
      "Ġ×©×ł": 2579,
      "Ġ×©×Ĺ": 2580,
      "Ġ×ł×ķ×¢": 2581,
      "Ġ×ł×ķ×¨×Ļ×ĵ": 2582,
      "Ġ×ł×ķ×¦×Ļ×Ĳ": 2583,
      "Ġ×Ļ×Ļ×§×Ĺ": 2584,
      "Ġ×ľ×Ĳ×¡": 2585,
      "Ġ×ľ×Ĳ×Ļ×ĳ×ķ×ĵ": 2586,
      "Ġ×¨×ĳ": 2587,
      "Ġ×¨×ĳ×§×Ķ": 2588,
      "Ġ×¨×ĺ×ķ×ĳ×Ķ": 2589,
      "×ŀ×ķ×ĸ": 2590,
      "×ŀ×Ļ×¢": 2591,
      "×¤×Ľ×Ļ": 2592,
      "×ķ×¨×ķ×ª": 2593,
      "Ġ×Ĳ×Ļ×ł": 2594,
      "Ġ×ķ×Ļ×ĵ": 2595,
      "Ġ×¨×ķ×ĸ×Ķ": 2596,
      "×¡×ķ×ª": 2597,
      "Ġ×Ĺ×Ļ×ľ": 2598,
      "Ġ×Ĺ×¤×¦": 2599,
      "Ġ×§×Ŀ": 2600,
      "Ġ×§×§×ķ×©": 2601,
      "Ġ×ĺ×ľ×Ķ": 2602,
      "×ķ×©×Ļ×ª": 2603,
      "Ġ×¦×Ļ×ŀ": 2604,
      "Ġ×¦×Ļ×¨×Ķ": 2605,
      "Ġ×ĵ×ķ×§×¨": 2606,
      "Ġ×¢×Ľ×ĳ": 2607,
      "Ġ×ľ×Ķ×¢": 2608,
      "×ķ×§×Ķ": 2609,
      "×ķ×§×Ļ×Ŀ": 2610,
      "Ġ×ľ×©×Ľ×ĳ": 2611,
      "×ķ×ŀ×¡": 2612,
      "×ĵ×¨×ķ×ļ": 2613,
      "Ġ×ŀ×ª×Ĵ×¢": 2614,
      "Ġ×ŀ×Ľ×ķ×ª": 2615,
      "×Ļ×ŀ×ķ×ª": 2616,
      "Ġ×ł×©×Ļ×§×ķ×ª": 2617,
      "×ł×¡×ª": 2618,
      "Ġ×§×ĺ×ł×ĺ": 2619,
      "Ġ×§×ĺ×©×ķ×¤": 2620,
      "Ġ×ŀ×Ĺ×©×ĳ": 2621,
      "Ġ×§×ķ×¨×Ĳ×ª": 2622,
      "Ġ×ŀ×¦×ķ×Ļ×Ł": 2623,
      "Ġ×ª×§×ķ×ŀ×Ļ": 2624,
      "Ġ×Ķ×ª×Ĵ×ľ×Ĵ×ľ": 2625,
      "Ġ×Ķ×ª×Ľ×ķ×ķ×ł×ª": 2626,
      "Ġ×ŀ×ĺ×¨×Ļ×Ķ": 2627,
      "Ġ×ł×¡×¢×ª": 2628,
      "Ġ×Ĳ×Ļ×ª×ŀ×¨": 2629,
      "Ġ×ŀ×¢×Ļ×ľ": 2630,
      "Ġ×Ĳ×Ľ×ľ×Ķ": 2631,
      "×§×ľ×§×ľ": 2632,
      "Ġ×¢×Ĵ×ķ×ľ": 2633,
      "Ġ×¢×¦×Ŀ": 2634,
      "Ġ×ŀ×Ľ×ķ×ł×ª": 2635,
      "Ġ×¢×ĵ×Ł": 2636,
      "Ġ×ľ×Ķ×ª×§×ľ×Ĺ": 2637,
      "Ġ×¡×ľ×§": 2638,
      "Ġ×ł×ķ×ª×ł×Ļ×Ŀ": 2639,
      "Ġ×ŀ×¦×Ĺ×Ļ×§×Ķ": 2640,
      "Ġ×ł×Ľ×ł×¡×ª": 2641,
      "Ġ×©×ľ×Ķ×Ŀ": 2642,
      "Ġ×¢×ĺ×Ļ×¤×Ķ": 2643,
      "Ġ×ŀ×ķ×¨×Ĺ×ª": 2644,
      "Ġ×Ķ×¨×ŀ×ª": 2645,
      "Ġ×ĵ×¨×Ľ×ª": 2646,
      "Ġ×ĵ×ķ×ĵ×ķ": 2647,
      "Ġ×ł×©×ĳ×¨×Ķ": 2648,
      "Ġ×Ľ×ķ×¢×¡": 2649,
      "Ġ×ŀ×ĵ×¨×Ľ×Ķ": 2650,
      "Ġ×ŀ×ķ×Ľ×¨×Ĺ": 2651,
      "Ġ×¦×ķ×¢×§": 2652,
      "Ġ×Ĳ×¤×¨×ķ×Ĺ×Ļ×Ŀ": 2653,
      "Ġ×Ķ×¦×Ĵ×Ķ": 2654,
      "Ġ×§×¤×¦×ª": 2655,
      "Ġ×Ĺ×ł×ķ×Ľ×Ķ": 2656,
      "Ġ×ľ×¢×¦×ķ×Ŀ": 2657,
      "Ġ×Ļ×Ľ×Ĳ×ĳ": 2658,
      "Ġ×ľ×ĳ×¨×Ļ×Ĳ×ķ×ª": 2659,
      "Ġ×ª×ľ×Ĺ×¦×Ļ": 2660,
      "Ġ×Ķ×¨×ĳ×¦×ª": 2661,
      "Ġ×ŀ×¡×ķ×Ľ×Ł": 2662,
      "Ġ×ŀ×Ļ×Ĳ×ķ": 2663,
      "Ġ×ķ×Ļ×ĵ×Ĳ×ķ": 2664,
      "ĺ×ĳ": 2665,
      "Ġ×Ĳ×¤×¢×Ŀ": 2666,
      "Ġ×Ķ×ł": 2667,
      "Ġ×ľ×Ľ×ĳ×ķ×ª": 2668,
      "Ġ×ŀ×Ĵ×¢": 2669,
      "×Ĳ×Ļ×ĳ": 2670,
      "×ľ×ķ×ľ": 2671,
      "×ľ×Ļ×§": 2672,
      "×ł×Ĺ": 2673,
      "Ġ×ĳ×Ľ×ª": 2674,
      "Ġ×©×Ł": 2675,
      "Ġ×Ļ×Ĵ×ŀ×ķ×¨": 2676,
      "Ġ×Ľ×ķ×Ĺ": 2677,
      "Ġ×Ľ×¨×Ļ×ķ×ª": 2678,
      "Ġ×ª×ķ×Ŀ": 2679,
      "Ġ×ª×ľ×ª": 2680,
      "Ġ×ª×ł×Ĵ": 2681,
      "Ġ×¨×Ĵ": 2682,
      "Ġ×¨×Ŀ": 2683,
      "Ġ×¨×ķ×Ł": 2684,
      "Ġ×¨×Ļ×ł×Ķ": 2685,
      "×¢×ķ×ľ": 2686,
      "×ĵ×ķ×ĵ": 2687,
      "×§×ķ×¤": 2688,
      "Ġ×¨×ķ×ĺ×ĳ": 2689,
      "Ġ×Ĺ×Ĳ": 2690,
      "Ġ×Ĵ×¨×Ļ": 2691,
      "Ġ×¤×ĺ×ľ": 2692,
      "Ġ×ľ×Ķ×ł": 2693,
      "Ġ×ľ×Ķ×¤×Ļ×ľ": 2694,
      "×Ļ×¤×ķ×Ł": 2695,
      "×ķ×¤×ķ×ĺ": 2696,
      "Ġ×Ĳ×ķ×ª×ł×ķ": 2697,
      "×ķ×Ĺ×ĵ": 2698,
      "×ķ×¡×§×ķ×¤": 2699,
      "Ġ×Ľ×ķ×ľ×ł×ķ": 2700,
      "Ġ×ª×©×ŀ×¢": 2701,
      "Ġ×ª×¡×ª": 2702,
      "Ġ×Ĳ×ķ×¨×ķ×ª": 2703,
      "Ġ×ŀ×Ľ×Ļ×¨": 2704,
      "Ġ×©×ŀ×ł×ķ": 2705,
      "Ġ×¢×©×¨": 2706,
      "Ġ×ĳ×Ĳ×Ļ×Ŀ": 2707,
      "Ġ×ª×ŀ×¨×Ĺ×Ļ": 2708,
      "Ġ×Ĳ×ľ×Ĳ": 2709,
      "Ġ×Ĳ×ľ×Ļ×ł×ķ": 2710,
      "Ġ×ł×¤×ľ×Ĳ": 2711,
      "Ġ×ª×Ĺ×ĳ": 2712,
      "Ġ×ª×Ĺ×ľ×Ķ": 2713,
      "Ġ×ŀ×¨×ķ×ĳ×¢": 2714,
      "Ġ×Ľ×ľ×ĳ×Ļ×Ŀ": 2715,
      "Ġ×Ĺ×ŀ×ķ×ĵ×ķ×ł×ª": 2716,
      "Ġ×Ĳ×¤×¡": 2717,
      "×¨×ķ×ª×Ļ×Ŀ": 2718,
      "Ġ×Ĺ×ĵ×©×Ļ×Ŀ": 2719,
      "Ġ×©×¨×ķ×ķ": 2720,
      "Ġ×ŀ×ŀ×ł×Ļ": 2721,
      "Ġ×Ĺ×¡×¨×Ļ×Ŀ": 2722,
      "Ġ×ŀ×ĸ×¨×§": 2723,
      "Ġ×ŀ×ĸ×Ĵ×Ł": 2724,
      "Ġ×ł×Ļ×¦×ł×Ļ×ľ×Ķ": 2725,
      "Ġ×ł×ĵ×ĳ×§": 2726,
      "Ġ×ľ×¨×ķ": 2727,
      "Ġ×ĺ×ķ×¡×ĺ×¨": 2728,
      "Ġ×ľ×Ľ×¢×ķ×¡": 2729,
      "Ġ×Ĵ×¨×¢": 2730,
      "Ġ×Ĵ×¨×Ĵ×¨": 2731,
      "Ġ×ŀ×ĵ×¤×ĵ": 2732,
      "Ġ×Ļ×ĳ×ķ×Ĳ×ķ": 2733,
      "Ġ×ľ×¦×ĳ×ķ×¢": 2734,
      "Ġ×¡×ķ×Ĵ×¨×Ļ×Ŀ": 2735,
      "Ġ×Ĳ×¤×¨×ķ×¤×ķ": 2736,
      "Ġ×Ļ×¡×Ĵ×ķ×¨": 2737,
      "Ġ×Ķ×Ľ×ł×¡×ª": 2738,
      "Ġ×Ķ×Ļ×¤×Ļ×ľ": 2739,
      "Ġ×Ķ×Ļ×¤×ķ×¤×ķ×ĺ": 2740,
      "×¤×ľ×§×¡": 2741,
      "Ġ×Ķ×¨×Ĳ×ľ": 2742,
      "Ġ×¤×ķ×Ļ×Ķ": 2743,
      "Ġ×ŀ×ľ×ķ×Ľ×ľ×Ľ×ª": 2744,
      "Ġ×¤×¨×¦×ķ": 2745,
      "Ġ×ł×ĳ×ł×Ķ": 2746,
      "Ġ×ľ×Ļ×ŀ×ķ×Ł": 2747,
      "Ġ×ŀ×ķ×¦×Ļ×Ĳ×Ķ": 2748,
      "Ġ×ľ×Ķ×¡×ª×¨×§": 2749,
      "Ġ×ľ×Ķ×¡×ª×ķ×ĳ×ĳ": 2750,
      "Ġ×ł×ŀ×¦×Ĳ×ª": 2751,
      "Ġ×ŀ×ĳ×§×©": 2752,
      "Ġ×ľ×Ķ×Ĺ×ĸ×Ļ×¨": 2753,
      "Ġ×Ĳ×ĵ×ķ×ŀ×ķ×ª": 2754,
      "Ġ×ª×©×Ľ×ĳ×Ļ": 2755,
      "Ġ×ª×§×ľ×¤×Ļ": 2756,
      "Ġ×§×ķ×ĺ×Ĵ": 2757,
      "Ġ×ª×Ļ×Ľ×ł×¡×Ļ": 2758,
      "Ġ×ª×¨×Ļ×¡×Ļ×Ŀ": 2759,
      "Ġ×ŀ×¤×ľ×¦×ª": 2760,
      "Ġ×Ĺ×¤×¦×Ļ×ĳ×Ķ": 2761,
      "Ġ×ĳ×Ľ×ª×Ķ": 2762,
      "Ġ×©×¨×ķ×ķ×ķ×ľ": 2763,
      "Ġ×Ķ×Ļ×¤×ķ×¤×ķ×ĺ×Ŀ": 2764,
      "Ġ×Ķ×ķ×¦×Ļ×Ĳ": 2765,
      "×ª×§": 2766,
      "Ġ×ľ×Ĵ×ŀ": 2767,
      "Ġ×ľ×ĵ×¨×ķ×ļ": 2768,
      "Ġ×ŀ×ķ×ĵ": 2769,
      "Ġ×ŀ×Ļ×§": 2770,
      "Ġ×ŀ×ķ×ĺ": 2771,
      "×¨×¨": 2772,
      "×Ĳ×Ļ×¨": 2773,
      "×©×§": 2774,
      "×©×ķ×©×Ļ": 2775,
      "×ĳ×Ļ×¨": 2776,
      "Ġ×¢×ķ×¨": 2777,
      "Ġ×¢×Ļ×ĸ×Ķ": 2778,
      "Ġ×¢×ķ×¤×¨": 2779,
      "×ł×ĳ×ª": 2780,
      "Ġ×©×ķ×¤": 2781,
      "Ġ×©×ķ×¢×ľ": 2782,
      "Ġ×©×¨×ķ×ª×Ļ×Ŀ": 2783,
      "Ġ×ł×ł×Ķ": 2784,
      "Ġ×ł×ĵ×ľ×Ļ×§": 2785,
      "Ġ×Ļ×¤×ª×Ĺ": 2786,
      "Ġ×Ļ×Ļ×ª×Ł": 2787,
      "Ġ×ª×¨×§": 2788,
      "Ġ×¨×ķ×ª": 2789,
      "×ŀ×©": 2790,
      "×ŀ×Ĺ": 2791,
      "×ŀ×ķ×Ł": 2792,
      "×ŀ×¨×Ļ": 2793,
      "×ŀ×¨×§": 2794,
      "×Ĵ×¨×Ķ": 2795,
      "×ķ×ľ×ľ": 2796,
      "×§×ķ×ķ": 2797,
      "Ġ×ķ×Ķ": 2798,
      "Ġ×§×Ļ×ł": 2799,
      "Ġ×¡×ł": 2800,
      "Ġ×¡×ķ×ĵ": 2801,
      "Ġ×¡×¤×Ļ": 2802,
      "Ġ×Ĵ×Ļ×ł": 2803,
      "×ĸ×ķ×ĳ": 2804,
      "Ġ×©×ľ×©×Ļ": 2805,
      "×¦×ľ×ª": 2806,
      "Ġ×ĺ×¡": 2807,
      "Ġ×ĺ×ľ×Ļ": 2808,
      "×Ļ×ª×Ĳ": 2809,
      "Ġ×Ĳ×ĳ×Ļ×ĳ×Ķ": 2810,
      "Ġ×ĵ×¤": 2811,
      "Ġ×ĵ×Ŀ": 2812,
      "Ġ×ĵ×ķ×ŀ": 2813,
      "Ġ×¤×Ĵ": 2814,
      "Ġ×¤×Ļ×¤": 2815,
      "Ġ×¤×Ļ×§": 2816,
      "Ġ×¤×Ļ×¦×Ķ": 2817,
      "×Ļ×¤×Ļ×Ŀ": 2818,
      "×ķ×¤×ķ×ª": 2819,
      "×¤×¨×§": 2820,
      "Ġ×ĸ×ĸ": 2821,
      "Ġ×Ĳ×ĳ×Ĳ×ľ×Ķ": 2822,
      "×ķ×¡×Ķ": 2823,
      "×ķ×¡×Ŀ": 2824,
      "Ġ×ŀ×¡×¢": 2825,
      "Ġ×ŀ×ª×¨×Ĺ": 2826,
      "Ġ×ŀ×Ľ×Ļ×Ł": 2827,
      "Ġ×©×ŀ×Ł": 2828,
      "Ġ×¢×©×¨×Ļ×Ŀ": 2829,
      "Ġ×Ĳ×¨×ł×ĳ×ª": 2830,
      "Ġ×ŀ×¦×ĺ×¢": 2831,
      "Ġ×ŀ×¦×¤×ĺ×ľ": 2832,
      "Ġ×Ĳ×ĵ×ŀ×Ķ": 2833,
      "Ġ×ª×§×ķ×Ŀ": 2834,
      "Ġ×ª×§×ª×§": 2835,
      "×Ļ×¢×Ļ": 2836,
      "Ġ×ª×¢×ľ×Ļ": 2837,
      "Ġ×ª×¢×ŀ×ķ×ĵ": 2838,
      "×ķ×ĺ×Ļ×Ŀ": 2839,
      "Ġ×¢×ķ×Ĵ×ķ×ª": 2840,
      "×ķ×Ķ×¨": 2841,
      "Ġ×ł×ŀ×Ĳ×¡": 2842,
      "Ġ×ŀ×§×ľ×¤×ª": 2843,
      "Ġ×Ĺ×ľ×©": 2844,
      "Ġ×¦×Ļ×¤×ķ×¨×ł×Ļ×Ļ×Ŀ": 2845,
      "Ġ×©×Ĳ×ľ×ª": 2846,
      "Ġ×ª×ł×¢": 2847,
      "Ġ×ł×Ĵ×ŀ×ķ×¨": 2848,
      "Ġ×ł×Ľ×ł×¡×Ķ": 2849,
      "Ġ×ŀ×ĵ×ķ×¨×Ķ": 2850,
      "Ġ×ŀ×ĵ×Ĵ×ĵ": 2851,
      "Ġ×¤×ľ×Ĺ": 2852,
      "Ġ×¤×¡×Ļ×Ŀ": 2853,
      "Ġ×ª×©×Ĳ×Ļ×¨×Ļ": 2854,
      "Ġ×ŀ×Ĺ×¤×©×Ļ×Ŀ": 2855,
      "Ġ×Ķ×Ļ×Ĵ×Ļ×¢": 2856,
      "Ġ×¨×¦×Ļ×ª×Ļ": 2857,
      "Ġ×Ĳ×¨×ķ×Ĺ×ª×ĳ×ķ×§×¨": 2858,
      "Ġ×¨×Ļ×ĳ×ķ×¢×Ļ×Ŀ": 2859,
      "Ġ×¤×ľ×¡×ĺ×Ļ×§": 2860,
      "Ġ×ª×ŀ×©×Ļ×Ľ×Ļ": 2861,
      "Ġ×ŀ×¤×¨×§×ª": 2862,
      "Ġ×ĳ×ķ×¨×§×¡": 2863,
      "Ġ×ł×©×Ĳ×Ļ×¨": 2864,
      "Ġ×ĳ×¨×Ļ×Ĳ×Ķ": 2865,
      "Ġ×¢×ŀ×ľ": 2866,
      "Ġ×ĳ×¢×Ļ×Ķ": 2867,
      "Ġ×ľ×Ļ×ŀ×ĵ": 2868,
      "Ġ×Ĺ×Ļ×Ļ×ĳ×ª": 2869,
      "Ġ×Ķ×ĵ×¡×Ķ": 2870,
      "Ġ×¤×¢×ŀ×ķ×Ł": 2871,
      "Ġ×¨×ŀ×ĸ×ķ×¨": 2872,
      "Ġ×ĳ×¡×§×ķ×ķ": 2873,
      "Ġ×Ĺ×ķ×ª×ŀ×ª": 2874,
      "Ġ×Ķ×ĵ×ľ×§×ª": 2875,
      "Ġ×ĳ×ķ×ĵ×§×ª": 2876,
      "Ġ×¡×ł×ĺ×¨": 2877,
      "Ġ×ŀ×¨×Ĵ×©×Ķ": 2878,
      "Ġ×¤×ķ×¨×¡×ª": 2879,
      "Ġ×ŀ×Ĵ×ľ×©×Ķ": 2880,
      "Ġ×ĺ×¨×ķ×Ļ×Ķ": 2881,
      "Ġ×ŀ×ľ×ķ×Ľ×ľ×Ľ×ķ×ª": 2882,
      "Ġ×ŀ×ª×Ĵ×¢×Ĵ×¢×ª": 2883,
      "Ġ×ª×¨×§×ĵ×Ļ": 2884,
      "Ġ×ĳ×¡×§×ķ×ķ×Ļ×ĺ": 2885,
      "Ġ×Ĳ×Ľ×Ļ×Ł": 2886,
      "Ġ×ľ×ł×Ĵ×Ł": 2887,
      "Ġ×ŀ×Ļ×§×Ļ": 2888,
      "Ġ×ŀ×Ļ×ľ×Ļ×Ŀ": 2889,
      "×¨×Ĵ×¢": 2890,
      "×Ĳ×ľ": 2891,
      "×Ĳ×ł": 2892,
      "×Ĳ×ĺ": 2893,
      "×Ĳ×Ĺ×ª": 2894,
      "×ł×ŀ×Ł": 2895,
      "Ġ×ĳ×Ľ×Ķ": 2896,
      "Ġ×ĳ×Ļ×Ĵ": 2897,
      "Ġ×ĳ×ł×ķ×ª": 2898,
      "Ġ×ĳ×Ľ×ķ": 2899,
      "Ġ×©×ķ×¤×¨": 2900,
      "×Ĺ×¦×Ĺ": 2901,
      "Ġ×ł×ł": 2902,
      "Ġ×ł×¨×Ĳ": 2903,
      "Ġ×ł×ľ×ĳ×©": 2904,
      "Ġ×Ľ×Ļ×ķ": 2905,
      "Ġ×Ľ×ľ×Ļ": 2906,
      "Ġ×Ľ×ľ×Ļ×Ŀ": 2907,
      "Ġ×Ľ×ĸ×Ĳ×ª×Ļ": 2908,
      "Ġ×ª×ķ×¨": 2909,
      "Ġ×ª×¦×ľ": 2910,
      "×¤×ł×ķ": 2911,
      "×¤×ķ×¡": 2912,
      "×¤×Ĺ×ª": 2913,
      "×¤×ķ×ł×Ļ×Ŀ": 2914,
      "×Ĵ×ľ×ª": 2915,
      "×ķ×¨×ĺ": 2916,
      "×§×ĵ": 2917,
      "×ķ×ĵ×ľ": 2918,
      "×¡×Ļ×Ŀ": 2919,
      "×¡×Ļ×ľ×Ķ": 2920,
      "Ġ×§×ŀ×ª": 2921,
      "Ġ×§×ķ×ŀ×Ļ": 2922,
      "Ġ×§×ķ×¡×Ŀ": 2923,
      "×ķ×Ĳ×ķ×ª": 2924,
      "Ġ×Ĵ×ķ×¤": 2925,
      "Ġ×ł×Ľ×Ļ×Ł": 2926,
      "×ķ×ĳ×ķ×ĳ": 2927,
      "Ġ×©×ľ×ĺ": 2928,
      "×¦×ķ×ª": 2929,
      "Ġ×ĺ×¨": 2930,
      "Ġ×ĺ×¢×Ŀ": 2931,
      "×ĺ×ķ×ª": 2932,
      "×ķ×©×ķ×ª": 2933,
      "Ġ×Ļ×©×ŀ×¢": 2934,
      "Ġ×Ļ×©×Ĳ×¨": 2935,
      "Ġ×¦×¨": 2936,
      "Ġ×¦×ķ×ł×Ķ": 2937,
      "Ġ×¦×Ĺ×ķ×§": 2938,
      "×Ļ×ª×Ļ×Ŀ": 2939,
      "Ġ×¤×Ļ×¨×ķ×ª": 2940,
      "Ġ×ľ×Ķ×ĳ": 2941,
      "Ġ×Ĳ×ĸ×¨×ķ×§": 2942,
      "×Ļ×¤×ķ×ª": 2943,
      "×ķ×¤×Ļ×Ŀ": 2944,
      "×¤×¨×Ļ×¢": 2945,
      "Ġ×ľ×Ļ×Ĳ×ķ×¨×Ļ×ľ×Ķ": 2946,
      "Ġ×ľ×©×Ĳ": 2947,
      "Ġ×ľ×©×ĳ×ķ×¨": 2948,
      "Ġ×Ĳ×Ĺ×ĸ×Ļ×§": 2949,
      "Ġ×Ľ×Ĳ×ĳ": 2950,
      "×ķ×Ľ×Ļ×Ķ": 2951,
      "Ġ×ŀ×ª×Ĳ": 2952,
      "Ġ×ŀ×ª×ł×ĵ×ł×ĵ": 2953,
      "Ġ×ŀ×©×¢×ŀ": 2954,
      "Ġ×Ĳ×ł×¢×Ļ×ľ": 2955,
      "Ġ×©×ŀ×ł×ŀ×Ł": 2956,
      "Ġ×ł×©×¢×Ł": 2957,
      "Ġ×Ĳ×Ĺ×¨×ķ×ł×Ķ": 2958,
      "Ġ×ŀ×Ĺ×ĵ": 2959,
      "×ķ×¦×Ļ×Ŀ": 2960,
      "Ġ×ª×ŀ×Ļ": 2961,
      "Ġ×Ĵ×ŀ×¨×Ķ": 2962,
      "×Ĵ×ķ×¨×Ļ×Ŀ": 2963,
      "Ġ×ľ×ŀ×¦×Ĳ": 2964,
      "Ġ×Ķ×Ĵ×¨×Ļ×ľ×Ķ": 2965,
      "Ġ×ĳ×ĺ×¨×Ļ×Ķ": 2966,
      "Ġ×Ķ×ª×¢": 2967,
      "Ġ×ľ×Ĺ×Ľ×ķ×ª": 2968,
      "Ġ×ł×§×ł×Ķ": 2969,
      "Ġ×ł×§×Ļ×Ķ": 2970,
      "Ġ×ª×Ĺ×Ľ×Ķ": 2971,
      "Ġ×ľ×¢×ĳ×ķ×¨": 2972,
      "Ġ×ĳ×¨×ķ×¨": 2973,
      "Ġ×§×ķ×¤×¦×ª": 2974,
      "Ġ×ª×¨×ĵ": 2975,
      "Ġ×ł×ŀ×©×Ļ×ļ": 2976,
      "Ġ×ª×ĳ×ľ": 2977,
      "Ġ×ª×ĳ×ł×Ļ": 2978,
      "Ġ×ŀ×§×ľ×§×ľ": 2979,
      "Ġ×Ľ×ľ×ĳ×ľ×ĳ": 2980,
      "×¦×ľ×¦×ľ": 2981,
      "Ġ×Ĺ×ľ×ķ×ł×ķ×ª": 2982,
      "Ġ×ľ×Ķ×ª×Ĵ×ľ×Ĵ×ľ": 2983,
      "Ġ×©×¤×ł×Ļ": 2984,
      "Ġ×ľ×§×Ĺ×ª×Ļ": 2985,
      "Ġ×¡×ľ×¡×Ļ×ľ×Ķ": 2986,
      "Ġ×Ĳ×ŀ×¨×Ļ×§×Ķ": 2987,
      "Ġ×ª×ł×Ļ×Ĺ×Ļ": 2988,
      "×ł×§×Ķ": 2989,
      "Ġ×Ĺ×ķ×¨×Ļ×Ŀ": 2990,
      "Ġ×ŀ×ŀ×Ŀ": 2991,
      "Ġ×ľ×ĺ×¤×¡": 2992,
      "Ġ×ŀ×¤×Ĺ×ĵ": 2993,
      "Ġ×ĺ×ķ×¡×ĺ": 2994,
      "Ġ×¤×ª×ķ×Ĺ×Ķ": 2995,
      "Ġ×ľ×ķ×§×Ĺ×Ļ×Ŀ": 2996,
      "Ġ×ľ×Ļ×ĵ×Ļ": 2997,
      "Ġ×ĳ×¨×ķ×ķ×ĸ×Ļ×Ŀ": 2998,
      "Ġ×¨×ķ×Ĺ×¦×Ļ×Ŀ": 2999,
      "Ġ×ŀ×§×ķ×ľ×§×ľ×ª": 3000,
      "Ġ×ª×©×Ĳ×ľ": 3001,
      "Ġ×ŀ×Ĳ×Ĺ×ķ×¨×ł×Ļ×ª": 3002,
      "Ġ×ľ×Ķ×¡×Ļ×¢": 3003,
      "Ġ×ŀ×ķ×¨×Ļ": 3004,
      "Ġ×ł×ķ×¤×ľ×ª": 3005,
      "Ġ×¡×ķ×Ĵ×¨×ª": 3006,
      "Ġ×©×ķ×ª×Ļ×Ŀ": 3007,
      "Ġ×Ĳ×¨×ķ×Ĺ×ª×¦×ķ×Ķ×ķ×¨×Ļ×Ļ×Ŀ": 3008,
      "Ġ×ŀ×©×ķ×ľ×©×Ļ×Ŀ": 3009,
      "Ġ×ŀ×ķ×Ľ×ł×Ļ×Ŀ": 3010,
      "Ġ×Ľ×¤×ª×ķ×¨×Ļ×Ŀ": 3011,
      "Ġ×Ķ×¨×Ĳ×ľ×Ļ": 3012,
      "Ġ×¢×ĳ×¨×Ļ×ª": 3013,
      "Ġ×ŀ×ĸ×ľ×Ĵ": 3014,
      "Ġ×Ļ×ł×©×ķ": 3015,
      "Ġ×ŀ×ª×Ĵ×ľ×Ĺ": 3016,
      "Ġ×Ĳ×ĵ×ķ×ŀ×Ļ×Ŀ": 3017,
      "Ġ×ľ×Ķ×©×ª×ķ×ľ×ľ": 3018,
      "Ġ×ķ×¨×ķ×Ŀ": 3019,
      "Ġ×ľ×Ķ×¨×ĳ×Ļ×ľ": 3020,
      "Ġ×Ľ×¨×ĺ×Ļ×¡×Ļ×Ŀ": 3021,
      "Ġ×ŀ×¨×¤×¡×ª": 3022,
      "Ġ×ŀ×¡×ĵ×¨×Ļ×Ŀ": 3023,
      "Ġ×ª×¨×Ľ×Ļ×ĳ×Ļ": 3024,
      "Ġ×ĳ×¦×§": 3025,
      "Ġ×ŀ×ĺ×ĳ×¢×ķ×ª": 3026,
      "Ġ×ĵ×ķ×ł×ĵ×ķ×¡": 3027,
      "Ġ×ŀ×¢×ĵ×Ł": 3028,
      "Ġ×ŀ×Ĵ×¢×Ļ×ľ": 3029,
      "Ġ×ľ×Ĵ×ŀ×¨×Ļ": 3030,
      "Ġ×ŀ×ķ×ĺ×Ļ": 3031,
      "×ŀ×¨×§×ĺ": 3032,
      "Ġ×ŀ×¦×ĺ×¢×¨×ª": 3033,
      "Ġ×ŀ×©×¢×ŀ×Ŀ": 3034,
      "Ġ×Ķ×¢": 3035,
      "Ġ×Ķ×ĵ×ľ×Ļ×§": 3036,
      "Ġ×ľ×ķ×ŀ": 3037,
      "Ġ×ŀ×¨×Ļ×ŀ": 3038,
      "×¨×¢": 3039,
      "×ľ×ķ×¢": 3040,
      "×©×ĵ×Ķ": 3041,
      "Ġ×¢×¡": 3042,
      "Ġ×¢×ĸ×¨×Ķ": 3043,
      "Ġ×¢×ķ×ľ×Ŀ": 3044,
      "Ġ×ĳ×ł×Ķ": 3045,
      "Ġ×ĳ×¨×ĳ": 3046,
      "Ġ×ĳ×¨×§": 3047,
      "Ġ×ĳ×ķ×Ľ×Ļ×Ŀ": 3048,
      "×Ľ×Ļ×ľ": 3049,
      "Ġ×©×¨×Ļ×Ŀ": 3050,
      "Ġ×©×¨×Ļ×ĺ×Ķ": 3051,
      "×Ĺ×Ĳ": 3052,
      "×Ĺ×©×Ļ": 3053,
      "Ġ×ł×ł×Ĵ×ĳ": 3054,
      "Ġ×ł×ł×¡×Ķ": 3055,
      "Ġ×ł×ľ×Ĺ": 3056,
      "Ġ×ł×Ļ×ľ×ķ×Ł": 3057,
      "Ġ×Ļ×ķ×ł": 3058,
      "Ġ×Ļ×¤×ķ×ª": 3059,
      "Ġ×Ļ×ĸ×ķ×ĸ": 3060,
      "Ġ×ª×¨×Ĺ": 3061,
      "Ġ×ª×¦×Ĳ×Ļ": 3062,
      "Ġ×ª×Ļ×¡×¢": 3063,
      "×ŀ×ķ": 3064,
      "×ŀ×ķ×ª": 3065,
      "×§×ķ×ľ×Ķ": 3066,
      "Ġ×ķ×Ļ×ľ×ķ×Ł": 3067,
      "Ġ×Ĺ×¤": 3068,
      "Ġ×Ĺ×ķ×ĵ": 3069,
      "Ġ×Ĺ×¦": 3070,
      "Ġ×Ĺ×ŀ×Ķ": 3071,
      "Ġ×§×¢": 3072,
      "Ġ×§×ŀ×Ķ": 3073,
      "Ġ×§×ķ×ł×Ķ": 3074,
      "Ġ×¡×ĺ": 3075,
      "Ġ×¡×Ļ×ĵ": 3076,
      "Ġ×¡×ķ×Ľ×Ķ": 3077,
      "Ġ×Ĵ×ķ×ŀ×¨": 3078,
      "×Ļ×Ĳ×ª": 3079,
      "Ġ×ĺ×ł×§": 3080,
      "×ĺ×Ļ": 3081,
      "×ĺ×ķ×Ĳ×ª": 3082,
      "Ġ×Ļ×©×Ļ×¨": 3083,
      "Ġ×ŀ×Ļ×Ķ": 3084,
      "Ġ×ĵ×Ĵ×ľ": 3085,
      "Ġ×¤×Ļ": 3086,
      "Ġ×¤×ķ×¤": 3087,
      "Ġ×¤×¨×§": 3088,
      "Ġ×¤×ł×Ĵ": 3089,
      "Ġ×¤×Ļ×Ĵ×Ļ": 3090,
      "Ġ×¤×ķ×¤×ķ": 3091,
      "Ġ×¢×ķ×©×ķ×ª": 3092,
      "Ġ×ĳ×ķ×Ĳ×ķ": 3093,
      "×Ļ×§×ķ": 3094,
      "×Ļ×ĵ×Ļ×Ļ×Ŀ": 3095,
      "×ĳ×¨×Ķ": 3096,
      "Ġ×Ĳ×Ĺ×ķ×¨×Ķ": 3097,
      "×Ļ×ł×ª": 3098,
      "×ķ×ł×ķ": 3099,
      "×ķ×Ĺ×Ļ×Ŀ": 3100,
      "×ķ×Ľ×Ļ": 3101,
      "×¨×Ļ×ļ": 3102,
      "×Ĳ×ª×Ĳ": 3103,
      "Ġ×ª×©×ŀ×¨×Ļ": 3104,
      "×ķ×ĸ×ª": 3105,
      "×ķ×ĸ×Ļ×Ŀ": 3106,
      "Ġ×ŀ×¡×Ľ×Ķ": 3107,
      "Ġ×ŀ×ª×§": 3108,
      "Ġ×ŀ×©×ĳ": 3109,
      "Ġ×ŀ×Ľ×ķ×ł×Ķ": 3110,
      "Ġ×Ĳ×ŀ×¦×Ĳ": 3111,
      "Ġ×ł×¢×Ļ×ŀ×Ļ×Ŀ": 3112,
      "Ġ×Ļ×ĵ×Ļ": 3113,
      "Ġ×Ļ×ĵ×ľ×Ļ×§": 3114,
      "Ġ×ľ×ĳ×ľ×ķ×¢": 3115,
      "×ł×ĵ×Ķ": 3116,
      "Ġ×Ĺ×ŀ×ķ": 3117,
      "Ġ×ŀ×Ĺ×¦×ľ×ª": 3118,
      "Ġ×Ĵ×ŀ×ĵ": 3119,
      "×Ĵ×ķ×¨×ķ": 3120,
      "Ġ×Ĳ×ľ×Ļ×Ķ": 3121,
      "Ġ×Ĳ×ľ×Ļ×ļ": 3122,
      "Ġ×§×ķ×¨×§": 3123,
      "Ġ×ł×ķ×Ķ": 3124,
      "×ĳ×§×ª": 3125,
      "Ġ×ŀ×Ĵ×¨": 3126,
      "Ġ×ŀ×Ĵ×Ļ×¢×Ķ": 3127,
      "Ġ×ĳ×ł×ĵ×Ļ×ĺ×Ķ": 3128,
      "Ġ×ª×§×¢": 3129,
      "Ġ×ľ×Ĺ×ĳ×¨": 3130,
      "Ġ×ľ×Ĺ×Ļ×Ļ×Ŀ": 3131,
      "Ġ×ł×ª×§×©×¨": 3132,
      "×©×ª×Ļ": 3133,
      "Ġ×ŀ×¢×ĺ": 3134,
      "Ġ×ª×ĳ×Ľ×Ķ": 3135,
      "×Ĳ×ĳ×Ļ×ĳ": 3136,
      "Ġ×ł×Ĺ×Ľ×Ķ": 3137,
      "Ġ×ł×Ĺ×ĸ×ķ×¨": 3138,
      "Ġ×ľ×Ķ×ª×ł×ĵ×ł×ĵ": 3139,
      "Ġ×ª×Ľ×Ļ×ł×Ļ": 3140,
      "Ġ×Ľ×ķ×¡×ķ×ª": 3141,
      "Ġ×ĳ×ľ×ķ×ł": 3142,
      "Ġ×Ĳ×Ľ×ľ×ª×Ŀ": 3143,
      "Ġ×©×ĳ×ľ×ķ×ľ": 3144,
      "Ġ×ľ×ª×ľ×ķ×ª": 3145,
      "Ġ×¨×¢×ĳ×Ķ": 3146,
      "Ġ×ŀ×Ĺ×¨×ķ×ĸ×ª": 3147,
      "Ġ×ŀ×ķ×¦×ľ": 3148,
      "Ġ×ł×ĵ×ĳ×Ļ×§": 3149,
      "Ġ×¡×ķ×¤×¨×ª": 3150,
      "Ġ×ŀ×¡×ª×ķ×ĳ×ĳ×ª": 3151,
      "Ġ×Ĳ×ķ×Ķ×ĳ×Ļ×Ŀ": 3152,
      "×ķ×ķ×Ļ×Ł": 3153,
      "Ġ×Ĳ×¦×ľ×ļ": 3154,
      "Ġ×ª×¤×ķ×Ĺ×Ļ×Ŀ": 3155,
      "Ġ×ª×¤×ķ×Ĺ×Ĳ×ĵ": 3156,
      "Ġ×ľ×Ļ×ĵ×ļ": 3157,
      "Ġ×ª×ķ×Ľ×ľ": 3158,
      "Ġ×ª×ķ×Ľ×ł×Ļ×ª": 3159,
      "Ġ×ŀ×ķ×¨×ł×Ļ": 3160,
      "Ġ×§×ķ×§×Ķ": 3161,
      "Ġ×ł×ĵ×ł×ĵ×ķ×ª": 3162,
      "Ġ×§×ķ×ľ×ķ×ª": 3163,
      "Ġ×ĳ×ķ×ĳ×ķ": 3164,
      "Ġ×ĳ×Ļ×ł×ķ×ł×Ļ": 3165,
      "Ġ×ĳ×ĵ×§": 3166,
      "Ġ×Ķ×Ľ×ł×Ļ×¡": 3167,
      "Ġ×¡×ķ×ķ×ĵ×¨": 3168,
      "Ġ×§×¦×¨": 3169,
      "Ġ×ŀ×ł×Ĵ×ł×ª": 3170,
      "Ġ×Ķ×Ļ×¤×ľ×ª": 3171,
      "Ġ×¨×ĺ×ķ×ĳ×Ļ×Ŀ": 3172,
      "Ġ×ł×§×ł×§×Ļ×ķ×ª": 3173,
      "Ġ×©×Ļ×Ĺ×§×ª×Ŀ": 3174,
      "Ġ×ª×ķ×ª×©×ĵ×Ķ": 3175,
      "Ġ×Ĺ×ķ×¤×¤×Ļ×Ŀ": 3176,
      "Ġ×ĳ×ŀ×§×ķ×Ŀ": 3177,
      "Ġ×ĳ×ķ×¨×Ĺ": 3178,
      "Ġ×ĳ×¨×Ļ×Ĳ×ķ×ª": 3179,
      "Ġ×©×Ľ×Ĺ×ª×Ļ": 3180,
      "Ġ×Ķ×¤×Ľ×ª": 3181,
      "Ġ×¦×ł×¦": 3182,
      "Ġ×ª×ĵ×Ĺ": 3183,
      "Ġ×Ĺ×ł×ķ×Ľ×Ļ×Ķ": 3184,
      "Ġ×ĵ×ķ×¤×§": 3185,
      "Ġ×ĵ×ķ×¤×§×ª": 3186,
      "Ġ×ľ×¨×Ĺ×ķ×Ĳ×ª": 3187,
      "Ġ×ŀ×ĳ×§×©×ª": 3188,
      "Ġ×Ĵ×¤×¨×ķ×¨×Ļ×Ŀ": 3189,
      "Ġ×©×ĳ×¨×ª": 3190,
      "Ġ×ķ×¨×ķ×ĵ×Ķ": 3191,
      "Ġ×Ĺ×Ļ×ĳ×ķ×§": 3192,
      "Ġ×ľ×ķ×ľ×Ĳ×Ķ": 3193,
      "Ġ×¡×Ļ×ŀ×Ł": 3194,
      "Ġ×Ľ×ķ×Ľ×ĳ": 3195,
      "Ġ×ª×Ľ×Ĳ×ł×Ļ": 3196,
      "Ġ×ĳ×Ļ×Ĵ×ľ×Ķ": 3197,
      "Ġ×Ĵ×ķ×¤×Ļ×Ķ": 3198,
      "Ġ×¤×ł×Ĵ×ķ×ķ×Ļ×Ł": 3199,
      "Ġ×ª×¤×ķ×Ĺ×Ĳ×ĵ×ŀ×Ķ": 3200,
      "ĠÌ": 3201,
      "×ķ×ķ×Ł": 3202,
      "×Ļ×ķ×Ŀ": 3203,
      "×Ļ×ŀ×Ĳ": 3204,
      "Ġ×Ķ×Ļ×ľ": 3205,
      "Ġ×Ķ×¨×Ķ": 3206,
      "Ġ×Ķ×Ļ×Ľ": 3207,
      "Ġ×Ķ×Ľ×Ļ×Ł": 3208,
      "Ġ×ľ×ĳ×¢": 3209,
      "Ġ×Ĳ×ª×ł×Ķ": 3210,
      "Ġ×Ĳ×ª×§×Ł": 3211,
      "×©×Ļ×¨": 3212,
      "×©×¨×ª": 3213,
      "×©×ķ×ļ": 3214,
      "×ĳ×ķ×ľ": 3215,
      "×ĳ×ľ×ª": 3216,
      "×ĳ×Ĳ×Ķ": 3217,
      "Ġ×¢×¤": 3218,
      "Ġ×¢×ķ×¦": 3219,
      "Ġ×¢×ķ×ĺ": 3220,
      "Ġ×¢×ł×§": 3221,
      "Ġ×¢×ŀ×ĵ": 3222,
      "Ġ×ĳ×Ļ×ľ×ķ": 3223,
      "Ġ×ĳ×Ļ×¦×Ļ×Ŀ": 3224,
      "Ġ×©×¤×Ķ": 3225,
      "Ġ×©×Ļ×ĺ×Ķ": 3226,
      "Ġ×©×ª×Ķ": 3227,
      "Ġ×ł×ķ×ĵ": 3228,
      "Ġ×ł×Ĵ×¨": 3229,
      "Ġ×ł×ķ×ľ×ĵ": 3230,
      "Ġ×Ļ×ķ×Ĺ": 3231,
      "Ġ×Ļ×Ļ×Ĵ": 3232,
      "Ġ×Ļ×¨×Ĳ×Ķ": 3233,
      "Ġ×Ļ×Ĵ×Ļ×¢": 3234,
      "Ġ×Ļ×Ļ×¡×¢": 3235,
      "Ġ×Ľ×¤×¨": 3236,
      "Ġ×ª×¨×ĳ": 3237,
      "Ġ×ª×ĵ×ľ×Ļ×§": 3238,
      "Ġ×ª×ľ×ĳ×Ļ×©": 3239,
      "Ġ×ľ×Ĳ×Ķ": 3240,
      "×ŀ×ł": 3241,
      "×ŀ×Ŀ": 3242,
      "×ŀ×©×Ļ×ļ": 3243,
      "×ĵ×ķ×ĵ×Ķ": 3244,
      "×Ĵ×Ļ×Ŀ": 3245,
      "Ġ×ķ×Ĳ": 3246,
      "×¡×¤×¨": 3247,
      "Ġ×Ĺ×Ľ": 3248,
      "Ġ×Ĺ×¨×Ļ": 3249,
      "Ġ×Ĺ×ł×Ķ": 3250,
      "Ġ×§×Ł": 3251,
      "Ġ×¡×Ļ×ĳ×Ķ": 3252,
      "Ġ×Ĵ×Ļ×ľ×Ļ": 3253,
      "Ġ×Ĵ×¨×ķ×ĵ": 3254,
      "×Ļ×Ĳ×Ŀ": 3255,
      "×ĺ×Ŀ": 3256,
      "×ķ×©×ª": 3257,
      "×ķ×©×¨": 3258,
      "Ġ×Ķ×Ĵ×Ķ": 3259,
      "Ġ×¢×ľ×Ļ×ļ": 3260,
      "Ġ×ŀ×Ļ×ķ×Ĺ×ĵ": 3261,
      "Ġ×ĵ×Ķ": 3262,
      "Ġ×ĵ×Ł": 3263,
      "Ġ×¤×ķ×Ļ": 3264,
      "Ġ×ľ×Ķ×ŀ×©×Ļ×ļ": 3265,
      "×ķ×§×ķ×¡": 3266,
      "×Ļ×§×¨": 3267,
      "Ġ×ĺ×ķ×ĳ×Ļ×Ŀ": 3268,
      "×ĳ×¨×ª": 3269,
      "×ĳ×¨×Ĺ": 3270,
      "Ġ×Ĳ×Ĺ×¤×©": 3271,
      "Ġ×Ĳ×Ķ×Ļ×ľ": 3272,
      "×¢×©×¨×Ķ": 3273,
      "Ġ×ª×©×ª×Ķ": 3274,
      "×Ĺ×ª×Ļ": 3275,
      "Ġ×ŀ×ª×¢": 3276,
      "Ġ×Ĳ×ł×Ĳ×ł": 3277,
      "Ġ×ŀ×Ľ×Ĳ×Ļ×ĳ": 3278,
      "Ġ×©×ŀ×Ļ×Ľ×ķ×ª": 3279,
      "Ġ×¡×¤×¨×Ķ": 3280,
      "Ġ×ŀ×§×¡": 3281,
      "Ġ×ľ×ĳ×§×©": 3282,
      "Ġ×ľ×ĳ×ķ×©×Ķ": 3283,
      "Ġ×Ĳ×Ĺ×¨×ķ×ª": 3284,
      "Ġ×Ĺ×ŀ×Ļ×Ŀ": 3285,
      "Ġ×Ĵ×ĵ×Ļ": 3286,
      "Ġ×Ĵ×ĵ×ķ×ľ×ķ×ª": 3287,
      "Ġ×ĳ×ª×ĵ×ķ×ĵ×Ķ": 3288,
      "Ġ×ŀ×Ĺ×ĳ×Ļ×Ĳ": 3289,
      "Ġ×ľ×Ĳ×ķ×¨×Ļ×ľ×Ķ": 3290,
      "Ġ×¨×Ĳ×©×ķ×ł×Ķ": 3291,
      "Ġ×ŀ×Ĵ×Ķ": 3292,
      "Ġ×Ĵ×ľ×Ļ×Ŀ": 3293,
      "Ġ×Ĳ×¡×ª×Ľ×ľ": 3294,
      "Ġ×Ķ×ª×Ľ×ķ": 3295,
      "Ġ×Ķ×ª×Ĺ×Ļ×ľ": 3296,
      "Ġ×ŀ×ĺ×Ĳ×ĺ": 3297,
      "Ġ×ľ×Ĺ×ĸ×ķ×¨": 3298,
      "Ġ×ł×§×¨×¢": 3299,
      "Ġ×¤×ª×Ĺ×Ķ": 3300,
      "Ġ×Ľ×Ļ×¡×Ĳ×ķ×ª": 3301,
      "Ġ×ª×Ĳ×¨×Ļ×ļ": 3302,
      "Ġ×ª×Ĺ×¨×ķ×ª": 3303,
      "×Ļ×Ľ×ª": 3304,
      "Ġ×Ľ×ª×Ŀ": 3305,
      "Ġ×§×¨×Ŀ": 3306,
      "Ġ×ł×¡×Ĵ×¨×Ķ": 3307,
      "Ġ×¤×¨×ķ×¡": 3308,
      "Ġ×ľ×¢×ĸ×ķ×ĳ": 3309,
      "Ġ×ŀ×¢×ĳ×¨": 3310,
      "Ġ×ª×¨×Ĵ×©×Ļ": 3311,
      "Ġ×ª×¨×ķ×¤×ķ×ª": 3312,
      "Ġ×ł×¨×ĺ": 3313,
      "Ġ×ª×Ľ×Ļ×Ł": 3314,
      "Ġ×¡×ľ×Ļ×ľ": 3315,
      "Ġ×Ľ×ĳ×ķ×ĵ": 3316,
      "Ġ×ľ×Ĵ×¨×ĵ": 3317,
      "Ġ×§×¡×ĺ×ķ×ª": 3318,
      "Ġ×ľ×ª×§×Ł": 3319,
      "Ġ×©×¨×Ĵ×Ĳ": 3320,
      "Ġ×¡×ł×ĵ×ķ×ķ": 3321,
      "Ġ×ľ×¨×Ľ×ĳ": 3322,
      "Ġ×ŀ×¡×ª×Ľ×ľ×Ļ×Ŀ": 3323,
      "Ġ×ł×Ĵ×ŀ×¨×ķ": 3324,
      "Ġ×ľ×Ľ×¡×ķ×ª": 3325,
      "Ġ×ŀ×ĵ×ĳ×§×Ķ": 3326,
      "Ġ×ĳ×Ķ×Ŀ": 3327,
      "Ġ×Ĳ×§×ĵ": 3328,
      "Ġ×Ĳ×§×¨×Ĳ": 3329,
      "Ġ×Ĺ×ĳ×Ļ×ľ×Ķ": 3330,
      "Ġ×¤×ľ×¤×Ļ×ľ": 3331,
      "Ġ×ľ×ł×¢×ķ×ľ": 3332,
      "Ġ×Ĵ×Ĵ×Ķ": 3333,
      "Ġ×ª×ĳ×ķ×Ĳ×Ļ": 3334,
      "Ġ×Ļ×ķ×¦×Ĳ×Ļ×Ŀ": 3335,
      "Ġ×ľ×ķ×ĳ×©×Ļ×Ŀ": 3336,
      "Ġ×©×Ľ×ł×Ļ×Ŀ": 3337,
      "Ġ×ł×Ķ×Ļ×Ķ": 3338,
      "Ġ×ľ×ľ×ľ×Ķ": 3339,
      "Ġ×ľ×ľ×ŀ×ķ×ĵ": 3340,
      "Ġ×ľ×ľ×Ĺ×ķ": 3341,
      "Ġ×Ļ×¦×Ĳ×Ķ": 3342,
      "Ġ×ŀ×ª×Ĺ×©×§": 3343,
      "Ġ×Ĳ×Ľ×¢×¡": 3344,
      "Ġ×¡×¤×ľ": 3345,
      "Ġ×ŀ×§×¨×¨×ª": 3346,
      "Ġ×ĵ×ķ×ķ×©×ķ×ª": 3347,
      "Ġ×ľ×Ķ×©×Ĺ×Ļ×ľ": 3348,
      "Ġ×ĵ×ĳ×¨×Ļ": 3349,
      "Ġ×ŀ×ł×Ĵ×ĳ×ª": 3350,
      "Ġ×ŀ×ķ×Ľ×ł×Ķ": 3351,
      "Ġ×Ľ×ķ×ª×ĳ×Ļ×Ŀ": 3352,
      "Ġ×¤×Ļ×ł×ķ×§×Ļ×ķ": 3353,
      "Ġ×ŀ×¡×¨×§×ª": 3354,
      "Ġ×Ļ×ķ×ķ×ł×Ļ×Ŀ": 3355,
      "Ġ×ŀ×©×ª×ŀ": 3356,
      "Ġ×¢×ĸ×ķ×ĳ": 3357,
      "Ġ×¨×ķ×§×ĵ×Ļ×Ŀ": 3358,
      "Ġ×¦×ķ×¨×ķ×ª": 3359,
      "Ġ×Ķ×¦×ľ×Ļ×Ĺ": 3360,
      "Ġ×Ĳ×ķ×§×Ļ": 3361,
      "Ġ×¤×Ĳ×Ļ×Ĳ×Ŀ": 3362,
      "Ġ×ŀ×§×©×§×©": 3363,
      "Ġ×ª×ĺ×ĳ×ľ×Ļ": 3364,
      "Ġ×ŀ×ľ×Ĺ×ŀ×Ķ": 3365,
      "Ġ×§×ł×Ĵ×ķ×¨×ķ": 3366,
      "Ġ×ĵ×ķ×¤×ľ×ķ": 3367,
      "Ġ×Ķ×ĵ×¡": 3368,
      "Ġ×ł×ĸ×ľ×ª": 3369,
      "Ġ×¢×ľ×Ļ×Ķ×Ŀ": 3370,
      "Ġ×Ĳ×ķ×¡×¤×ª": 3371,
      "Ġ×ŀ×ª×Ĵ×ľ×¦": 3372,
      "Ġ×Ĺ×Ļ×¤×ķ×©×Ļ×ª": 3373,
      "Ġ×ł×¨×Ĺ×Ĳ×ª": 3374,
      "Ġ×¨×©×ķ×ł×Ļ×Ŀ": 3375,
      "Ġ×Ķ×ķ×¦×Ĳ×ª×Ļ": 3376,
      "Ġ×¨×ķ×Ľ×ĳ×ª": 3377,
      "Ġ×ŀ×Ĺ×ľ×Ļ×¤×Ķ": 3378,
      "Ġ×¢×§×¨×ĳ": 3379,
      "Ġ×ª×¤×¨×§×Ļ": 3380,
      "Ġ×Ľ×¢×ļ": 3381,
      "Ġ×ŀ×©×ª×ķ×ľ×ľ×ª": 3382,
      "Ġ×Ķ×¡×ª×Ľ×ľ×Ķ": 3383,
      "Ġ×Ĺ×ķ×ĸ×¨": 3384,
      "Ġ×ĳ×Ľ×Ļ×ª": 3385,
      "Ġ×¢×Ľ×ĳ×Ļ×©": 3386,
      "Ġ×ľ×Ķ×¢×Ļ×¨": 3387,
      "Ġ×§×ĺ×ł×ĺ×Ł": 3388,
      "Ġ×ŀ×ķ×Ľ×¨×Ĺ×Ļ×Ŀ": 3389,
      "Ġ×Ķ×ł×¨×Ļ×ĺ×Ķ": 3390,
      "Ġ×ľ×Ķ×ł×¢×Ļ×ľ": 3391,
      "Ġ×ª×Ĺ×ĳ×¨×Ļ": 3392,
      "Ġ×Ĵ×Ļ×ł×Ĵ×Ļ": 3393,
      "Ġ×ĵ×ķ×ŀ×Ļ×ł×ķ": 3394,
      "Ġ×ł×¨×Ĳ×ª": 3395,
      "Ġ×ľ×©×Ĳ×ķ×ľ": 3396,
      "Ġ×§×ķ×¨×§×ĳ×Ł": 3397,
      "Ġ×ŀ×ķ×¦×ľ×Ĺ×ª": 3398,
      "Ġ×ª×ĵ×Ĺ×¤×Ļ": 3399,
      "Ġ×ľ×ĳ×¢×ķ×ĺ": 3400,
      "Ġ×¢×¤×Ļ×¤×ķ×Ł": 3401,
      "Ġ×Ĳ×ł×Ĳ×ł×Ĳ×Ł": 3402,
      "Ġ×¡×ł×ĵ×ķ×ķ×Ļ×¦": 3403,
      "Ġ×¤×ľ×¤×Ļ×ľ×ķ×Ł": 3404,
      "ĵ×Ķ": 3405,
      "Ġ×Ĳ×¡×ĵ×¨": 3406,
      "Ġ×Ĳ×Ĳ×ĳ": 3407,
      "Ġ×Ĳ×ľ×ĳ×Ļ×©": 3408,
      "Ġ×Ĳ×Ĵ×ŀ×ķ×¨": 3409,
      "Ġ×Ķ×¨×Ļ": 3410,
      "Ġ×Ķ×ķ×¨×Ļ×ĵ": 3411,
      "Ġ×Ķ×¤×¡": 3412,
      "Ġ×ľ×¦×¢": 3413,
      "Ġ×ľ×ł×ĵ×ł×ĵ": 3414,
      "Ġ×ľ×ĸ×ķ×ĸ": 3415,
      "Ġ×ŀ×ķ×ł": 3416,
      "Ġ×ŀ×ķ×ł×Ķ": 3417,
      "Ġ×ŀ×ĵ×ľ×Ļ×§": 3418,
      "×¨×©": 3419,
      "×¨×Ĵ": 3420,
      "×¨×Ļ×Ĳ": 3421,
      "×¨×ķ×Ĺ": 3422,
      "×¨×Ľ×ĳ×ª": 3423,
      "×Ĳ×©": 3424,
      "×Ĳ×¨×Ļ": 3425,
      "×Ĳ×Ĵ×Ļ": 3426,
      "×ľ×ľ": 3427,
      "×©×ķ×§": 3428,
      "×©×Ļ×ł×Ķ": 3429,
      "×ĳ×ķ×ª": 3430,
      "Ġ×¢×¤×¨": 3431,
      "Ġ×¢×ķ×ł": 3432,
      "Ġ×¢×¦×Ļ": 3433,
      "×ł×¦": 3434,
      "×ł×¤×ľ×§×¡": 3435,
      "Ġ×ĳ×ķ×ľ": 3436,
      "Ġ×ĳ×ķ×¡": 3437,
      "Ġ×ĳ×ľ×ĳ": 3438,
      "Ġ×ĳ×ķ×Ľ×ķ×ª": 3439,
      "×Ľ×¨": 3440,
      "Ġ×©×Ļ×¨×Ļ": 3441,
      "Ġ×©×§×ľ": 3442,
      "×Ĺ×¨": 3443,
      "×Ĺ×ķ×Ŀ": 3444,
      "Ġ×ł×ĺ": 3445,
      "Ġ×ł×ķ×ŀ": 3446,
      "Ġ×ł×ĳ×§": 3447,
      "Ġ×ł×ĸ×¨×ķ×§": 3448,
      "Ġ×Ļ×¤": 3449,
      "Ġ×Ļ×ķ×ľ": 3450,
      "Ġ×Ļ×Ļ×¡": 3451,
      "Ġ×Ļ×ķ×¨×Ļ×ĵ": 3452,
      "Ġ×Ļ×Ľ×Ļ×Ł": 3453,
      "Ġ×Ļ×§×ľ×Ļ×ĺ": 3454,
      "Ġ×Ľ×ķ×©×Ļ": 3455,
      "Ġ×ª×Ĵ": 3456,
      "Ġ×ª×Ľ×ª": 3457,
      "Ġ×ª×¦×¢": 3458,
      "Ġ×ª×Ĵ×ĸ": 3459,
      "Ġ×ª×ķ×¨×Ļ": 3460,
      "Ġ×¨×Ļ×ĳ×Ķ": 3461,
      "×¢×ł×ª": 3462,
      "×ŀ×ł×ķ": 3463,
      "×ŀ×ł×Ļ×Ķ": 3464,
      "×ŀ×Ĳ×Ļ×¨": 3465,
      "×¤×¡×Ķ": 3466,
      "×ķ×¨×¨": 3467,
      "×ķ×¨×Ļ×ª": 3468,
      "Ġ×Ĳ×Ļ×ĵ×Ķ": 3469,
      "×ķ×ľ×ķ": 3470,
      "×§×ķ": 3471,
      "×§×ķ×ľ": 3472,
      "×ķ×ĵ×Ļ": 3473,
      "×ķ×ĵ×Ļ×ľ": 3474,
      "Ġ×ķ×ķ×ķ": 3475,
      "Ġ×ķ×Ĳ×ķ": 3476,
      "×¡×ķ×Ĳ×ª": 3477,
      "Ġ×Ĺ×¦×Ĳ": 3478,
      "Ġ×Ĺ×ķ×ŀ×¨": 3479,
      "Ġ×§×ķ×©": 3480,
      "Ġ×§×Ļ×ľ": 3481,
      "Ġ×§×¨×ķ×§": 3482,
      "Ġ×§×¨×Ļ×Ŀ": 3483,
      "Ġ×§×ķ×¦×Ļ×Ŀ": 3484,
      "×ķ×Ĳ×ķ": 3485,
      "×ķ×Ĳ×Ļ×Ŀ": 3486,
      "Ġ×Ĵ×Ļ×ľ": 3487,
      "Ġ×Ĵ×Ļ×ŀ": 3488,
      "Ġ×Ĵ×ľ×ĳ": 3489,
      "×ķ×ĳ×¢×Ļ×Ŀ": 3490,
      "Ġ×©×ľ×©": 3491,
      "Ġ×©×ľ×Ŀ": 3492,
      "×¦×ĳ": 3493,
      "×¦×Ļ×Ĳ": 3494,
      "Ġ×ĺ×¤×¡×Ļ": 3495,
      "×ĺ×ł": 3496,
      "×ĺ×¤×ª": 3497,
      "Ġ×¦×¢": 3498,
      "Ġ×¦×Ļ×¦×Ļ": 3499,
      "Ġ×¢×ľ×Ļ×Ŀ": 3500,
      "Ġ×Ĳ×ĳ×ł×Ļ×Ŀ": 3501,
      "Ġ×ĵ×©": 3502,
      "Ġ×ĵ×ķ×ĳ×Ķ": 3503,
      "Ġ×ĵ×¤×Ļ×Ŀ": 3504,
      "Ġ×¤×Ļ×ª": 3505,
      "Ġ×¤×Ļ×ł×Ķ": 3506,
      "Ġ×¤×Ļ×©": 3507,
      "Ġ×¤×ķ×¢×ľ": 3508,
      "Ġ×ľ×Ķ×Ĳ": 3509,
      "Ġ×ľ×Ķ×Ĵ×ĳ": 3510,
      "×Ļ×¤×ª": 3511,
      "×Ļ×¤×ª×Ĺ": 3512,
      "×Ļ×Ķ×¨×Ľ×ĳ×ª": 3513,
      "Ġ×Ĳ×ķ×Ļ×©": 3514,
      "Ġ×Ĳ×ķ×ķ×ķ×Ķ": 3515,
      "Ġ×Ĳ×Ĺ×ķ×ª": 3516,
      "Ġ×ĸ×ķ×ĸ": 3517,
      "Ġ×ĸ×ĳ×ľ": 3518,
      "Ġ×ĸ×ĳ×¨×Ķ": 3519,
      "×ķ×ł×ª×Ļ": 3520,
      "×ķ×Ĺ×Ļ": 3521,
      "×ķ×ŀ×ĺ×Ŀ": 3522,
      "×Ĳ×ª×Ķ": 3523,
      "Ġ×ª×¡×ĵ×¨": 3524,
      "Ġ×ª×¡×ķ×ĳ×ĳ": 3525,
      "Ġ×ŀ×¡×Ļ×ĳ×ª": 3526,
      "Ġ×ŀ×©×ļ": 3527,
      "Ġ×ŀ×©×ĺ": 3528,
      "Ġ×ŀ×©×Ľ×Ļ×ĳ×Ķ": 3529,
      "Ġ×ŀ×©×¢×ł×ª": 3530,
      "×Ļ×ĳ×Ļ×Ŀ": 3531,
      "Ġ×Ĳ×ł×Ĵ×ĳ": 3532,
      "Ġ×ŀ×Ľ×©×Ļ×¨": 3533,
      "Ġ×ł×¢×ľ×ĳ": 3534,
      "Ġ×¡×¤×¨×ķ": 3535,
      "Ġ×¡×¤×¨×ķ×ª": 3536,
      "×Ļ×ŀ×ķ": 3537,
      "Ġ×Ļ×ĵ×Ļ×ª": 3538,
      "Ġ×Ļ×ĵ×¢×ª": 3539,
      "Ġ×Ļ×ĵ×¢×ª×Ļ": 3540,
      "×Ļ×¦×ķ×ª": 3541,
      "Ġ×Ĳ×¨×ķ×Ľ×ķ×ª": 3542,
      "×ľ×ĳ×ľ": 3543,
      "×Ļ×ķ×ª×¨": 3544,
      "Ġ×ŀ×Ĺ×Ļ": 3545,
      "Ġ×ŀ×Ĺ×ĳ×§×ª": 3546,
      "Ġ×Ĳ×ľ×Ļ×ŀ×ķ×ª": 3547,
      "Ġ×ľ×§×©": 3548,
      "Ġ×§×ķ×¨×ł×¤×ľ×§×¡": 3549,
      "Ġ×ŀ×¦×¤×¦": 3550,
      "Ġ×ŀ×¦×Ĳ×ł×ķ": 3551,
      "Ġ×ľ×ŀ×ĵ×ķ×ĵ": 3552,
      "Ġ×Ķ×Ĵ×¨×Ļ×ľ×Ļ": 3553,
      "Ġ×ĳ×Ļ×ª×Ļ": 3554,
      "×ĵ×ª×Ļ": 3555,
      "Ġ×¨×¦×Ļ×Ŀ": 3556,
      "Ġ×ŀ×Ĵ×Ļ×¨×ķ×ª": 3557,
      "Ġ×ĳ×ł×ĵ×Ļ×ĺ": 3558,
      "Ġ×Ĵ×ĳ×ķ×ª": 3559,
      "Ġ×ŀ×ľ×ķ×Ĺ": 3560,
      "Ġ×Ķ×ª×Ĵ×ľ": 3561,
      "Ġ×Ķ×ª×Ļ×©": 3562,
      "Ġ×Ķ×ª×ĳ×ľ×ĳ": 3563,
      "Ġ×Ķ×ª×¤×¨×§": 3564,
      "Ġ×ŀ×ĺ×ķ×ŀ×ĺ×Ŀ": 3565,
      "Ġ×Ĺ×ķ×ľ×Ļ×Ŀ": 3566,
      "Ġ×ł×§×ķ×ĵ×Ķ": 3567,
      "×ĳ×Ļ×Ļ×©": 3568,
      "Ġ×¤×ª×§": 3569,
      "Ġ×¤×ª×Ļ×ª×Ļ×Ŀ": 3570,
      "Ġ×ª×Ĺ×©": 3571,
      "Ġ×ª×Ĺ×¤": 3572,
      "×Ļ×©×¨": 3573,
      "Ġ×§×¨×ķ×ł×ķ×ª": 3574,
      "Ġ×ł×¡×¢×ł×ķ": 3575,
      "Ġ×¤×¨×ĸ": 3576,
      "Ġ×Ĺ×ĸ×¨": 3577,
      "Ġ×Ĺ×ĸ×¨×ª": 3578,
      "Ġ×ł×ª×ª×Ļ": 3579,
      "Ġ×ŀ×Ĳ×Ķ": 3580,
      "Ġ×ŀ×Ĳ×Ĺ": 3581,
      "Ġ×ľ×¢×ķ": 3582,
      "×Ľ×ĳ×Ļ×¡×Ķ": 3583,
      "Ġ×§×ķ×¤×¡×ª": 3584,
      "Ġ×Ĳ×Ľ×ľ×ł×ķ": 3585,
      "Ġ×Ļ×¨×ķ×§×Ļ×Ŀ": 3586,
      "Ġ×§×ľ×Ļ×¤×ķ×ª": 3587,
      "Ġ×ª×ĳ×©": 3588,
      "Ġ×ŀ×§×ľ×ķ×ª": 3589,
      "Ġ×ł×¨×ķ": 3590,
      "Ġ×ł×Ĺ×ľ": 3591,
      "Ġ×ª×Ķ×¤×Ľ×Ļ": 3592,
      "Ġ×Ļ×¢×ľ×Ļ": 3593,
      "Ġ×ª×Ľ×¡×Ļ": 3594,
      "Ġ×©×¤×Ļ": 3595,
      "Ġ×©×¤×Ľ×ª": 3596,
      "Ġ×Ĺ×ŀ×ķ×ĵ×ķ×Ł": 3597,
      "Ġ×ª×ł×¤×Ĺ": 3598,
      "Ġ×ª×ł×Ĺ×©×Ļ": 3599,
      "Ġ×Ĳ×©×ľ": 3600,
      "Ġ×Ĺ×ķ×¨×©×Ķ": 3601,
      "Ġ×ľ×ª×¤×ķ×¡": 3602,
      "Ġ×©×¨×©×¨×ª": 3603,
      "Ġ×ŀ×ŀ×Ļ": 3604,
      "Ġ×Ĺ×¡×Ļ×ĵ×Ķ": 3605,
      "Ġ×ª×ľ×Ľ×ķ": 3606,
      "Ġ×ŀ×ĸ×ŀ×Ł": 3607,
      "Ġ×ŀ×ĸ×Ľ×Ļ×¨": 3608,
      "Ġ×ŀ×ĸ×ŀ×ķ×ĸ": 3609,
      "Ġ×¦×ĵ×ĵ×Ļ×Ŀ": 3610,
      "Ġ×§×©×¨": 3611,
      "Ġ×§×©×ķ×ĺ×Ļ×Ŀ": 3612,
      "Ġ×ľ×ĺ×¤×ľ": 3613,
      "Ġ×ŀ×ĵ×Ĺ×ķ×Ŀ": 3614,
      "×ĳ×Ķ×ĳ": 3615,
      "Ġ×ŀ×ľ×¤×¤×ķ×ł×Ļ×Ŀ": 3616,
      "Ġ×Ĳ×¨×ĳ×¢×Ķ": 3617,
      "Ġ×Ĳ×§×ķ×ķ×¨": 3618,
      "Ġ×Ļ×§×ł×Ķ": 3619,
      "×ł×ĺ×ķ×Ł": 3620,
      "Ġ×Ĺ×ĳ×ķ×ĳ": 3621,
      "Ġ×Ĳ×¨×ķ×Ĺ×ª×Ķ": 3622,
      "Ġ×¤×¨×Ĺ×ķ×ł×Ļ×ª": 3623,
      "×§×©×Ļ×ĳ": 3624,
      "Ġ×¤×¡×Ļ×Ķ×¨×Ľ×ĳ×ª": 3625,
      "Ġ×¢×ķ×ĳ×¨": 3626,
      "Ġ×Ļ×ķ×¨×ĵ×ª": 3627,
      "Ġ×¤×Ĺ×ķ×ª": 3628,
      "Ġ×ª×©×Ĳ×¨×Ļ": 3629,
      "Ġ×Ĳ×Ĵ×ķ×ĸ×Ļ×Ŀ": 3630,
      "Ġ×ľ×¦×Ĺ×¦×Ĺ": 3631,
      "Ġ×©×Ľ×ł×Ķ": 3632,
      "Ġ×¨×ķ×¦×ķ×ª": 3633,
      "Ġ×ŀ×¦×ľ×ŀ×Ķ": 3634,
      "Ġ×Ĺ×©×ĳ×ª": 3635,
      "Ġ×ª×ł×¡×Ķ": 3636,
      "Ġ×Ļ×¦×Ĳ×ķ": 3637,
      "Ġ×ĵ×ķ×ĳ×ķ×Ł": 3638,
      "Ġ×ł×©×ĳ×¨×ķ": 3639,
      "Ġ×©×ķ×Ľ×ĳ×Ļ×Ŀ": 3640,
      "Ġ×ª×¢×ĸ×ķ×ĳ": 3641,
      "Ġ×¢×Ĵ×ĳ×ł×Ļ×ķ×ª": 3642,
      "Ġ×Ļ×ķ×¦×Ĳ×ķ×ª": 3643,
      "Ġ×¡×¤×Ĳ×¨×Ļ": 3644,
      "Ġ×ŀ×§×ľ×Ļ×ĺ×Ļ×Ŀ": 3645,
      "Ġ×ª×Ĺ×ĸ×Ļ×§": 3646,
      "Ġ×ª×Ĺ×ĸ×Ļ×¨×Ļ": 3647,
      "Ġ×ŀ×ķ×¨×Ļ×ĵ×Ļ×Ŀ": 3648,
      "Ġ×Ķ×ľ×Ľ×ª×Ļ": 3649,
      "Ġ×ĵ×ĳ×ķ×¨×Ķ": 3650,
      "Ġ×§×¦×Ļ×¦×Ķ": 3651,
      "Ġ×ŀ×ł×Ĵ×ĳ": 3652,
      "Ġ×ĳ×¢×¦×Ŀ": 3653,
      "×¢×¡×Ļ": 3654,
      "Ġ×Ķ×¦×Ļ×ľ×ķ": 3655,
      "Ġ×ŀ×ĺ×¤×ľ×ª": 3656,
      "Ġ×ł×©×Ĳ×¨×ª": 3657,
      "Ġ×ŀ×§×©×Ļ×ĳ×Ķ": 3658,
      "Ġ×ŀ×§×©×§×©×ª": 3659,
      "Ġ×ł×ĳ×Ĺ×Ł": 3660,
      "Ġ×Ĵ×Ļ×ĳ×ķ×¨×Ļ×Ŀ": 3661,
      "Ġ×ŀ×¤×Ĺ×Ļ×ĵ×Ķ": 3662,
      "Ġ×ª×ĵ×Ĳ×Ĵ×Ļ": 3663,
      "Ġ×ĵ×ķ×¨×ļ": 3664,
      "Ġ×Ļ×Ľ×¢×¡": 3665,
      "Ġ×ł×Ļ×Ĵ×©": 3666,
      "Ġ×¦×ŀ×Ļ×ĵ": 3667,
      "Ġ×ĵ×ł×Ļ×Ĳ×ľ": 3668,
      "Ġ×¨×ŀ×§×ķ×ľ": 3669,
      "Ġ×ľ×Ķ×¨×ĳ×Ļ": 3670,
      "Ġ×¡×ł×ĺ×¨×ķ×Ł": 3671,
      "Ġ×¤×ł×Ļ×ŀ×Ķ": 3672,
      "Ġ×ª×©×ª×ŀ": 3673,
      "Ġ×Ĺ×ľ×Ļ×ľ×Ļ×ª": 3674,
      "Ġ×Ļ×¢×¨×ķ×ł×ª": 3675,
      "Ġ×ŀ×ĺ×¤×¡×Ļ×Ŀ": 3676,
      "Ġ×Ľ×Ļ×ĳ×Ļ×ª": 3677,
      "Ġ×ĵ×§×ķ×ª": 3678,
      "Ġ×ľ×Ķ×¨×Ľ×Ļ×ĳ": 3679,
      "Ġ×Ķ×©×Ĳ×¨×ª": 3680,
      "Ġ×©×ķ×ĺ×¨": 3681,
      "Ġ×ŀ×¢×¨×ĳ×ĳ×Ļ×Ŀ": 3682,
      "Ġ×ŀ×¨×Ļ×Ĺ×Ķ": 3683,
      "Ġ×©×Ĺ×ķ×¨×Ķ": 3684,
      "Ġ×ľ×Ĳ×¡×ķ": 3685,
      "Ġ×Ķ×¨×ŀ×ª×Ļ": 3686,
      "Ġ×ª×ł×Ĵ×ł×Ļ": 3687,
      "Ġ×ª×ł×¢×Ļ×ľ×Ļ": 3688,
      "Ġ×Ľ×Ļ×ķ×ķ×ķ×Ł": 3689,
      "Ġ×ľ×Ķ×ĳ×Ļ×Ł": 3690,
      "Ġ×ł×ľ×Ĺ×ŀ×Ļ×Ŀ": 3691,
      "Ġ×Ĺ×ķ×ĵ×©": 3692,
      "Ġ×§×¢×¨×Ķ": 3693,
      "Ġ×Ĳ×ľ×Ļ×Ķ×ķ": 3694,
      "Ġ×¦×ł×¦×ł×ª": 3695,
      "ĠÌģ": 3696,
      "Ġ×ł×ķ×ĵ×ł×Ļ×§": 3697,
      "Ġ×Ļ×ķ×Ĺ×Ĳ×Ļ": 3698,
      "Ġ×Ķ×ª×Ľ×ķ×ķ×ł×ª×Ļ": 3699,
      "Ġ×Ĳ×§×ĵ×Ĺ": 3700,
      "Ġ×ľ×¦×¢×ķ×§": 3701,
      "Ġ×¢×¤×¨×ķ×ł×ķ×ª": 3702,
      "Ġ×¢×ķ×ł×ĵ×ª": 3703,
      "Ġ×ĳ×ķ×¡×¨": 3704,
      "Ġ×Ĺ×¦×Ĳ×Ļ×ª": 3705,
      "Ġ×§×¨×ķ×§×ķ×ĵ×Ļ×ľ": 3706,
      "Ġ×Ĵ×ľ×ĳ×ķ×¢": 3707,
      "Ġ×ľ×Ķ×Ĵ×ĳ×Ļ×¨": 3708,
      "Ġ×Ĳ×§×ķ×ķ×¨×Ļ×ķ×Ŀ": 3709,
      "×Ķ×ķ×ª": 3710,
      "Ġ×Ĳ×ŀ×Ķ": 3711,
      "Ġ×Ĳ×ľ×ķ×Ł": 3712,
      "Ġ×Ķ×¨×ĺ": 3713,
      "Ġ×ľ×Ļ×ĳ×Ķ": 3714,
      "Ġ×ľ×ķ×¨×Ļ": 3715,
      "Ġ×ŀ×ŀ×Ķ": 3716,
      "Ġ×ŀ×ķ×¡": 3717,
      "Ġ×ŀ×Ĺ×§": 3718,
      "Ġ×ŀ×Ļ×§×Ķ": 3719,
      "Ġ×ŀ×Ļ×¦×Ļ": 3720,
      "×¨×Ĵ×ĸ": 3721,
      "×ľ×ĵ": 3722,
      "×ľ×Ľ×ľ": 3723,
      "Ġ×Ĳ×ª×Ľ×Ŀ": 3724,
      "×©×Ľ×Ļ×¨": 3725,
      "×ĳ×Ĳ×ª": 3726,
      "×ĳ×ĵ×Ļ": 3727,
      "Ġ×¢×¨": 3728,
      "Ġ×¢×ķ×ł×Ķ": 3729,
      "Ġ×¢×ŀ×ķ×ĵ": 3730,
      "Ġ×ĳ×ķ×§": 3731,
      "Ġ×ĳ×ķ×ł×Ļ×Ŀ": 3732,
      "Ġ×ĳ×ķ×ŀ×¡": 3733,
      "×Ľ×ķ×¤": 3734,
      "×Ľ×¡×Ķ": 3735,
      "Ġ×©×Ĳ×ĳ": 3736,
      "Ġ×©×Ļ×Ĺ×Ķ": 3737,
      "Ġ×ł×ķ×©": 3738,
      "Ġ×ł×Ļ×¤": 3739,
      "Ġ×ł×¤×¨": 3740,
      "Ġ×ł×ĸ×Ķ": 3741,
      "Ġ×ł×Ļ×¦×Ķ": 3742,
      "Ġ×ł×¦×ľ×¦×ľ": 3743,
      "Ġ×ł×ł×§×Ķ": 3744,
      "Ġ×Ļ×¦×Ļ×Ļ×¨": 3745,
      "Ġ×Ļ×ĳ×¨×Ĺ": 3746,
      "Ġ×ĸ×Ķ×ĳ": 3747,
      "Ġ×Ľ×¨×Ļ×Ŀ": 3748,
      "Ġ×ª×ķ×¤": 3749,
      "Ġ×ª×Ļ×Ĵ": 3750,
      "Ġ×ª×ĸ×¨×ķ×§": 3751,
      "Ġ×¨×¤×ª": 3752,
      "Ġ×¨×Ľ×ĳ×Ķ": 3753,
      "Ġ×¨×Ĳ×ª×Ķ": 3754,
      "×¢×ķ×Ŀ": 3755,
      "×¢×ľ×ª": 3756,
      "×¤×Ł": 3757,
      "×¤×ļ": 3758,
      "×¤×ķ×ĺ": 3759,
      "×ĵ×ŀ×Ķ": 3760,
      "×ĵ×ł×ķ": 3761,
      "×Ĵ×¨×ª": 3762,
      "×ķ×¨×ª": 3763,
      "Ġ×Ĳ×Ļ×ŀ": 3764,
      "×ķ×ľ×ļ": 3765,
      "×§×ľ×Ķ": 3766,
      "×§×§×ª": 3767,
      "×ķ×ª×ķ": 3768,
      "Ġ×ķ×©": 3769,
      "Ġ×¨×ķ×¢": 3770,
      "×¡×Ł": 3771,
      "×¡×§": 3772,
      "×¡×ķ×Ķ×¨": 3773,
      "Ġ×Ĺ×Ľ×Ķ": 3774,
      "Ġ×Ĺ×Ļ×ľ×Ļ×Ŀ": 3775,
      "Ġ×§×¤×Ļ×§": 3776,
      "Ġ×¡×¨": 3777,
      "Ġ×¡×¢": 3778,
      "Ġ×¡×Ļ×Ĵ×Ļ": 3779,
      "Ġ×¡×ķ×ŀ×¡": 3780,
      "Ġ×Ĵ×ķ×ĳ×Ķ": 3781,
      "Ġ×Ĵ×ĳ×¨×ª": 3782,
      "×ĸ×Ļ": 3783,
      "×ķ×ĳ×ĳ×Ļ": 3784,
      "×¨×Ļ×Ļ×Ŀ": 3785,
      "×Ļ×Ĳ×ĵ×ŀ×Ķ": 3786,
      "Ġ×ĺ×Ļ×¡": 3787,
      "Ġ×ĺ×¡×Ķ": 3788,
      "×ĺ×Ļ×Ĺ×Ķ": 3789,
      "×ĺ×ķ×¡×§×ķ×¤": 3790,
      "Ġ×¦×ķ×ĳ×¢": 3791,
      "Ġ×ĵ×Ľ×ľ": 3792,
      "Ġ×ĵ×¢×ª": 3793,
      "Ġ×ĵ×ľ×Ļ×ª": 3794,
      "Ġ×ĵ×ķ×ł×Ļ": 3795,
      "Ġ×ĵ×©×Ĳ": 3796,
      "Ġ×¤×ķ×ľ": 3797,
      "Ġ×¤×§": 3798,
      "Ġ×¤×Ļ×¨": 3799,
      "Ġ×¤×Ĳ×ª×Ĳ": 3800,
      "Ġ×ľ×Ķ×§×©×Ļ×ĳ": 3801,
      "×ķ×¤×ķ×Ł": 3802,
      "×¨×Ĳ×ķ×Ľ×ľ": 3803,
      "×Ļ×ĵ×ķ×ª": 3804,
      "×Ļ×ĵ×ķ×¡×§×ķ×¤": 3805,
      "×Ļ×ľ×Ĳ": 3806,
      "×Ļ×ľ×¡": 3807,
      "×Ļ×ł×Ĵ": 3808,
      "×Ļ×ł×§": 3809,
      "×ķ×ŀ×©": 3810,
      "×ľ×Ķ×©×Ľ×Ļ×¨": 3811,
      "×Ĳ×ª×Ļ": 3812,
      "Ġ×ª×©×ł×Ļ": 3813,
      "Ġ×ª×©×Ĺ×Ļ×ľ×Ļ": 3814,
      "Ġ×ª×©×¤×Ľ×Ļ": 3815,
      "Ġ×ª×¡×Ļ×ŀ×Ļ": 3816,
      "Ġ×ª×¡×¢×Ļ": 3817,
      "×ĳ×¢×Ļ": 3818,
      "Ġ×ŀ×¡×ķ×ĳ×ĳ": 3819,
      "Ġ×ŀ×¡×ķ×ĳ×ĳ×ª": 3820,
      "Ġ×ŀ×¡×ķ×ĵ×¨": 3821,
      "×Ĺ×ª×Ł": 3822,
      "×Ĺ×ª×ķ×ļ": 3823,
      "Ġ×ŀ×ª×ł×ķ×ª": 3824,
      "Ġ×ŀ×ª×Ľ×ķ": 3825,
      "Ġ×Ļ×ľ×ĵ×ķ×ª": 3826,
      "Ġ×Ļ×ľ×ĵ×ķ×©": 3827,
      "Ġ×©×ŀ×ł×ª": 3828,
      "Ġ×©×ŀ×Ĺ×Ļ×Ŀ": 3829,
      "Ġ×©×ŀ×¢×ł×ķ": 3830,
      "Ġ×Ĳ×ŀ×¨×Ĺ": 3831,
      "Ġ×ł×¢×ľ×Ķ": 3832,
      "×Ļ×ĺ×ķ×ª": 3833,
      "Ġ×Ļ×ĵ×ķ": 3834,
      "Ġ×Ļ×ĵ×ļ": 3835,
      "Ġ×ŀ×§×¤": 3836,
      "Ġ×ł×©×¤×ķ×ļ": 3837,
      "Ġ×ľ×ĳ×ł×Ļ×Ŀ": 3838,
      "Ġ×Ĳ×¨×ł×§": 3839,
      "×¨×ĳ×Ļ": 3840,
      "×¨×ĳ×ĳ": 3841,
      "Ġ×Ĺ×ŀ×©×Ķ": 3842,
      "Ġ×ŀ×Ĺ×ĳ": 3843,
      "Ġ×ŀ×Ĺ×¡×Ł": 3844,
      "Ġ×ŀ×Ĺ×ķ×ŀ×©": 3845,
      "Ġ×Ĵ×ŀ×ĵ×Ļ×Ŀ": 3846,
      "Ġ×Ĳ×ľ×ŀ×ĵ": 3847,
      "Ġ×ľ×§×ĳ×ľ": 3848,
      "Ġ×ľ×ŀ×ĵ×Ķ": 3849,
      "Ġ×ľ×ŀ×¨×ķ×Ĺ": 3850,
      "Ġ×¡×ĳ×ľ": 3851,
      "Ġ×¡×ĳ×Ļ×ķ×Ł": 3852,
      "Ġ×ľ×¡×¨×§": 3853,
      "Ġ×¨×Ĳ×©×Ļ×ª": 3854,
      "×Ļ×Ĵ×Ļ×ĵ": 3855,
      "Ġ×Ľ×ŀ×ķ×ł×Ļ": 3856,
      "Ġ×ŀ×Ĵ×Ł": 3857,
      "Ġ×ŀ×Ĵ×Ļ×¢": 3858,
      "Ġ×ł×¢×ľ×Ļ×ĳ×Ļ": 3859,
      "Ġ×ª×§×¤×ķ": 3860,
      "Ġ×ĳ×ĺ×¢×ķ×ª": 3861,
      "Ġ×Ĳ×¡×ķ×ĳ×ĳ": 3862,
      "Ġ×ŀ×ľ×ŀ×ĵ": 3863,
      "Ġ×ª×¢×¦": 3864,
      "Ġ×ª×¢×ĳ×ĵ×Ļ": 3865,
      "Ġ×ľ×Ĺ×ŀ×ł×Ļ×Ķ": 3866,
      "Ġ×ł×§×ķ×Ŀ": 3867,
      "Ġ×ŀ×ł×ķ×¨×ķ×ª": 3868,
      "Ġ×ª×Ĺ×Ľ×Ļ": 3869,
      "Ġ×Ľ×ª×¨": 3870,
      "Ġ×©×ķ×ŀ×¨": 3871,
      "Ġ×§×¨×ĺ": 3872,
      "Ġ×§×¨×Ĺ×ª": 3873,
      "Ġ×¤×¨×ķ×©": 3874,
      "Ġ×Ķ×Ĳ×Ĳ×ķ": 3875,
      "Ġ×ŀ×Ĳ×¡": 3876,
      "Ġ×Ķ×ĳ×Ĳ×ł×ķ": 3877,
      "×ŀ×¢×ľ×Ķ": 3878,
      "Ġ×Ĳ×Ļ×ª×Ŀ": 3879,
      "Ġ×ª×¤×Ļ×ľ": 3880,
      "Ġ×§×ľ×Ļ×ĵ×ķ×¡×§×ķ×¤": 3881,
      "Ġ×ł×ŀ×ķ×ļ": 3882,
      "Ġ×¢×Ĵ×Ļ×ľ": 3883,
      "Ġ×¢×Ĵ×ķ×ľ×Ķ": 3884,
      "Ġ×¢×Ĵ×ķ×ľ×Ļ×Ŀ": 3885,
      "Ġ×¢×Ĵ×Ļ×ľ×Ļ×Ŀ": 3886,
      "Ġ×Ĺ×ª×ķ×ľ×Ļ×Ŀ": 3887,
      "Ġ×ł×Ĺ×ĸ×Ļ×¨": 3888,
      "Ġ×ĳ×ł×Ļ×Ł": 3889,
      "Ġ×Ĺ×ľ×ķ×§": 3890,
      "Ġ×ľ×Ķ×ª×Ĺ×Ļ×ľ": 3891,
      "Ġ×ŀ×ĳ×©": 3892,
      "Ġ×ŀ×ĳ×Ļ×Ł": 3893,
      "Ġ×¡×Ĵ×¨×Ķ": 3894,
      "Ġ×Ļ×¢×ŀ×ķ×ĵ": 3895,
      "Ġ×ª×Ľ×ĳ×Ļ": 3896,
      "Ġ×©×ĺ×ķ×ª": 3897,
      "Ġ×ŀ×ķ×ĸ×ŀ×ķ×ĸ": 3898,
      "Ġ×©×¤×Ŀ": 3899,
      "Ġ×Ľ×¤×Ļ×Ļ×Ŀ": 3900,
      "Ġ×Ľ×¤×¤×Ķ": 3901,
      "Ġ×©×Ĳ×¨": 3902,
      "Ġ×ª×ł×ķ×Ĺ×Ļ": 3903,
      "Ġ×ľ×ķ×Ĺ×¦×Ļ×Ŀ": 3904,
      "Ġ×¡×Ļ×¨×ķ×¤": 3905,
      "Ġ×Ĺ×ĵ×¨×Ĳ×ķ×Ľ×ľ": 3906,
      "Ġ×ľ×Ĵ×ĸ×ķ×¨": 3907,
      "Ġ×Ĳ×©×ŀ×ķ×¨": 3908,
      "Ġ×ľ×ª×ķ×ļ": 3909,
      "Ġ×Ĺ×ĵ×¨×©×Ļ×ł×Ķ": 3910,
      "Ġ×§×Ļ×ĳ×ķ": 3911,
      "Ġ×ŀ×ŀ×¦×Ļ×Ĳ": 3912,
      "Ġ×ľ×ĺ×ĳ×ķ×ľ": 3913,
      "Ġ×ľ×ĺ×¢×ķ×Ŀ": 3914,
      "Ġ×ŀ×¤×§×ĵ": 3915,
      "Ġ×¡×ķ×¤×Ļ×Ŀ": 3916,
      "Ġ×¡×ķ×¤×Ĵ": 3917,
      "Ġ×Ĵ×¨×Ĵ": 3918,
      "Ġ×Ĵ×¨×ķ×Ł": 3919,
      "Ġ×ŀ×ĵ×ĳ": 3920,
      "Ġ×ŀ×ĵ×ķ×¢": 3921,
      "Ġ×ĳ×§×ĳ×ķ×§×Ļ×Ŀ": 3922,
      "Ġ×¢×ĺ×Ļ×Ŀ": 3923,
      "Ġ×¦×Ļ×¨×ª×Ļ": 3924,
      "Ġ×¨×Ĺ×ĳ": 3925,
      "Ġ×Ļ×§×ķ×Ŀ": 3926,
      "Ġ×Ļ×§×ł×ĺ×ķ×Ł": 3927,
      "×¢×ŀ×Ļ": 3928,
      "Ġ×¡×ķ×Ľ×¨×Ļ×ķ×ª": 3929,
      "Ġ×ª×¤×ķ×Ĺ×Ļ×Ĳ×ĵ×ŀ×Ķ": 3930,
      "Ġ×ľ×ł×ķ×Ŀ": 3931,
      "Ġ×Ĵ×Ĵ×Ĵ×Ķ": 3932,
      "Ġ×¤×¡×Ĺ": 3933,
      "Ġ×Ĳ×¦×ľ×ł×ķ": 3934,
      "×§×¨×¨": 3935,
      "Ġ×ĺ×Ļ×ĺ×ķ×ľ×Ļ×Ŀ": 3936,
      "Ġ×Ļ×ķ×¦×Ĳ×ª": 3937,
      "Ġ×Ĳ×Ĵ×ĸ×ķ×¨": 3938,
      "Ġ×Ĳ×Ĵ×ķ×ĵ×ľ": 3939,
      "Ġ×ª×©×ĳ×¨×Ļ": 3940,
      "Ġ×¢×Ļ×ª×ķ×ł×Ļ×Ŀ": 3941,
      "Ġ×Ķ×Ļ×Ĵ×¢×ª": 3942,
      "Ġ×ľ×ľ×Ĺ": 3943,
      "Ġ×ľ×ľ×§×§": 3944,
      "Ġ×ľ×ľ×¢×ķ×¡": 3945,
      "Ġ×ĵ×ķ×ĳ×Ļ×Ŀ": 3946,
      "Ġ×ĵ×ķ×ĳ×ķ×ł×Ļ": 3947,
      "Ġ×¢×¦×ķ×ĳ×Ļ×Ŀ": 3948,
      "Ġ×ª×ĸ×Ļ×ĸ": 3949,
      "Ġ×Ĳ×ķ×ł×Ļ×ķ×ª": 3950,
      "Ġ×Ĳ×Ľ×ł×Ļ×¡": 3951,
      "Ġ×Ĳ×Ľ×Ļ×ľ×¡": 3952,
      "Ġ×ŀ×Ļ×ŀ×ł×ķ": 3953,
      "Ġ×ŀ×Ĳ×Ĺ×ķ×¨×Ļ×Ļ×ļ": 3954,
      "Ġ×ŀ×§×¨×ķ×Ĵ×ľ": 3955,
      "Ġ×ľ×ł×¡×ķ×ª": 3956,
      "Ġ×ĳ×ĵ×Ļ×Ĺ×Ķ": 3957,
      "Ġ×ł×Ĳ×¡×ķ×Ĳ×ª": 3958,
      "Ġ×ª×Ĺ×ĸ×¨×Ļ": 3959,
      "Ġ×Ķ×Ľ×Ļ×ł×Ķ": 3960,
      "Ġ×¤×ĺ×¨×Ļ×Ķ": 3961,
      "Ġ×ľ×Ķ×©×Ľ×Ļ×ĳ": 3962,
      "Ġ×ŀ×ķ×©×Ľ×Ļ×Ŀ": 3963,
      "Ġ×§×¨×Ĳ×ª": 3964,
      "Ġ×§×¨×Ĳ×ł×ķ": 3965,
      "Ġ×ŀ×ł×Ĵ×ĳ×Ļ×Ŀ": 3966,
      "Ġ×Ĳ×¨×ł×ĳ×Ļ×Ŀ": 3967,
      "Ġ×¡×Ļ×¤×¨×ª×Ļ": 3968,
      "Ġ×Ľ×ķ×ª×ĳ": 3969,
      "Ġ×ľ×ĵ×Ĺ": 3970,
      "×Ĵ×Ļ×¢×Ļ": 3971,
      "Ġ×ŀ×Ļ×Ľ×ľ×Ļ": 3972,
      "Ġ×Ļ×¨×¦×Ķ": 3973,
      "Ġ×ª×ŀ×©×Ļ×ļ": 3974,
      "Ġ×¢×ĸ×ĳ×Ļ": 3975,
      "Ġ×¦×ķ×¨×ļ": 3976,
      "Ġ×ŀ×ĺ×¤×Ĺ×ª": 3977,
      "Ġ×Ľ×¨×ķ×ĳ×Ļ×ª": 3978,
      "Ġ×ŀ×§×©×Ļ×ĳ": 3979,
      "Ġ×Ļ×¨×§×ķ×ĵ": 3980,
      "Ġ×ª×ĺ×¢×ŀ×Ļ": 3981,
      "×Ĳ×ĵ×ķ×ŀ×Ķ": 3982,
      "Ġ×¡×ĵ×¨×Ķ": 3983,
      "Ġ×ł×¨×ĵ×Ŀ": 3984,
      "Ġ×ł×ĸ×Ľ": 3985,
      "Ġ×ĵ×ľ×ķ×§": 3986,
      "Ġ×Ĳ×ķ×¡×§×¨": 3987,
      "Ġ×ľ×Ķ×ĸ×ŀ×Ļ×Ł": 3988,
      "Ġ×¤×¢×ŀ×Ļ×Ŀ": 3989,
      "Ġ×ľ×Ķ×©×ª×ŀ×©": 3990,
      "Ġ×ª×ķ×ķ×ª×ķ": 3991,
      "Ġ×Ķ×ĵ×ľ×Ļ×§×Ķ": 3992,
      "Ġ×Ķ×©×ª×ķ×ľ": 3993,
      "×ĳ×ľ×ĳ×ľ": 3994,
      "Ġ×ĳ×ķ×ĵ×§": 3995,
      "Ġ×ŀ×Ĺ×ľ×Ļ×¤×Ļ×Ŀ": 3996,
      "Ġ×ŀ×Ļ×ľ×ľ": 3997,
      "Ġ×ŀ×Ļ×ľ×ŀ×¢×ľ×Ķ": 3998,
      "Ġ×ª×¨×Ľ×ĳ×Ļ": 3999,
      "Ġ×ł×ķ×Ĵ×¢": 4000,
      "Ġ×Ľ×¢×¡×Ķ": 4001,
      "Ġ×¨×ķ×ĳ×ķ×ĺ": 4002,
      "Ġ×Ķ×ª×Ĺ×ľ×ª×Ŀ": 4003,
      "Ġ×Ķ×©×Ĳ×Ļ×¨×Ķ": 4004,
      "Ġ×ĵ×ķ×ľ×§": 4005,
      "Ġ×ĵ×Ļ×ĳ×¨×ª": 4006,
      "Ġ×¢×ķ×Ĵ×ª×©×ķ×§": 4007,
      "Ġ×ľ×¨×Ĺ×ķ×Ļ×ĵ×Ļ×Ļ×Ŀ": 4008,
      "Ġ×ł×ķ×¢×ľ×ª": 4009,
      "Ġ×Ĳ×Ļ×ł×ł×Ķ": 4010,
      "Ġ×¦×Ļ×ŀ×ķ×§": 4011,
      "Ġ×¦×Ļ×ŀ×ķ×§×Ļ×Ŀ": 4012,
      "Ġ×ª×ľ×ª×ľ×Ļ×Ŀ": 4013,
      "Ġ×Ĵ×¨×¢×Ļ×ł×Ļ×Ŀ": 4014,
      "Ġ×ŀ×ĵ×¤×ĵ×¤×ª": 4015,
      "Ġ×©×ķ×¤×Ľ×ª": 4016,
      "Ġ×¨×ķ×ª×Ļ": 4017,
      "Ġ×§×Ļ×ł×ķ×Ĺ": 4018,
      "Ġ×¡×ł×Ĳ×Ļ": 4019,
      "Ġ×ŀ×ĵ×Ĵ×ĵ×Ĵ": 4020,
      "Ġ×¦×¨×¢×Ķ": 4021,
      "Ġ×ª×ĳ×ľ×Ļ×Ł": 4022,
      "Ġ×ľ×ķ×ŀ×ĵ×Ļ×Ŀ": 4023,
      "Ġ×ŀ×¨×Ļ×ŀ×Ķ": 4024,
      "Ġ×¢×¡×ķ×§×Ķ": 4025,
      "Ġ×¡×ĺ×ĺ×ķ×¡×§×ķ×¤": 4026,
      "Ġ×¡×Ļ×ĵ×¨×ª": 4027,
      "Ġ×ĳ×ľ×ķ×ł×ĵ×Ķ": 4028,
      "Ġ×Ķ×Ļ×ľ×ĵ×Ļ×Ŀ": 4029,
      "Ġ×Ķ×Ļ×Ľ×ķ×Ł": 4030,
      "Ġ×Ļ×Ļ×Ĵ×ŀ×¨": 4031,
      "Ġ×ª×¨×ĳ×Ļ×¦×Ļ": 4032,
      "Ġ×Ĵ×¨×ķ×ĵ×Ļ×Ŀ": 4033,
      "Ġ×ŀ×Ĵ×Ķ×¦×ª": 4034,
      "Ġ×Ķ×ķ×¨×Ļ×ĵ×Ķ": 4035,
      "Ġ×Ĵ×Ļ×ŀ×ľ": 4036,
      "Ġ×ŀ×©×ĺ×¨×Ķ": 4037,
      "Ġ×ŀ×Ĳ×Ĺ×ķ×¨×Ķ": 4038,
      "Ġ×ª×©×ª×ŀ×©×Ļ": 4039,
      "Ġ×ª×Ļ×Ĵ×¢": 4040,
      "Ġ×¡×ķ×ŀ×¡×ķ×Ŀ": 4041,
      "Ġ×ł×¢×ľ×Ļ×ĳ×Ļ×Ļ×ª": 4042,
      "Ġ×¢×ķ×Ĵ×ª×©×ķ×§×ķ×ľ×ĵ": 4043,
      "Ġ×Ł": 4044,
      "×ķ×Ļ×Ķ": 4045,
      "Ġ×Ĳ×ĺ": 4046,
      "Ġ×Ĳ×ķ×ĵ×Ŀ": 4047,
      "Ġ×Ķ×ķ×ĵ": 4048,
      "Ġ×Ķ×ķ×¨×Ķ": 4049,
      "Ġ×ľ×¦×ľ": 4050,
      "Ġ×ľ×Ĺ×ª×ķ×ļ": 4051,
      "Ġ×ŀ×¨×Ĺ": 4052,
      "Ġ×ŀ×Ļ×ĺ×ķ×ª": 4053,
      "×Ĳ×ŀ": 4054,
      "×Ĳ×Ĵ": 4055,
      "×ľ×Ŀ": 4056,
      "×ľ×ĺ": 4057,
      "Ġ×Ĳ×ª×Ļ": 4058,
      "×©×ķ×ª": 4059,
      "×©×ł×ķ": 4060,
      "×©×ł×Ļ×Ļ×Ŀ": 4061,
      "×ĳ×ķ×ĳ": 4062,
      "Ġ×ŀ×Ķ×ĳ×Ķ×ĳ": 4063,
      "×ł×ķ×Ł": 4064,
      "Ġ×ĳ×ķ×Ĺ": 4065,
      "Ġ×ĳ×Ľ×Ļ×Ł": 4066,
      "Ġ×©×ĵ": 4067,
      "Ġ×©×ł×Ļ×Ŀ": 4068,
      "Ġ×©×ĺ×Ķ": 4069,
      "Ġ×©×ķ×Ĺ×Ķ": 4070,
      "×Ĺ×Ŀ": 4071,
      "×Ĺ×¨×Ļ": 4072,
      "×Ĺ×Ļ×ķ×ª": 4073,
      "Ġ×ł×ķ×Ĳ": 4074,
      "Ġ×ł×Ļ×§": 4075,
      "Ġ×ł×ķ×ľ×Ļ": 4076,
      "Ġ×ł×ķ×ĸ": 4077,
      "Ġ×ł×¦×Ĳ": 4078,
      "Ġ×ł×Ļ×Ľ×ł×¡": 4079,
      "Ġ×Ļ×Ĵ": 4080,
      "Ġ×Ļ×ķ×Ł": 4081,
      "Ġ×Ļ×¨×Ĳ": 4082,
      "Ġ×Ļ×ķ×Ĵ": 4083,
      "Ġ×Ļ×ŀ×Ļ×Ŀ": 4084,
      "Ġ×Ľ×¨×Ļ×": 4085,
      "Ġ×Ľ×ĸ×ķ": 4086,
      "Ġ×Ľ×Ļ×ł×ķ×¨": 4087,
      "Ġ×ª×ľ×Ķ": 4088,
      "Ġ×ª×Ľ×Ķ": 4089,
      "Ġ×ª×ĵ×ĳ×¨": 4090,
      "Ġ×ª×Ľ×ª×ķ×ĳ": 4091,
      "Ġ×ª×Ĵ×©×Ļ": 4092,
      "Ġ×¨×ĳ×¢": 4093,
      "Ġ×¨×¦×ª": 4094,
      "Ġ×¨×Ļ×Ľ": 4095,
      "Ġ×¨×ĵ×Ļ": 4096,
      "Ġ×¨×¤×ľ×§×¡": 4097,
      "×¢×ķ": 4098,
      "×¢×ĵ×Ļ": 4099,
      "×ŀ×ł×ķ×ª": 4100,
      "×¤×ł": 4101,
      "×¤×Ļ×Ķ": 4102,
      "×¤×Ļ×Ł": 4103,
      "×ĵ×Ĳ": 4104,
      "×ĵ×ķ×§": 4105,
      "×ĵ×ł×ĵ": 4106,
      "×ĵ×ŀ×ł×ķ×ª": 4107,
      "×Ĵ×ķ×©": 4108,
      "×Ĵ×ķ×ĸ": 4109,
      "×ķ×ª×¨": 4110,
      "Ġ×ķ×Ļ": 4111,
      "Ġ×ķ×ķ×§×Ļ": 4112,
      "Ġ×Ĺ×ķ×Ľ": 4113,
      "Ġ×Ĺ×ľ×Ķ": 4114,
      "Ġ×Ĺ×¡×Ķ": 4115,
      "Ġ×Ĺ×ķ×ŀ×Ļ": 4116,
      "Ġ×§×ª": 4117,
      "Ġ×§×ķ×¤×Ķ": 4118,
      "×ķ×Ĳ×Ļ": 4119,
      "Ġ×¡×Ĳ": 4120,
      "Ġ×¡×ĳ×¨": 4121,
      "Ġ×¡×¨×§": 4122,
      "Ġ×¡×ķ×Ķ": 4123,
      "Ġ×¡×ķ×ĳ×ĳ": 4124,
      "Ġ×Ĵ×ĸ": 4125,
      "Ġ×Ĵ×ķ×ŀ×¨×ª": 4126,
      "×¦×ł×ķ": 4127,
      "Ġ×ĺ×Ļ×ľ": 4128,
      "×ĺ×Ļ×Ĺ": 4129,
      "×ĺ×ķ×§×Ļ": 4130,
      "Ġ×¦×ķ×ŀ": 4131,
      "Ġ×¦×Ĵ×Ķ": 4132,
      "Ġ×¦×ķ×ĳ×¢×Ļ×Ŀ": 4133,
      "Ġ×¢×ľ×Ļ×ª": 4134,
      "Ġ×ĵ×ł×Ķ": 4135,
      "Ġ×ĵ×ķ×Ĺ": 4136,
      "Ġ×ĵ×Ļ×¨×ķ×ª": 4137,
      "Ġ×ĵ×¨×ĵ": 4138,
      "Ġ×ĵ×Ļ×Ĵ×Ļ×ĵ": 4139,
      "Ġ×¤×¨×Ļ": 4140,
      "Ġ×¤×¦": 4141,
      "Ġ×¤×ł×ĵ×Ķ": 4142,
      "Ġ×ľ×Ķ×¦": 4143,
      "×Ļ×Ķ×Ŀ": 4144,
      "×Ļ×ĵ×Ĳ": 4145,
      "×Ļ×ĵ×ķ×Ł": 4146,
      "×ĳ×¨×Ļ×Ŀ": 4147,
      "×ĳ×¨×ª×Ļ": 4148,
      "Ġ×Ĳ×Ĺ×¤": 4149,
      "×Ļ×ł×Ĳ": 4150,
      "Ġ×ĸ×ĳ×ķ×ĳ": 4151,
      "×ķ×Ĺ×ĵ×ª": 4152,
      "×ķ×ŀ×Ļ×Ŀ": 4153,
      "Ġ×Ĳ×Ķ×¨×ķ×Ł": 4154,
      "×ķ×¡×ľ×Ķ": 4155,
      "Ġ×Ľ×ķ×ľ×ķ": 4156,
      "Ġ×ª×©×ŀ×ķ×¨": 4157,
      "Ġ×ŀ×¡×Ļ×¢": 4158,
      "Ġ×ŀ×¡×¨×Ļ×Ĺ": 4159,
      "Ġ×ŀ×ª×ĳ×Ļ×Ļ×©": 4160,
      "Ġ×Ĳ×ķ×¨×Ĺ": 4161,
      "Ġ×ŀ×©×ŀ": 4162,
      "Ġ×Ļ×ľ×Ľ×ķ": 4163,
      "×ľ×Ļ×Ļ×ļ": 4164,
      "×Ļ×ĳ×©": 4165,
      "×ľ×ª×©": 4166,
      "Ġ×Ĳ×ł×¤×Ĺ": 4167,
      "Ġ×ŀ×Ľ×ĳ×Ķ": 4168,
      "Ġ×Ļ×ľ×ĵ×ķ×ł×ª": 4169,
      "Ġ×©×ŀ×¢": 4170,
      "Ġ×©×ŀ×ķ×ł×Ļ×Ŀ": 4171,
      "Ġ×ł×¢×ĳ×ķ×¨": 4172,
      "×ķ×¢×Ķ": 4173,
      "Ġ×Ļ×ĵ×ĳ×¨": 4174,
      "Ġ×ŀ×§×ķ×ķ×Ķ": 4175,
      "Ġ×ŀ×§×ĳ×ľ×ª": 4176,
      "×Ļ×¦×ª": 4177,
      "Ġ×Ĳ×¨×ķ×Ľ×Ļ×Ŀ": 4178,
      "Ġ×Ĺ×ŀ×ĵ×ª×Ļ": 4179,
      "Ġ×ĳ×Ĳ×ķ": 4180,
      "Ġ×Ķ×ķ×ľ×Ľ×ķ×ª": 4181,
      "Ġ×Ļ×Ľ×ķ×ľ×ķ×ª": 4182,
      "Ġ×ŀ×Ĺ×ĳ×¨×Ļ×Ŀ": 4183,
      "×ķ×¦×ķ×ª": 4184,
      "Ġ×ª×ŀ×ľ×Ĳ": 4185,
      "Ġ×ª×ŀ×¦×Ĳ": 4186,
      "Ġ×ľ×§×¤": 4187,
      "Ġ×ľ×§×¨×¨": 4188,
      "Ġ×ŀ×¦×ķ×ł": 4189,
      "Ġ×ľ×ŀ×Ĺ×ķ×§": 4190,
      "Ġ×ľ×¡×¤×ķ×¨": 4191,
      "Ġ×Ĳ×ķ×Ľ×ľ×ķ×ª": 4192,
      "Ġ×ĳ×Ļ×ª×¡×¤×¨": 4193,
      "Ġ×ŀ×Ĵ×¤×Ļ×Ļ×Ŀ": 4194,
      "Ġ×ª×§×ł×Ķ": 4195,
      "Ġ×ª×§×ł×ķ": 4196,
      "Ġ×Ľ×Ļ×¡×Ļ×Ŀ": 4197,
      "×Ļ×¢×Ļ×ª": 4198,
      "Ġ×ŀ×ľ×Ľ×Ķ": 4199,
      "Ġ×ŀ×ľ×Ĳ×Ķ": 4200,
      "Ġ×Ķ×ª×¤×ª×Ĺ": 4201,
      "Ġ×Ķ×ª×ł×ĵ×ł×ĵ": 4202,
      "Ġ×Ķ×ª×ľ×Ľ×ľ×ļ": 4203,
      "Ġ×ŀ×ĺ×ľ": 4204,
      "Ġ×ŀ×ĺ×Ļ×Ļ×ľ": 4205,
      "Ġ×ľ×Ĺ×¤": 4206,
      "Ġ×ľ×Ĺ×¦×ª": 4207,
      "Ġ×ľ×Ĺ×ĳ×§": 4208,
      "Ġ×©×Ļ×¨×Ķ": 4209,
      "Ġ×ł×§×Ļ×Ļ×Ŀ": 4210,
      "×Ĺ×ķ×ľ×Ļ×Ŀ": 4211,
      "Ġ×ŀ×ł×¤×Ĺ×ª": 4212,
      "Ġ×ª×Ĺ×ĳ×§": 4213,
      "Ġ×Ĺ×¨×ķ×¦×Ķ": 4214,
      "Ġ×©×ķ×ŀ×¨×ª": 4215,
      "Ġ×§×¨×ŀ": 4216,
      "Ġ×§×¨×ķ×¡×ľ×Ķ": 4217,
      "Ġ×¢×ķ×Ĵ×Ļ": 4218,
      "Ġ×ł×¡×¤×ķ×¨": 4219,
      "Ġ×¤×¨×ķ×ª": 4220,
      "Ġ×¤×¨×ķ×ķ×Ķ": 4221,
      "Ġ×©×¢×¨×Ķ": 4222,
      "Ġ×ŀ×¨×ĺ": 4223,
      "Ġ×Ľ×ĵ×ķ×¨×Ĵ×ľ": 4224,
      "Ġ×Ķ×Ĳ×ĳ": 4225,
      "Ġ×ŀ×Ĳ×ł×Ĵ": 4226,
      "Ġ×Ļ×ª×ľ×Ľ×ľ×ļ": 4227,
      "Ġ×ĳ×¨×Ľ×Ķ": 4228,
      "Ġ×Ľ×¨×Ĵ×¢": 4229,
      "Ġ×ª×¨×Ĵ×Ļ×¢×Ļ": 4230,
      "Ġ×ª×¤×¡×ª": 4231,
      "Ġ×Ĳ×Ľ×ľ×ª×Ļ": 4232,
      "Ġ×¡×ķ×¡×Ķ": 4233,
      "Ġ×ª×ĳ×Ļ×ĺ": 4234,
      "Ġ×ŀ×§×ľ×ĺ": 4235,
      "Ġ×¢×¦×Ļ×¦×Ļ×Ŀ": 4236,
      "Ġ×ł×Ĺ×¨×Ļ×Ļ×Ŀ": 4237,
      "Ġ×¢×ĵ×Ļ×ł×ķ×ª": 4238,
      "Ġ×ŀ×ĳ×ĺ×Ļ×Ĺ×Ķ": 4239,
      "Ġ×ŀ×¡×¤×¨×Ķ": 4240,
      "Ġ×ŀ×ķ×ĸ×¨": 4241,
      "Ġ×ĸ×¨×§×ª×Ļ": 4242,
      "Ġ×Ľ×¤×ķ×ª": 4243,
      "Ġ×ª×¦×ĺ×¨": 4244,
      "Ġ×Ľ×ķ×¡×Ļ×ª": 4245,
      "Ġ×Ĳ×¤×¦": 4246,
      "Ġ×Ľ×ĳ×ķ×Ļ": 4247,
      "Ġ×ľ×ķ×Ĺ×¦×ª": 4248,
      "Ġ×Ĳ×ķ×¤×Ł": 4249,
      "Ġ×ľ×Ļ×¦×ł×Ļ×Ŀ": 4250,
      "Ġ×Ĳ×©×Ļ×¨": 4251,
      "Ġ×Ĳ×©×Ľ×ķ×ľ": 4252,
      "Ġ×Ĳ×©×ŀ×¢": 4253,
      "Ġ×¨×Ĳ×Ļ×ª×Ŀ": 4254,
      "Ġ×ľ×ª×ķ×Ľ×ķ": 4255,
      "Ġ×Ķ×Ļ×Ļ×ª×Ŀ": 4256,
      "Ġ×Ĵ×ķ×ľ×Ŀ": 4257,
      "Ġ×ľ×©×ŀ×ķ×¨": 4258,
      "Ġ×ŀ×ĸ×Ļ×ĸ": 4259,
      "Ġ×ŀ×ĸ×ł×ķ×Ł": 4260,
      "Ġ×ŀ×¦×Ĺ×¦×Ĺ": 4261,
      "Ġ×ŀ×¤×Ļ×ª": 4262,
      "Ġ×ŀ×¤×Ļ×ľ": 4263,
      "Ġ×ŀ×¤×Ļ×ķ×ª": 4264,
      "Ġ×¡×ķ×¤×¨×Ļ×Ŀ": 4265,
      "Ġ×ĸ×ķ×¨×Ĺ×ª": 4266,
      "Ġ×Ĳ×¢×Ĳ": 4267,
      "Ġ×ł×ķ×¨×Ĳ×Ļ": 4268,
      "Ġ×¢×ł×ĳ×¨×Ļ": 4269,
      "Ġ×¢×ł×ĳ×ľ×Ļ": 4270,
      "Ġ×Ļ×§×Ĺ×ķ": 4271,
      "×Ļ×ķ×Ļ×ķ×Ļ": 4272,
      "×ķ×ķ×ķ×ª": 4273,
      "Ġ×Ĺ×ĳ×Ļ×ĳ×Ķ": 4274,
      "Ġ×©×Ĺ×ķ×¨×Ļ×Ŀ": 4275,
      "Ġ×¨×ķ×Ĺ×¦×ª": 4276,
      "Ġ×©×ŀ×©×Ļ×Ķ": 4277,
      "Ġ×Ĳ×¤×¨×ķ×ĵ": 4278,
      "Ġ×ŀ×¦×ľ×¦×ľ": 4279,
      "Ġ×ŀ×¦×ľ×Ļ×ĳ×Ļ×Ŀ": 4280,
      "Ġ×Ĵ×¨×ĳ×Ļ": 4281,
      "Ġ×©×ł×Ļ×Ķ×Ŀ": 4282,
      "Ġ×§×ķ×§×Ļ×ķ×ª": 4283,
      "Ġ×ł×ŀ×¦×Ĳ×ķ×ª": 4284,
      "Ġ×ŀ×¢×ł×Ļ×ł×ª": 4285,
      "Ġ×ĵ×ķ×ĳ×ĵ×ĳ": 4286,
      "Ġ×ª×ĸ×Ľ": 4287,
      "Ġ×ŀ×ª×Ĺ×Ļ×ľ×Ķ": 4288,
      "Ġ×¢×ł×ĳ×¨": 4289,
      "Ġ×Ļ×¡×ŀ×Ļ×Ł": 4290,
      "Ġ×Ĳ×Ľ×¡×Ķ": 4291,
      "Ġ×ŀ×Ļ×ŀ×ķ×ľ": 4292,
      "Ġ×ŀ×§×¨×ķ×¤×ķ×Ł": 4293,
      "Ġ×Ķ×Ľ×ł×ª": 4294,
      "Ġ×Ĵ×Ĳ×Ĵ×Ĳ": 4295,
      "Ġ×¤×ĺ×¨×Ļ×ķ×ª": 4296,
      "Ġ×§×¦×ĳ": 4297,
      "Ġ×§×¦×¤×ª": 4298,
      "Ġ×¡×ł×ĵ×ľ×¨": 4299,
      "Ġ×ľ×ĵ×¢×ª×Ļ": 4300,
      "Ġ×Ķ×©×§×ª": 4301,
      "Ġ×Ļ×Ĺ×Ľ×Ķ": 4302,
      "Ġ×Ļ×Ĺ×ĸ×ķ×¨": 4303,
      "Ġ×ĸ×¨×¢×ł×ķ": 4304,
      "Ġ×ª×¤×¡×ª×Ļ": 4305,
      "Ġ×Ķ×¨×Ĳ×ª": 4306,
      "Ġ×¢×ĸ×Ļ": 4307,
      "Ġ×ĳ×Ļ×§×¨×ł×ķ": 4308,
      "Ġ×¦×ķ×¨×ĳ": 4309,
      "Ġ×¦×ķ×¨×Ĺ": 4310,
      "Ġ×ł×Ĺ×ŀ×ĵ×Ķ": 4311,
      "Ġ×¤×¨×¦×ķ×¤×Ļ×Ŀ": 4312,
      "Ġ×ĳ×ķ×¨×Ĺ×ª": 4313,
      "Ġ×ł×©×Ĳ×¨×Ķ": 4314,
      "Ġ×¢×ŀ×Ļ×ª×Ļ": 4315,
      "Ġ×ĳ×¢×Ļ×§×¨": 4316,
      "Ġ×ª×ĺ×¤×¡×Ļ": 4317,
      "Ġ×Ķ×¤×ķ×Ľ×Ļ": 4318,
      "Ġ×ŀ×ķ×¦×Ļ×Ĳ×Ļ×Ŀ": 4319,
      "Ġ×¡×ĵ×Ļ×ł×Ļ×Ŀ": 4320,
      "×ł×ķ×¢×¢": 4321,
      "Ġ×ĵ×ķ×¨×Ľ×ª": 4322,
      "×¤×ķ×¨×Ĺ": 4323,
      "Ġ×ĺ×ķ×©×Ļ×Ŀ": 4324,
      "Ġ×ł×©×¤×Ľ×ķ": 4325,
      "Ġ×ľ×Ķ×ª×¨×Ĺ×ĳ": 4326,
      "Ġ×§×ķ×ŀ×¤×ķ×ĺ": 4327,
      "Ġ×ŀ×Ľ×Ĺ×ķ×ľ×Ļ×Ŀ": 4328,
      "Ġ×ľ×¢×¦×ŀ×Ķ": 4329,
      "Ġ×Ĳ×ķ×¡×¤×Ļ×Ŀ": 4330,
      "Ġ×ł×Ļ×Ĵ×ĳ×ª": 4331,
      "Ġ×Ĵ×ķ×ł×Ĵ×ľ": 4332,
      "Ġ×¦×ŀ×Ĳ": 4333,
      "Ġ×¦×ŀ×ķ×ª": 4334,
      "Ġ×©×©×ķ×Ł": 4335,
      "Ġ×Ĺ×Ļ×¤×©×ª": 4336,
      "Ġ×¤×¢×ŀ×Ļ×Ļ×Ŀ": 4337,
      "Ġ×Ļ×¦×Ĺ×§": 4338,
      "Ġ×Ĵ×ķ×ĸ×Ĵ×ķ×ĸ": 4339,
      "Ġ×Ĺ×ķ×ª×Ľ×ª": 4340,
      "Ġ×¨×ķ×Ľ×ĳ": 4341,
      "Ġ×¨×ķ×Ľ×ĳ×Ļ×Ŀ": 4342,
      "Ġ×¡×Ļ×ŀ×ł×Ļ×Ŀ": 4343,
      "Ġ×ŀ×¨×¤×§": 4344,
      "Ġ×Ķ×ĸ×Ļ": 4345,
      "Ġ×Ķ×ĸ×ĵ×ŀ×ł×ķ×ª": 4346,
      "Ġ×©×ª×Ļ×Ķ": 4347,
      "Ġ×Ĳ×Ļ×ľ×Ļ×Ŀ": 4348,
      "Ġ×¤×ł×Ļ×ł×Ķ": 4349,
      "Ġ×ĳ×Ļ×ª×Ķ×©×Ļ×ŀ×ķ×©": 4350,
      "Ġ×¢×§×Ļ×¦×Ķ": 4351,
      "Ġ×Ľ×ķ×Ľ×ĳ×Ļ×Ŀ": 4352,
      "Ġ×ľ×§×ľ×§×ľ": 4353,
      "Ġ×¨×ķ×ĳ×Ķ": 4354,
      "Ġ×¡×ķ×¨×Ľ×Ļ": 4355,
      "Ġ×Ļ×ĵ×¢×ķ": 4356,
      "Ġ×ľ×Ĺ×©×ķ×ĳ": 4357,
      "Ġ×ŀ×©×ª×ķ×ľ×ľ×Ļ×Ŀ": 4358,
      "Ġ×ł×¦×ĳ×¢": 4359,
      "Ġ×Ĺ×ķ×ĸ×¨×ª": 4360,
      "Ġ×ĵ×ķ×ľ×¤×Ļ×Ł": 4361,
      "×Ĳ×ķ×ª×Ļ×ķ×ª": 4362,
      "Ġ×©×ł×Ļ×ł×ķ": 4363,
      "Ġ×¨×ĳ×Ļ×¢×Ļ×ª": 4364,
      "×§×ľ×§×ľ×ķ": 4365,
      "Ġ×ŀ×Ľ×ķ×ł×ª×Ľ×ĳ×Ļ×¡×Ķ": 4366,
      "Ġ×ª×ľ×ª×Ł": 4367,
      "Ġ×¨×Ĵ×Ļ×ľ": 4368,
      "Ġ×ŀ×ĸ×¨×§×ķ×ª": 4369,
      "Ġ×ŀ×ķ×ĵ×¢×Ķ": 4370,
      "Ġ×ŀ×Ļ×§×ĵ×Ļ×ŀ×Ķ": 4371,
      "Ġ×§×Ļ×ł×ŀ×ķ×Ł": 4372,
      "Ġ×ŀ×¡×¢×ĵ×Ķ": 4373,
      "Ġ×ĳ×Ľ×ķ×ķ×ł×Ķ": 4374,
      "Ġ×ª×¦×ľ×Ļ×Ĺ": 4375,
      "Ġ×§×ŀ×ª×Ļ": 4376,
      "Ġ×ŀ×ª×ł×ĵ×ł×ĵ×ª": 4377,
      "Ġ×ŀ×Ĺ×ĵ×©": 4378,
      "Ġ×¤×ķ×¤×Ļ×§": 4379,
      "Ġ×ŀ×©×ĳ×¦×ķ×ª": 4380,
      "Ġ×ł×ķ×Ķ×Ĵ": 4381,
      "Ġ×ŀ×Ĵ×¨×ĵ×ª": 4382,
      "Ġ×¢×ķ×ĺ×¤×Ļ×Ŀ": 4383,
      "Ġ×Ľ×¤×¨×Ķ": 4384,
      "×ŀ×ł×ķ×Ĺ×Ķ": 4385,
      "Ġ×Ĺ×Ľ×ŀ×Ķ": 4386,
      "Ġ×ŀ×ĺ×Ĳ×ĺ×Ĳ": 4387,
      "Ġ×¤×¨×ķ×¡×ª": 4388,
      "Ġ×ŀ×©×ª×ŀ×©×ª": 4389,
      "Ġ×ŀ×ķ×ł×Ĺ": 4390,
      "Ġ×ł×ĺ×¨×§": 4391,
      "Ġ×ł×ķ×ŀ×ķ": 4392,
      "Ġ×ľ×Ķ×Ĳ×Ľ×Ļ×ľ": 4393,
      "Ġ×ŀ×ķ×¡×¨×ª": 4394,
      "Ġ×ŀ×Ĺ×§×Ķ": 4395,
      "Ġ×ł×¤×¨×ķ×¡": 4396,
      "Ġ×Ĳ×Ļ×ŀ×Ķ×ķ×ª": 4397,
      "Ġ×¨×ķ×¢×Ļ": 4398,
      "Ġ×§×¤×Ļ×§×¤×ķ": 4399,
      "Ġ×¤×Ļ×¨×ŀ": 4400,
      "Ġ×ŀ×ª×Ľ×ķ×ķ×Ł": 4401,
      "Ġ×ŀ×Ĺ×ĳ×ķ×Ĳ×Ļ×Ŀ": 4402,
      "Ġ×§×¨×ĺ×ķ×Ł": 4403,
      "Ġ×ŀ×ĵ×ĳ×Ļ×§×Ķ": 4404,
      "Ġ×ł×ĸ×Ľ×¨×ª": 4405,
      "Ġ×ľ×¦×ľ×Ŀ": 4406,
      "Ġ×ł×ķ×ĸ×ľ": 4407,
      "Ġ×Ļ×¨×Ĳ×ķ": 4408,
      "Ġ×Ļ×ķ×Ĵ×ķ×¨×ĺ": 4409,
      "Ġ×Ľ×¨×Ļ×©": 4410,
      "Ġ×¨×¦×ª×Ķ": 4411,
      "Ġ×¨×¤×ľ×§×¡×Ļ×Ŀ": 4412,
      "Ġ×ª×¦×ĺ×¨×Ľ×Ļ": 4413,
      "¨×Ļ×¡": 4414,
      "Ġ×Ĳ×Ĵ×ķ×¨": 4415,
      "Ġ×Ĳ×ķ×©×¨": 4416,
      "Ġ×Ĳ×ľ×ª×©": 4417,
      "Ġ×Ķ×ķ": 4418,
      "Ġ×Ķ×Ļ×ĸ×Ķ": 4419,
      "Ġ×Ķ×ķ×¨×Ļ×Ŀ": 4420,
      "Ġ×Ķ×ķ×ŀ×¨": 4421,
      "Ġ×Ķ×ķ×§×ķ×¡": 4422,
      "×ª×¤": 4423,
      "×ª×ķ×ĳ×ĳ": 4424,
      "Ġ×ľ×Ļ×¨": 4425,
      "Ġ×ľ×Ļ×§": 4426,
      "Ġ×ľ×Ļ×ĺ": 4427,
      "Ġ×ŀ×ķ×§": 4428,
      "Ġ×ŀ×Ļ×ĵ": 4429,
      "Ġ×ŀ×ľ×Ļ": 4430,
      "Ġ×ŀ×Ļ×ĳ": 4431,
      "Ġ×ŀ×Ļ×¦": 4432,
      "Ġ×ŀ×Ļ×ł×Ļ": 4433,
      "Ġ×ŀ×Ĵ×ľ×Ĵ×ľ": 4434,
      "×¨×ķ×ĳ": 4435,
      "×¨×ķ×ļ": 4436,
      "×¨×ķ×¢": 4437,
      "×¨×Ľ×ª": 4438,
      "×Ĳ×ķ×¡": 4439,
      "×Ĳ×ķ×Ĵ": 4440,
      "×Ĳ×ľ×ķ": 4441,
      "×ľ×Ļ×ľ×ļ": 4442,
      "×©×ł×Ķ": 4443,
      "×©×ŀ×Ĺ": 4444,
      "×ĳ×Ļ×Ķ": 4445,
      "×ĳ×ķ×¡": 4446,
      "×ĳ×ķ×ĺ": 4447,
      "×ĳ×Ļ×¨×Ļ×Ŀ": 4448,
      "Ġ×¢×¤×Ļ×Ŀ": 4449,
      "Ġ×¢×¨×Ļ×¡": 4450,
      "×ł×ķ×ĵ": 4451,
      "Ġ×ĳ×ĵ×ĳ×¨": 4452,
      "Ġ×ĳ×Ĺ×ķ×¨": 4453,
      "Ġ×ĳ×ķ×¨×Ĳ": 4454,
      "Ġ×ĳ×Ļ×ĳ×Ļ": 4455,
      "×Ľ×ķ×ł": 4456,
      "×Ľ×Ļ×ľ×Ķ": 4457,
      "Ġ×©×ĸ": 4458,
      "Ġ×©×ķ×©": 4459,
      "Ġ×©×¢×ª": 4460,
      "Ġ×©×ķ×ł×Ļ×Ŀ": 4461,
      "Ġ×©×ķ×ķ×Ķ": 4462,
      "×Ĺ×©": 4463,
      "×Ĺ×Ļ×ľ×Ķ": 4464,
      "Ġ×ł×Ļ": 4465,
      "Ġ×ł×Ĺ×ª": 4466,
      "Ġ×ł×¨×Ĳ×ķ×ª": 4467,
      "Ġ×ł×ĵ×ľ": 4468,
      "Ġ×ł×Ļ×¤×ķ×ľ": 4469,
      "Ġ×ł×Ĵ×Ļ×¢": 4470,
      "Ġ×ł×Ĵ×ĳ": 4471,
      "Ġ×Ļ×Ľ×ľ": 4472,
      "Ġ×Ļ×ķ×ŀ": 4473,
      "Ġ×Ļ×¢×©": 4474,
      "Ġ×Ļ×Ļ×Ł": 4475,
      "Ġ×Ļ×ķ×¦×Ļ×Ĳ": 4476,
      "Ġ×Ļ×ķ×Ľ×ľ": 4477,
      "Ġ×Ļ×ł×Ĵ×Ł": 4478,
      "Ġ×Ļ×¤×¨×Ļ×¢": 4479,
      "Ġ×Ļ×ķ×Ĳ×ķ": 4480,
      "Ġ×Ļ×Ļ×¤×ª×Ĺ": 4481,
      "Ġ×ĸ×Ķ×ĳ×Ļ×Ŀ": 4482,
      "Ġ×Ľ×ķ": 4483,
      "Ġ×Ľ×¢×¡": 4484,
      "Ġ×ª×ĳ×¢": 4485,
      "Ġ×ª×Ĵ×¢": 4486,
      "Ġ×ª×Ļ×©": 4487,
      "Ġ×ª×¦×Ĳ": 4488,
      "Ġ×ª×Ļ×ĸ": 4489,
      "Ġ×ª×Ľ×ĳ×Ķ": 4490,
      "Ġ×ª×ķ×ľ×Ļ×Ŀ": 4491,
      "Ġ×ª×Ļ×ª×Ĳ": 4492,
      "Ġ×ľ×Ĳ×ł": 4493,
      "Ġ×ľ×Ĳ×ŀ×¨": 4494,
      "Ġ×¨×ķ": 4495,
      "Ġ×¨×©×ª": 4496,
      "Ġ×¨×ĳ×Ķ": 4497,
      "×ŀ×Ļ×ª": 4498,
      "×ŀ×ľ×Ļ": 4499,
      "×ŀ×Ĵ×ĵ": 4500,
      "×ŀ×Ľ×¨": 4501,
      "×¤×ĺ": 4502,
      "×¤×Ļ×ĺ×Ķ": 4503,
      "×¤×ķ×§×ķ×¡": 4504,
      "×ĵ×ķ×Ł": 4505,
      "×ĵ×Ļ×ł×ķ×ª": 4506,
      "×Ĵ×ķ": 4507,
      "×Ĵ×Ļ×ľ": 4508,
      "×Ĵ×ł×Ļ×Ŀ": 4509,
      "×Ĵ×Ļ×©": 4510,
      "×ķ×¨×¨×ª": 4511,
      "Ġ×Ĳ×Ļ×¨×Ļ×¡": 4512,
      "×ķ×ľ×Ĳ": 4513,
      "×ķ×ľ×ł×¡": 4514,
      "Ġ×ķ×ĳ": 4515,
      "Ġ×ķ×Ļ×ľ": 4516,
      "×¡×¨": 4517,
      "×¡×ķ×ľ": 4518,
      "Ġ×Ĺ×Ĺ": 4519,
      "Ġ×Ĺ×ķ×ĳ": 4520,
      "Ġ×Ĺ×ł×ķ": 4521,
      "Ġ×Ĺ×Ļ×Ľ": 4522,
      "Ġ×§×ķ×ĵ": 4523,
      "Ġ×§×ľ×Ķ": 4524,
      "Ġ×§×Ļ×ŀ": 4525,
      "Ġ×§×Ļ×¦": 4526,
      "×ķ×Ĳ×ľ×ĺ": 4527,
      "Ġ×¡×ķ×Ĺ": 4528,
      "Ġ×¡×Ļ×Ĵ": 4529,
      "Ġ×¡×Ļ×Ľ": 4530,
      "Ġ×¡×ķ×ĵ×ķ×ª": 4531,
      "Ġ×Ĵ×ķ×ŀ": 4532,
      "Ġ×Ĵ×ľ×Ļ": 4533,
      "Ġ×Ĵ×ł×ª": 4534,
      "Ġ×Ĵ×Ļ×¨×Ļ": 4535,
      "Ġ×Ĵ×Ļ×ľ×Ķ": 4536,
      "Ġ×Ĵ×Ĺ×ľ": 4537,
      "Ġ×Ĵ×Ļ×ľ×ļ": 4538,
      "×ł×Ļ×ķ": 4539,
      "Ġ×ł×Ľ×ł×Ļ×¡": 4540,
      "×ĸ×ĳ": 4541,
      "×ķ×ĳ×Ł": 4542,
      "×ķ×ĳ×ļ": 4543,
      "×¨×Ļ×ķ×Ł": 4544,
      "×Ļ×Ĳ×ľ": 4545,
      "Ġ×©×ľ×Ľ×Ŀ": 4546,
      "×¦×ķ": 4547,
      "×¦×Ł": 4548,
      "Ġ×ĺ×ĳ×Ĺ": 4549,
      "Ġ×ĺ×¤×¡": 4550,
      "Ġ×ĺ×©×ķ": 4551,
      "Ġ×ĺ×¤×¡×Ķ": 4552,
      "×ĺ×ķ": 4553,
      "×ĺ×Ļ×¤×Ķ": 4554,
      "×ķ×©×Ļ×Ŀ": 4555,
      "Ġ×Ļ×©×ķ×¢": 4556,
      "Ġ×Ļ×©×Ĺ×§": 4557,
      "Ġ×Ļ×©×Ľ×ĳ": 4558,
      "Ġ×Ļ×©×ª×Ķ": 4559,
      "Ġ×¦×Ļ×ĳ": 4560,
      "Ġ×¦×¨×Ĺ": 4561,
      "Ġ×¦×ĳ×Ļ": 4562,
      "Ġ×Ĳ×ĳ×©×Ļ": 4563,
      "Ġ×ĵ×ŀ": 4564,
      "Ġ×ĵ×Ļ×ķ": 4565,
      "Ġ×ĵ×ķ×Ĳ×¨": 4566,
      "Ġ×ĵ×Ļ×Ĵ×Ļ": 4567,
      "Ġ×ĵ×ķ×Ķ×¨": 4568,
      "Ġ×ĵ×Ļ×ł×Ĵ": 4569,
      "Ġ×¤×ķ×Ŀ": 4570,
      "Ġ×¤×ł×ķ": 4571,
      "Ġ×¤×¨×Ļ×": 4572,
      "Ġ×¤×Ļ×¦": 4573,
      "Ġ×¤×ĵ×ľ": 4574,
      "Ġ×¤×ķ×¨×Ļ×Ŀ": 4575,
      "Ġ×¤×¨×Ļ×Ĺ": 4576,
      "Ġ×¤×ķ×©×¨": 4577,
      "Ġ×¤×ķ×Ĺ×ĵ×ª": 4578,
      "Ġ×¤×¤×Ļ×ĺ×Ķ": 4579,
      "Ġ×ľ×Ķ×Ł": 4580,
      "Ġ×ľ×Ķ×ķ×©": 4581,
      "Ġ×ľ×Ķ×¤×ķ×ļ": 4582,
      "Ġ×ľ×Ķ×¤×¨×Ļ×¢": 4583,
      "×Ļ×§×ª": 4584,
      "×ķ×¤×Ĳ": 4585,
      "×Ļ×ĵ×ķ": 4586,
      "Ġ×ľ×©×ĺ×ķ×Ĳ×ª": 4587,
      "Ġ×Ĳ×Ĺ×Ľ×Ķ": 4588,
      "Ġ×Ĳ×Ĺ×ĸ×Ļ×¨": 4589,
      "×Ļ×ľ×Ļ×ª": 4590,
      "×Ļ×ľ×Ĺ×Ŀ": 4591,
      "Ġ×ĸ×§": 4592,
      "Ġ×ĸ×¨×ª": 4593,
      "Ġ×ĸ×ĸ×Ķ": 4594,
      "Ġ×ĸ×ķ×Ĵ": 4595,
      "Ġ×ĸ×Ĺ×ľ": 4596,
      "×Ĺ×Ĺ×Ĺ": 4597,
      "×ķ×Ĺ×ķ×ª": 4598,
      "×ķ×ŀ×ķ×ª": 4599,
      "×ķ×ŀ×ĳ×ķ×¡": 4600,
      "×ķ×¡×ĺ": 4601,
      "×Ĳ×ª×ĳ×ķ×ĺ": 4602,
      "Ġ×ª×©×¤×ķ×ļ": 4603,
      "Ġ×ª×©×Ĳ×¨": 4604,
      "Ġ×ª×¡×Ļ×¢×Ļ": 4605,
      "Ġ×ŀ×¡×Ľ×Ł": 4606,
      "Ġ×ŀ×¡×Ļ×¢×Ķ": 4607,
      "Ġ×ŀ×¡×ŀ×¨": 4608,
      "Ġ×ŀ×¡×Ĵ×¨×ª": 4609,
      "Ġ×ŀ×¡×ķ×ĳ×ļ": 4610,
      "Ġ×Ļ×ķ×ĵ×Ķ": 4611,
      "Ġ×ŀ×ª×Ķ": 4612,
      "Ġ×ŀ×ª×¤": 4613,
      "Ġ×ŀ×ª×ķ×§×Ļ": 4614,
      "Ġ×ŀ×ª×ľ×ĳ×©": 4615,
      "Ġ×ŀ×ª×ł×ķ×¢×¢": 4616,
      "Ġ×Ĳ×ķ×¨×ļ": 4617,
      "Ġ×ŀ×©×¨×ķ×§": 4618,
      "Ġ×ŀ×©×ķ×ĺ": 4619,
      "Ġ×ŀ×©×ŀ×Ļ×¢": 4620,
      "Ġ×ŀ×©×¤×Ĺ×ª": 4621,
      "Ġ×ŀ×©×Ĺ×Ļ×ľ×Ķ": 4622,
      "Ġ×Ļ×ľ×ĳ": 4623,
      "×ľ×Ļ×ķ×ª": 4624,
      "×ķ×Ĵ×Ł": 4625,
      "×ľ×ª×ķ×ľ": 4626,
      "Ġ×Ĳ×ł×¡×Ķ": 4627,
      "Ġ×©×ŀ×ķ×ª": 4628,
      "Ġ×©×ŀ×ł×Ķ": 4629,
      "Ġ×©×ŀ×ľ×ª": 4630,
      "Ġ×©×ŀ×¨×Ļ×Ŀ": 4631,
      "Ġ×©×ŀ×Ĺ×ķ": 4632,
      "Ġ×©×ŀ×¢×Ł": 4633,
      "Ġ×ł×¢×ľ×ª": 4634,
      "×Ľ×ª×Ļ": 4635,
      "Ġ×ŀ×§×ł": 4636,
      "Ġ×ł×©×¨": 4637,
      "×Ĺ×§×Ļ": 4638,
      "Ġ×ľ×ĳ×©×Ķ": 4639,
      "Ġ×ľ×ĳ×©×ľ": 4640,
      "Ġ×Ĳ×¨×Ĺ": 4641,
      "Ġ×Ĳ×¨×ľ×Ķ": 4642,
      "Ġ×Ĳ×¨×ĸ×Ķ": 4643,
      "Ġ×Ĳ×¨×ķ×ĳ×Ķ": 4644,
      "Ġ×¡×ĳ×ª×ķ×ª": 4645,
      "×¨×ĳ×ĳ×Ļ": 4646,
      "Ġ×§×ĺ×ł×¦": 4647,
      "Ġ×Ĺ×ŀ×ķ×¨×Ļ×Ŀ": 4648,
      "Ġ×Ĺ×ŀ×Ĳ×ª×ĳ×ķ×ĺ": 4649,
      "Ġ×ŀ×Ĺ×ŀ": 4650,
      "Ġ×ŀ×Ĺ×ķ×ĳ": 4651,
      "×ķ×¦×Ļ": 4652,
      "Ġ×ª×ŀ×Ĺ×§×Ļ": 4653,
      "×Ļ×Ĺ×ķ×ª": 4654,
      "×Ĺ×Ļ×Ļ×ľ": 4655,
      "Ġ×ľ×§×ł×Ĺ": 4656,
      "Ġ×ľ×§×¨×ķ×¢": 4657,
      "Ġ×ŀ×¦×Ļ×¢×Ķ": 4658,
      "Ġ×ľ×ŀ×©×ķ×ļ": 4659,
      "Ġ×Ķ×Ĵ×¨×ķ×©": 4660,
      "Ġ×¨×§×ķ×ĳ": 4661,
      "Ġ×¨×§×ĺ×Ķ": 4662,
      "Ġ×ł×Ļ×¦×ł×ķ": 4663,
      "×ĳ×§×ķ×ª": 4664,
      "Ġ×ł×¤×Ĵ×ķ×©": 4665,
      "Ġ×Ļ×Ķ×¤×ķ×ļ": 4666,
      "Ġ×ŀ×Ĵ×©": 4667,
      "Ġ×ŀ×Ĵ×ĳ×ķ×ª": 4668,
      "Ġ×ĳ×ł×ĵ×ķ×ĵ": 4669,
      "Ġ×Ĵ×ľ×Ļ×Ł": 4670,
      "Ġ×ł×¢×ľ×Ŀ": 4671,
      "Ġ×ŀ×©×Ĺ×§×ķ×ª": 4672,
      "Ġ×ª×§×¤": 4673,
      "Ġ×Ĵ×ĳ×Ļ×¢": 4674,
      "Ġ×Ĺ×ª×ľ×ª×ķ×ľ": 4675,
      "Ġ×ŀ×ľ×ķ×ł×Ķ": 4676,
      "Ġ×ŀ×ľ×Ĳ×Ļ×Ŀ": 4677,
      "Ġ×Ķ×ª×§×ľ": 4678,
      "Ġ×ª×¢×¨×ĳ×ĳ×Ļ": 4679,
      "Ġ×ľ×Ĺ×ķ": 4680,
      "Ġ×ľ×Ĺ×©×Ķ": 4681,
      "Ġ×ĵ×Ļ×ķ×§": 4682,
      "×ķ×ĺ×©": 4683,
      "×§×ª×§": 4684,
      "Ġ×ª×Ĳ×Ķ": 4685,
      "Ġ×ª×Ĺ×ł×Ķ": 4686,
      "Ġ×ª×Ĺ×ĸ×ķ×¨": 4687,
      "Ġ×ª×Ĺ×ľ×Ļ×ĺ": 4688,
      "×Ļ×Ľ×Ļ×Ŀ": 4689,
      "×Ļ×Ľ×Ŀ": 4690,
      "Ġ×Ľ×ª×ĳ×ª": 4691,
      "Ġ×Ļ×ķ×©×Ł": 4692,
      "Ġ×§×¨×ł": 4693,
      "Ġ×§×¨×Ļ×¨": 4694,
      "Ġ×§×¨×ķ×¢": 4695,
      "Ġ×§×¨×¡×ķ×ľ": 4696,
      "Ġ×¢×ķ×Ĵ×Ł": 4697,
      "Ġ×ŀ×¨×Ľ×Ļ×ĳ×Ķ": 4698,
      "×ĵ×ľ×Ļ×§×Ļ": 4699,
      "Ġ×ł×ª×§": 4700,
      "Ġ×ł×ª×¨×Ĺ": 4701,
      "Ġ×ŀ×Ĳ×ķ×ª": 4702,
      "Ġ×ĳ×¨×ĸ×ľ": 4703,
      "Ġ×Ľ×¨×ŀ×ľ×Ļ": 4704,
      "Ġ×Ķ×ĳ×ĺ": 4705,
      "Ġ×ŀ×¢×©×Ķ": 4706,
      "Ġ×ª×¤×Ļ×ľ×Ļ": 4707,
      "Ġ×Ĳ×Ľ×ľ×ķ": 4708,
      "Ġ×Ļ×¨×ķ×§×ķ×ª": 4709,
      "Ġ×§×ľ×§×ľ×ª": 4710,
      "Ġ×ł×ŀ×¨×Ĺ": 4711,
      "Ġ×¡×ķ×¡×ķ×Ł": 4712,
      "Ġ×ª×ĳ×Ĺ×¨×Ļ": 4713,
      "Ġ×ŀ×§×ľ×§×ľ×ª": 4714,
      "Ġ×Ĳ×ķ×ŀ×¨×ķ×ª": 4715,
      "×ł×Ĵ×ķ": 4716,
      "Ġ×¢×ĵ×©×Ķ": 4717,
      "Ġ×ĳ×ł×Ĺ×Ļ×Ļ×ľ": 4718,
      "Ġ×ľ×Ķ×ª×Ĵ×ľ": 4719,
      "Ġ×ŀ×ĳ×Ķ": 4720,
      "Ġ×ŀ×ĳ×ķ×Ĵ": 4721,
      "Ġ×ŀ×ĳ×ľ×ĳ×ľ": 4722,
      "Ġ×Ļ×¢×ĳ×ķ×¨": 4723,
      "Ġ×Ļ×¢×ĳ×ķ×ĵ": 4724,
      "Ġ×ª×Ľ×ł": 4725,
      "Ġ×¦×ľ×¦×ľ": 4726,
      "Ġ×¦×ľ×¢×ķ×ª": 4727,
      "Ġ×©×¤×ł×Ļ×Ŀ": 4728,
      "Ġ×Ĺ×ŀ×ķ×ĵ×Ļ×ľ×Ķ": 4729,
      "Ġ×©×Ĳ×ķ×ľ": 4730,
      "Ġ×ª×¦×¨×Ĺ×Ļ": 4731,
      "Ġ×ª×ł×§×Ļ": 4732,
      "Ġ×Ĳ×¤×ķ×ĵ×Ķ": 4733,
      "Ġ×Ľ×ĳ×ĵ×Ķ": 4734,
      "Ġ×Ĳ×ŀ×ĳ×ķ×ľ×ł×¡": 4735,
      "Ġ×ĳ×ľ×Ĵ×ł×Ļ×Ŀ": 4736,
      "Ġ×ľ×¤×Ĺ×ķ×ª": 4737,
      "Ġ×¡×Ļ×¨×ª": 4738,
      "Ġ×ľ×Ļ×¦×ł×Ļ×ª": 4739,
      "Ġ×ª×ª×§×©": 4740,
      "Ġ×Ĳ×©×Ł": 4741,
      "Ġ×Ĳ×©×Ĺ×§": 4742,
      "Ġ×Ĳ×©×Ĳ×ľ": 4743,
      "Ġ×ŀ×ŀ×Ĺ": 4744,
      "Ġ×ŀ×ŀ×ļ": 4745,
      "Ġ×Ĺ×¡×¨×ķ×ª": 4746,
      "Ġ×ľ×Ĺ×Ļ×Ļ×ļ": 4747,
      "Ġ×ª×ľ×¢×¡×Ļ": 4748,
      "Ġ×ª×ľ×ķ×Ļ×Ķ": 4749,
      "Ġ×Ķ×ĳ×Ļ×Ĳ×ķ": 4750,
      "Ġ×ŀ×ĸ×Ļ×Ł": 4751,
      "Ġ×©×ľ×ķ×©×ª": 4752,
      "Ġ×Ļ×ĳ×Ľ×Ķ": 4753,
      "Ġ×ŀ×ķ×¦×Ĳ×ª": 4754,
      "Ġ×ŀ×ķ×¦×ľ×Ĺ": 4755,
      "Ġ×ł×ĵ×ŀ×Ķ": 4756,
      "Ġ×§×©×ķ×ĺ": 4757,
      "Ġ×§×©×§×ķ×©": 4758,
      "Ġ×ľ×ĺ×Ĳ×Ķ": 4759,
      "Ġ×Ľ×ľ×ķ×ĳ": 4760,
      "Ġ×Ľ×ľ×ķ×ŀ×¨": 4761,
      "Ġ×Ķ×ķ×¤×¡": 4762,
      "Ġ×Ķ×ķ×¤×Ľ×ª": 4763,
      "Ġ×¤×Ļ×ľ×ķ×Ł": 4764,
      "Ġ×ŀ×Ĵ×ĵ×ľ×Ļ×Ŀ": 4765,
      "Ġ×¢×ĳ×ĵ": 4766,
      "Ġ×ŀ×ĵ×ĳ×Ļ×§": 4767,
      "Ġ×ŀ×¡×ª×Ļ×¨": 4768,
      "Ġ×ŀ×¡×ª×Ļ×¨×Ķ": 4769,
      "Ġ×¤×ª×ķ×Ĺ×ķ×ª": 4770,
      "Ġ×Ĳ×§×¨×Ļ×Ĳ": 4771,
      "Ġ×¨×Ĺ×¦×ª": 4772,
      "Ġ×Ļ×§×ĳ×ľ": 4773,
      "Ġ×Ĳ×¦×ľ×Ļ": 4774,
      "Ġ×¤×ľ×Ĺ×Ļ×Ŀ": 4775,
      "Ġ×©×ķ×ĳ×¨": 4776,
      "Ġ×Ĳ×ķ×Ļ×ķ×Ļ×ķ×Ļ×ķ×Ļ×ķ×Ļ": 4777,
      "Ġ×Ļ×ķ×¨×§×ª": 4778,
      "Ġ×¤×Ĺ×Ĳ×©": 4779,
      "Ġ×ª×©×Ĳ×Ļ×¨": 4780,
      "Ġ×Ĺ×ľ×ĳ×Ļ": 4781,
      "Ġ×Ķ×Ĺ×ľ×Ļ×ĺ": 4782,
      "Ġ×ŀ×ķ×¨×Ĺ×Ļ×Ŀ": 4783,
      "Ġ×©×ķ×Ĳ×ľ×Ļ×Ŀ": 4784,
      "Ġ×Ĵ×©×¨": 4785,
      "Ġ×©×Ľ×Ĺ×ł×ķ": 4786,
      "Ġ×ł×Ķ×ł×ª": 4787,
      "Ġ×ł×Ķ×¨×Ļ×Ķ": 4788,
      "Ġ×ł×ķ×¤×ľ×Ļ×Ŀ": 4789,
      "Ġ×Ĵ×ł×Ł": 4790,
      "Ġ×¨×ķ×¦×Ļ": 4791,
      "Ġ×§×Ļ×ĳ×ľ×ª×Ļ": 4792,
      "Ġ×ŀ×¦×Ĺ×Ļ×§×ķ×ľ×Ķ": 4793,
      "×ĺ×¨×ļ": 4794,
      "Ġ×ľ×ľ×Ľ×ľ×ļ": 4795,
      "Ġ×©×Ļ×Ĺ×§": 4796,
      "Ġ×ŀ×ª×Ĺ×ľ": 4797,
      "Ġ×¢×ł×Ł": 4798,
      "Ġ×¢×ł×Ļ×ĳ×Ķ": 4799,
      "Ġ×¢×ł×Ļ×ł×Ļ×Ŀ": 4800,
      "Ġ×ŀ×ŀ×©×Ļ×Ľ×Ķ": 4801,
      "Ġ×§×ķ×ľ×ķ×ŀ×ĳ×ķ×¡": 4802,
      "Ġ×ŀ×Ļ×ŀ×Ļ×Ĺ×Ķ": 4803,
      "Ġ×ŀ×Ļ×ŀ×Ļ×ľ×Ĳ": 4804,
      "Ġ×©×ķ×ĳ×ĳ×ł×Ļ×ķ": 4805,
      "Ġ×ĳ×ķ×ĳ×ķ×ĳ": 4806,
      "Ġ×¡×¤×§": 4807,
      "Ġ×ĳ×ĵ×§×ª": 4808,
      "Ġ×ŀ×¡×ĺ×Ļ×§×Ļ×Ŀ": 4809,
      "Ġ×¤×ĺ×Ļ×¤×ķ×Ł": 4810,
      "Ġ×ŀ×ķ×©×ĳ": 4811,
      "Ġ×ĵ×ĳ×Ļ×ĵ": 4812,
      "Ġ×§×¦×Ļ×¦×ª": 4813,
      "Ġ×ŀ×ł×Ĵ×Ļ×ł×Ķ": 4814,
      "Ġ×ŀ×ł×Ĵ×ł×Ļ×Ŀ": 4815,
      "Ġ×Ķ×ª×Ĺ×ľ×Ķ": 4816,
      "Ġ×Ķ×ª×Ĺ×Ļ×ľ×Ķ": 4817,
      "Ġ×ŀ×ķ×Ľ×Ł": 4818,
      "Ġ×©×ĳ×¢×Ķ": 4819,
      "Ġ×¤×©×ĺ": 4820,
      "Ġ×ľ×ĵ×Ĳ×ķ×Ĵ": 4821,
      "Ġ×ł×¤×ľ×ª×Ļ": 4822,
      "Ġ×Ļ×ĳ×Ļ×Ĳ×ķ": 4823,
      "Ġ×Ļ×Ĺ×ĸ×Ļ×§": 4824,
      "Ġ×¦×ķ×¢×§×Ļ×Ŀ": 4825,
      "Ġ×ĸ×¨×¢×ª": 4826,
      "Ġ×ŀ×©×ª×Ĵ×¢×ª": 4827,
      "Ġ×¦×ķ×¨×ª": 4828,
      "Ġ×Ĳ×ĳ×Ļ×ĺ×ľ×Ļ": 4829,
      "Ġ×ŀ×Ĺ×ĸ×Ļ×§×Ļ×Ŀ": 4830,
      "Ġ×Ļ×ķ×¨×ĵ×ķ×ª": 4831,
      "Ġ×ł×©×Ĳ×¨×Ļ×Ŀ": 4832,
      "Ġ×¢×ŀ×§": 4833,
      "Ġ×ĳ×¢×ĵ×Ļ×ł×ķ×ª": 4834,
      "Ġ×ª×ĺ×¤×¡": 4835,
      "Ġ×ª×Ĳ×¡×ķ×Ĳ×ª": 4836,
      "Ġ×Ķ×¤×ļ": 4837,
      "×Ĳ×ĵ×Ŀ": 4838,
      "Ġ×ŀ×¤×Ĺ×ĵ×ª": 4839,
      "Ġ×ŀ×¨×ĳ×Ļ×¦×Ļ×Ŀ": 4840,
      "Ġ×Ķ×ķ×¨×ĵ×ł×ķ": 4841,
      "Ġ×¦×¤×¨×ĵ×¢×Ļ×Ŀ": 4842,
      "Ġ×ł×ĸ×Ļ×ĸ": 4843,
      "Ġ×Ļ×Ĵ×Ļ×ĵ×ķ": 4844,
      "×¤×ĵ×¤×Ļ": 4845,
      "Ġ×©×Ļ×¢×ķ×¨×Ļ×Ŀ": 4846,
      "Ġ×ł×Ļ×Ĵ×ķ×ĳ": 4847,
      "×Ĵ×ĵ×Ĵ": 4848,
      "Ġ×ľ×Ķ×Ĺ×ĸ×Ļ×§": 4849,
      "Ġ×Ĺ×Ļ×¤×©×ª×Ļ": 4850,
      "Ġ×Ĳ×ķ×Ĵ×ķ×¡×ĺ": 4851,
      "Ġ×Ĵ×ķ×ĸ×ľ": 4852,
      "Ġ×Ĵ×ķ×ĸ×ľ×Ļ×Ŀ": 4853,
      "Ġ×§×©×ķ×Ĳ×Ļ×Ŀ": 4854,
      "Ġ×ľ×ĳ×¨×ļ": 4855,
      "Ġ×Ĺ×Ļ×ĳ×Ļ×Ŀ": 4856,
      "Ġ×¢×Ľ×ĳ×¨×Ļ×Ŀ": 4857,
      "Ġ×ŀ×¤×Ķ×§": 4858,
      "Ġ×¨×ķ×¤×Ĳ×Ķ×©×ł×Ļ×Ļ×Ŀ": 4859,
      "Ġ×¨×Ļ×Ĺ×ł×Ļ": 4860,
      "×¢×Ĳ×¢×Ĳ": 4861,
      "Ġ×Ķ×¡×ª×ķ×ĳ×ĳ": 4862,
      "Ġ×ŀ×ķ×Ĺ×§×ª": 4863,
      "Ġ×ĳ×ł×ķ×Ļ×Ķ": 4864,
      "Ġ×ª×¤×¨×¡×Ļ": 4865,
      "Ġ×ĳ×¨×ĸ×Ļ×Ŀ": 4866,
      "Ġ×ĳ×¨×ĸ×Ļ×Ķ": 4867,
      "Ġ×ŀ×¡×ª×¨×§×ª": 4868,
      "Ġ×Ķ×ķ×¨×ĵ×ª×Ļ": 4869,
      "Ġ×ŀ×ľ×ķ×Ľ×ľ×Ľ×Ļ×Ŀ": 4870,
      "Ġ×©×ķ×ĺ×¤×ª": 4871,
      "Ġ×ł×¦×ĺ×¨×ļ": 4872,
      "Ġ×ĵ×Ļ×ĳ×¨×ł×ķ": 4873,
      "Ġ×Ķ×ª×¨×Ĺ×¦×ł×ķ": 4874,
      "Ġ×ŀ×¢×ĵ×Ļ×¤×Ķ": 4875,
      "Ġ×ľ×Ĳ×¡×ķ×Ĳ×ª": 4876,
      "Ġ×¢×Ľ×ĳ×©×Ļ×Ŀ": 4877,
      "Ġ×§×ĺ×ł×ĺ×ł×Ķ": 4878,
      "Ġ×ŀ×Ľ×ķ×ł×ª×ª×¤": 4879,
      "Ġ×ª×ł×Ĵ×ĳ×Ļ": 4880,
      "Ġ×ľ×Ķ×ł×Ļ×Ĺ": 4881,
      "Ġ×ª×©×ŀ×¢×Ļ": 4882,
      "Ġ×ª×¡×ª×ķ×ĳ×ĳ": 4883,
      "Ġ×ª×Ĺ×ĳ×ķ×©×ª": 4884,
      "Ġ×Ĵ×¨×¢×Ļ×Ł": 4885,
      "Ġ×¨×ķ×ª×Ŀ": 4886,
      "Ġ×¡×ł×Ĳ×Ļ×Ŀ": 4887,
      "Ġ×¤×Ļ×¤×ķ×©": 4888,
      "Ġ×ŀ×¡×¢×ĵ": 4889,
      "Ġ×ª×ł×¢×ľ×Ļ": 4890,
      "Ġ×ŀ×ĵ×Ĵ×ĵ×Ĵ×ª": 4891,
      "Ġ×Ķ×ĵ×ľ×§×ª×Ļ": 4892,
      "Ġ×ł×ł×¤×Ĺ": 4893,
      "Ġ×Ļ×©×ŀ×¢×ķ": 4894,
      "Ġ×ŀ×ª×Ĳ×Ļ×ŀ×Ļ×Ŀ": 4895,
      "Ġ×ŀ×Ĺ×ĵ×ĵ": 4896,
      "Ġ×Ķ×ª×¢×Ļ×¤×ª": 4897,
      "Ġ×ĺ×ķ×¡×ĺ×ķ×¡": 4898,
      "Ġ×ŀ×ª×¢×§×©×ª": 4899,
      "Ġ×ł×¨×ĺ×ĳ×ª": 4900,
      "Ġ×ŀ×ĵ×ľ×Ļ×§×Ļ×Ŀ": 4901,
      "Ġ×ł×ĳ×§×©": 4902,
      "Ġ×Ļ×ķ×ľ×Ļ×§×Ķ": 4903,
      "Ġ×Ļ×Ļ×¡×Ĵ×¨": 4904,
      "Ġ×ª×Ľ×ª×ĳ×Ļ": 4905,
      "Ġ×ª×¦×¢×§×Ļ": 4906,
      "Ġ×§×Ļ×ľ×¤×ª": 4907,
      "Ġ×©×ľ×©×Ļ×ª": 4908,
      "Ġ×Ķ×ª×Ĵ×ľ×Ĵ": 4909,
      "Ġ×Ķ×ª×ĳ×ľ×ĳ×ľ×ª×Ļ": 4910,
      "Ġ×ª×Ĺ×©×ĳ×Ļ": 4911,
      "Ġ×ª×Ĺ×¤×ķ×©×ª": 4912,
      "Ġ×ª×ĳ×©×Ļ×ľ": 4913,
      "Ġ×Ĳ×¨×ķ×Ĺ×ª×Ķ×¢×¨×ĳ": 4914,
      "Ġ×ĳ×ķ×§×¡": 4915,
      "Ġ×ł×Ļ×¤×Ĺ": 4916,
      "Ġ×ĵ×¢×ª×ļ": 4917,
      "Ġ×¡×ĳ×ľ×ł×ķ×ª": 4918,
      "Ġ×ª×¢×¦×ŀ×Ļ": 4919,
      "Ġ×ŀ×Ĳ×¡×ĺ×¨": 4920,
      "Ġ×ľ×ľ×Ĺ×ķ×¢×ľ": 4921,
      "Ġ×ª×ĸ×Ļ×ĸ×Ļ": 4922,
      "Ġ×ĵ×ķ×Ĺ×¤×ª": 4923,
      "Ġ×ĵ×¨×ĵ×¡": 4924,
      "Ġ×ĵ×Ļ×Ĵ×Ļ×ĵ×Ĳ×Ł": 4925,
      "Ġ×ŀ×¦×ķ×ł×ł×ª": 4926,
      "Ġ×Ķ×ª×¤×ª×Ĺ×Ķ": 4927,
      "Ġ×ŀ×¨×ĺ×Ļ×ĳ×Ķ": 4928,
      "Ġ×Ĳ×¢×Ĳ×¢×Ĳ×¢×Ĳ": 4929,
      "Ġ×ŀ×¦×ľ×¦×ľ×Ļ×Ŀ": 4930,
      "Ġ×Ĳ×ľ×ª×©×¢": 4931,
      "Ġ×Ķ×Ļ×ĸ×Ķ×¨×Ļ": 4932,
      "Ġ×Ķ×ķ×ŀ×¨×ķ×¡": 4933,
      "Ġ×¢×¨×Ļ×¡×Ķ": 4934,
      "Ġ×©×ĸ×Ļ×¤×Ļ×Ŀ": 4935,
      "Ġ×Ļ×Ľ×ľ×Ķ": 4936,
      "Ġ×Ļ×¢×©×ķ": 4937,
      "Ġ×ª×ĳ×¢×ĺ×Ļ": 4938,
      "Ġ×ª×Ĵ×¢×Ļ": 4939,
      "Ġ×ª×Ļ×©×¨×Ļ": 4940,
      "×ŀ×Ĵ×ĵ×ľ×ª": 4941,
      "Ġ×ķ×Ļ×ľ×ķ×ł×ķ×ª": 4942,
      "Ġ×§×Ļ×¦×ķ×¨": 4943,
      "Ġ×Ĵ×ķ×ŀ×¨×Ļ×Ŀ": 4944,
      "Ġ×¤×ĵ×ľ×Ļ×Ŀ": 4945,
      "Ġ×Ĺ×ŀ×Ĳ×ª×ĳ×ķ×ĺ×ł×Ļ×Ŀ": 4946,
      "Ġ×ª×Ĺ×ľ×Ļ×ĺ×Ļ": 4947,
      "Ġ×ª×ª×§×©×¨×Ļ": 4948,
      "Ġ×ŀ×ĵ×ĳ×Ļ×§×Ļ×Ŀ": 4949,
      "Ġ×¤×Ĺ×Ĳ×©×¤×Ķ": 4950,
      "Ġ×ŀ×Ľ×ķ×ł×ª×ª×¤×Ļ×¨×Ķ": 4951,
      "×ķ×ķ×Ĳ×Ļ": 4952,
      "×Ļ×ķ×ł×ķ×ª": 4953,
      "×Ļ×ķ×ł×Ļ": 4954,
      "×Ķ×ķ": 4955,
      "×Ķ×¨": 4956,
      "×Ķ×Ľ×ķ×ľ": 4957,
      "Ġ×Ĳ×Ł": 4958,
      "Ġ×Ĳ×ķ×ĵ": 4959,
      "Ġ×Ĳ×Ĵ×¢": 4960,
      "Ġ×Ĳ×Ľ×ª×ķ×ĳ": 4961,
      "Ġ×Ĳ×§×ľ×Ļ×ĺ": 4962,
      "Ġ×Ĳ×ķ×ĵ×Ļ": 4963,
      "Ġ×Ķ×ķ×©": 4964,
      "Ġ×Ķ×ŀ×Ķ": 4965,
      "Ġ×Ķ×Ļ×ĺ": 4966,
      "Ġ×Ķ×ľ×ĳ": 4967,
      "Ġ×Ķ×¨×Ļ×Ŀ": 4968,
      "Ġ×Ķ×§×ª": 4969,
      "Ġ×Ķ×¨×Ļ×ŀ": 4970,
      "×ª×Ĺ×Ļ": 4971,
      "Ġ×ľ×ĸ": 4972,
      "Ġ×ľ×Ļ×ľ": 4973,
      "Ġ×ľ×Ļ×¡": 4974,
      "Ġ×ľ×Ĵ×ľ": 4975,
      "Ġ×ľ×Ĵ×ķ×¨": 4976,
      "Ġ×ľ×Ļ×©": 4977,
      "Ġ×ľ×Ľ×ĳ": 4978,
      "Ġ×ľ×Ľ×Ļ": 4979,
      "Ġ×ľ×Ľ×ķ": 4980,
      "Ġ×ľ×Ĵ×ľ×Ĵ×ľ": 4981,
      "Ġ×ľ×ł×ĵ×Ķ": 4982,
      "Ġ×ŀ×¨×Ļ×": 4983,
      "Ġ×ŀ×ĳ×¢": 4984,
      "Ġ×ŀ×¦×Ļ": 4985,
      "Ġ×ŀ×ķ×¨×Ķ": 4986,
      "Ġ×ŀ×Ļ×ŀ×Ļ": 4987,
      "Ġ×ŀ×ĵ×ľ": 4988,
      "Ġ×ŀ×ķ×ł×Ļ": 4989,
      "Ġ×ŀ×ķ×¦×Ķ": 4990,
      "×¨×¤×ª": 4991,
      "×Ĳ×ľ×Ĳ": 4992,
      "×Ĳ×ķ×Ľ×ľ": 4993,
      "×Ĳ×ķ×Ĺ×Ļ×Ŀ": 4994,
      "×ľ×ŀ": 4995,
      "×ľ×ķ×Ĵ": 4996,
      "×ľ×§×§×ª": 4997,
      "×©×¨": 4998,
      "×©×ĳ×ª": 4999,
      "×©×ŀ×Ļ×Ŀ": 5000,
      "×ĳ×ķ×Ł": 5001,
      "×ĳ×Ļ×¨×Ķ": 5002,
      "Ġ×¢×¤×ª": 5003,
      "Ġ×¢×¤×Ķ": 5004,
      "Ġ×¢×ĵ×¨": 5005,
      "Ġ×¢×§×ķ×Ŀ": 5006,
      "Ġ×¢×Ļ×§×¨": 5007,
      "Ġ×ŀ×Ķ×ł×Ķ": 5008,
      "×ł×ł×Ķ": 5009,
      "×ł×ľ×Ķ": 5010,
      "×ł×Ļ×§×Ļ": 5011,
      "Ġ×ĳ×ļ": 5012,
      "Ġ×ĳ×ł×Ļ": 5013,
      "Ġ×ĳ×Ľ×ķ×ľ": 5014,
      "Ġ×ĳ×ĵ×¨": 5015,
      "Ġ×ĳ×Ľ×Ļ": 5016,
      "Ġ×ĳ×¦×ľ": 5017,
      "Ġ×ĳ×ł×Ļ×Ķ": 5018,
      "Ġ×ĳ×ľ×ª×Ļ": 5019,
      "Ġ×ĳ×Ļ×Ľ×Ļ": 5020,
      "Ġ×ĳ×ķ×¤×Ĳ": 5021,
      "×Ľ×¡": 5022,
      "×Ľ×¤×Ļ×Ļ×Ŀ": 5023,
      "×Ľ×Ĳ×Ł": 5024,
      "×Ľ×¡×Ļ": 5025,
      "Ġ×©×ķ": 5026,
      "Ġ×©×Ļ×¤": 5027,
      "Ġ×©×¤×ª": 5028,
      "Ġ×©×Ļ×ĺ": 5029,
      "Ġ×©×¨×Ļ×ķ×Ł": 5030,
      "Ġ×©×Ļ×Ľ×Ļ×Ŀ": 5031,
      "×Ĺ×ķ×ĳ": 5032,
      "×Ĺ×¨×¨": 5033,
      "Ġ×ł×Ļ×ª": 5034,
      "Ġ×ł×ĵ×¨": 5035,
      "Ġ×ł×¨×§": 5036,
      "Ġ×ł×¨×Ļ×Ŀ": 5037,
      "Ġ×ł×Ĳ×ĳ": 5038,
      "Ġ×ł×Ļ×ľ×Ļ": 5039,
      "Ġ×ł×ķ×¤×Ķ": 5040,
      "Ġ×ł×ĳ×Ķ": 5041,
      "Ġ×ł×ķ×ł×Ļ": 5042,
      "Ġ×ł×ĺ×¢": 5043,
      "Ġ×ł×¨×§×ķ×ĵ": 5044,
      "Ġ×ł×ł×Ĵ×Ł": 5045,
      "Ġ×ł×ķ×¨×ķ×ª": 5046,
      "Ġ×ł×ķ×ł×ķ": 5047,
      "Ġ×ł×ķ×¨×Ļ×ª": 5048,
      "Ġ×ł×Ļ×ł×Ĳ": 5049,
      "Ġ×Ļ×ĸ": 5050,
      "Ġ×Ļ×ķ×ĳ": 5051,
      "Ġ×Ļ×¨×Ļ": 5052,
      "Ġ×Ļ×¡×ĵ×¨": 5053,
      "Ġ×Ļ×Ļ×©": 5054,
      "Ġ×Ļ×Ĳ×ĳ": 5055,
      "Ġ×Ļ×¡×ª": 5056,
      "Ġ×Ļ×¨×ķ×Ł": 5057,
      "Ġ×Ļ×Ľ×ĳ×Ķ": 5058,
      "Ġ×Ļ×Ľ×ª×ķ×ĳ": 5059,
      "Ġ×Ļ×ŀ×Ļ×Ł": 5060,
      "Ġ×Ļ×ł×§×Ķ": 5061,
      "Ġ×Ļ×Ļ×©×¨": 5062,
      "Ġ×Ľ×ķ×ł": 5063,
      "Ġ×Ľ×¤×Ķ": 5064,
      "Ġ×Ľ×ĳ×Ļ": 5065,
      "Ġ×Ľ×Ļ×ª×Ķ": 5066,
      "Ġ×Ľ×Ļ×ĳ×ķ×ĵ": 5067,
      "Ġ×Ľ×ķ×©×Ļ×ª": 5068,
      "Ġ×Ľ×Ļ×ĵ×ķ×Ł": 5069,
      "Ġ×ª×Ļ×¤": 5070,
      "Ġ×ª×Ļ×ª×Ķ": 5071,
      "Ġ×ª×Ľ×Ļ": 5072,
      "Ġ×ª×Ĵ×¨": 5073,
      "Ġ×ª×ĵ×ľ×Ļ×§×Ļ": 5074,
      "Ġ×ľ×Ĳ×§": 5075,
      "Ġ×¨×ļ": 5076,
      "Ġ×¨×Ļ×ŀ": 5077,
      "Ġ×¨×Ļ×ŀ×Ļ": 5078,
      "Ġ×¨×Ľ×ĳ×ķ×ª": 5079,
      "×¢×ķ×ĵ": 5080,
      "×¢×ľ×Ļ": 5081,
      "×¢×Ļ×ľ×Ķ": 5082,
      "×ŀ×ĺ": 5083,
      "×ŀ×Ļ×¨": 5084,
      "×ŀ×Ļ×ĵ": 5085,
      "×ŀ×ł×ª": 5086,
      "×ŀ×¨×Ļ×Ŀ": 5087,
      "×ŀ×Ĺ×Ķ": 5088,
      "×ŀ×ĵ×Ļ×Ŀ": 5089,
      "×ŀ×Ļ×ĵ×Ļ": 5090,
      "×ŀ×ĺ×¢": 5091,
      "×ŀ×ŀ×Ŀ": 5092,
      "×ŀ×Ļ×Ĳ×ľ": 5093,
      "×ŀ×ł×Ĵ×ķ": 5094,
      "×¤×§": 5095,
      "×¤×ķ×Ĳ": 5096,
      "×¤×ķ×Ŀ": 5097,
      "×¤×ķ×§": 5098,
      "×¤×Ľ×Ķ": 5099,
      "×¤×ł×ª": 5100,
      "×¤×Ĺ×Ļ×Ŀ": 5101,
      "×ĵ×ľ×ª": 5102,
      "×ĵ×ł×Ļ×ª": 5103,
      "×Ĵ×ķ×Ĵ": 5104,
      "×Ĵ×Ļ×ŀ×Ķ": 5105,
      "×Ĵ×Ļ×ĸ": 5106,
      "×ķ×¨×ĳ": 5107,
      "×ķ×¨×ļ": 5108,
      "×ķ×ľ×ķ×ª": 5109,
      "×§×ķ×ª": 5110,
      "×ķ×ĵ×ª": 5111,
      "Ġ×ķ×ª": 5112,
      "Ġ×ķ×Ĳ×ĳ×ķ×Ļ": 5113,
      "Ġ×ķ×©×Ĳ": 5114,
      "Ġ×ķ×ŀ×Ļ×ª": 5115,
      "Ġ×ķ×ķ×ľ×Ĳ": 5116,
      "×¡×ķ": 5117,
      "×¡×ł×Ļ": 5118,
      "Ġ×Ĺ×¤×¨": 5119,
      "Ġ×Ĺ×ķ×Ĵ": 5120,
      "Ġ×Ĺ×¨×ĳ": 5121,
      "Ġ×Ĺ×ķ×ŀ×Ķ": 5122,
      "Ġ×Ĺ×Ĵ×ĳ": 5123,
      "Ġ×Ĺ×Ľ×Ŀ": 5124,
      "Ġ×§×§": 5125,
      "Ġ×§×ķ×Ŀ": 5126,
      "Ġ×§×¨×Ĺ": 5127,
      "Ġ×§×¦×¢": 5128,
      "Ġ×§×¤×¦": 5129,
      "Ġ×§×ķ×¢×ľ": 5130,
      "×ķ×Ĳ×§×¨": 5131,
      "Ġ×¡×Ľ": 5132,
      "Ġ×¡×ķ×ª": 5133,
      "Ġ×¡×Ļ×ł": 5134,
      "Ġ×¡×Ļ×Ĺ": 5135,
      "Ġ×Ĵ×Ķ": 5136,
      "Ġ×Ĵ×ł×Ķ": 5137,
      "Ġ×Ĵ×¨×Ļ×Ŀ": 5138,
      "Ġ×Ĵ×Ĳ×¨": 5139,
      "Ġ×Ĵ×ķ×¨×Ļ×Ŀ": 5140,
      "Ġ×Ĵ×ķ×ł×Ļ": 5141,
      "Ġ×ł×Ľ×¤×ª": 5142,
      "×ĸ×Ł": 5143,
      "×ĸ×§×ª": 5144,
      "×ĸ×ľ×Ļ×Ŀ": 5145,
      "×Ļ×Ĳ×ł×Ķ": 5146,
      "×Ļ×Ĳ×Ĳ×ķ": 5147,
      "Ġ×ĺ×ª": 5148,
      "Ġ×ĺ×¨×Ķ": 5149,
      "Ġ×ĺ×ķ×¢": 5150,
      "Ġ×ĺ×Ļ×¤×ķ×ľ": 5151,
      "Ġ×ĺ×§×¡": 5152,
      "Ġ×ĺ×ĳ×ľ×ª": 5153,
      "×ĺ×Ĳ×Ł": 5154,
      "Ġ×Ķ×Ĵ×Ļ×ķ×ł×Ļ": 5155,
      "Ġ×Ļ×©×ĳ×ª": 5156,
      "Ġ×Ļ×©×ł×ķ×ª": 5157,
      "Ġ×Ļ×©×ĳ×ķ": 5158,
      "Ġ×¦×ŀ×Ķ": 5159,
      "Ġ×¦×Ļ×§": 5160,
      "Ġ×¦×ĳ×ª": 5161,
      "Ġ×¦×Ļ×ľ": 5162,
      "Ġ×¦×Ĺ×§": 5163,
      "Ġ×¦×§×ľ": 5164,
      "Ġ×¦×ŀ×¨": 5165,
      "Ġ×¦×¤×¦": 5166,
      "Ġ×¦×¤×ĺ×ľ": 5167,
      "Ġ×¦×Ĺ×¦×Ĺ": 5168,
      "Ġ×¢×ľ×ķ": 5169,
      "Ġ×¢×ľ×Ļ×ĸ×Ķ": 5170,
      "Ġ×¢×ľ×ª×Ķ": 5171,
      "Ġ×Ĳ×ĳ×ķ×Ļ": 5172,
      "Ġ×Ĳ×ĳ×©×ľ": 5173,
      "Ġ×Ĳ×ĳ×ĺ×Ļ×Ĺ": 5174,
      "Ġ×Ĳ×ĳ×ĳ×Ļ×Ķ": 5175,
      "×Ļ×¨×Ľ×ĳ×ª": 5176,
      "Ġ×ŀ×Ļ×Ļ×Ĳ×Ĳ×ķ": 5177,
      "Ġ×ĵ×Ĳ": 5178,
      "Ġ×ĵ×ķ×Ĳ": 5179,
      "Ġ×ĵ×Ļ×Ł": 5180,
      "Ġ×ĵ×¢×ª×Ļ": 5181,
      "Ġ×ĵ×§×Ķ": 5182,
      "Ġ×ĵ×¡×ł×Ļ": 5183,
      "Ġ×¤×ķ×ļ": 5184,
      "Ġ×¤×ľ×Ĳ": 5185,
      "Ġ×¤×Ĳ×Ł": 5186,
      "Ġ×¤×Ľ×¡×Ķ": 5187,
      "Ġ×ľ×Ķ×¤×¨": 5188,
      "Ġ×ľ×Ķ×Ļ×¤×ª×Ĺ": 5189,
      "Ġ×Ĳ×ķ×¤×Ķ": 5190,
      "Ġ×Ĳ×ĸ×ķ×ĸ": 5191,
      "Ġ×Ĳ×ĸ×ŀ×Ļ×Ł": 5192,
      "×ķ×¤×ķ×¤": 5193,
      "×¨×Ĳ×ļ": 5194,
      "×Ļ×ĵ×ļ": 5195,
      "Ġ×ĺ×ķ×ĳ×ķ×ª": 5196,
      "Ġ×ĺ×ķ×ĳ×ľ×ª": 5197,
      "Ġ×Ĳ×ķ×ª×Ł": 5198,
      "×¤×¨×ª": 5199,
      "×¤×¨×Ļ×¦×Ķ": 5200,
      "Ġ×ľ×Ļ×Ĳ×ª": 5201,
      "Ġ×ľ×©×Ĺ×ķ×ª": 5202,
      "Ġ×ľ×©×Ĺ×¨×¨": 5203,
      "Ġ×Ĳ×ķ×ķ": 5204,
      "Ġ×Ĳ×ķ×Ļ×ł×§": 5205,
      "Ġ×Ĳ×Ĺ×ķ×¨": 5206,
      "Ġ×Ĳ×Ĺ×Ļ×ķ×ª": 5207,
      "×Ļ×ł×Ļ×ª": 5208,
      "Ġ×ĸ×Ļ×§": 5209,
      "Ġ×ĸ×ķ×Ĺ": 5210,
      "Ġ×ĸ×ķ×¡": 5211,
      "Ġ×ĸ×ķ×Ķ": 5212,
      "Ġ×ĸ×ŀ×¨": 5213,
      "Ġ×ĸ×Ļ×ª×Ļ×Ŀ": 5214,
      "Ġ×ĸ×ŀ×Ļ×¨": 5215,
      "×ķ×ł×ĳ": 5216,
      "×ķ×ł×Ĵ": 5217,
      "×ķ×ł×Ĳ×ª": 5218,
      "×Ľ×ľ×Ľ×ª": 5219,
      "Ġ×Ĳ×Ļ×ŀ×Ĳ×ľ×Ķ": 5220,
      "Ġ×Ľ×Ĳ×ŀ×ķ×Ł": 5221,
      "×ķ×ŀ×Ł": 5222,
      "Ġ×Ĳ×Ķ×Ŀ": 5223,
      "Ġ×Ĳ×Ķ×Ļ×Ķ": 5224,
      "×ķ×¡×¤×ķ×¨": 5225,
      "×¢×©×¨": 5226,
      "×Ĳ×ª×Ĳ×ª": 5227,
      "×Ĳ×ª×Ĳ×Ł": 5228,
      "Ġ×ª×©×ķ×ĳ×Ķ": 5229,
      "Ġ×ª×©×Ļ×¢×Ļ": 5230,
      "Ġ×ª×¡×¤×ķ×¨": 5231,
      "Ġ×ª×¡×ĳ×Ļ×¨": 5232,
      "Ġ×ª×¡×ķ×ĳ×ĳ×Ļ": 5233,
      "Ġ×ŀ×¡×ķ×ĵ": 5234,
      "Ġ×ŀ×¡×Ľ×Ļ×Ŀ": 5235,
      "Ġ×ŀ×¡×ĳ×Ļ×¨×Ļ×Ŀ": 5236,
      "Ġ×ŀ×¡×ŀ×¨×Ļ×Ŀ": 5237,
      "Ġ×Ļ×ķ×ĵ×Ĳ×ľ": 5238,
      "Ġ×ŀ×ª×Ĵ": 5239,
      "Ġ×ŀ×ª×ľ×ĳ": 5240,
      "Ġ×ŀ×ª×ł×Ĵ": 5241,
      "Ġ×ŀ×ª×§×©×¨": 5242,
      "Ġ×ŀ×ª×ľ×Ľ×ľ×ļ": 5243,
      "Ġ×ŀ×ª×§×ľ×§×ľ": 5244,
      "Ġ×ŀ×ª×ľ×Ľ×ľ": 5245,
      "Ġ×ŀ×ª×§×ª×§": 5246,
      "Ġ×ŀ×ª×ľ×§×§×ª": 5247,
      "Ġ×Ĳ×ķ×¨×Ļ×Ŀ": 5248,
      "Ġ×Ĳ×ķ×¨×Ĺ×Ļ×Ŀ": 5249,
      "Ġ×ŀ×©×ľ": 5250,
      "Ġ×ŀ×©×¨×ĺ": 5251,
      "×Ļ×ĳ×ķ×ª": 5252,
      "Ġ×Ĳ×ł×Ĵ×ľ": 5253,
      "Ġ×Ĳ×ł×¤×Ļ×ľ": 5254,
      "Ġ×ŀ×Ľ×ŀ×Ł": 5255,
      "Ġ×ŀ×Ľ×ĳ×Ļ×Ŀ": 5256,
      "Ġ×ŀ×Ľ×Ļ×ł×Ļ×Ŀ": 5257,
      "Ġ×ŀ×Ľ×ķ×¡×Ķ": 5258,
      "Ġ×ŀ×Ľ×¡×Ļ×Ŀ": 5259,
      "×Ļ×¡×Ļ": 5260,
      "×Ļ×¡×Ĳ×ķ×¡": 5261,
      "Ġ×Ļ×ľ×ĵ×ª×Ļ": 5262,
      "Ġ×©×ŀ×ľ×ķ×ª": 5263,
      "Ġ×¢×©×Ļ": 5264,
      "Ġ×¢×©×¨×Ķ": 5265,
      "Ġ×¢×©×ķ×Ļ": 5266,
      "Ġ×Ĳ×ŀ×Ĳ": 5267,
      "Ġ×Ĳ×ŀ×ľ×Ĳ": 5268,
      "Ġ×ł×¢×Ļ×ŀ×Ķ": 5269,
      "Ġ×ł×¢×¨×ĳ×ĳ": 5270,
      "Ġ×ł×¢×ĵ×ł×ĵ": 5271,
      "×ķ×¢×ķ×ĵ": 5272,
      "Ġ×Ļ×ĵ×ķ×¢": 5273,
      "Ġ×Ļ×ĵ×¤×ĵ": 5274,
      "Ġ×ŀ×§×ĳ×ľ": 5275,
      "Ġ×ł×©×Ľ×ĳ": 5276,
      "Ġ×ł×©×ŀ×ķ×¨": 5277,
      "Ġ×ł×©×ŀ×Ļ×¢": 5278,
      "Ġ×ľ×ĳ×Ĺ×ķ×¨": 5279,
      "×¤×©×¤×ª": 5280,
      "Ġ×¡×ĳ×ª×Ķ": 5281,
      "Ġ×Ľ×Ļ×ķ×¨": 5282,
      "Ġ×¦×ĳ×¢×ķ×ł×Ļ×ª": 5283,
      "Ġ×§×ĺ×ľ×ķ×Ĵ": 5284,
      "Ġ×Ĺ×ŀ×ĵ": 5285,
      "Ġ×ĳ×Ĳ×ľ×Ĳ": 5286,
      "Ġ×Ĵ×ĵ×ķ×©×Ķ": 5287,
      "Ġ×Ļ×Ľ×ķ×ľ×ª": 5288,
      "Ġ×ŀ×Ĺ×Ļ×Ĳ×ķ×ª": 5289,
      "Ġ×ª×ŀ×¨": 5290,
      "Ġ×ª×ŀ×ª×Ĺ×Ļ": 5291,
      "×Ĺ×Ļ×Ļ×ļ": 5292,
      "Ġ×Ĳ×ľ×ľ": 5293,
      "Ġ×ŀ×¦×ķ×ĳ": 5294,
      "Ġ×ľ×ŀ×ľ×Ĳ": 5295,
      "Ġ×ľ×ŀ×¨×ķ×ª": 5296,
      "Ġ×¡×ĳ×Ļ×Ŀ": 5297,
      "Ġ×¡×ĳ×Ļ×ĳ×Ķ": 5298,
      "Ġ×¨×§×¤×ķ×ª": 5299,
      "Ġ×¨×§×ĵ×ł×Ļ×ª": 5300,
      "Ġ×ł×Ļ×¦×Ĺ": 5301,
      "Ġ×ł×ķ×Ļ": 5302,
      "Ġ×Ļ×Ķ×ķ×ĵ×Ķ": 5303,
      "Ġ×ĺ×ľ×Ļ×ľ×Ļ": 5304,
      "Ġ×ĺ×ľ×¤×ķ×ł×Ļ×Ŀ": 5305,
      "Ġ×ĳ×Ļ×ª×¡×ķ×Ķ×¨": 5306,
      "Ġ×¨×Ĳ×©×Ł": 5307,
      "×Ļ×Ĵ×Ķ": 5308,
      "×Ļ×Ĵ×Ļ×Ĵ×Ļ": 5309,
      "Ġ×Ľ×ŀ×ķ×ĳ×Ł": 5310,
      "Ġ×¨×¦×ķ×Ł": 5311,
      "Ġ×¨×¦×ķ×¢×Ķ": 5312,
      "Ġ×Ĳ×ĵ×¢": 5313,
      "Ġ×Ĳ×ĵ×ķ×Ł": 5314,
      "Ġ×ŀ×Ĵ×ķ×ĵ×ľ": 5315,
      "Ġ×Ĵ×ľ×Ĵ×ľ×ª": 5316,
      "Ġ×Ĵ×ľ×¢×ĵ×Ļ": 5317,
      "Ġ×ł×¢×ľ×ĳ×ª": 5318,
      "Ġ×Ĳ×¡×¢": 5319,
      "Ġ×Ĳ×¡×Ļ×Ķ": 5320,
      "Ġ×Ĳ×¡×¨×§": 5321,
      "Ġ×Ĳ×¡×ĳ×Ļ×¨": 5322,
      "Ġ×Ĺ×ª×ķ×ľ×Ļ": 5323,
      "Ġ×Ĺ×ª×Ľ×ª": 5324,
      "Ġ×Ľ×ŀ×ķ×Ķ×ķ": 5325,
      "Ġ×ŀ×ľ×ŀ": 5326,
      "Ġ×ŀ×ľ×Ľ×ľ×ļ": 5327,
      "Ġ×ŀ×ľ×ĺ×¤×ª": 5328,
      "Ġ×ŀ×ľ×§×§×ª": 5329,
      "Ġ×ŀ×ľ×Ľ×ľ×Ľ×ª": 5330,
      "Ġ×ł×¤×ľ×Ĳ×Ķ": 5331,
      "Ġ×Ķ×ª×ł×Ĵ": 5332,
      "Ġ×Ķ×ª×ľ×ĳ×©": 5333,
      "Ġ×Ķ×ª×§×ľ×§×ľ": 5334,
      "Ġ×Ķ×ª×ľ×Ľ×ľ": 5335,
      "Ġ×ª×¢×Ļ": 5336,
      "Ġ×ª×¢×ł×Ļ": 5337,
      "Ġ×ª×¢×ł×Ķ": 5338,
      "Ġ×ª×¢×ľ×ĳ": 5339,
      "Ġ×ª×¢×Ļ×¨×Ļ": 5340,
      "Ġ×ŀ×ĺ×ľ×Ļ×ª": 5341,
      "Ġ×ŀ×ĺ×¨×Ļ×ķ×ª": 5342,
      "Ġ×ľ×ĳ×ĵ×ķ×§": 5343,
      "Ġ×ľ×Ĺ×ľ": 5344,
      "Ġ×ľ×Ĺ×ķ×ĵ": 5345,
      "Ġ×ľ×Ĺ×¤×ķ": 5346,
      "×ķ×ĺ×Ķ": 5347,
      "×ķ×ĺ×¨×ª": 5348,
      "Ġ×ł×§×ľ×Ļ×ĺ": 5349,
      "Ġ×¤×ª×Ļ×ª": 5350,
      "Ġ×Ĳ×ķ×Ķ×ĵ": 5351,
      "Ġ×ŀ×ł×Ļ×Ĺ": 5352,
      "Ġ×ŀ×ł×¢×ķ×ľ": 5353,
      "Ġ×ŀ×ł×¤×Ĺ×Ļ×Ŀ": 5354,
      "Ġ×ª×Ĳ×ķ×¨": 5355,
      "Ġ×ª×Ĺ×ŀ": 5356,
      "Ġ×ª×Ĺ×ł×ª×¨": 5357,
      "Ġ×Ĺ×¨×ķ×ĵ": 5358,
      "Ġ×Ľ×ª×ĳ": 5359,
      "Ġ×Ľ×ª×ĳ×Ķ": 5360,
      "Ġ×©×ķ×ŀ×¨×Ļ×Ŀ": 5361,
      "Ġ×§×¨×¢×ª": 5362,
      "Ġ×§×¨×¢×Ķ": 5363,
      "Ġ×ł×ķ×¡×¤×ª": 5364,
      "Ġ×¤×¨×Ĺ×Ĺ": 5365,
      "Ġ×ŀ×¨×Ľ": 5366,
      "Ġ×ŀ×¨×Ĺ×ª×Ļ": 5367,
      "Ġ×Ĺ×ĸ×Ļ×Ķ": 5368,
      "Ġ×Ĺ×ĸ×¨×ł×ķ": 5369,
      "×ľ×Ĳ×Ŀ": 5370,
      "Ġ×ł×ª×Ĵ×ľ×Ĵ×ľ": 5371,
      "Ġ×ł×ª×¤×¡×Ķ": 5372,
      "Ġ×ł×ª×Ľ×¡×Ķ": 5373,
      "Ġ×ŀ×Ĳ×ķ×¡": 5374,
      "Ġ×ŀ×Ĳ×¤×Ĳ": 5375,
      "Ġ×ľ×¢×ł×ķ×ª": 5376,
      "Ġ×ľ×¢×ł×ķ×ĵ": 5377,
      "Ġ×Ļ×ª×Ĳ×Ļ×Ŀ": 5378,
      "Ġ×Ļ×ª×§×Ł": 5379,
      "Ġ×Ļ×ª×¤×ķ×¡": 5380,
      "Ġ×Ļ×ª×§×ľ×§×ľ×ķ": 5381,
      "×Ľ×ĳ×Ľ×¡": 5382,
      "Ġ×§×ķ×¤×¦×Ļ×Ŀ": 5383,
      "Ġ×Ķ×ĳ×ķ": 5384,
      "Ġ×Ķ×ĳ×ĵ×ľ": 5385,
      "Ġ×Ķ×ĳ×Ļ×ł×ķ×ª": 5386,
      "Ġ×ª×¢×©×ķ": 5387,
      "Ġ×ŀ×¢×¨×Ľ×ª": 5388,
      "Ġ×ª×¤×ķ×¡": 5389,
      "Ġ×Ĳ×Ľ×ľ×Ļ": 5390,
      "Ġ×§×ľ×¡×¨": 5391,
      "Ġ×ĵ×ľ×ª×ķ×ª": 5392,
      "Ġ×ª×ĳ×ł×Ķ": 5393,
      "Ġ×ª×ĳ×Ļ×ł×Ļ": 5394,
      "Ġ×ª×ĳ×Ĺ×¨": 5395,
      "Ġ×Ĳ×Ĺ×ª×ķ×ļ": 5396,
      "Ġ×ł×¨×Ľ×Ļ×ĳ": 5397,
      "×Ĳ×ĳ×Ļ×©": 5398,
      "Ġ×¢×¦×ŀ×ķ": 5399,
      "Ġ×ł×Ĺ×ĳ×¨": 5400,
      "Ġ×ł×Ĺ×©×Ļ": 5401,
      "Ġ×ª×Ķ×¤×ķ×ļ": 5402,
      "Ġ×ŀ×Ľ×ķ×ł×ª×Ķ": 5403,
      "Ġ×ĳ×ł×Ļ×ª": 5404,
      "Ġ×ĳ×ł×Ĳ×ĵ×Ŀ": 5405,
      "Ġ×Ĳ×Ĺ×¨×Ļ×ķ": 5406,
      "Ġ×ľ×Ķ×ª×§×©×¨": 5407,
      "Ġ×¡×Ĵ×ķ×ľ×Ķ": 5408,
      "Ġ×ª×Ľ×¢×¡": 5409,
      "Ġ×ª×Ľ×¢×¡×Ļ": 5410,
      "Ġ×Ķ×ľ×ķ×ķ×Ĳ×Ļ": 5411,
      "Ġ×©×ĺ×ķ×¤×ķ×ª": 5412,
      "Ġ×©×ĺ×¤×ł×ķ": 5413,
      "Ġ×ª×Ļ×§×Ļ×Ŀ": 5414,
      "Ġ×¦×ľ×Ļ×ľ×Ļ×Ŀ": 5415,
      "Ġ×©×¤×ļ": 5416,
      "Ġ×©×¤×Ľ×Ķ": 5417,
      "Ġ×Ľ×¤×¤×ķ×ª": 5418,
      "Ġ×Ļ×ķ×ĵ×¢×ķ×ª": 5419,
      "Ġ×ª×¦×ĺ×¢": 5420,
      "Ġ×ª×¦×ĳ×¢×Ļ": 5421,
      "Ġ×ŀ×Ľ×ł×¡×Ļ×ķ": 5422,
      "Ġ×ª×ł×Ļ×ł×Ļ×Ŀ": 5423,
      "Ġ×Ĳ×¤×ķ×ľ": 5424,
      "Ġ×Ĳ×¤×ķ×ľ×ķ": 5425,
      "Ġ×ľ×ķ×Ĺ×©": 5426,
      "×¨×ķ×ª×Ļ×Ļ×Ŀ": 5427,
      "Ġ×¡×Ļ×¨×ł×Ķ": 5428,
      "Ġ×Ĺ×ĵ×¨×Ķ": 5429,
      "Ġ×ľ×Ĵ×¨×©": 5430,
      "Ġ×ª×ª×§": 5431,
      "Ġ×ª×ª×Ĺ×ª×Ł": 5432,
      "Ġ×ª×ª×§×¨×¨": 5433,
      "Ġ×Ĳ×©×ŀ×ª": 5434,
      "Ġ×Ĳ×©×ŀ×Ļ×¢": 5435,
      "Ġ×Ĳ×©×ŀ×Ĺ": 5436,
      "Ġ×©×ĳ×ķ×¨×Ķ": 5437,
      "Ġ×©×¨×ķ": 5438,
      "Ġ×ŀ×ŀ×ķ×©": 5439,
      "Ġ×¨×¢×ĳ": 5440,
      "Ġ×¨×¢×ŀ×Ķ": 5441,
      "Ġ×¨×¢×Ļ×ķ×ł×ķ×ª": 5442,
      "Ġ×ª×ľ×ŀ×ĵ×Ļ": 5443,
      "Ġ×ŀ×ĸ×ķ×Ł": 5444,
      "Ġ×©×ľ×ķ×©×Ļ×Ŀ": 5445,
      "Ġ×ł×ķ×¡×¢×ķ×ª": 5446,
      "Ġ×Ļ×ĳ×Ļ×Ł": 5447,
      "Ġ×ł×Ļ×¦×ł×§×Ļ": 5448,
      "Ġ×ł×Ļ×¦×ł×Ļ×ľ×Ļ": 5449,
      "Ġ×ł×Ļ×¦×ł×ķ×ł×ķ": 5450,
      "Ġ×ł×ĵ×¢": 5451,
      "Ġ×ł×ĵ×ĳ×§×Ķ": 5452,
      "Ġ×§×©×ķ×¨": 5453,
      "Ġ×§×©×¨×ª": 5454,
      "Ġ×ľ×¨×ķ×ľ": 5455,
      "Ġ×ŀ×¤×ķ×ĸ": 5456,
      "Ġ×Ķ×ķ×¤×ļ": 5457,
      "Ġ×Ķ×ķ×¤×ķ×¤×ķ×¤": 5458,
      "Ġ×¡×Ĵ×ķ×¨×Ļ×Ŀ": 5459,
      "Ġ×¡×ķ×¤×ķ": 5460,
      "Ġ×Ĵ×¨×Ĵ×¨×Ļ": 5461,
      "Ġ×Ĵ×¨×Ĵ×¨×Ķ": 5462,
      "Ġ×ĸ×ķ×¨×¢×Ļ×Ŀ": 5463,
      "Ġ×ĸ×ķ×¨×ŀ×Ļ×Ŀ": 5464,
      "Ġ×¢×ĳ×ĵ×Ķ": 5465,
      "Ġ×ŀ×Ĺ×ĸ×Ļ×¨×Ķ": 5466,
      "Ġ×ŀ×ĵ×Ĵ×Ļ×ŀ×Ķ": 5467,
      "Ġ×ŀ×¡×ª×¤×¨": 5468,
      "Ġ×ŀ×¡×ª×ĵ×¨": 5469,
      "Ġ×Ĳ×Ĳ×Ľ×Ļ×ľ": 5470,
      "Ġ×Ĳ×Ĳ×Ĳ×ķ×Ĺ×Ļ×Ŀ": 5471,
      "Ġ×¤×ª×ķ×Ĺ×Ļ×Ŀ": 5472,
      "Ġ×Ĳ×§×¨×ĳ": 5473,
      "Ġ×Ļ×§×¨": 5474,
      "Ġ×Ļ×§×¨×Ļ×Ĳ": 5475,
      "×ķ×ķ×Ļ×Ŀ": 5476,
      "Ġ×Ĺ×ĳ×Ļ×ĳ": 5477,
      "Ġ×¤×ľ×ŀ×ł×Ĵ×ķ": 5478,
      "Ġ×©×Ĺ×ķ×¨×ķ×ª": 5479,
      "Ġ×ľ×Ļ×ĵ×ķ": 5480,
      "Ġ×ĳ×¨×ķ×ķ×ĸ×Ļ": 5481,
      "Ġ×ª×Ļ×¨×ĵ": 5482,
      "Ġ×ĺ×Ļ×ĺ×ķ×ľ×Ļ": 5483,
      "Ġ×ĺ×Ļ×ĺ×ķ×ľ×Ķ": 5484,
      "Ġ×ľ×ł×©×ķ×ļ": 5485,
      "Ġ×ľ×ł×Ĺ×©": 5486,
      "Ġ×Ĵ×Ĵ×ķ×ª": 5487,
      "Ġ×¤×¡×¡": 5488,
      "Ġ×¤×¡×Ļ×¨×Ľ×ĳ×ª": 5489,
      "Ġ×ŀ×§×ķ×ľ×§×ľ×Ķ": 5490,
      "Ġ×Ĳ×¦×ľ×Ļ×Ĺ": 5491,
      "Ġ×Ĳ×¦×ľ×Ľ×Ŀ": 5492,
      "Ġ×¢×ķ×ĳ×©": 5493,
      "Ġ×¢×ķ×ĳ×¨×ª": 5494,
      "Ġ×¢×ķ×ĳ×ĵ×Ļ×Ŀ": 5495,
      "×Ļ×Ļ×ľ×ª": 5496,
      "×Ļ×Ļ×ľ×ĵ×Ļ×Ŀ": 5497,
      "Ġ×ľ×Ľ×ľ×ķ×Ľ×Ļ×Ŀ": 5498,
      "Ġ×ľ×Ľ×ľ×Ľ×ª×Ļ": 5499,
      "Ġ×ľ×Ķ×¡×ĳ×Ļ×¨": 5500,
      "Ġ×Ķ×ŀ×©": 5501,
      "Ġ×ĺ×Ļ×ĺ×ķ×ľ×ķ×Ł": 5502,
      "Ġ×Ķ×Ĺ×ĸ×§×ª": 5503,
      "Ġ×ŀ×ķ×¨×Ł": 5504,
      "Ġ×Ĳ×ľ×Ļ×ķ×¨": 5505,
      "Ġ×Ĺ×ĳ×¨×ķ×ª": 5506,
      "Ġ×§×ķ×ķ×Ĳ×§×¨": 5507,
      "Ġ×Ĵ×©×ŀ×Ļ×Ĳ×ľ": 5508,
      "Ġ×©×Ľ×Ĺ×Ķ": 5509,
      "Ġ×ł×Ķ×¤×ķ×ļ": 5510,
      "Ġ×Ĳ×¤×¨×¡×§": 5511,
      "Ġ×ĳ×Ĵ×Ļ×¨×Ķ": 5512,
      "×Ĵ×¨×Ļ×ł×Ķ": 5513,
      "Ġ×§×ķ×§×Ļ×Ķ": 5514,
      "Ġ×¡×¨×ĺ×Ļ×Ŀ": 5515,
      "Ġ×©×Ļ×Ĺ×§×ķ": 5516,
      "Ġ×ª×ĸ×ķ×ĸ": 5517,
      "Ġ×ª×ĸ×ŀ×Ļ×ł×Ļ": 5518,
      "Ġ×¦×ķ×ķ×Ĳ": 5519,
      "Ġ×ŀ×ª×Ĺ×ĳ×Ĳ×ª": 5520,
      "Ġ×¢×ł×Ļ×Ł": 5521,
      "Ġ×Ļ×¡×ķ×ĳ×ĳ": 5522,
      "Ġ×Ļ×¡×¢×ķ": 5523,
      "Ġ×Ĳ×Ľ×Ļ×ľ×Ķ": 5524,
      "Ġ×Ĳ×Ľ×ĸ×¨": 5525,
      "Ġ×©×ķ×Ľ×Ĺ×Ļ×Ŀ": 5526,
      "Ġ×¡×Ĵ×ķ×ľ×Ļ×Ŀ": 5527,
      "Ġ×¡×Ĵ×ķ×ľ×ķ×ª": 5528,
      "Ġ×¦×¨×Ļ×Ľ×ķ×ª": 5529,
      "Ġ×ĳ×ķ×ĳ×ľ×Ķ": 5530,
      "Ġ×ĳ×ķ×ĳ×ķ×ĳ×ķ×ĳ": 5531,
      "Ġ×ĳ×Ļ×ł×Ļ×Ķ×Ŀ": 5532,
      "Ġ×¡×¤×ķ×¨×ĺ": 5533,
      "Ġ×ĳ×ĵ×Ļ×Ĺ×ķ×ª": 5534,
      "Ġ×ª×Ĺ×ĸ×Ļ×¨": 5535,
      "Ġ×Ķ×Ľ×Ĳ": 5536,
      "Ġ×Ĵ×Ĳ×Ĺ": 5537,
      "Ġ×ĺ×¢×Ļ×ŀ×Ļ": 5538,
      "Ġ×ĺ×¢×Ļ×ŀ×ķ×ª": 5539,
      "Ġ×¤×ĺ×ķ×ĺ×¨×ª": 5540,
      "Ġ×ľ×Ķ×©×Ĳ×Ļ×¨": 5541,
      "Ġ×ŀ×ķ×©×ļ": 5542,
      "Ġ×ŀ×ķ×©×Ľ×ª": 5543,
      "Ġ×ŀ×ķ×©×Ļ×ĳ×Ķ": 5544,
      "Ġ×ŀ×ķ×©×Ļ×§×ķ": 5545,
      "Ġ×Ľ×¡×ľ": 5546,
      "Ġ×Ľ×¡×ĳ": 5547,
      "Ġ×¡×ķ×ķ×ĺ×©": 5548,
      "Ġ×§×Ļ×ĳ×ľ×ł×ķ": 5549,
      "Ġ×Ķ×ª×Ĺ×¨×ĺ": 5550,
      "Ġ×Ķ×ª×Ĺ×ĳ×Ĳ": 5551,
      "Ġ×ĳ×¢×¦×ŀ×Ļ": 5552,
      "Ġ×¡×¤×¨×Ļ×Ķ": 5553,
      "Ġ×Ļ×ķ×ķ×Ł": 5554,
      "Ġ×Ļ×¨×ķ×¡": 5555,
      "Ġ×Ļ×¨×ĵ×ª": 5556,
      "Ġ×¨×ĺ×ķ×ĳ×ķ×ª": 5557,
      "×¤×ľ×ķ×ļ": 5558,
      "Ġ×Ļ×Ĺ×Ļ×ĵ×Ķ": 5559,
      "Ġ×ĸ×¨×¢×Ļ×Ŀ": 5560,
      "Ġ×Ķ×¨×Ĳ×ª×Ļ": 5561,
      "Ġ×¢×ĸ×¨×ª×Ļ": 5562,
      "Ġ×ĳ×Ļ×§×©": 5563,
      "Ġ×ª×Ļ×Ļ×Ĳ": 5564,
      "Ġ×¨×ķ×§×ĵ×ª": 5565,
      "Ġ×¤×ķ×ŀ×¤×Ļ×Ķ": 5566,
      "Ġ×©×ķ×ŀ×¢×ķ×ª": 5567,
      "Ġ×§×Ļ×¤×ķ×ĵ×Ļ": 5568,
      "Ġ×ŀ×¤×¨×§": 5569,
      "Ġ×ŀ×ª×ķ×§×Ł": 5570,
      "Ġ×¤×¨×¦×ķ×¤×Ļ": 5571,
      "Ġ×¤×¨×¦×ķ×¤×Ķ": 5572,
      "Ġ×¤×¨×¦×¤×ľ×ķ×ļ": 5573,
      "Ġ×ĳ×ŀ×ĳ×Ķ": 5574,
      "Ġ×§×ĳ×ķ×¦×ķ×ª": 5575,
      "Ġ×¤×Ĳ×ŀ": 5576,
      "Ġ×ŀ×¡×Ľ×ł×Ķ": 5577,
      "Ġ×ł×©×Ĳ×ľ": 5578,
      "Ġ×¢×ŀ×Ļ×ª": 5579,
      "Ġ×¢×ŀ×ķ×¡×Ķ": 5580,
      "Ġ×ĳ×¢×Ļ×ĺ×Ķ": 5581,
      "Ġ×Ľ×ł×¤×Ļ×Ļ×Ŀ": 5582,
      "Ġ×Ķ×¡×Ľ": 5583,
      "Ġ×Ķ×¡×ĳ×¨×ª×Ļ": 5584,
      "Ġ×Ķ×¤×ª×¢×ķ×ª": 5585,
      "Ġ×ł×ĳ×ĵ×ķ×§": 5586,
      "Ġ×Ĵ×Ļ×ĳ×ķ×¨×Ķ": 5587,
      "×Ĳ×ĵ×Ĳ": 5588,
      "Ġ×ł×©×Ĳ×¨×ķ": 5589,
      "Ġ×ŀ×¨×ĳ×Ļ×ľ": 5590,
      "Ġ×Ķ×ĵ×ĳ×§×Ķ": 5591,
      "×Ĵ×ĳ×Ļ×ł×Ķ": 5592,
      "Ġ×ĸ×Ľ×ķ×Ľ×Ļ×ķ×ª": 5593,
      "Ġ×¨×Ļ×§×ķ×ĵ": 5594,
      "Ġ×§×ķ×ŀ×ķ×ª": 5595,
      "Ġ×ł×¡×¢×ķ": 5596,
      "Ġ×ľ×¢×¦×ķ×¨": 5597,
      "Ġ×ľ×¢×¦×ŀ×Ļ": 5598,
      "Ġ×ŀ×ĳ×§×©×Ļ×Ŀ": 5599,
      "Ġ×Ļ×Ľ×ł×Ļ×¡": 5600,
      "Ġ×ĵ×ł×ľ×Ķ": 5601,
      "Ġ×ª×§×¨×Ĳ×Ļ": 5602,
      "Ġ×©×Ļ×¢×ķ×ľ": 5603,
      "Ġ×ł×Ļ×Ĵ×ł×ª": 5604,
      "Ġ×Ļ×ł×¤×Ĺ": 5605,
      "Ġ×ľ×Ķ×Ĺ×ľ×Ļ": 5606,
      "Ġ×ľ×Ķ×Ĺ×ľ×Ļ×ĺ": 5607,
      "Ġ×ª×¤×ķ×ĸ×Ļ×Ŀ": 5608,
      "Ġ×©×©×©": 5609,
      "Ġ×ľ×Ķ×©×ª×¢×ľ": 5610,
      "Ġ×ª×§×¨×Ļ×Ĳ": 5611,
      "Ġ×Ļ×¦×ķ×¨": 5612,
      "Ġ×Ĵ×ķ×ĸ×¨×ª": 5613,
      "Ġ×Ĵ×ķ×ĸ×¨×Ļ×Ŀ": 5614,
      "Ġ×ľ×ĳ×¨×ķ×Ĺ": 5615,
      "Ġ×ł×ķ×Ĺ×ª": 5616,
      "Ġ×Ļ×©×ł×ª×Ļ": 5617,
      "Ġ×Ķ×¦×ľ×Ĺ×ª×Ļ": 5618,
      "Ġ×¨×©×¢": 5619,
      "Ġ×¨×©×Ļ×ŀ×Ķ": 5620,
      "Ġ×ª×©×Ľ×Ĺ×Ļ": 5621,
      "Ġ×Ķ×©×ª×¢×ľ×ª": 5622,
      "Ġ×Ĺ×ķ×ĺ×Ŀ": 5623,
      "Ġ×¡×Ļ×ŀ×ª": 5624,
      "Ġ×ĵ×ķ×ł×ľ×ĵ": 5625,
      "Ġ×ŀ×¨×¤×Ĳ×ª": 5626,
      "Ġ×ŀ×¨×Ĵ×©": 5627,
      "Ġ×Ķ×ĸ×ŀ×ł×ª": 5628,
      "Ġ×©×ª×Ļ×Ŀ": 5629,
      "Ġ×Ĳ×Ļ×ľ×ª": 5630,
      "Ġ×Ĳ×Ļ×ľ×Ł": 5631,
      "Ġ×ľ×ŀ×ĵ×ª×Ŀ": 5632,
      "Ġ×ĳ×Ļ×ª×Ķ×¡×ķ×Ķ×¨": 5633,
      "Ġ×ĳ×Ļ×ª×Ķ×Ļ×Ļ×ľ×ĵ×Ļ×Ŀ": 5634,
      "Ġ×ŀ×ķ×Ĺ×Ĳ": 5635,
      "Ġ×ŀ×ķ×Ĺ×¨×ķ×ª×Ļ×Ļ×Ŀ": 5636,
      "Ġ×ª×¤×¨×§": 5637,
      "Ġ×ŀ×¡×ķ×Ľ×ł×ª": 5638,
      "Ġ×Ķ×Ĺ×ľ×¤×ª×Ļ": 5639,
      "Ġ×Ķ×Ĺ×ľ×Ļ×¤×Ķ": 5640,
      "Ġ×Ķ×Ĺ×ľ×ĺ×ª": 5641,
      "Ġ×ŀ×Ĵ×ľ×Ĵ×ľ×ª": 5642,
      "Ġ×ĳ×¦×Ĺ×ķ×§": 5643,
      "Ġ×ł×Ĵ×ł×Ķ": 5644,
      "Ġ×ł×Ĵ×ĸ×ķ×¨": 5645,
      "Ġ×ł×Ĵ×ĳ×Ķ": 5646,
      "Ġ×ł×ķ×Ĵ×¢×Ļ×Ŀ": 5647,
      "Ġ×Ľ×Ļ×ĳ×Ļ×ª×Ļ": 5648,
      "Ġ×Ĺ×ķ×ŀ×ķ×¡": 5649,
      "Ġ×ĵ×§×Ļ×§": 5650,
      "Ġ×©×ĳ×ķ×¢×Ļ×Ļ×Ŀ": 5651,
      "Ġ×Ķ×¡×ª×Ľ×ľ×Ļ": 5652,
      "Ġ×ĵ×ķ×ł×ĵ×ķ×Ł": 5653,
      "Ġ×©×Ļ×Ļ×Ľ×ª": 5654,
      "Ġ×©×¨×ª×Ŀ": 5655,
      "Ġ×Ļ×ŀ×Ļ×ŀ×Ķ": 5656,
      "Ġ×§×Ĳ×¤": 5657,
      "Ġ×§×Ĳ×¦": 5658,
      "Ġ×§×ł×Ļ×ª×Ļ": 5659,
      "Ġ×¡×ķ×ĳ×ĳ×ª×Ļ": 5660,
      "Ġ×Ļ×©×ĳ×¨×ķ": 5661,
      "Ġ×Ĳ×Ķ×Ķ×Ķ": 5662,
      "Ġ×ŀ×¦×ķ×Ļ×¨×Ļ×Ŀ": 5663,
      "Ġ×Ķ×ª×¨×Ĺ×¦×ª": 5664,
      "Ġ×Ķ×ª×¨×Ĺ×¦×Ķ": 5665,
      "Ġ×¢×ķ×Ĵ×ª×Ĵ×ĳ×Ļ×ł×Ķ": 5666,
      "Ġ×ŀ×¢×¨×ĳ×ĳ": 5667,
      "Ġ×ŀ×¢×¨×ĳ×ĳ×ª": 5668,
      "Ġ×©×ł×Ļ×Ľ×Ŀ": 5669,
      "Ġ×©×Ĺ×¨": 5670,
      "Ġ×ł×ķ×¢×Ķ": 5671,
      "Ġ×¨×ĳ×Ļ×¢×Ļ": 5672,
      "Ġ×Ĳ×Ļ×ł×ł×ķ": 5673,
      "Ġ×ľ×Ķ×¢×ľ×ķ×ª": 5674,
      "Ġ×ŀ×ķ×Ľ×¨×Ĺ×Ķ": 5675,
      "×ł×Ĺ×ł×¡": 5676,
      "Ġ×¨×Ĵ×Ļ×ľ×Ķ": 5677,
      "Ġ×Ĺ×Ĳ×ľ×Ĳ": 5678,
      "Ġ×ª×¡×ª×ķ×ĳ×ĳ×Ļ": 5679,
      "Ġ×ŀ×ķ×ĵ×ĵ×ª": 5680,
      "Ġ×ŀ×Ļ×§×Ļ×ŀ×Ĳ": 5681,
      "Ġ×©×ķ×¤×Ľ×Ļ×Ŀ": 5682,
      "Ġ×ĵ×¤×§": 5683,
      "Ġ×ĵ×¤×ķ×§": 5684,
      "Ġ×ĵ×¤×§×ª": 5685,
      "Ġ×ĵ×ķ×ŀ×Ļ×Ŀ": 5686,
      "Ġ×¤×Ĵ×©×Ķ": 5687,
      "Ġ×¤×Ļ×§×ķ×¡": 5688,
      "Ġ×ŀ×ª×¨×Ĺ×¦×Ļ×Ŀ": 5689,
      "Ġ×Ľ×Ļ×ķ×ķ×Ł": 5690,
      "×ķ×Ĳ×ķ×ª×ķ": 5691,
      "×ķ×Ĳ×ķ×ª×Ŀ": 5692,
      "Ġ×ª×ĳ×ľ×¢×Ļ": 5693,
      "Ġ×ŀ×¨×Ļ×ŀ×Ļ×Ŀ": 5694,
      "Ġ×ĳ×¨×ĳ×ķ×¨": 5695,
      "Ġ×Ļ×ķ×ł×§×¨": 5696,
      "Ġ×Ļ×ķ×ł×Ļ×ķ×Ł": 5697,
      "Ġ×ª×¨×Ĺ×Ĳ×ª": 5698,
      "Ġ×Ĺ×¤×¤×ª": 5699,
      "Ġ×Ĺ×¤×¤×ł×ķ": 5700,
      "Ġ×¤×Ļ×Ļ×Ĳ": 5701,
      "Ġ×ŀ×Ĵ×¨×©×ª": 5702,
      "Ġ×ŀ×¢×ĺ×¤×Ķ": 5703,
      "Ġ×Ķ×Ľ×ł×Ļ×¡×ķ": 5704,
      "Ġ×Ķ×Ľ×ł×Ļ×¡×Ķ": 5705,
      "Ġ×¢×ķ×¦×Ŀ": 5706,
      "Ġ×¢×ł×§×Ļ×ª": 5707,
      "Ġ×ŀ×§×¡×¨": 5708,
      "Ġ×ŀ×Ĺ×ĳ×Ļ×Ĳ×Ķ": 5709,
      "Ġ×ŀ×ĺ×Ĳ×ĺ×Ĳ×Ķ": 5710,
      "Ġ×¤×¨×ķ×¡×ķ×ª": 5711,
      "Ġ×ŀ×©×ª×ŀ×©×Ļ×Ŀ": 5712,
      "Ġ×Ĳ×Ĳ×ĳ×Ĳ×ĳ×Ļ×©": 5713,
      "Ġ×Ķ×¤×¡×Ļ×§": 5714,
      "Ġ×ł×ĳ×§×¨": 5715,
      "Ġ×Ļ×¤×ľ×ķ": 5716,
      "Ġ×ª×¦×¢×§": 5717,
      "Ġ×ª×Ĵ×ĸ×¨×Ļ": 5718,
      "Ġ×ķ×ķ×ķ×ķ": 5719,
      "Ġ×§×ķ×©×Ĳ×ª×Ĳ×ª": 5720,
      "Ġ×Ĵ×Ļ×ľ×Ļ×ª": 5721,
      "×ĺ×ł×Ł": 5722,
      "Ġ×¦×¢×§×Ķ": 5723,
      "Ġ×¤×Ļ×ª×ķ×¡×¤×ķ×¨": 5724,
      "Ġ×ŀ×Ĺ×Ļ×Ļ×ļ": 5725,
      "Ġ×ŀ×Ĺ×Ļ×Ļ×Ľ×ª": 5726,
      "Ġ×ľ×§×©×ķ×¨": 5727,
      "Ġ×ľ×§×©×ĺ": 5728,
      "Ġ×Ķ×ª×Ļ×©×ĳ": 5729,
      "Ġ×Ķ×ª×Ļ×©×ĳ×Ķ": 5730,
      "Ġ×ª×Ĺ×©×ķ×ĳ": 5731,
      "Ġ×Ĺ×ĸ×¨×ĸ×Ļ×¨": 5732,
      "Ġ×ª×ĳ×©×ľ×Ļ": 5733,
      "Ġ×ł×Ĺ×ľ×Ļ×Ĳ×ª": 5734,
      "Ġ×Ĺ×ĳ×ķ×ĳ×ķ×ª": 5735,
      "ĠÌģ,": 5736,
      "Ġ×Ķ×¨×ĺ×ĳ×ª": 5737,
      "Ġ×ŀ×ŀ×Ķ×¨×ķ×ª": 5738,
      "Ġ×¢×¨×ķ×Ŀ": 5739,
      "Ġ×¢×¨×ķ×ŀ×Ķ": 5740,
      "Ġ×©×Ĳ×ĳ×ķ×ª": 5741,
      "Ġ×ł×ķ×©×Ĳ": 5742,
      "Ġ×ł×ĸ×Ķ×¨×ª": 5743,
      "Ġ×ª×ķ×¤×¡": 5744,
      "Ġ×¡×¨×Ĵ×ľ": 5745,
      "Ġ×¡×¨×ĺ×Ķ": 5746,
      "Ġ×¤×ķ×ľ×Ļ×Ĳ×ł×Ķ": 5747,
      "Ġ×¤×Ĳ×ª×Ĳ×Ŀ": 5748,
      "×Ļ×ł×§×Ļ×Ł": 5749,
      "Ġ×ŀ×§×¤×ľ×ª": 5750,
      "Ġ×ŀ×ĳ×©×ľ×ª": 5751,
      "Ġ×ŀ×ĳ×©×ľ×Ļ×Ŀ": 5752,
      "Ġ×ŀ×ŀ×¦×Ļ×Ĳ×Ķ": 5753,
      "Ġ×¡×ķ×¤×Ĵ×ł×Ļ×Ķ": 5754,
      "Ġ×¡×ķ×¤×Ĵ×ł×Ļ×ķ×ª": 5755,
      "Ġ×Ĵ×¨×Ĵ×¨×Ļ×Ŀ": 5756,
      "Ġ×ľ×ĵ×Ĺ×ķ×Ĳ×ª": 5757,
      "Ġ×Ĳ×ĺ×¨×Ļ×ķ×ª": 5758,
      "Ġ×Ķ×ķ×ĵ×ķ": 5759,
      "Ġ×ĳ×ķ×Ĺ×©×ª": 5760,
      "Ġ×©×ĵ×Ļ×Ļ×Ŀ": 5761,
      "Ġ×ł×Ļ×§×Ļ×ª": 5762,
      "Ġ×ª×Ľ×Ķ×ķ×Ĳ": 5763,
      "Ġ×¨×Ļ×Ľ×ķ×ĸ": 5764,
      "Ġ×¡×ĳ×¨×¡": 5765,
      "Ġ×¦×ķ×ŀ×Ĺ×ķ×ª": 5766,
      "Ġ×Ĳ×Ĺ×¤×ķ×ľ×ļ": 5767,
      "Ġ×ŀ×©×ŀ×Ļ×©": 5768,
      "Ġ×Ķ×ª×ł×ĵ×ł×ĵ×ª": 5769,
      "Ġ×ŀ×ĺ×ľ×ĵ×Ķ": 5770,
      "Ġ×§×¨×ŀ×ĳ×ķ": 5771,
      "Ġ×ª×ĳ×Ļ×ĺ×Ļ": 5772,
      "Ġ×Ĳ×¤×¨×ķ×ĵ×Ļ×ª×Ķ": 5773,
      "Ġ×ĵ×ķ×ĳ×ĵ×ĳ×Ł": 5774,
      "Ġ×ª×ĸ×Ľ×¨×Ļ": 5775,
      "Ġ×Ķ×Ľ×ł×ª×Ļ": 5776,
      "Ġ×Ĵ×Ĳ×Ĵ×Ĳ×ł×Ļ": 5777,
      "Ġ×©×ª×Ļ×Ķ×Ł": 5778,
      "Ġ×ł×ĺ×¨×§×Ķ": 5779,
      "Ġ×¤×Ļ×¨×ŀ×Ļ×ĵ×Ķ": 5780,
      "Ġ×ľ×Ļ×¨×ķ×§": 5781,
      "Ġ×ĳ×ķ×¨×Ĳ×Ļ×Ĵ": 5782,
      "×Ľ×ķ×ł×Ł": 5783,
      "Ġ×ł×ĵ×ľ×§": 5784,
      "Ġ×Ļ×ķ×ŀ×Ļ×Ļ×Ŀ": 5785,
      "Ġ×Ĺ×ł×ķ×Ļ×ķ×ª": 5786,
      "Ġ×Ĺ×Ļ×Ľ×ķ": 5787,
      "Ġ×§×Ļ×ŀ×ķ×Ł": 5788,
      "Ġ×¡×Ļ×Ĵ×ľ×Ļ×ª": 5789,
      "Ġ×Ĵ×Ĺ×ľ×Ļ×ľ×Ļ×ª": 5790,
      "Ġ×ĺ×¤×¡×ķ": 5791,
      "Ġ×¤×¨×Ļ×ĸ": 5792,
      "Ġ×¤×¨×Ļ×Ĺ×Ķ": 5793,
      "Ġ×ľ×Ķ×ķ×©×Ļ×ĳ": 5794,
      "Ġ×ŀ×©×¨×ķ×§×Ļ×ª": 5795,
      "Ġ×Ļ×ľ×ĳ×Ļ×©": 5796,
      "Ġ×ŀ×§×ł×Ĺ×ª": 5797,
      "Ġ×ŀ×Ĺ×ŀ×ŀ×ª": 5798,
      "Ġ×Ķ×ª×§×ľ×Ĺ×Ķ": 5799,
      "Ġ×ª×Ĳ×Ķ×ŀ×ĺ×¢": 5800,
      "Ġ×ľ×Ķ×ª×Ĵ×ľ×Ĺ": 5801,
      "Ġ×ŀ×ĳ×Ķ×Ļ×ľ": 5802,
      "Ġ×ŀ×ŀ×Ĺ×ĺ×Ķ": 5803,
      "Ġ×Ķ×Ĺ×ľ×Ļ×ĺ×ķ": 5804,
      "Ġ×ĳ×ķ×ĳ×ķ×ĳ×Ļ×Ŀ": 5805,
      "Ġ×Ķ×ª×Ĵ×ľ×Ĵ×ľ×ª×Ļ": 5806,
      "Ġ×Ĳ×ķ×ĵ×Ļ×¡×Ĳ×ķ×¡": 5807,
      "Ġ×Ķ×ľ×ĳ×©×ª×Ļ": 5808,
      "Ġ×Ķ×§×ª×ķ×¨": 5809,
      "Ġ×Ķ×¨×Ļ×ŀ×Ķ": 5810,
      "Ġ×ľ×Ĵ×ľ×ķ×ª": 5811,
      "Ġ×ŀ×¨×Ļ×¦×Ķ": 5812,
      "Ġ×ŀ×Ķ×ł×Ķ×ł×ª": 5813,
      "Ġ×ĳ×ĵ×¨×ļ": 5814,
      "Ġ×ł×ĵ×¨×Ļ×ł×Ķ": 5815,
      "Ġ×ł×¨×§×Ļ×¡": 5816,
      "Ġ×ł×Ĳ×ĳ×ĵ": 5817,
      "Ġ×Ļ×Ļ×©×¨×Ĳ×ļ": 5818,
      "Ġ×Ľ×ķ×ł×ł×Ļ×ª": 5819,
      "Ġ×Ľ×¤×Ķ×Ļ×ĵ": 5820,
      "Ġ×ª×Ĵ×¨×ĵ×Ļ": 5821,
      "Ġ×Ĺ×¤×¨×ł×ķ": 5822,
      "Ġ×§×¦×¢×ľ": 5823,
      "Ġ×Ĵ×ł×Ķ×Ĺ×Ļ×ķ×ª": 5824,
      "Ġ×ł×Ľ×¤×ª×¨": 5825,
      "Ġ×¦×§×ľ×ķ×¤": 5826,
      "Ġ×ľ×Ķ×¤×¨×Ļ×ĵ": 5827,
      "Ġ×ĸ×ķ×Ķ×Ļ": 5828,
      "Ġ×ŀ×ª×ľ×ĳ×©×ª": 5829,
      "Ġ×ŀ×©×¨×ĺ×ĺ×ª": 5830,
      "Ġ×Ĳ×ł×Ĵ×ľ×Ļ×ª": 5831,
      "Ġ×ŀ×Ĺ×Ļ×Ĳ×ķ×ª×Ľ×¤×Ļ×Ļ×Ŀ": 5832,
      "Ġ×ª×Ĺ×ł×ª×¨×ķ×Ĺ": 5833,
      "Ġ×ŀ×Ĳ×¤×Ĳ×¨×Ĳ": 5834,
      "Ġ×Ķ×ĳ×Ļ×ł×ķ×ª×Ļ": 5835,
      "Ġ×¡×ķ×ķ×ĺ×©×¨×ĺ": 5836,
      "Ġ×ŀ×Ļ×§×Ļ×ŀ×Ĳ×ķ×¡": 5837,
      "Ġ×¤×Ļ×ª×ķ×¡×¤×ķ×¨×ķ×Ŀ": 5838,
      "Ġ×ª×Ĳ×Ķ×ŀ×ĺ×¢×Ł": 5839,
      "Ĵ×¨×Ĵ": 5840,
      "Ľ×¡": 5841,
      "×ķ×Ļ×Ŀ": 5842,
      "×Ļ×Ļ×Ĳ": 5843,
      "×Ļ×ķ×¤": 5844,
      "×Ļ×Ļ×Ł": 5845,
      "×Ķ×Ļ×Ŀ": 5846,
      "×Ķ×ķ×Ĳ": 5847,
      "×Ķ×Ļ×Ĳ": 5848,
      "×Ķ×Ļ×Ķ": 5849,
      "×ķ×ĸ×Ķ": 5850,
      "×ķ×ŀ×Ĳ": 5851,
      "Ġ×Ĳ×©×ª": 5852,
      "Ġ×Ĳ×Ĳ×Ļ": 5853,
      "Ġ×Ĳ×Ĳ×ª×Ļ": 5854,
      "Ġ×Ķ×§": 5855,
      "Ġ×Ķ×Ļ×¦": 5856,
      "Ġ×Ķ×Ĳ×Ļ×Ŀ": 5857,
      "Ġ×Ķ×§×ľ": 5858,
      "Ġ×Ķ×ķ×¨×Ĳ": 5859,
      "Ġ×Ķ×¢×ŀ": 5860,
      "Ġ×Ķ×ľ×ĳ×Ļ×©": 5861,
      "Ġ×Ķ×Ļ×ĸ×Ķ×¨": 5862,
      "×ª×ķ": 5863,
      "×ª×ł": 5864,
      "×ª×Ĺ×ķ×ľ×Ļ×Ŀ": 5865,
      "Ġ×ľ×Ŀ": 5866,
      "Ġ×ľ×ķ×Ł": 5867,
      "Ġ×ľ×Ļ×ķ": 5868,
      "Ġ×ľ×Ļ×Ķ": 5869,
      "Ġ×ľ×Ļ×ĳ": 5870,
      "Ġ×ľ×ķ×¢": 5871,
      "Ġ×ľ×ł×Ļ×Ŀ": 5872,
      "Ġ×ľ×ª×Ļ": 5873,
      "Ġ×ľ×ķ×Ľ×ľ": 5874,
      "Ġ×ľ×¦×ľ×¦×ľ": 5875,
      "Ġ×ŀ×ķ×ĳ": 5876,
      "Ġ×ŀ×ł×Ķ": 5877,
      "Ġ×ŀ×ķ×¤": 5878,
      "Ġ×ŀ×¨×Ķ": 5879,
      "Ġ×ŀ×¢×©": 5880,
      "Ġ×ŀ×ĸ×Ķ": 5881,
      "Ġ×ŀ×ķ×ĵ×Ķ": 5882,
      "Ġ×ŀ×ķ×¢": 5883,
      "Ġ×ŀ×¤×©": 5884,
      "Ġ×ŀ×ł×¡": 5885,
      "Ġ×ŀ×Ļ×Ĺ": 5886,
      "Ġ×ŀ×ľ×Ľ×ª": 5887,
      "Ġ×ŀ×Ļ×©": 5888,
      "Ġ×ŀ×ŀ×ª": 5889,
      "Ġ×ŀ×Ļ×ľ×ķ": 5890,
      "Ġ×ŀ×ľ×ĳ×Ļ×©": 5891,
      "Ġ×ŀ×ł×ĵ×ł×ĵ": 5892,
      "Ġ×ŀ×Ĳ×ª×Ĳ": 5893,
      "Ġ×ŀ×Ļ×©×¨": 5894,
      "Ġ×ŀ×ķ×ľ×ļ": 5895,
      "Ġ×ŀ×Ĳ×ª×Ĳ×Ł": 5896,
      "×¨×ļ": 5897,
      "×¨×¦": 5898,
      "×¨×Ĺ×ª": 5899,
      "×¨×Ĺ×§": 5900,
      "×¨×Ĵ×ľ×ª": 5901,
      "×Ĳ×¤": 5902,
      "×Ĳ×Ĵ×Ĳ": 5903,
      "×ľ×§": 5904,
      "×ľ×Ļ×¡": 5905,
      "×ľ×¤×Ł": 5906,
      "×ľ×¢×ķ×ĵ": 5907,
      "Ġ×Ĳ×ª×ľ×ĳ×©": 5908,
      "Ġ×Ĳ×ª×ĳ×ľ×ĳ×ľ": 5909,
      "×©×ŀ": 5910,
      "×©×ĺ": 5911,
      "×©×Ļ×ĺ": 5912,
      "×©×¤×ķ×ª": 5913,
      "×©×Ļ×ł×§×Ļ×Ł": 5914,
      "×ĳ×¢×ª": 5915,
      "×ĳ×©×ĳ": 5916,
      "×ĳ×ľ×Ļ×Ŀ": 5917,
      "×ĳ×ķ×ľ×Ķ": 5918,
      "×ĳ×ĵ×ķ": 5919,
      "Ġ×¢×Ļ×ķ": 5920,
      "Ġ×¢×ķ×§": 5921,
      "Ġ×¢×ķ×¤": 5922,
      "Ġ×¢×Ĳ×ª": 5923,
      "Ġ×¢×Ĵ×ľ": 5924,
      "Ġ×¢×¤×ķ×ª": 5925,
      "Ġ×¢×ķ×ľ×ķ×ª": 5926,
      "Ġ×ŀ×Ķ×¤×Ľ×Ķ": 5927,
      "×ł×Ĳ": 5928,
      "×ł×ķ×§": 5929,
      "×ł×ķ×ŀ": 5930,
      "×ł×§×Ļ": 5931,
      "Ġ×ĳ×Ŀ": 5932,
      "Ġ×ĳ×ķ×¢": 5933,
      "Ġ×ĳ×ł×Ļ×Ŀ": 5934,
      "Ġ×ĳ×ľ×Ĳ": 5935,
      "Ġ×ĳ×Ľ×ĳ": 5936,
      "Ġ×ĳ×ĵ×Ļ×Ŀ": 5937,
      "Ġ×ĳ×ķ×ł×ķ×ª": 5938,
      "Ġ×ĳ×ŀ×Ļ": 5939,
      "Ġ×ĳ×Ĳ×ª×Ļ": 5940,
      "Ġ×ĳ×ĸ×ĳ": 5941,
      "×Ľ×©×Ļ×ķ": 5942,
      "×Ľ×¤×Ĳ": 5943,
      "×Ľ×¡×ķ×ª": 5944,
      "×Ľ×Ļ×ŀ×ķ": 5945,
      "Ġ×©×©×Ķ": 5946,
      "Ġ×©×Ĺ×§": 5947,
      "Ġ×©×Ļ×Ł": 5948,
      "Ġ×©×¨×ł×ķ": 5949,
      "Ġ×©×Ļ×ĵ×Ķ": 5950,
      "Ġ×©×ĵ×Ļ×Ŀ": 5951,
      "Ġ×©×ķ×ķ": 5952,
      "Ġ×©×ł×Ļ×ª": 5953,
      "Ġ×©×ķ×Ĺ×Ļ×Ŀ": 5954,
      "Ġ×©×ķ×ł×Ĳ×ª": 5955,
      "×Ĺ×¦": 5956,
      "×Ĺ×¤×ª": 5957,
      "×Ĺ×ľ×Ļ": 5958,
      "×Ĺ×ĳ×Ĳ": 5959,
      "Ġ×ł×ķ×ľ": 5960,
      "Ġ×ł×ķ×Ł": 5961,
      "Ġ×ł×ł×Ļ": 5962,
      "Ġ×ł×Ļ×¡": 5963,
      "Ġ×ł×ķ×¦": 5964,
      "Ġ×ł×Ĺ×Ļ": 5965,
      "Ġ×ł×Ļ×§×Ķ": 5966,
      "Ġ×ł×ŀ×ª": 5967,
      "Ġ×ł×ĵ×Ļ": 5968,
      "Ġ×ł×ķ×ľ×ĵ×ª": 5969,
      "Ġ×ł×Ļ×§×Ļ": 5970,
      "Ġ×ł×ķ×¢×ľ": 5971,
      "Ġ×ł×¤×¨×Ļ×¢": 5972,
      "Ġ×Ļ×Ļ": 5973,
      "Ġ×Ļ×Ļ×ĵ": 5974,
      "Ġ×Ļ×ķ×¡": 5975,
      "Ġ×Ļ×ķ×ł×Ķ": 5976,
      "Ġ×Ļ×¢×ľ×Ķ": 5977,
      "Ġ×Ļ×¢×¦": 5978,
      "Ġ×Ļ×¨×ĺ": 5979,
      "Ġ×Ļ×ķ×ķ": 5980,
      "Ġ×Ļ×ŀ×ļ": 5981,
      "Ġ×Ļ×¤×Ļ×ľ": 5982,
      "Ġ×Ļ×Ĵ×Ļ": 5983,
      "Ġ×Ļ×ķ×¡×Ķ": 5984,
      "Ġ×Ļ×¦×ľ×¦×ľ": 5985,
      "Ġ×Ļ×Ļ×ĵ×Ĳ": 5986,
      "Ġ×Ľ×ķ×Ł": 5987,
      "Ġ×Ľ×Ļ×ª": 5988,
      "Ġ×Ľ×¢×ª": 5989,
      "Ġ×Ľ×ł×¡": 5990,
      "Ġ×Ľ×ķ×ķ": 5991,
      "Ġ×Ľ×ķ×Ľ×ķ": 5992,
      "Ġ×Ľ×Ļ×ł×Ļ×Ŀ": 5993,
      "Ġ×Ľ×Ĵ×ĵ": 5994,
      "Ġ×ª×ķ×©": 5995,
      "Ġ×ª×Ļ×ª": 5996,
      "Ġ×ª×ķ×ŀ": 5997,
      "Ġ×ª×Ĳ×ª": 5998,
      "Ġ×ª×ĵ×¨": 5999,
      "Ġ×ª×Ļ×Ĺ": 6000,
      "Ġ×ª×Ĵ×ķ×¨": 6001,
      "Ġ×ª×ł×ª": 6002,
      "Ġ×ª×ĺ×ľ": 6003,
      "Ġ×ª×ķ×ŀ×¨": 6004,
      "Ġ×ª×Ļ×ĳ×ª": 6005,
      "Ġ×ª×Ļ×ľ×ļ": 6006,
      "Ġ×ª×Ĺ×Ļ×Ļ×ļ": 6007,
      "Ġ×ª×ķ×ķ×Ļ×Ŀ": 6008,
      "Ġ×ľ×Ĳ×Ĳ×ĳ": 6009,
      "Ġ×ľ×Ĳ×¡×Ļ": 6010,
      "Ġ×¨×Ł": 6011,
      "Ġ×¨×ł×Ļ": 6012,
      "Ġ×¨×Ļ×©": 6013,
      "Ġ×¨×ĳ×Ļ×Ŀ": 6014,
      "Ġ×¨×ľ×ķ": 6015,
      "Ġ×¨×¤×ķ×Ĳ": 6016,
      "×¢×¨": 6017,
      "×¢×ĵ": 6018,
      "×¢×Ĳ×Ķ": 6019,
      "×¢×Ĳ×Ł": 6020,
      "×ŀ×¨×Ķ": 6021,
      "×ŀ×ķ×ĺ": 6022,
      "×ŀ×Ļ×ł×Ļ×Ŀ": 6023,
      "×ŀ×ł×ķ×¢": 6024,
      "×ŀ×ķ×Ĵ×Ł": 6025,
      "×¤×Ŀ": 6026,
      "×¤×ł×Ļ": 6027,
      "×¤×ĸ": 6028,
      "×¤×ľ×ª": 6029,
      "×¤×Ļ×ķ×ª": 6030,
      "×¤×§×Ļ": 6031,
      "×¤×Ĺ×Ķ": 6032,
      "×¤×ĵ×ĳ": 6033,
      "×¤×ł×Ļ×ª": 6034,
      "×¤×ķ×ĸ×Ļ×Ŀ": 6035,
      "×ĵ×ķ×¨": 6036,
      "×ĵ×§": 6037,
      "×ĵ×Ŀ": 6038,
      "×ĵ×ķ×Ŀ": 6039,
      "×ĵ×Ļ×Ķ": 6040,
      "×ĵ×Ļ×ľ": 6041,
      "×ĵ×ķ×¡": 6042,
      "×ĵ×Ĳ×ª": 6043,
      "×ĵ×ľ×Ļ": 6044,
      "×ĵ×Ļ×ĳ": 6045,
      "×ĵ×ķ×Ĳ×¨": 6046,
      "×ĵ×Ļ×Ĵ×Ļ": 6047,
      "×ĵ×ķ×ł×Ĵ": 6048,
      "×ĵ×Ĳ×ĵ×Ĳ": 6049,
      "×Ĵ×ķ×ľ": 6050,
      "×Ĵ×ĳ×¨": 6051,
      "×Ĵ×ľ×Ķ": 6052,
      "×Ĵ×Ļ×Ĺ": 6053,
      "×Ĵ×ĵ×Ļ×Ŀ": 6054,
      "×Ĵ×ł×ĺ": 6055,
      "×Ĵ×¢×ª×Ļ": 6056,
      "×Ĵ×Ĵ×Ļ": 6057,
      "×Ĵ×¤×Ł": 6058,
      "×ķ×¨×Ļ×§": 6059,
      "×ķ×¨×Ļ×Ķ": 6060,
      "×ķ×¨×¨×ķ": 6061,
      "×ķ×¨×ľ×ĵ": 6062,
      "×ķ×¨×¤×¨×ª": 6063,
      "Ġ×Ĳ×Ļ×¤": 6064,
      "Ġ×Ĳ×Ļ×ĳ": 6065,
      "Ġ×Ĳ×Ļ×Ľ×¡": 6066,
      "×ķ×ľ×ª": 6067,
      "×ķ×ľ×Ĵ×ľ": 6068,
      "×§×ķ×¨": 6069,
      "×§×©×Ķ": 6070,
      "×§×ķ×ł": 6071,
      "×§×¨×Ķ": 6072,
      "×§×Ĳ×ª": 6073,
      "×§×Ĳ×¨": 6074,
      "×§×Ļ×ĸ": 6075,
      "×§×ĳ×ľ": 6076,
      "×§×Ĳ×©": 6077,
      "×ķ×ĵ×Ļ×Ŀ": 6078,
      "×ķ×ĵ×Ļ×ª": 6079,
      "×ķ×ĵ×Ļ×Ł": 6080,
      "Ġ×ķ×ľ": 6081,
      "Ġ×ķ×ł": 6082,
      "Ġ×ķ×ŀ×Ķ": 6083,
      "Ġ×ķ×ĸ×Ķ": 6084,
      "Ġ×ķ×Ļ×ĺ": 6085,
      "Ġ×ķ×ł×ĵ": 6086,
      "Ġ×ķ×¨×Ļ×Ŀ": 6087,
      "Ġ×ķ×ĸ×Ĳ×ª": 6088,
      "Ġ×ķ×ŀ×Ļ": 6089,
      "Ġ×ķ×ĳ×Ĳ": 6090,
      "×¡×ľ": 6091,
      "×¡×ļ": 6092,
      "×¡×ĺ": 6093,
      "×¡×Ļ×ª": 6094,
      "×¡×Ļ×§": 6095,
      "×¡×ĳ×ª": 6096,
      "×¡×¨×Ķ": 6097,
      "×¡×Ļ×Ł": 6098,
      "×¡×Ļ×¤×ķ×¨": 6099,
      "×¡×ķ×¤×ķ": 6100,
      "×¡×Ĳ×ķ×ª": 6101,
      "×¡×ŀ×Ĺ×Ķ": 6102,
      "Ġ×Ĺ×ķ×Ĳ": 6103,
      "Ġ×Ĺ×ĺ": 6104,
      "Ġ×Ĺ×ķ×ł": 6105,
      "Ġ×Ĺ×Ļ×¡": 6106,
      "Ġ×Ĺ×¤×©": 6107,
      "Ġ×Ĺ×ķ×ł×Ķ": 6108,
      "Ġ×Ĺ×Ļ×ĺ×Ķ": 6109,
      "Ġ×Ĺ×Ľ×ķ": 6110,
      "Ġ×Ĺ×ķ×ł×Ļ×Ŀ": 6111,
      "Ġ×Ĺ×ł×Ļ×ª": 6112,
      "Ġ×Ĺ×ķ×¦×Ķ": 6113,
      "Ġ×Ĺ×Ĳ×ĵ": 6114,
      "Ġ×Ĺ×ĺ×¤×ª": 6115,
      "Ġ×Ĺ×Ļ×ĵ×ķ×Ł": 6116,
      "Ġ×Ĺ×Ļ×Ļ×ľ×ª": 6117,
      "Ġ×§×Ļ": 6118,
      "Ġ×§×Ļ×ķ": 6119,
      "Ġ×§×ķ×Ķ": 6120,
      "Ġ×§×ķ×ł×Ļ×Ŀ": 6121,
      "Ġ×§×Ļ×Ļ": 6122,
      "Ġ×§×§×Ķ": 6123,
      "Ġ×§×ŀ×Ļ×Ŀ": 6124,
      "Ġ×§×Ļ×¦×Ļ": 6125,
      "Ġ×§×ł×Ļ×ķ×ª": 6126,
      "Ġ×§×ŀ×ł×ķ": 6127,
      "×ķ×Ĳ×Ĺ×¨": 6128,
      "Ġ×¡×ķ×ľ": 6129,
      "Ġ×¡×ķ×©": 6130,
      "Ġ×¡×¤×ª": 6131,
      "Ġ×¡×Ĳ×ª": 6132,
      "Ġ×¡×ķ×¤×Ļ": 6133,
      "Ġ×¡×ķ×ĵ×Ķ": 6134,
      "Ġ×¡×Ĳ×ĳ": 6135,
      "Ġ×¡×ĺ×¨": 6136,
      "Ġ×¡×Ļ×¡×Ļ": 6137,
      "Ġ×Ĵ×ķ×©": 6138,
      "Ġ×Ĵ×Ļ×Ķ": 6139,
      "Ġ×Ĵ×ł×Ĵ": 6140,
      "Ġ×Ĵ×©×Ļ": 6141,
      "Ġ×Ĵ×Ļ×ľ×ķ": 6142,
      "Ġ×Ĵ×Ĳ×Ķ": 6143,
      "Ġ×Ĵ×ķ×¨×Ļ": 6144,
      "Ġ×Ĵ×ĳ×¢×ķ×ľ": 6145,
      "Ġ×Ĵ×ķ×§×Ļ×Ŀ": 6146,
      "Ġ×Ĵ×ķ×¨×Ļ×ª": 6147,
      "Ġ×Ĵ×ķ×ĵ×Ļ": 6148,
      "Ġ×Ĵ×Ļ×ĵ×Ĳ": 6149,
      "Ġ×ł×Ľ×ķ×ł×Ķ": 6150,
      "Ġ×ł×Ľ×ķ×ł×Ļ×Ŀ": 6151,
      "×ĸ×Ļ×Ŀ": 6152,
      "×ĸ×ķ×Ł": 6153,
      "×ķ×ĳ×Ļ×ª": 6154,
      "×ķ×ĳ×Ļ×ľ": 6155,
      "×Ļ×Ĳ×Ļ": 6156,
      "×Ļ×Ĳ×Ķ": 6157,
      "Ġ×©×ľ×ŀ×Ķ": 6158,
      "Ġ×©×ľ×ķ×ŀ×Ļ": 6159,
      "×¦×ķ×Ŀ": 6160,
      "×¦×ľ×Ķ": 6161,
      "×¦×Ĺ×ª": 6162,
      "×¦×ĺ×Ķ": 6163,
      "×¦×Ļ×ł×ķ×ª": 6164,
      "×¦×ĵ×§": 6165,
      "Ġ×ĺ×¤": 6166,
      "Ġ×ĺ×¤×©": 6167,
      "Ġ×ĺ×ķ×ĺ×ķ": 6168,
      "Ġ×ĺ×ķ×Ĳ×ľ×ĺ": 6169,
      "×ĺ×Ļ×Ŀ": 6170,
      "×ĺ×ķ×©": 6171,
      "×ĺ×ķ×Ŀ": 6172,
      "×ĺ×ª×Ļ": 6173,
      "×ĺ×Ĳ×ĳ": 6174,
      "×ĺ×¤×Ļ×Ŀ": 6175,
      "×ĺ×¤×Ļ": 6176,
      "×ĺ×Ļ×Ĺ×Ļ": 6177,
      "×ĺ×ķ×Ĳ×ľ×ĺ": 6178,
      "Ġ×Ļ×©×ł": 6179,
      "Ġ×Ļ×©×Ļ×ĳ×Ķ": 6180,
      "Ġ×Ļ×©×Ĳ×ľ×ķ": 6181,
      "Ġ×¦×Ļ×ķ": 6182,
      "Ġ×¦×ľ×ĳ": 6183,
      "Ġ×¦×Ļ×ĵ×Ķ": 6184,
      "Ġ×¦×Ĳ×Ļ": 6185,
      "Ġ×¦×ķ×¤×¨": 6186,
      "Ġ×¦×ķ×¤×Ļ×Ŀ": 6187,
      "Ġ×¦×¤×Ļ×ķ×ª": 6188,
      "Ġ×¢×ľ×ķ×ľ": 6189,
      "Ġ×¢×ľ×ķ×ľ×Ķ": 6190,
      "Ġ×¢×ľ×ķ×ľ×Ļ×Ŀ": 6191,
      "Ġ×Ĳ×ĳ×Ļ": 6192,
      "Ġ×Ĳ×ĳ×Ķ": 6193,
      "Ġ×Ĳ×ĳ×ł×Ķ": 6194,
      "Ġ×Ĳ×ĳ×Ļ×ĳ": 6195,
      "Ġ×Ĳ×ĳ×ĵ×ķ×§": 6196,
      "×Ļ×¨×ķ": 6197,
      "×Ļ×ķ×Ļ": 6198,
      "×ł×Ķ×Ĵ": 6199,
      "×ł×Ķ×Ĵ×Ļ": 6200,
      "Ġ×ŀ×Ļ×ķ×Ĺ": 6201,
      "Ġ×ŀ×Ļ×ķ×ª×¨": 6202,
      "Ġ×ĵ×ļ": 6203,
      "Ġ×ĵ×ķ×Ŀ": 6204,
      "Ġ×ĵ×Ļ×ľ": 6205,
      "Ġ×ĵ×ķ×Ĵ": 6206,
      "Ġ×ĵ×ł×ĵ": 6207,
      "Ġ×ĵ×¨×§": 6208,
      "Ġ×ĵ×ĵ×Ķ": 6209,
      "Ġ×ĵ×Ļ×¨×Ļ×Ŀ": 6210,
      "Ġ×ĵ×¡×Ļ": 6211,
      "Ġ×ĵ×¤×ĵ×¤×Ļ": 6212,
      "Ġ×ĵ×Ĺ×¤×ª": 6213,
      "Ġ×¤×ķ×©": 6214,
      "Ġ×¤×ķ×Ĵ": 6215,
      "Ġ×¤×Ļ×§×Ķ": 6216,
      "Ġ×¤×ł×§": 6217,
      "Ġ×¤×Ĳ×Ļ": 6218,
      "Ġ×¤×Ļ×ĸ": 6219,
      "Ġ×¤×Ļ×ł×ķ×ª": 6220,
      "Ġ×¤×ķ×Ĺ×ĵ": 6221,
      "Ġ×¤×Ļ×ª×Ĳ": 6222,
      "Ġ×¤×Ļ×ł×ª": 6223,
      "Ġ×¤×ĸ×ľ×Ļ×Ŀ": 6224,
      "Ġ×¤×ŀ×ķ×ĺ": 6225,
      "Ġ×¤×ķ×ĵ×Ļ×Ł": 6226,
      "Ġ×¢×Ľ×ķ×¨×Ķ": 6227,
      "Ġ×ľ×Ķ×Ļ×ª": 6228,
      "Ġ×ľ×Ķ×Ļ×¤": 6229,
      "Ġ×ľ×Ķ×¨×Ĺ": 6230,
      "Ġ×ľ×Ķ×¨×ĵ": 6231,
      "Ġ×ľ×Ķ×Ĺ×ľ": 6232,
      "Ġ×ľ×Ķ×¨×Ļ×Ĺ": 6233,
      "Ġ×ľ×Ķ×¤×ļ": 6234,
      "Ġ×ľ×Ķ×Ĵ×Ļ×©": 6235,
      "Ġ×ľ×Ķ×Ļ×ľ×Ĺ×Ŀ": 6236,
      "Ġ×¢×ķ×©×Ĳ×¤": 6237,
      "Ġ×Ĳ×ĸ×ķ×¨": 6238,
      "×Ļ×§×Ļ×Ŀ": 6239,
      "×ķ×¤×¤×ª": 6240,
      "×ķ×¤×Ĳ×ķ×ª": 6241,
      "×ķ×¤×©×¤×ķ×ª": 6242,
      "×¨×Ĳ×Ļ": 6243,
      "Ġ×ľ×Ļ×ķ×¨": 6244,
      "×Ļ×ĵ×ª": 6245,
      "×Ļ×ĵ×ķ×ĳ": 6246,
      "×Ļ×ĵ×ķ×ľ×Ļ×Ŀ": 6247,
      "Ġ×Ĳ×ķ×ª×ķ×ª": 6248,
      "×¤×¨×§×Ķ": 6249,
      "Ġ×ľ×Ļ×Ĳ×ª×Ļ": 6250,
      "Ġ×ľ×Ļ×Ĳ×ķ×¨×Ļ×§×Ķ": 6251,
      "Ġ×ľ×Ļ×Ĳ×ķ×¨×ķ×¨×Ļ": 6252,
      "Ġ×ľ×©×ĺ": 6253,
      "Ġ×ľ×©×¨×ķ×§": 6254,
      "Ġ×ľ×©×ľ×Ŀ": 6255,
      "Ġ×ľ×©×ĺ×ķ": 6256,
      "×ĳ×¨×ķ": 6257,
      "×ĳ×¨×ķ×Ł": 6258,
      "Ġ×Ĳ×Ĺ×ķ×ĸ": 6259,
      "Ġ×Ĳ×Ĺ×Ļ×ļ": 6260,
      "Ġ×Ĳ×Ĺ×ľ×Ļ×ĺ": 6261,
      "Ġ×Ĳ×Ĺ×ŀ×Ŀ": 6262,
      "Ġ×Ĳ×Ĺ×ķ×¨×Ļ×ª": 6263,
      "×Ļ×ľ×ª": 6264,
      "Ġ×ĸ×Ĳ": 6265,
      "Ġ×ĸ×ľ": 6266,
      "Ġ×ĸ×Ļ×ª": 6267,
      "Ġ×ĸ×ķ×ŀ": 6268,
      "Ġ×ĸ×ķ×ļ": 6269,
      "Ġ×ĸ×¨×ĳ": 6270,
      "Ġ×ĸ×¨×ķ×§": 6271,
      "Ġ×ĸ×ĸ×ķ": 6272,
      "Ġ×ĸ×¢×ĺ": 6273,
      "Ġ×ĸ×Ĵ×ķ×Ĵ": 6274,
      "×ķ×ł×Ļ×Ļ×Ŀ": 6275,
      "×ķ×ł×ĳ×¨×ķ×Ł": 6276,
      "×Ľ×ľ×Ľ×Ļ": 6277,
      "×ķ×Ľ×ĸ": 6278,
      "×ķ×ŀ×ł×ķ×ª": 6279,
      "×ķ×ŀ×Ľ×Ļ": 6280,
      "Ġ×Ĳ×Ķ×ĳ×ª": 6281,
      "Ġ×Ĳ×Ķ×ĳ×Ķ": 6282,
      "×¨×Ļ×ĳ": 6283,
      "×¨×Ļ×Ĵ×¨×Ĵ": 6284,
      "×Ĳ×ª×ķ": 6285,
      "Ġ×ª×©×ľ": 6286,
      "Ġ×ª×©×Ł": 6287,
      "Ġ×ª×©×ł×ķ": 6288,
      "Ġ×ª×©×¢×Ļ×Ŀ": 6289,
      "Ġ×ª×©×Ľ×ĳ": 6290,
      "Ġ×ª×©×ĺ×¤×Ļ": 6291,
      "Ġ×ª×¡×¨×§": 6292,
      "Ġ×ª×¡×Ļ×¢": 6293,
      "Ġ×ª×¡×Ľ×Ļ×ŀ×ķ": 6294,
      "×ĵ×¨×ķ×ŀ×Ľ×Ļ": 6295,
      "Ġ×ŀ×¡×ķ×§": 6296,
      "Ġ×ŀ×¡×ķ×¤×¨": 6297,
      "Ġ×ŀ×¡×ķ×ŀ×Ł": 6298,
      "Ġ×ŀ×¡×ķ×Ļ×Ŀ": 6299,
      "×Ĺ×ª×ł×Ļ×Ŀ": 6300,
      "Ġ×ŀ×ª×Ľ": 6301,
      "Ġ×ŀ×ª×ł×Ļ": 6302,
      "Ġ×ŀ×ª×Ĵ×ķ×¨": 6303,
      "Ġ×ŀ×ª×Ļ×©": 6304,
      "Ġ×ŀ×ª×§×ľ": 6305,
      "Ġ×ŀ×ª×¤×ª×Ĺ": 6306,
      "Ġ×ŀ×ª×Ĵ×¨": 6307,
      "Ġ×ŀ×ª×¤×ľ": 6308,
      "Ġ×ŀ×ª×ĳ×ľ×ĳ": 6309,
      "Ġ×ŀ×ª×¤×¨×§": 6310,
      "Ġ×ŀ×ª×¨×©": 6311,
      "Ġ×ŀ×ª×¨×Ĵ×ĸ": 6312,
      "Ġ×ŀ×ª×Ľ×ķ×¤": 6313,
      "Ġ×ŀ×ª×Ľ×ķ×ł×Ł": 6314,
      "Ġ×ŀ×ª×¨×Ĺ×§": 6315,
      "Ġ×ŀ×ª×ķ×¤×¤×ª": 6316,
      "Ġ×ŀ×ª×Ĺ×ª×ł×Ļ×Ŀ": 6317,
      "×ĳ×Ļ×Ĳ×©": 6318,
      "Ġ×ŀ×©×Ĳ": 6319,
      "Ġ×ŀ×©×Ľ": 6320,
      "Ġ×ŀ×©×ł×Ķ": 6321,
      "Ġ×ŀ×©×ķ×ł×Ķ": 6322,
      "Ġ×ŀ×©×ķ×Ľ×Ķ": 6323,
      "Ġ×ŀ×©×Ĺ×Ļ×ľ": 6324,
      "Ġ×ŀ×©×Ľ×Ļ×ĳ": 6325,
      "Ġ×ŀ×©×ķ×Ľ×ķ×ª": 6326,
      "Ġ×ŀ×©×ķ×ĺ×Ļ×Ŀ": 6327,
      "Ġ×ŀ×©×¤×©×¤×ª": 6328,
      "Ġ×ŀ×©×¤×Ĺ×Ķ": 6329,
      "Ġ×ŀ×©×ķ×¤×©×¤×ķ×ª": 6330,
      "Ġ×Ļ×ľ×Ł": 6331,
      "Ġ×Ļ×ľ×Ľ×ľ×ļ": 6332,
      "×Ļ×ĳ×ķ×Ĳ": 6333,
      "×ľ×ª×Ŀ": 6334,
      "Ġ×Ĳ×ł×ĵ×ł×ĵ": 6335,
      "Ġ×Ĳ×ł×ĵ×Ļ×ĳ": 6336,
      "Ġ×Ĳ×ł×ĵ×¨×ķ×ŀ×Ľ×Ļ": 6337,
      "Ġ×ŀ×Ľ×ĳ": 6338,
      "Ġ×ŀ×Ľ×Ļ×¨×ķ×ª": 6339,
      "Ġ×ŀ×Ľ×ĳ×Ļ×Ĳ×©": 6340,
      "Ġ×©×ŀ×Ļ": 6341,
      "Ġ×©×ŀ×Ĳ": 6342,
      "Ġ×©×ŀ×ļ": 6343,
      "Ġ×©×ŀ×Ĺ×ª": 6344,
      "Ġ×©×ŀ×¤×ķ": 6345,
      "Ġ×©×ŀ×¤×ł": 6346,
      "Ġ×Ĳ×ŀ×Ļ": 6347,
      "Ġ×Ĳ×ŀ×Ļ×ª": 6348,
      "Ġ×ł×¢×ĸ×ķ×¨": 6349,
      "Ġ×ł×¢×¦×ķ×Ŀ": 6350,
      "Ġ×Ķ×Ļ×Ļ×Ļ": 6351,
      "×Ľ×ª×Ļ×ĳ×Ķ": 6352,
      "Ġ×¡×¤×¨×ª": 6353,
      "Ġ×¡×¤×¨×Ļ×ĺ": 6354,
      "×Ļ×ĺ×ľ": 6355,
      "×Ļ×ĺ×ķ×ľ": 6356,
      "×Ļ×ŀ×ķ×Ĳ": 6357,
      "Ġ×Ļ×ĵ×ł×ķ": 6358,
      "Ġ×Ļ×ĵ×Ķ×¨": 6359,
      "Ġ×ŀ×§×ķ×¨": 6360,
      "Ġ×ŀ×§×¨×Ķ": 6361,
      "Ġ×ŀ×§×¨×§": 6362,
      "Ġ×ŀ×§×¨×Ļ×Ŀ": 6363,
      "Ġ×ŀ×§×ĳ×ľ×Ļ×Ŀ": 6364,
      "Ġ×ł×©×Ľ×Ķ": 6365,
      "Ġ×ł×©×Ľ×ª": 6366,
      "Ġ×ł×©×ª×Ķ": 6367,
      "×Ļ×¦×ķ": 6368,
      "×Ļ×¦×ľ": 6369,
      "Ġ×ľ×ĳ×ľ×ĳ×ľ": 6370,
      "×¤×©×Ļ×Ŀ": 6371,
      "Ġ×Ĳ×¨×Ĵ×ŀ": 6372,
      "Ġ×Ĳ×¨×ŀ×ķ×Ł": 6373,
      "Ġ×Ĳ×¨×ķ×ł×ĳ": 6374,
      "×ľ×ĳ×Ķ": 6375,
      "Ġ×¨×Ĳ×ķ": 6376,
      "Ġ×¨×Ĳ×ľ": 6377,
      "Ġ×¨×Ĳ×Ľ×¤×Ĳ": 6378,
      "Ġ×¨×Ĳ×¢×Ĳ×Ł": 6379,
      "Ġ×¦×ĳ×¢×Ļ": 6380,
      "Ġ×¦×ĳ×¢×ķ×ł×Ļ×Ļ×Ŀ": 6381,
      "×¦×Ļ×ķ×ª": 6382,
      "Ġ×§×ĺ×ł×Ļ": 6383,
      "Ġ×Ĺ×ŀ×©×Ļ": 6384,
      "Ġ×ĳ×Ĳ×ł×ª": 6385,
      "Ġ×ĳ×Ĳ×ĳ×ķ×¢": 6386,
      "Ġ×ĳ×Ĳ×Ĳ×Ĵ×Ĳ": 6387,
      "Ġ×Ĵ×ĵ×Ķ": 6388,
      "Ġ×Ĵ×ĵ×ľ×Ļ×Ŀ": 6389,
      "Ġ×Ĵ×ĵ×ľ×ķ×ª": 6390,
      "Ġ×ŀ×Ĺ×ł×Ķ": 6391,
      "Ġ×ŀ×Ĺ×Ļ×ľ×Ķ": 6392,
      "×ķ×¦×ł×Ļ×§": 6393,
      "Ġ×ª×ŀ×¨×Ļ": 6394,
      "Ġ×ª×ŀ×ľ×Ķ": 6395,
      "Ġ×ª×ŀ×¨×Ĺ": 6396,
      "Ġ×Ĳ×ľ×ŀ×ķ×Ĵ×Ł": 6397,
      "Ġ×ľ×§×¨×ĳ": 6398,
      "Ġ×ľ×§×¤×ľ": 6399,
      "Ġ×§×ķ×¨×ĵ×ķ×¡": 6400,
      "Ġ×ŀ×¦×Ļ×ŀ": 6401,
      "Ġ×ŀ×¦×¢×Ļ×Ŀ": 6402,
      "Ġ×ŀ×¦×Ļ×¦×Ķ": 6403,
      "Ġ×ŀ×¦×Ĳ×ķ": 6404,
      "Ġ×ŀ×¦×ķ×§×Ķ": 6405,
      "Ġ×ŀ×¦×Ļ×ŀ×Ĳ": 6406,
      "Ġ×ŀ×¦×Ļ×¦×ķ×ª": 6407,
      "Ġ×¡×ĳ×Ĺ": 6408,
      "Ġ×¡×ĳ×ķ×ł×Ļ×Ŀ": 6409,
      "Ġ×Ķ×Ĵ×¨×ķ×ľ×Ķ": 6410,
      "Ġ×¨×§×¢": 6411,
      "×Ĵ×¢×Ķ": 6412,
      "×Ĵ×¢×ķ×ª": 6413,
      "Ġ×ľ×¡×Ļ×Ļ×Ŀ": 6414,
      "Ġ×ľ×¡×Ĺ×ķ×ĳ": 6415,
      "Ġ×ł×¤×¡×Ļ×§": 6416,
      "Ġ×Ļ×Ķ×ķ×ĵ×Ļ×ª": 6417,
      "Ġ×ĳ×Ļ×ª×ķ×Ł": 6418,
      "Ġ×ĳ×Ļ×ª×Ļ×ª": 6419,
      "Ġ×Ľ×ŀ×ķ×ª": 6420,
      "Ġ×¨×¦×ķ": 6421,
      "Ġ×¨×¦×ł×ķ": 6422,
      "Ġ×¨×¦×Ļ×ł×Ļ×ª": 6423,
      "Ġ×Ĳ×ĵ×ľ×Ļ×§": 6424,
      "×¨×Ĺ×ķ×§": 6425,
      "×¨×Ĺ×¦×Ļ": 6426,
      "×ł×ª×Ł": 6427,
      "Ġ×ŀ×Ĵ×ĵ×ľ×ª": 6428,
      "Ġ×ŀ×Ĵ×ķ×ľ×Ĵ×ľ": 6429,
      "Ġ×ª×ĳ×Ļ×Ĳ×ķ": 6430,
      "Ġ×Ĵ×ľ×ķ×Ļ": 6431,
      "Ġ×Ĵ×ľ×Ļ×ĵ×ķ×ª": 6432,
      "Ġ×ł×¢×ľ×ĳ×ª×Ļ": 6433,
      "Ġ×ª×§×Ĺ×ķ": 6434,
      "Ġ×Ľ×ĵ×Ļ×Ŀ": 6435,
      "Ġ×Ľ×Ļ×¡×Ļ×ł×ķ": 6436,
      "Ġ×Ľ×Ļ×¡×Ļ×ª×Ļ": 6437,
      "Ġ×Ĳ×¡×Ļ×¨": 6438,
      "Ġ×Ĳ×¡×¤×ķ×¨": 6439,
      "Ġ×Ĳ×¡×ª×ķ×ĳ×ĳ": 6440,
      "Ġ×ŀ×ľ×§×§": 6441,
      "Ġ×ŀ×ľ×ĺ×¤×Ļ×Ŀ": 6442,
      "Ġ×Ĳ×Ļ×ķ×Ŀ": 6443,
      "Ġ×Ĳ×Ļ×Ļ×ľ×ª": 6444,
      "Ġ×Ķ×ª×ŀ": 6445,
      "Ġ×Ķ×ª×§×ĵ": 6446,
      "Ġ×Ķ×ª×Ľ×ķ×¤": 6447,
      "Ġ×Ķ×ª×Ļ×ĳ×©": 6448,
      "Ġ×Ķ×ª×¨×Ĵ×ľ×ª": 6449,
      "Ġ×Ķ×ª×¤×¨×§×Ķ": 6450,
      "Ġ×ª×¢×ķ": 6451,
      "Ġ×ª×¢×ĳ×Ļ×¨×Ļ": 6452,
      "Ġ×ª×¢×¨×ĳ×ĳ": 6453,
      "Ġ×ª×¢×ŀ×Ļ×ĵ×Ļ": 6454,
      "Ġ×ŀ×ĺ×ķ×Ĵ×Ł": 6455,
      "Ġ×ľ×Ĺ×Ķ": 6456,
      "Ġ×ľ×Ĺ×ķ×¨×¨": 6457,
      "Ġ×Ĺ×ķ×ľ×Ŀ": 6458,
      "Ġ×Ĺ×ķ×ľ×¦×ķ×ª": 6459,
      "Ġ×ĵ×Ļ×ķ×Ł": 6460,
      "Ġ×ł×Ļ×¨×ĺ×ķ×Ĳ×ľ×ĺ": 6461,
      "Ġ×ł×§×Ļ×ķ×ª": 6462,
      "Ġ×ł×§×¤×ķ": 6463,
      "Ġ×ł×§×ł×Ļ×§×Ļ": 6464,
      "Ġ×ł×§×ķ×ĵ×ª": 6465,
      "Ġ×ł×§×©×ĺ": 6466,
      "×ĳ×Ļ×Ļ×ª": 6467,
      "Ġ×¤×ª×Ĺ×ł×ķ": 6468,
      "Ġ×¤×ª×§×Ļ×Ŀ": 6469,
      "Ġ×¤×ª×Ļ×ª×Ļ": 6470,
      "Ġ×Ĳ×ķ×Ķ×ķ": 6471,
      "Ġ×Ĳ×ķ×Ķ×ľ": 6472,
      "Ġ×ŀ×ł×ķ×¤": 6473,
      "Ġ×ŀ×ł×§×Ļ×Ŀ": 6474,
      "Ġ×ŀ×ł×¢×Ļ×ľ×Ķ": 6475,
      "Ġ×ª×Ĳ×Ľ": 6476,
      "Ġ×ª×Ĳ×ŀ×Ļ×ł×Ļ": 6477,
      "Ġ×ª×Ĳ×ŀ×¨×Ļ": 6478,
      "Ġ×ª×Ĳ×ĳ×ķ×Ł": 6479,
      "Ġ×ª×Ĳ×Ļ×ķ×¤": 6480,
      "Ġ×ª×Ĺ×ķ×Ŀ": 6481,
      "Ġ×ª×Ĺ×¦×Ķ": 6482,
      "Ġ×ª×Ĺ×Ļ×Ĵ×Ļ": 6483,
      "Ġ×ª×Ĺ×ł×§×Ļ": 6484,
      "Ġ×ª×Ĺ×Ĵ×Ĵ×Ļ": 6485,
      "Ġ×Ĵ×ķ×Ĵ×Ļ×ľ×Ķ": 6486,
      "Ġ×Ĵ×ķ×Ĵ×Ļ×Ĵ×Ļ×Ĵ×Ļ": 6487,
      "×Ļ×Ľ×ķ×ľ": 6488,
      "×Ļ×Ľ×ķ×ł×ª": 6489,
      "Ġ×Ĺ×¨×ĵ×ķ×Ł": 6490,
      "Ġ×Ĺ×¨×¦×Ł": 6491,
      "Ġ×Ĺ×¨×ĺ×ķ×Ŀ": 6492,
      "Ġ×Ľ×ª×ķ": 6493,
      "Ġ×Ľ×ª×ķ×ŀ×Ķ": 6494,
      "Ġ×Ľ×ª×ŀ×Ļ×Ŀ": 6495,
      "Ġ×Ľ×ª×ĳ×ª×Ļ": 6496,
      "Ġ×©×ķ×ŀ×Ł": 6497,
      "Ġ×§×¨×©": 6498,
      "Ġ×§×¨×¢": 6499,
      "Ġ×§×¨×ł×Ļ×Ļ×Ŀ": 6500,
      "Ġ×§×¨×ĳ×ª×Ļ": 6501,
      "Ġ×§×¨×¦×Ļ×ķ×ª": 6502,
      "Ġ×ł×ķ×¡×ľ": 6503,
      "Ġ×¢×ķ×Ĵ×Ļ×ª": 6504,
      "Ġ×ł×¡×Ļ×¢×Ķ": 6505,
      "Ġ×ł×¡×Ĵ×¨×ª": 6506,
      "Ġ×ł×¡×ª×ķ×ĳ×ĳ": 6507,
      "Ġ×¤×¨×ķ×¨": 6508,
      "Ġ×¤×¨×¤×¨×Ļ": 6509,
      "Ġ×¤×¨×¡×ª": 6510,
      "Ġ×¤×¨×ķ×¡×Ķ": 6511,
      "Ġ×ŀ×¨×ķ×Ŀ": 6512,
      "Ġ×ŀ×¨×ķ×¦×Ķ": 6513,
      "Ġ×ŀ×¨×Ĵ×Ļ×¢": 6514,
      "Ġ×ŀ×¨×ķ×ĳ×¢×Ļ×Ŀ": 6515,
      "Ġ×ŀ×¨×©×ŀ×Ļ×Ŀ": 6516,
      "Ġ×ŀ×¨×Ĵ×¨×Ļ×ł×Ķ": 6517,
      "Ġ×ŀ×¨×ķ×Ľ×ĸ": 6518,
      "Ġ×Ĺ×ĸ×¨×ª×Ļ": 6519,
      "Ġ×Ķ×Ĳ×Ļ": 6520,
      "Ġ×Ķ×Ĳ×ľ×Ķ": 6521,
      "Ġ×Ķ×Ĳ×Ľ×ľ×ª": 6522,
      "Ġ×ł×ª×ł×Ĵ×ĳ": 6523,
      "Ġ×ł×ª×§×ľ×Ĺ": 6524,
      "Ġ×Ľ×©×©": 6525,
      "Ġ×ŀ×Ĳ×Ļ": 6526,
      "Ġ×ŀ×Ĳ×Ľ×ľ": 6527,
      "Ġ×ŀ×Ĳ×¢×Ĳ": 6528,
      "Ġ×ŀ×Ĳ×ľ×ķ×ľ": 6529,
      "Ġ×ŀ×Ĳ×Ľ×Ļ×ľ×Ķ": 6530,
      "Ġ×ŀ×Ĳ×Ļ×ŀ×ķ×Ĳ": 6531,
      "Ġ×Ļ×ª×¨": 6532,
      "Ġ×Ļ×ª×Ĺ×Ļ×ľ": 6533,
      "Ġ×Ļ×ª×ľ×ĳ×©": 6534,
      "Ġ×ĳ×¨×ľ×Ķ": 6535,
      "Ġ×ĳ×¨×¦×Ļ×ł×ķ×ª": 6536,
      "Ġ×ĳ×¨×ķ×ł×ĳ×¨×ķ×Ł": 6537,
      "Ġ×Ľ×¨×¡": 6538,
      "Ġ×Ľ×¨×Ĵ×Ļ×ľ": 6539,
      "Ġ×ĳ×§×¢×ª": 6540,
      "Ġ×ĳ×§×ľ×ķ×ª": 6541,
      "Ġ×ĳ×§×©×ķ": 6542,
      "Ġ×§×ķ×¤×Ļ×Ŀ": 6543,
      "Ġ×§×ķ×¤×ª×Ĺ×ķ×ľ×Ļ×Ŀ": 6544,
      "Ġ×§×ķ×¤×¡×Ĳ×ķ×ª": 6545,
      "Ġ×ŀ×¢×§×Ķ": 6546,
      "Ġ×ŀ×¢×ķ×¨×¨×ª": 6547,
      "Ġ×ª×¨×Ĵ": 6548,
      "Ġ×ª×¨×¦×Ķ": 6549,
      "Ġ×§×ľ×Ĺ": 6550,
      "Ġ×§×ľ×ķ×ª": 6551,
      "Ġ×§×ľ×§×ľ": 6552,
      "×§×ľ×Ļ×¡": 6553,
      "Ġ×ł×ŀ×ľ×Ĳ": 6554,
      "Ġ×ł×ŀ×Ĺ×ķ×§": 6555,
      "Ġ×ł×ŀ×ķ×Ľ×Ļ×Ŀ": 6556,
      "Ġ×ł×ŀ×ĵ×ķ×ĵ": 6557,
      "Ġ×ª×ĳ×Ĺ×©×Ļ": 6558,
      "Ġ×ª×ĳ×ĺ×Ļ×Ĺ×Ļ": 6559,
      "Ġ×¦×Ķ×ķ": 6560,
      "×Ĺ×ķ×¨×Ļ": 6561,
      "×¢×¦×ĳ×Ł": 6562,
      "×Ĳ×ĳ×Ĳ": 6563,
      "Ġ×¢×¦×ĳ": 6564,
      "Ġ×¢×¦×ŀ×Ķ": 6565,
      "Ġ×¢×¦×ŀ×ª": 6566,
      "Ġ×¢×¦×Ļ×Ĳ×ª": 6567,
      "Ġ×¢×¦×ķ×ŀ×ķ×ª": 6568,
      "Ġ×ł×Ĺ×¨": 6569,
      "Ġ×ł×Ĺ×¦×Ķ": 6570,
      "Ġ×ł×Ĺ×ŀ×ĵ×Ļ×Ŀ": 6571,
      "Ġ×Ľ×ľ×ĳ×Ķ": 6572,
      "Ġ×ª×Ķ×Ļ×ľ×Ķ": 6573,
      "Ġ×Ĺ×ľ×ķ×Ŀ": 6574,
      "Ġ×Ĺ×ľ×ķ×ķ×Ķ": 6575,
      "Ġ×ľ×Ķ×ª×Ĳ×Ļ×Ŀ": 6576,
      "Ġ×ľ×Ķ×ª×ł×Ĵ×ĳ": 6577,
      "Ġ×ľ×Ķ×ª×¢×¡": 6578,
      "Ġ×ľ×Ķ×ª×Ľ×ķ×¤": 6579,
      "Ġ×ľ×Ķ×ª×Ĺ×ª×Ł": 6580,
      "Ġ×ľ×Ķ×ª×ĳ×ľ×ĳ×ľ": 6581,
      "Ġ×ľ×Ķ×ª×Ľ×¡×ķ×ª": 6582,
      "Ġ×ŀ×ĳ×ł×Ķ": 6583,
      "Ġ×ŀ×ĳ×Ļ×ł×Ļ×Ŀ": 6584,
      "Ġ×Ĳ×¤×©×¨×ķ×ª": 6585,
      "Ġ×©×ľ×ķ×ķ×Ķ": 6586,
      "Ġ×Ļ×¢×ĸ×ķ×ĳ": 6587,
      "Ġ×Ļ×¢×ĳ×ĵ×ķ": 6588,
      "Ġ×Ļ×¢×ĳ×¨×ķ": 6589,
      "Ġ×ª×Ľ×ķ×ŀ": 6590,
      "Ġ×ª×Ľ×©×Ļ×ĺ": 6591,
      "Ġ×ª×Ľ×¡×ĳ×ª": 6592,
      "Ġ×©×ĺ×ķ×Ĺ×Ļ×Ŀ": 6593,
      "Ġ×©×ĺ×§×ľ×Ļ×¡": 6594,
      "Ġ×ª×Ļ×§×Ł": 6595,
      "Ġ×ª×Ļ×§×ł×ķ": 6596,
      "Ġ×ª×Ļ×§×ł×ª": 6597,
      "Ġ×ŀ×ķ×ĸ×¨×Ķ": 6598,
      "Ġ×ŀ×ķ×ĸ×¨×ķ×ª": 6599,
      "Ġ×ŀ×ķ×ĸ×Ĵ×ª": 6600,
      "Ġ×ŀ×Ļ×ª×¤×ķ×ĸ×Ļ×Ŀ": 6601,
      "Ġ×¦×ľ×Ļ×ľ": 6602,
      "Ġ×¦×ľ×ķ×Ļ": 6603,
      "Ġ×ĸ×¨×§×ķ": 6604,
      "Ġ×©×¤×ķ×¨×¤×¨×ª": 6605,
      "Ġ×Ľ×¤×Ľ": 6606,
      "Ġ×¢×Ļ×Ĵ×ķ×ľ×Ļ": 6607,
      "Ġ×¦×Ķ×ķ×ĳ×Ļ×Ŀ": 6608,
      "Ġ×¦×Ķ×ķ×ĳ×ķ×ª": 6609,
      "Ġ×¦×Ļ×¤×ķ×¨×Ł": 6610,
      "Ġ×©×Ĳ×ľ": 6611,
      "Ġ×©×Ĳ×ł×Ļ": 6612,
      "Ġ×©×Ĳ×ľ×ķ×ª": 6613,
      "Ġ×©×Ĳ×ľ×ķ": 6614,
      "Ġ×©×Ĳ×ľ×ª×Ļ": 6615,
      "Ġ×ª×¦×Ļ×§×Ļ": 6616,
      "Ġ×ª×¦×¤×¦": 6617,
      "Ġ×¡×ľ×¢": 6618,
      "Ġ×¡×ľ×§×ľ": 6619,
      "Ġ×Ľ×ķ×¡×ª×Ķ": 6620,
      "Ġ×ª×ł×¢×Ļ×ľ": 6621,
      "Ġ×Ĳ×¤×Ļ×ľ": 6622,
      "Ġ×Ĳ×¤×ķ×ł×Ļ×Ŀ": 6623,
      "Ġ×Ĳ×¤×ķ×¨×Ļ×Ŀ": 6624,
      "Ġ×Ľ×ĳ×©": 6625,
      "Ġ×Ľ×ĳ×Ļ×ķ": 6626,
      "Ġ×ľ×ķ×Ĺ×ķ×ª": 6627,
      "Ġ×ľ×ķ×Ĺ×©×ª": 6628,
      "Ġ×ľ×ķ×Ĺ×ŀ×Ļ×Ŀ": 6629,
      "Ġ×ŀ×ķ×ª×ł×Ļ×Ļ×Ŀ": 6630,
      "Ġ×ĳ×ľ×¢×ª": 6631,
      "Ġ×ĳ×ľ×ĺ×Ķ": 6632,
      "Ġ×ĳ×ľ×¢×ĵ×Ļ": 6633,
      "Ġ×Ĳ×ķ×¤×Ļ×Ŀ": 6634,
      "Ġ×Ĳ×ķ×¤×Ļ×¨×Ķ": 6635,
      "Ġ×Ĳ×ŀ×ĳ×ĺ×Ļ×ķ×ª": 6636,
      "Ġ×ŀ×ª×ł×Ķ×Ĵ": 6637,
      "Ġ×ŀ×ª×ł×Ķ×Ĵ×ª": 6638,
      "Ġ×ŀ×ª×ł×Ķ×Ĵ×Ļ×Ŀ": 6639,
      "Ġ×ª×ª×Ĺ×Ļ×ľ": 6640,
      "Ġ×ª×ª×Ĵ×ľ×Ĵ×ľ": 6641,
      "Ġ×ª×ª×ľ×ĳ×©×Ļ": 6642,
      "Ġ×ª×ª×ĳ×ľ×ĳ": 6643,
      "Ġ×ª×ª×¤×¡×Ļ": 6644,
      "Ġ×ª×ª×¨×Ĵ×ĸ": 6645,
      "Ġ×ª×ª×Ľ×¡×Ļ": 6646,
      "Ġ×ª×ª×ł×Ķ×Ĵ×Ļ": 6647,
      "Ġ×ª×ª×¨×Ĺ×¦×Ļ": 6648,
      "Ġ×Ĳ×ķ×ķ×Ļ×¨×ķ×ł×Ļ×Ŀ": 6649,
      "Ġ×Ĳ×©×ĺ×ķ×Ĳ×ª": 6650,
      "×Ĺ×ĵ×©": 6651,
      "Ġ×ł×Ĵ×ŀ×¨×Ķ": 6652,
      "Ġ×ł×Ĵ×ŀ×¨×ª": 6653,
      "Ġ×ł×Ĵ×ŀ×¨×Ļ×Ŀ": 6654,
      "Ġ×Ĺ×ķ×¨×§×¨": 6655,
      "×ŀ×ĵ×ķ×¨×Ķ": 6656,
      "Ġ×Ĵ×ķ×ľ×ĵ×Ļ": 6657,
      "Ġ×ĵ×Ĵ×ĵ": 6658,
      "Ġ×ľ×©×ŀ×©": 6659,
      "Ġ×¨×¢×ľ": 6660,
      "Ġ×¨×¢×ł×ł×Ķ": 6661,
      "Ġ×ª×ľ×Ľ×ľ×ļ": 6662,
      "Ġ×ª×ľ×Ľ×ľ×Ľ×Ļ": 6663,
      "Ġ×ŀ×ĸ×ŀ×Ļ×Ł": 6664,
      "Ġ×ŀ×ĸ×ķ×ŀ×ł×ķ×ª": 6665,
      "Ġ×ľ×©×ª×ķ×§": 6666,
      "Ġ×Ĺ×ĸ×§×Ķ": 6667,
      "Ġ×Ļ×ĳ×©×Ķ": 6668,
      "Ġ×ł×Ļ×¦×ł×¦×Ł": 6669,
      "Ġ×ŀ×ķ×¦×Ĳ": 6670,
      "Ġ×ŀ×ķ×¦×ĳ": 6671,
      "Ġ×ŀ×ķ×¦×ŀ": 6672,
      "Ġ×ŀ×ķ×¦×¦×Ļ×Ŀ": 6673,
      "Ġ×ł×ĵ×ķ×Ł": 6674,
      "Ġ×ł×ĵ×¤×ĵ": 6675,
      "Ġ×§×©×§×©×ª": 6676,
      "Ġ×§×©×§×©×Ķ": 6677,
      "Ġ×ľ×¨×¡×§": 6678,
      "Ġ×ľ×ĺ×¤×ĺ": 6679,
      "Ġ×ľ×ĺ×ľ×¤×Ł": 6680,
      "Ġ×ŀ×¡×ª×Ľ×ľ×ķ×ª": 6681,
      "Ġ×ŀ×¤×Ļ×§×Ķ": 6682,
      "Ġ×ŀ×¤×Ļ×ľ×Ķ": 6683,
      "Ġ×ĳ×©×ĳ×Ļ×ľ×Ļ": 6684,
      "Ġ×ł×Ľ×ł×¡×ķ": 6685,
      "Ġ×ł×Ľ×ł×¡×ķ×ª": 6686,
      "Ġ×¡×Ĵ×ķ×¨×ķ×ª": 6687,
      "Ġ×Ļ×Ĳ×Ķ": 6688,
      "Ġ×Ļ×Ĳ×ķ×¨": 6689,
      "Ġ×Ļ×Ĳ×ķ×¨×Ļ": 6690,
      "Ġ×Ĵ×ķ×ľ×Ĵ×ķ×ľ": 6691,
      "Ġ×Ĵ×¨×ķ": 6692,
      "Ġ×ĸ×ķ×¨×Ŀ": 6693,
      "Ġ×¢×ĳ×Ļ×Ŀ": 6694,
      "Ġ×¢×ĳ×ķ×ĵ×ķ×ª": 6695,
      "Ġ×ŀ×Ĺ×ĸ×Ļ×¨": 6696,
      "Ġ×ŀ×Ĺ×ĸ×Ļ×¨×Ļ×Ŀ": 6697,
      "Ġ×ŀ×ĵ×ķ×¨×ķ×ª": 6698,
      "Ġ×ŀ×ĵ×§×ĵ": 6699,
      "Ġ×ŀ×ĵ×ĳ×§×ķ×ª": 6700,
      "Ġ×ŀ×¡×ª×ĵ×¨×ª": 6701,
      "Ġ×Ĳ×Ĳ×ķ": 6702,
      "Ġ×Ĳ×Ĳ×¨": 6703,
      "Ġ×Ĳ×Ĳ×ľ": 6704,
      "Ġ×Ĳ×Ĳ×§": 6705,
      "Ġ×Ĳ×Ĳ×Ŀ": 6706,
      "Ġ×Ĳ×Ĳ×Ĵ×Ĳ": 6707,
      "Ġ×Ĳ×Ĳ×¨×ķ×ļ": 6708,
      "Ġ×Ĳ×Ĳ×¡×ķ": 6709,
      "Ġ×Ĳ×Ĳ×ĵ×Ĳ×ĵ×Ĳ": 6710,
      "Ġ×Ĳ×Ĳ×ĺ×Ĳ×ĳ": 6711,
      "Ġ×¢×ĺ×Ļ×¤×ķ×ª": 6712,
      "Ġ×¢×ĺ×ľ×ŀ": 6713,
      "Ġ×¦×Ļ×¨×Ļ×Ŀ": 6714,
      "Ġ×ŀ×©×§×¤×ª": 6715,
      "Ġ×Ĵ×ķ×Ĵ×Ļ×Ļ×Ĳ": 6716,
      "Ġ×¨×Ĺ×ľ": 6717,
      "Ġ×¨×Ĺ×ĳ×Ļ": 6718,
      "Ġ×Ļ×§×¨×Ļ×Ŀ": 6719,
      "×¤×¡×Ļ×§": 6720,
      "×ł×ĺ×¢": 6721,
      "Ġ×Ĺ×ĳ×ķ×ĳ×Ķ": 6722,
      "Ġ×¤×ľ×ĺ": 6723,
      "Ġ×©×ķ×ĳ×¨×ª": 6724,
      "Ġ×ª×Ļ×ĸ×Ķ×¨×ķ": 6725,
      "Ġ×¡×ķ×Ľ×Ļ×Ļ×Ĳ": 6726,
      "×Ļ×ĸ×Ľ×¨": 6727,
      "Ġ×ĳ×¨×ķ×ķ×ĸ×ķ×Ł": 6728,
      "Ġ×ª×ķ×Ľ×Ļ×Ŀ": 6729,
      "Ġ×ľ×ł×©": 6730,
      "Ġ×ľ×ł×©×§": 6731,
      "Ġ×¢×ķ×ĳ×¨×Ļ×Ŀ": 6732,
      "Ġ×Ļ×ķ×¨×§": 6733,
      "Ġ×¤×Ĺ×ĵ×ª": 6734,
      "Ġ×ŀ×Ĳ×Ĺ×ķ×¨×Ļ×ļ": 6735,
      "×ĸ×¨×ķ": 6736,
      "Ġ×ľ×Ľ×ľ×ļ": 6737,
      "Ġ×ľ×Ķ×¡×Ľ×Ļ×¨": 6738,
      "Ġ×Ķ×Ĺ×ĳ×Ĳ×ª": 6739,
      "Ġ×Ķ×Ĺ×Ĳ×ª×ķ": 6740,
      "Ġ×ŀ×ķ×¨×Ĺ": 6741,
      "Ġ×¡×ŀ×ĳ×ľ": 6742,
      "Ġ×Ķ×¨×¡×Ķ": 6743,
      "Ġ×Ķ×¨×¡×ª": 6744,
      "Ġ×Ķ×¨×Ľ×ĳ×ķ×ª": 6745,
      "×ĵ×Ķ×Ļ×Ŀ": 6746,
      "Ġ×Ĳ×Ĵ×Ŀ": 6747,
      "Ġ×ľ×¦×¤×¦": 6748,
      "Ġ×©×Ľ×ĳ×Ļ": 6749,
      "Ġ×ł×Ķ×ł×Ķ": 6750,
      "Ġ×ł×ķ×¤×¨": 6751,
      "Ġ×Ĵ×ł×Ĺ×Ļ×ķ×ª": 6752,
      "Ġ×Ĳ×¤×¨×ķ": 6753,
      "Ġ×ĸ×Ĳ×ĳ×Ķ": 6754,
      "Ġ×ŀ×¦×ľ×¦×ľ×ª": 6755,
      "Ġ×ĳ×Ĵ×ĵ×Ķ×Ļ×Ŀ": 6756,
      "Ġ×ª×©×ĳ×ķ×¨": 6757,
      "Ġ×¢×Ļ×ª×Ļ×Ŀ": 6758,
      "Ġ×§×ķ×§×Ļ×ª": 6759,
      "Ġ×§×ķ×§×ķ×¡": 6760,
      "×ĺ×¨×ķ×ľ": 6761,
      "×ĺ×¨×ķ×Ĳ×ķ×ª": 6762,
      "Ġ×¤×¨×¤×¨×Ļ×Ŀ": 6763,
      "Ġ×ľ×ľ×ŀ×ĵ": 6764,
      "Ġ×Ļ×¦×Ĳ×ł×ķ": 6765,
      "Ġ×ĵ×ķ×ĳ×ķ×ł×Ļ×Ŀ": 6766,
      "Ġ×ĵ×ķ×ĳ×Ļ×ĵ×ķ×ĳ": 6767,
      "Ġ×¢×¦×ķ×ĳ×ķ×ª": 6768,
      "Ġ×ª×ĸ×ŀ×Ļ×Ł": 6769,
      "Ġ×Ĳ×¨×ķ×Ĺ×ª×ŀ×ł": 6770,
      "Ġ×¢×ł×¤×Ļ": 6771,
      "Ġ×¢×ł×Ļ×ł×Ļ": 6772,
      "Ġ×Ļ×¡×ĳ×Ļ×ĳ": 6773,
      "Ġ×Ĳ×ķ×¨×ĸ×ª": 6774,
      "×Ļ×ĳ×Ļ×Ļ×Ĳ": 6775,
      "Ġ×ŀ×Ļ×ŀ×ł×Ķ": 6776,
      "Ġ×©×ķ×ĳ×ĳ×Ļ×Ŀ": 6777,
      "Ġ×ĳ×Ļ×ł×ł×ķ": 6778,
      "Ġ×¡×¤×ķ×¨×ª": 6779,
      "Ġ×ĳ×ĵ×§×Ķ": 6780,
      "Ġ×ĳ×ĵ×Ļ×§×ª": 6781,
      "Ġ×ĳ×ĵ×Ļ×ĳ×Ļ×Ļ×Ĳ": 6782,
      "Ġ×ª×ĳ×§×¨×Ļ": 6783,
      "Ġ×Ķ×Ľ×Ĳ×Ļ×ĳ": 6784,
      "Ġ×Ĵ×Ĳ×ł×Ĵ": 6785,
      "Ġ×Ĵ×Ĳ×¢×Ĳ": 6786,
      "Ġ×ĺ×¢×Ļ×ª": 6787,
      "Ġ×ľ×Ķ×©×¢×Ł": 6788,
      "Ġ×ľ×Ķ×©×ŀ×Ļ×¢": 6789,
      "Ġ×ľ×Ķ×©×§×ķ×ª": 6790,
      "Ġ×Ĺ×ľ×§×Ŀ": 6791,
      "Ġ×¨×Ĺ×ķ×§×Ķ": 6792,
      "Ġ×ŀ×ķ×©×Ĵ": 6793,
      "Ġ×ŀ×ķ×©×Ļ×§×Ļ": 6794,
      "Ġ×Ľ×¡×ķ": 6795,
      "Ġ×ª×Ĺ×ª×Ľ×Ļ": 6796,
      "Ġ×§×¦×ķ": 6797,
      "Ġ×§×¦×¨×Ķ": 6798,
      "Ġ×§×¦×Ļ×¦×ķ×ª": 6799,
      "Ġ×§×¦×ķ×ķ×ķ×ª": 6800,
      "Ġ×ŀ×ł×Ĵ×ķ": 6801,
      "Ġ×Ĳ×¨×ł×ĳ×ķ×ª": 6802,
      "Ġ×Ķ×ª×Ĺ×©×ĳ": 6803,
      "Ġ×Ķ×ª×Ĺ×ľ×¢×ķ×ĵ": 6804,
      "Ġ×Ķ×Ļ×¤×ľ×ª×Ļ": 6805,
      "Ġ×¡×ł×ĵ×ľ×¨×Ļ×Ŀ": 6806,
      "Ġ×ľ×ĵ×¤×ĵ": 6807,
      "Ġ×ľ×ĵ×Ĵ×ĵ×Ĵ": 6808,
      "Ġ×Ķ×©×ķ×ľ": 6809,
      "Ġ×Ķ×©×Ľ×ĳ×ª": 6810,
      "Ġ×Ķ×©×Ľ×Ļ×ĳ×Ķ": 6811,
      "Ġ×Ķ×©×¤×¨×Ļ×¦×Ķ": 6812,
      "Ġ×Ļ×ķ×Ļ×ķ": 6813,
      "Ġ×Ļ×¨×ķ": 6814,
      "Ġ×Ļ×¨×Ļ×ĵ": 6815,
      "Ġ×§×Ļ×¤×ľ×ª": 6816,
      "Ġ×©×Ļ×Ĺ×§×ª×Ļ": 6817,
      "Ġ×Ļ×Ĺ×¤×Ķ": 6818,
      "Ġ×Ļ×Ĺ×Ļ×ĵ×ķ×ª": 6819,
      "Ġ×Ļ×Ĺ×¡×Ļ×ª": 6820,
      "Ġ×ª×ķ×ª×Ļ×Ŀ": 6821,
      "Ġ×Ĺ×ķ×¤×Ĳ×ª": 6822,
      "Ġ×ĸ×¨×Ļ×§×ķ×ª": 6823,
      "Ġ×ŀ×©×ª×¢×ľ×ª": 6824,
      "Ġ×ª×¤×¡×Ļ×§": 6825,
      "Ġ×ª×¤×¡×ł×ķ": 6826,
      "Ġ×ª×¤×¡×Ļ×§×ķ": 6827,
      "Ġ×Ķ×¨×Ĳ×Ļ": 6828,
      "Ġ×ĳ×Ļ×§×¨": 6829,
      "Ġ×¦×ķ×¨×Ļ": 6830,
      "Ġ×¤×ķ×ŀ×ľ×Ļ×ķ×ª": 6831,
      "Ġ×Ķ×¦×Ĵ×ķ×ª": 6832,
      "Ġ×Ķ×¦×ĺ×ł": 6833,
      "Ġ×Ķ×¦×ľ×ĳ×Ķ": 6834,
      "Ġ×Ķ×¦×ľ×Ļ×Ĺ×Ķ": 6835,
      "×¢×ĺ×©": 6836,
      "Ġ×¤×¨×¦×ķ×¤": 6837,
      "Ġ×ĳ×ŀ×ĳ×Ļ×Ŀ": 6838,
      "Ġ×ĳ×ŀ×§×¨×Ķ": 6839,
      "Ġ×¦×ķ×Ĺ×§×Ļ×Ŀ": 6840,
      "Ġ×¤×Ĳ×Ŀ": 6841,
      "Ġ×¤×Ĳ×ĸ×ľ": 6842,
      "Ġ×¤×Ĳ×ĺ×Ĳ×Ł": 6843,
      "Ġ×¤×Ĳ×ľ×Ĳ×Ŀ": 6844,
      "Ġ×¤×Ĳ×¤×Ŀ": 6845,
      "Ġ×ĳ×¨×Ļ×Ĳ×Ļ×Ŀ": 6846,
      "Ġ×ĳ×©×ľ": 6847,
      "Ġ×ĳ×©×ķ×ľ": 6848,
      "Ġ×ĳ×©×ķ×ľ×Ļ×Ŀ": 6849,
      "Ġ×ĳ×¢×Ļ×ł": 6850,
      "Ġ×ĳ×¢×¨×ļ": 6851,
      "Ġ×Ķ×¡×¤": 6852,
      "×Ĺ×ľ×§": 6853,
      "×Ĺ×ľ×Ļ×ľ×Ķ": 6854,
      "Ġ×ł×ĳ×¦×¢": 6855,
      "Ġ×Ļ×¨×§×ª": 6856,
      "Ġ×ª×ĺ×¢×Ŀ": 6857,
      "Ġ×ĸ×Ľ×¨": 6858,
      "Ġ×ł×¨×ķ×ª×©×ĳ×ª": 6859,
      "Ġ×Ķ×¤×Ľ×Ķ": 6860,
      "Ġ×Ķ×¤×ľ×ª": 6861,
      "Ġ×ľ×Ļ×ŀ×ķ×¨": 6862,
      "Ġ×§×¤×ŀ": 6863,
      "Ġ×ľ×Ķ×¡×ª×¤×§": 6864,
      "Ġ×ŀ×¨×ĳ×ĵ": 6865,
      "Ġ×ª×ĵ×¢×Ļ": 6866,
      "Ġ×ª×ĵ×¤×ĵ×¤×Ļ": 6867,
      "Ġ×ª×ĵ×¤×ķ×§": 6868,
      "×¤×Ĳ×Ŀ": 6869,
      "Ġ×Ĺ×Ļ×ķ×ļ": 6870,
      "Ġ×Ĺ×ł×ķ×ļ": 6871,
      "Ġ×ĵ×ķ×¨×ķ×Ł": 6872,
      "Ġ×ĵ×ķ×¨×©×ª": 6873,
      "Ġ×ĵ×ķ×¨×ĳ×Ł": 6874,
      "Ġ×ĵ×ĳ×§×ķ×ª": 6875,
      "Ġ×Ķ×ĵ×ĳ×§×ª": 6876,
      "Ġ×Ķ×ĵ×ĳ×§×ķ×ª": 6877,
      "Ġ×Ķ×ķ×¨×¡": 6878,
      "Ġ×Ķ×ķ×¨×¡×ª": 6879,
      "×ĳ×Ļ×ĳ×Ļ×Ŀ": 6880,
      "Ġ×¢×ĳ×¨×Ķ": 6881,
      "Ġ×¢×ĳ×¨×ł×ķ": 6882,
      "Ġ×ĺ×ķ×©×ĺ×ķ×©": 6883,
      "Ġ×¢×©×ķ×Ļ×Ķ": 6884,
      "Ġ×¢×©×ķ×Ļ×ķ×ª": 6885,
      "Ġ×ł×©×¤×Ľ×Ķ": 6886,
      "Ġ×Ķ×ª×¤×ķ×¦×Ķ": 6887,
      "Ġ×ł×¨×ĵ×ŀ×ª": 6888,
      "Ġ×ł×ĸ×ķ×ĸ": 6889,
      "Ġ×ł×ĸ×§×Ļ×Ŀ": 6890,
      "Ġ×ł×ĸ×ŀ×Ļ×Ł": 6891,
      "Ġ×Ļ×¨×ĵ×Ķ": 6892,
      "Ġ×Ľ×Ķ×Ļ×ĵ": 6893,
      "Ġ×¨×Ļ×§×Ļ×Ŀ": 6894,
      "Ġ×ŀ×ª×Ĵ×ľ×Ĵ×ľ×Ļ×Ŀ": 6895,
      "Ġ×ª×ł×ķ×¨×Ĵ×ĸ": 6896,
      "Ġ×ŀ×ĳ×¨×Ľ×Ļ×Ŀ": 6897,
      "Ġ×¢×Ļ×¨×ķ×Ŀ": 6898,
      "Ġ×ł×Ļ×Ĵ×ĳ×ª×Ļ": 6899,
      "Ġ×ł×Ļ×Ĵ×ķ×ĵ×Ļ×Ŀ": 6900,
      "Ġ×ŀ×ª×Ĵ×ľ×©×Ļ×Ŀ": 6901,
      "Ġ×ŀ×ª×Ĵ×ľ×Ĵ×ľ×ª": 6902,
      "Ġ×ª×ĳ×ĵ×ķ×§": 6903,
      "Ġ×Ĺ×Ļ×¤×©": 6904,
      "Ġ×Ĺ×Ļ×¤×©×ł×ķ": 6905,
      "Ġ×ľ×Ķ×©×ª×ķ×ĳ×ĳ": 6906,
      "Ġ×ł×Ĺ×©×ķ×ĳ": 6907,
      "Ġ×Ķ×ķ×¦×Ĳ×ł×ķ": 6908,
      "Ġ×ŀ×ľ×ĳ×ł×Ļ×Ŀ": 6909,
      "Ġ×ł×¨×Ĺ×¤×¨": 6910,
      "Ġ×ł×¨×Ĺ×ľ×ļ": 6911,
      "Ġ×Ļ×¦×Ļ×ĳ": 6912,
      "Ġ×Ļ×¦×¤×¦": 6913,
      "Ġ×ª×ķ×ľ×Ļ×ľ×Ķ": 6914,
      "Ġ×ª×ķ×ľ×Ļ×ª×Ĳ": 6915,
      "Ġ×Ĵ×ķ×ĸ×ĸ×Ļ×Ŀ": 6916,
      "Ġ×Ĺ×Ĵ×Ļ×ª": 6917,
      "Ġ×Ĺ×Ļ×ĳ×¨×ª×Ļ": 6918,
      "Ġ×ŀ×Ľ×ª×ĳ×Ļ×Ŀ": 6919,
      "Ġ×©×ĳ×ķ×¨×ķ×ª": 6920,
      "Ġ×ª×ľ×Ĺ×©×Ļ": 6921,
      "Ġ×ĳ×¡×ķ": 6922,
      "Ġ×ĳ×¡×Ļ×¡": 6923,
      "Ġ×¨×©×ķ×ª": 6924,
      "Ġ×Ĺ×ķ×ª×ļ": 6925,
      "Ġ×ĵ×Ļ×¡×ª": 6926,
      "×ķ×Ľ×ķ×ª×ķ×Ľ×ķ×ª": 6927,
      "Ġ×ª×©×Ľ×Ĺ": 6928,
      "Ġ×ª×©×Ľ×Ļ×ĳ×Ļ": 6929,
      "Ġ×Ķ×©×ª×Ĵ×¢": 6930,
      "Ġ×Ķ×©×ª×Ĵ×¢×ª×Ļ": 6931,
      "×ľ×Ĺ×Ŀ": 6932,
      "Ġ×¨×ķ×ł×Ķ": 6933,
      "Ġ×ŀ×ª×Ĺ×Ļ×ľ×ķ×ª": 6934,
      "Ġ×ª×§×©×ĺ×Ļ": 6935,
      "Ġ×ŀ×¨×Ĵ×Ļ×©": 6936,
      "Ġ×§×©×§×©×Ł": 6937,
      "Ġ×§×©×§×©×ł×Ļ×ª": 6938,
      "Ġ×ŀ×¡×ª×ª×¨×Ļ×Ŀ": 6939,
      "Ġ×Ķ×¨×ĳ×Ļ×ľ": 6940,
      "Ġ×©×ª×Ļ×ª×Ļ": 6941,
      "Ġ×Ļ×Ļ×Ľ×ł×¡×ķ": 6942,
      "Ġ×¨×Ļ×Ĺ×ł×Ļ×ª": 6943,
      "Ġ×Ĳ×Ļ×ĸ×©×Ķ×ķ": 6944,
      "Ġ×Ĳ×Ļ×ľ×ł×Ķ": 6945,
      "Ġ×©×ľ×ķ×ľ×ķ×ł×ª": 6946,
      "Ġ×¤×ł×¦×ĺ×Ķ": 6947,
      "Ġ×ľ×Ķ×Ľ×Ĳ×Ļ×ĳ": 6948,
      "Ġ×ª×©×ª×ķ×§": 6949,
      "Ġ×ª×©×ª×¢×ľ": 6950,
      "Ġ×ª×©×ª×ĵ×ľ×Ļ": 6951,
      "Ġ×ĳ×Ļ×ª×Ķ×¡×¤×¨": 6952,
      "Ġ×¡×ŀ×¨×ĺ×ķ×ĺ×Ļ×Ŀ": 6953,
      "Ġ×Ķ×¡×ª×Ļ×¨": 6954,
      "Ġ×Ķ×¡×ª×¨×§": 6955,
      "Ġ×Ķ×¡×ª×ķ×ĳ×ĳ×ª": 6956,
      "Ġ×ŀ×Ļ×ľ×Ĳ": 6957,
      "Ġ×ŀ×Ļ×ľ×ķ×Ĳ×Ļ×Ŀ": 6958,
      "Ġ×ŀ×ķ×Ĺ×Ĳ×ª": 6959,
      "Ġ×ĺ×ķ×ķ×¡": 6960,
      "Ġ×¤×ķ×¨×Ĺ": 6961,
      "Ġ×ŀ×¡×ª×¨×§×Ļ×Ŀ": 6962,
      "Ġ×Ķ×Ĺ×ľ×Ļ×ľ": 6963,
      "Ġ×Ķ×Ĺ×ľ×ĺ×ª×Ļ": 6964,
      "Ġ×ľ×ĵ×¢×ª×ļ": 6965,
      "Ġ×Ĳ×©×ĳ×ķ×¨": 6966,
      "×©×Ĳ×¨×Ĳ": 6967,
      "Ġ×ł×Ĵ×¡": 6968,
      "Ġ×ł×ķ×Ĵ×Ķ": 6969,
      "Ġ×ł×ķ×Ĵ×ĳ": 6970,
      "Ġ×ł×ķ×Ĵ×¢×ª": 6971,
      "Ġ×Ĺ×ķ×ŀ×Ļ×Ŀ": 6972,
      "Ġ×Ĺ×©×ĳ×ķ×Ł": 6973,
      "Ġ×Ĺ×©×ĳ×ł×ķ": 6974,
      "Ġ×¡×ķ×¨×Ļ×Ĳ": 6975,
      "Ġ×ĺ×¨×ķ×Ļ×ł×Ļ": 6976,
      "Ġ×ĺ×¨×ķ×Ļ×ł×Ļ×Ŀ": 6977,
      "Ġ×ľ×Ķ×¨×ķ×¡": 6978,
      "Ġ×©×ĳ×ķ×¢×ķ×ª": 6979,
      "Ġ×ŀ×©×ª×ķ×ľ×ľ": 6980,
      "Ġ×ĵ×ķ×ł×ĵ×¡": 6981,
      "Ġ×©×ķ×ĺ×Ĳ×ª": 6982,
      "Ġ×ł×¦×¨×ª": 6983,
      "Ġ×Ļ×ŀ×ł×Ļ": 6984,
      "Ġ×Ļ×ŀ×ł×Ķ": 6985,
      "Ġ×Ļ×ŀ×Ļ×ł×Ķ": 6986,
      "Ġ×Ļ×ŀ×¦×Ĳ": 6987,
      "Ġ×Ĺ×ķ×Ļ×©": 6988,
      "Ġ×§×Ĳ×ł": 6989,
      "Ġ×§×Ĳ×¤×ķ": 6990,
      "Ġ×ĺ×ķ×¨×§×Ļ×ĸ": 6991,
      "Ġ×ĵ×ķ×ľ×§×Ļ×Ŀ": 6992,
      "Ġ×ĵ×Ļ×ĳ×¨×ª×Ļ": 6993,
      "Ġ×ª×Ľ×Ĳ×Ļ×ŀ×Ĳ": 6994,
      "Ġ×ĳ×Ľ×Ļ×ł×ķ": 6995,
      "Ġ×©×ł×Ĳ×Ļ": 6996,
      "Ġ×©×ł×Ļ×¦×ľ": 6997,
      "Ġ×ł×ķ×¢×ĸ": 6998,
      "Ġ×Ĳ×Ļ×ł×ł×Ļ": 6999,
      "Ġ×Ĺ×Ļ×ľ×ĸ×ķ×Ł": 7000,
      "Ġ×ŀ×Ĺ×©×ĳ×Ļ×Ŀ": 7001,
      "Ġ×Ķ×ª×Ĵ×ľ×Ĵ×ľ×ķ": 7002,
      "Ġ×ĵ×¨×Ľ×ª×Ļ": 7003,
      "Ġ×Ľ×ķ×¢×¡×Ļ×Ŀ": 7004,
      "Ġ×Ķ×¨×ĳ×¦×ª×Ŀ": 7005,
      "Ġ×¨×Ĵ×ľ×Ļ×Ļ×ļ": 7006,
      "×ĵ×ķ×ĵ×Ļ": 7007,
      "Ġ×Ĳ×¤×¡×¨×Ķ": 7008,
      "Ġ×ŀ×ĸ×¨×§×Ķ": 7009,
      "Ġ×Ĵ×¨×¢×¤×¡": 7010,
      "Ġ×Ķ×ķ×¦×Ļ×Ĳ×ķ": 7011,
      "Ġ×Ķ×ķ×¦×Ļ×Ĳ×Ķ": 7012,
      "Ġ×ŀ×Ļ×§×ĵ×Ĳ": 7013,
      "Ġ×©×ķ×¤×ļ": 7014,
      "×ŀ×©×ķ×ĺ×Ļ×Ŀ": 7015,
      "Ġ×Ĵ×Ļ×ł×ª": 7016,
      "Ġ×¤×Ĵ×ł×Ķ": 7017,
      "Ġ×¤×Ĵ×©×ķ": 7018,
      "Ġ×¤×Ĵ×©×ł×ķ": 7019,
      "Ġ×ŀ×ª×¨×Ĺ×¦×ª": 7020,
      "Ġ×Ķ×Ļ×Ĵ×Ļ×¢×ķ": 7021,
      "Ġ×ł×ł×Ļ×Ĺ": 7022,
      "Ġ×ł×ł×¢×Ļ×ľ": 7023,
      "Ġ×ł×¨×Ĳ×Ļ×Ŀ": 7024,
      "Ġ×ª×¦×ľ×ŀ×Ļ": 7025,
      "Ġ×ª×¦×ľ×Ļ×Ĺ×Ļ": 7026,
      "×ķ×ĳ×ķ×ĳ×ķ": 7027,
      "Ġ×ĺ×¨×ĸ×Ł": 7028,
      "Ġ×ĺ×¨×¤×ĸ": 7029,
      "Ġ×ŀ×ª×Ĳ×Ļ×ŀ×Ķ": 7030,
      "Ġ×ŀ×ª×ł×ĵ×ł×ĵ×Ļ×Ŀ": 7031,
      "Ġ×Ķ×ª×¢×ķ×¨×¨": 7032,
      "Ġ×Ķ×¢×¤×ª": 7033,
      "Ġ×ľ×ķ×ŀ×ĵ×ª": 7034,
      "Ġ×¢×¡×ķ×§": 7035,
      "Ġ×ĳ×¨×ĳ×ķ×ĸ": 7036,
      "Ġ×ĳ×¨×ĳ×ķ×¨×Ļ×Ŀ": 7037,
      "Ġ×Ļ×ķ×ł×§": 7038,
      "Ġ×ª×¨×Ĺ×¦×Ļ": 7039,
      "Ġ×ª×¨×Ĺ×ľ×ļ": 7040,
      "Ġ×Ĺ×¤×¤×Ķ": 7041,
      "Ġ×Ĺ×¦×¨": 7042,
      "Ġ×Ĺ×¦×Ļ×¨": 7043,
      "Ġ×§×¢×¨×ª": 7044,
      "Ġ×¡×Ļ×ĵ×¨×ª×Ļ": 7045,
      "Ġ×ĵ×Ĵ×ľ×Ļ×Ŀ": 7046,
      "Ġ×¤×¨×§×Ķ": 7047,
      "Ġ×¤×¨×§×ª": 7048,
      "Ġ×ŀ×ª×§×¨×ĳ": 7049,
      "Ġ×ŀ×ª×§×ł×Ļ×Ŀ": 7050,
      "Ġ×ŀ×ª×§×ĳ×ľ": 7051,
      "Ġ×ŀ×©×ĳ×¦×ª": 7052,
      "Ġ×ł×ķ×Ķ×Ĵ×ª": 7053,
      "Ġ×ĳ×ľ×ķ×ł×Ĵ×ĸ": 7054,
      "Ġ×Ķ×¤×Ľ×ª×Ŀ": 7055,
      "Ġ×¦×ł×¦×ł×ķ×ª": 7056,
      "Ġ×¢×ķ×¦×ŀ×ª": 7057,
      "Ġ×Ļ×Ļ×Ĵ×¢": 7058,
      "Ġ×Ĺ×Ľ×ķ×ŀ×Ķ": 7059,
      "Ġ×ŀ×ª×¢×ķ×¨×¨": 7060,
      "Ġ×ł×¨×ĺ×ĳ": 7061,
      "Ġ×ł×¨×ĺ×Ļ×ĳ": 7062,
      "Ġ×Ĳ×Ĳ×ĳ×Ĳ": 7063,
      "Ġ×ŀ×ķ×ł×Ĺ×ª": 7064,
      "×ľ×ľ×ľ×ľ": 7065,
      "Ġ×ĳ×ķ×ľ×¢": 7066,
      "Ġ×ĳ×ķ×ľ×ĺ": 7067,
      "Ġ×ĳ×ľ×ĳ×ķ×ľ": 7068,
      "Ġ×ĳ×ľ×ĳ×ķ×Ľ×Ļ": 7069,
      "Ġ×©×§×ľ×Ļ×Ŀ": 7070,
      "Ġ×Ļ×¤×Ĺ×ĵ": 7071,
      "Ġ×Ļ×Ļ×¡×¨×Ĳ×Ĺ": 7072,
      "Ġ×ª×Ĵ×ľ×Ļ": 7073,
      "Ġ×ª×Ĵ×¨×ĳ×Ļ": 7074,
      "Ġ×ª×Ľ×ª×¨×Ĳ×Ļ": 7075,
      "Ġ×ª×Ĵ×ĸ×Ļ×ŀ×Ļ": 7076,
      "Ġ×ª×Ĵ×ĸ×ĸ×Ļ": 7077,
      "Ġ×§×ķ×©×Ļ×ķ×ª": 7078,
      "Ġ×§×Ļ×ľ×¤×ª×Ļ": 7079,
      "Ġ×Ĵ×Ļ×ľ×ķ×Ĺ": 7080,
      "Ġ×©×ľ×©×ķ×ľ": 7081,
      "Ġ×¦×¢×§": 7082,
      "Ġ×ľ×Ķ×Ĳ×ŀ×Ļ×Ł": 7083,
      "Ġ×ĸ×ķ×ĸ×Ļ": 7084,
      "Ġ×ł×¢×ľ×ĳ×Ķ": 7085,
      "Ġ×ĳ×ł×ĵ×Ļ×ĺ×ķ×¡": 7086,
      "Ġ×Ķ×ª×ĳ×ľ×ĳ×ľ×ª": 7087,
      "Ġ×ª×Ĺ×¤×ķ×©×ķ×ª": 7088,
      "Ġ×ł×Ĺ×ľ×Ļ×ľ×ļ": 7089,
      "Ġ×Ĺ×ĳ×ķ×ĳ×ķ×ĺ": 7090,
      "Ġ×Ĳ×¨×ķ×Ĺ×ª×Ķ×ĳ×ķ×§×¨": 7091,
      "Ġ×Ĺ×ķ×ĵ×©×Ļ×Ļ×Ŀ": 7092,
      "ĠÌģ.": 7093,
      "Ġ×Ķ×¨×ĺ×Ļ×ĳ×Ķ": 7094,
      "Ġ×¢×ŀ×ķ×ĵ×Ļ×Ŀ": 7095,
      "Ġ×©×Ĳ×ĳ×Ĳ×¨": 7096,
      "Ġ×ł×Ļ×¤×Ĺ×ª×Ļ": 7097,
      "Ġ×¤×ķ×ľ×ĺ": 7098,
      "Ġ×¤×§×Ļ×ĵ×Ķ": 7099,
      "Ġ×¤×§×ķ×Ĺ×ķ×ª": 7100,
      "Ġ×¡×ĳ×ľ×§×Ķ": 7101,
      "Ġ×ª×¢×¦×ķ×Ŀ": 7102,
      "Ġ×©×Ĳ×¨×©×Ĳ×¨×Ĳ": 7103,
      "Ġ×Ĵ×¨×Ĵ×Ļ×¨×Ļ": 7104,
      "Ġ×Ķ×©×ª×ķ×ľ×ľ×ķ×ª": 7105,
      "Ġ×Ķ×ķ×ĵ×¢×Ķ": 7106,
      "Ġ×ŀ×¨×Ĺ×Ķ": 7107,
      "Ġ×ł×ķ×Ĳ×Ĳ": 7108,
      "Ġ×Ļ×Ĵ×¨×ĵ": 7109,
      "Ġ×Ļ×Ĵ×Ļ×¢×Ķ": 7110,
      "Ġ×¨×Ļ×Ľ×ŀ×Ł": 7111,
      "Ġ×Ĺ×ķ×Ľ×ŀ×Ķ": 7112,
      "Ġ×Ĺ×ķ×Ľ×ŀ×ķ×ª": 7113,
      "Ġ×§×ª×ķ×¨": 7114,
      "Ġ×§×ª×ł×ª×Ł": 7115,
      "Ġ×¡×ĳ×¨×¡×Ļ×Ŀ": 7116,
      "Ġ×¡×¨×§×ł×ķ": 7117,
      "Ġ×¡×¨×§×ª×Ļ": 7118,
      "Ġ×ĺ×Ļ×ľ×ª×Ļ": 7119,
      "Ġ×¦×ķ×ŀ×Ĺ×ª": 7120,
      "Ġ×¤×¦×¤×ķ×Ł": 7121,
      "Ġ×ľ×Ķ×¦×Ļ×¢": 7122,
      "Ġ×Ĳ×Ĺ×¤×ķ×Ĳ×ª": 7123,
      "Ġ×ĸ×ĳ×ķ×ĳ×Ļ×Ŀ": 7124,
      "Ġ×ŀ×ª×ĳ×Ļ×Ļ×©×ª": 7125,
      "Ġ×ŀ×©×ŀ×Ļ×¢×Ķ": 7126,
      "Ġ×ľ×§×¤×ķ×¢×ľ": 7127,
      "Ġ×ŀ×ĺ×ľ×¤×ł×ª": 7128,
      "Ġ×ľ×Ĺ×¤×ķ×Ĳ×ª": 7129,
      "Ġ×§×¨×ŀ×Ļ×ĺ": 7130,
      "Ġ×Ĳ×©×Ľ×ķ×ľ×Ļ×Ŀ": 7131,
      "Ġ×Ĳ×¤×¨×ķ×ĵ×Ļ×ª×Ļ": 7132,
      "Ġ×Ĵ×¨×ĳ×Ļ×ķ×ł×Ļ×Ŀ": 7133,
      "Ġ×ĵ×ķ×ĳ×ĵ×ĳ×ł×Ļ×Ŀ": 7134,
      "Ġ×ª×ĸ×Ľ×Ļ×¨×Ļ": 7135,
      "Ġ×Ķ×©×§×ª×Ļ": 7136,
      "Ġ×¤×Ļ×¨×ŀ×Ļ×ĵ×ķ×ª": 7137,
      "Ġ×ľ×Ļ×§×§": 7138,
      "Ġ×ľ×Ļ×§×§×Ķ": 7139,
      "Ġ×ľ×Ļ×ĺ×ķ": 7140,
      "Ġ×ŀ×ķ×§×ĵ×Ŀ": 7141,
      "Ġ×ŀ×Ļ×ĳ×©×ª": 7142,
      "Ġ×ŀ×Ļ×¦×ĳ": 7143,
      "Ġ×©×ķ×©×ķ×Ł": 7144,
      "Ġ×©×¢×ª×Ļ×Ļ×Ŀ": 7145,
      "Ġ×©×¢×ª×¡×Ļ×¤×ķ×¨": 7146,
      "Ġ×ª×Ļ×ĸ×Ĳ": 7147,
      "Ġ×ª×Ļ×ª×Ĳ×Ĺ": 7148,
      "Ġ×ľ×Ĳ×ł×©×Ķ×ķ": 7149,
      "Ġ×Ĺ×Ĺ×Ļ×ĳ×Ķ": 7150,
      "Ġ×Ĺ×ķ×ĳ×¨×ķ×ª": 7151,
      "Ġ×§×ķ×ĵ×ķ": 7152,
      "Ġ×¡×ķ×Ĺ×ĺ×ª": 7153,
      "Ġ×¡×Ļ×Ľ×ķ×Ļ": 7154,
      "Ġ×¦×Ļ×ĳ×ķ×¨": 7155,
      "Ġ×¦×Ļ×ĳ×ķ×¨×Ļ": 7156,
      "Ġ×¦×¨×Ĺ×ł×Ļ×ª": 7157,
      "Ġ×¤×ł×ķ×Ļ×Ķ": 7158,
      "Ġ×¤×Ļ×¦×ľ×Ķ": 7159,
      "Ġ×ŀ×ª×¤×ł×§": 7160,
      "Ġ×ŀ×Ĺ×ķ×ĳ×¨×Ļ×Ŀ": 7161,
      "Ġ×ª×§×¤×ķ×¢×ķ×ĵ": 7162,
      "Ġ×ł×ª×§×¢×ª": 7163,
      "Ġ×Ķ×ĳ×ĺ×Ĺ×ª": 7164,
      "Ġ×ŀ×ĳ×ķ×Ĵ×¨": 7165,
      "Ġ×ŀ×ĳ×ķ×Ĵ×¨×ª": 7166,
      "Ġ×¡×Ļ×¨×ª×ŀ×ł×ķ×¢": 7167,
      "Ġ×¡×Ļ×¨×ª×ŀ×©×ķ×ĺ×Ļ×Ŀ": 7168,
      "Ġ×§×©×§×ķ×©×Ļ×Ŀ": 7169,
      "Ġ×ŀ×ª×Ĺ×ľ×§×Ļ×Ŀ": 7170,
      "Ġ×¤×©×ĺ×Ļ×ĵ×Ķ": 7171,
      "Ġ×¤×©×ĺ×Ļ×ĵ×ª": 7172,
      "Ġ×Ķ×¡×ª×ķ×ĳ×ĳ×Ķ": 7173,
      "Ġ×Ķ×ķ×©×ĳ×ª": 7174,
      "Ġ×Ķ×Ļ×ĺ×Ļ×ľ×Ķ": 7175,
      "Ġ×ľ×ĸ×Ĺ×ķ×ľ": 7176,
      "Ġ×ľ×Ľ×ĳ×¡": 7177,
      "Ġ×ŀ×ĳ×¢×Ļ×¨×Ļ×Ŀ": 7178,
      "Ġ×ŀ×ĵ×ľ×Ĵ×Ļ×Ŀ": 7179,
      "Ġ×©×Ļ×¤×ķ×¦×ł×Ļ×§": 7180,
      "Ġ×ł×Ļ×ª×§": 7181,
      "Ġ×Ļ×ĸ×Ļ×ĸ": 7182,
      "Ġ×Ļ×Ĳ×ĳ×ķ×©": 7183,
      "Ġ×Ļ×¡×ª×ķ×ĳ×ĳ": 7184,
      "Ġ×ª×Ļ×¤×Ļ×ª×Ļ": 7185,
      "Ġ×ľ×Ĳ×§×Ļ×ľ×Ķ": 7186,
      "Ġ×¨×Ļ×ŀ×ķ×ĺ": 7187,
      "Ġ×ķ×ŀ×Ļ×ª×Ļ×Ĳ": 7188,
      "Ġ×Ĺ×ķ×Ĵ×Ķ": 7189,
      "Ġ×Ĺ×¨×ĳ×Ł": 7190,
      "Ġ×§×¤×¦×Ł": 7191,
      "Ġ×¡×ķ×ª×ŀ×ª": 7192,
      "Ġ×¡×Ļ×ł×¨": 7193,
      "Ġ×Ĵ×Ĳ×¨×Ĵ": 7194,
      "Ġ×ĺ×ķ×¢×ŀ×ª": 7195,
      "Ġ×ĺ×§×¡×Ļ": 7196,
      "Ġ×¦×ŀ×¨×Ĵ×¤×Ł": 7197,
      "Ġ×Ĳ×Ĺ×ķ×¨×ł×Ļ×ª": 7198,
      "Ġ×ĸ×Ļ×§×ķ×§×Ļ×Ŀ": 7199,
      "Ġ×ĸ×ķ×Ĺ×ľ": 7200,
      "Ġ×ŀ×¡×ķ×ĵ×¨×ª": 7201,
      "Ġ×ŀ×ª×Ĵ×¨×ĵ": 7202,
      "Ġ×ŀ×ª×ł×Ĵ×©": 7203,
      "Ġ×ŀ×ª×ľ×Ľ×ľ×Ľ×ķ×ª": 7204,
      "Ġ×ŀ×©×ľ×ŀ×ª": 7205,
      "Ġ×Ĳ×ł×¤×Ļ×ľ×Ĳ×ķ×ª": 7206,
      "Ġ×ĳ×Ĳ×ľ×Ĳ×ĵ×ķ×Ł": 7207,
      "Ġ×ª×ŀ×¨×ķ×¨×Ļ×Ŀ": 7208,
      "Ġ×ŀ×¦×ķ×ĳ×¨×Ĺ×ª": 7209,
      "Ġ×ŀ×ľ×ŀ×ĵ×ª": 7210,
      "Ġ×Ķ×ª×ľ×Ľ×ľ×Ľ×ķ": 7211,
      "Ġ×ŀ×ł×Ļ×Ĺ×Ļ×Ŀ": 7212,
      "Ġ×ª×Ĺ×ŀ×Ļ×¦×Ļ": 7213,
      "Ġ×ŀ×¨×Ľ×ĸ": 7214,
      "Ġ×ŀ×Ľ×ķ×ł×ª×Ķ×Ľ×ĳ×Ļ×¡×Ķ": 7215,
      "Ġ×ª×¦×ĺ×¢×¨": 7216,
      "Ġ×Ĺ×ĵ×¨×Ķ×Ĳ×ķ×Ľ×ľ": 7217,
      "Ġ×ª×ª×§×¨×ĳ×Ļ": 7218,
      "Ġ×ŀ×¤×ķ×ĸ×¨×Ļ×Ŀ": 7219,
      "Ġ×Ĵ×¨×Ĵ×¨×Ļ×Ļ×Ŀ": 7220,
      "Ġ×Ķ×ŀ×©×ļ": 7221,
      "Ġ×¦×ķ×ķ×Ĳ×¨×Ļ": 7222,
      "Ġ×Ĳ×Ľ×ĸ×¨×Ļ×ª": 7223,
      "Ġ×Ķ×ª×Ĺ×¨×ĺ×ª": 7224,
      "Ġ×ª×Ļ×Ļ×Ĳ×Ĺ×Ĳ": 7225,
      "Ġ×¤×Ĳ×ŀ×¤×Ĳ×Ŀ": 7226,
      "Ġ×Ķ×¡×Ľ×Ļ×ŀ×Ķ": 7227,
      "Ġ×ľ×Ķ×Ĺ×ľ×Ļ×ĺ×Ļ×ĺ×ķ×ľ": 7228,
      "Ġ×§×Ĳ×¤×ķ×©×Ļ×ª": 7229,
      "Ġ×§×Ĳ×¦×Ļ×§": 7230,
      "Ġ×Ĺ×Ĳ×ľ×Ĳ×ĳ×Ļ×Ŀ": 7231,
      "Ġ×ŀ×Ĳ×¤×Ĳ×¨×Ĳ×ĵ×Ĳ×ª": 7232,
      "Ġ×Ķ×§×ľ×ĺ×Ķ": 7233,
      "Ġ×Ķ×ķ×¨×Ĳ×ķ×ª": 7234,
      "Ġ×ľ×Ļ×ķ×ķ": 7235,
      "Ġ×ľ×ķ×Ľ×ľ×ķ×ļ": 7236,
      "Ġ×ŀ×ł×¡×Ļ×Ŀ": 7237,
      "Ġ×ŀ×ŀ×ª×§×Ļ×Ŀ": 7238,
      "Ġ×ŀ×Ļ×ľ×ķ×Ļ": 7239,
      "Ġ×ŀ×ł×ĵ×ł×ĵ×ª": 7240,
      "Ġ×ŀ×Ĳ×ª×Ĳ×§×Ĳ×¨": 7241,
      "×ľ×Ļ×¡×Ļ×ŀ×ķ": 7242,
      "×ĳ×©×ĳ×ĺ": 7243,
      "Ġ×ĳ×Ľ×ĳ×Ļ×ļ": 7244,
      "Ġ×ĳ×ŀ×Ļ×ķ×Ĺ×ĵ": 7245,
      "Ġ×ĳ×ĸ×ĳ×ķ×ĸ": 7246,
      "Ġ×©×ķ×ķ×Ļ": 7247,
      "×Ĺ×¦×Ĺ×Ļ": 7248,
      "Ġ×ł×ķ×ľ×ĵ×Ķ": 7249,
      "Ġ×ł×Ļ×¡×Ļ×ª": 7250,
      "Ġ×ł×Ĺ×Ļ×Ļ×Ĵ": 7251,
      "Ġ×ł×ŀ×ª×Ĺ": 7252,
      "Ġ×ł×Ļ×§×Ļ×ķ×Ł": 7253,
      "Ġ×Ļ×¢×¦×ķ×¨": 7254,
      "Ġ×Ļ×Ĵ×Ļ×Ļ×ķ×ª": 7255,
      "Ġ×Ļ×Ļ×ĵ×Ĳ×Ļ×Ĳ": 7256,
      "Ġ×Ľ×ķ×ķ×Ļ×Ķ": 7257,
      "Ġ×Ľ×Ĵ×ĵ×ķ×ľ×Ķ": 7258,
      "Ġ×ª×ķ×©×Ļ×ĳ×Ļ": 7259,
      "Ġ×ª×ĵ×¨×Ľ×Ļ": 7260,
      "Ġ×ª×ł×ª×§×Ļ": 7261,
      "Ġ×ª×ĺ×ľ×¤×ł×Ļ": 7262,
      "Ġ×ª×Ļ×ĳ×ª×ĵ×ķ×Ĳ×¨": 7263,
      "Ġ×¨×¤×ķ×Ĳ×Ķ": 7264,
      "×§×ķ×ł×ĺ×¨×ķ×ľ": 7265,
      "Ġ×ķ×Ļ×ĺ×ŀ×Ļ×ł×Ļ×Ŀ": 7266,
      "Ġ×ķ×ł×ĵ×ľ×Ļ×¡×Ļ×ŀ×ķ": 7267,
      "Ġ×Ĺ×Ļ×¡×ľ×ª": 7268,
      "Ġ×Ĺ×¤×©×Ļ": 7269,
      "Ġ×¡×Ĳ×ĳ×ķ×ª": 7270,
      "Ġ×Ĵ×Ļ×Ķ×§×ª": 7271,
      "Ġ×Ĵ×ł×Ĵ×Ļ": 7272,
      "Ġ×ĺ×¤×©×ķ×Ł": 7273,
      "Ġ×¦×Ļ×ķ×ķ×Ķ": 7274,
      "Ġ×ŀ×Ļ×ķ×Ĺ×ĵ×Ļ×Ŀ": 7275,
      "Ġ×ĵ×ķ×Ĵ×ŀ×Ķ": 7276,
      "Ġ×ĵ×¨×§×ķ×Ł": 7277,
      "Ġ×¤×ł×§×Ļ×§": 7278,
      "Ġ×ľ×Ķ×Ļ×¤×¦×¢": 7279,
      "Ġ×ľ×Ķ×¨×Ĺ×Ļ×§": 7280,
      "Ġ×ľ×Ķ×¨×ĵ×Ŀ": 7281,
      "Ġ×¢×ķ×©×Ĳ×¤×Ļ×ª×Ĳ": 7282,
      "Ġ×ĸ×¨×ĳ×ķ×ĳ×Ļ×ª": 7283,
      "Ġ×ĸ×¢×ĺ×ķ×ĺ×Ķ": 7284,
      "Ġ×ĸ×Ĵ×ķ×Ĵ×Ļ×ª": 7285,
      "Ġ×ŀ×ª×Ĵ×ķ×¨×¨": 7286,
      "Ġ×ŀ×ª×Ļ×©×ĳ×ª": 7287,
      "Ġ×ŀ×ª×Ĵ×¨×ĵ×ª": 7288,
      "Ġ×ŀ×ª×¤×ľ×Ĳ×ª": 7289,
      "Ġ×ŀ×ª×ĳ×ľ×ĳ×ľ×ª": 7290,
      "Ġ×ŀ×ª×¨×©×ŀ×ª": 7291,
      "Ġ×ŀ×©×Ĺ×Ļ×ľ×Ļ×Ŀ": 7292,
      "Ġ×Ĳ×ł×ĵ×Ļ×ĳ×Ļ×ĵ×ķ×ľ×Ļ×Ŀ": 7293,
      "Ġ×©×ŀ×¤×ł×ĸ×Ķ": 7294,
      "Ġ×ŀ×§×¨×§×¨": 7295,
      "Ġ×Ĳ×¨×Ĵ×ŀ×Ł": 7296,
      "Ġ×Ĳ×¨×ķ×ł×ĳ×Ĵ×ĵ×Ļ×Ŀ": 7297,
      "Ġ×¨×Ĳ×Ľ×¤×Ĳ×§×Ĳ×ª": 7298,
      "Ġ×ĳ×Ĳ×ł×ª×Ĳ×Ł": 7299,
      "Ġ×ŀ×¦×Ļ×ŀ×Ĳ×Ĺ×ķ×¨×Ļ": 7300,
      "Ġ×Ķ×ª×§×ĵ×ŀ×ķ×ª": 7301,
      "Ġ×Ķ×ª×Ľ×ķ×¤×¤×ł×ķ": 7302,
      "Ġ×ł×§×ķ×ĵ×ª×Ĺ×Ł": 7303,
      "Ġ×ŀ×Ĳ×¢×Ĳ×¢×Ĳ×Ķ": 7304,
      "Ġ×ľ×Ķ×ª×¢×¡×§": 7305,
      "Ġ×ª×Ľ×¡×ĳ×ª×Ĳ": 7306,
      "Ġ×ª×ª×ĳ×ľ×ĳ×ľ×Ļ": 7307,
      "Ġ×ª×ª×¨×Ĵ×ĸ×Ļ": 7308,
      "Ġ×ŀ×ĵ×§×ĵ×§": 7309,
      "Ġ×¢×ĺ×ľ×ŀ×ķ×¦×Ļ×Ĳ": 7310,
      "Ġ×Ĳ×¨×ķ×Ĺ×ª×ŀ×ł×Ĺ×Ķ": 7311,
      "Ġ×¡×¤×ķ×¨×ª×ķ×Ļ×Ł": 7312,
      "Ġ×Ĵ×Ĳ×¢×Ĳ×ĸ": 7313,
      "Ġ×Ķ×¦×ĺ×ł×ł×ª": 7314,
      "Ġ×ŀ×Ļ×§×ĵ×Ĳ×Ĺ": 7315,
      "Ġ×©×Ļ×¤×ķ×¦×ł×Ļ×§×Ļ×ª": 7316
    },
    "merges": [
      "Ġ ×",
      "× ķ",
      "× Ļ",
      "× Ķ",
      "×ķ ×",
      "Ġ× Ĳ",
      "×Ļ ×",
      "Ġ ?",
      "Ġ× Ķ",
      "× ª",
      "Ġ× ľ",
      "Ġ× ŀ",
      "Ġ .",
      "Ġ ,",
      "× ¨",
      "× Ĳ",
      "× ľ",
      "Ġ×Ĳ ×ª",
      "× ©",
      "× ĳ",
      "Ġ× ¢",
      "Ġ×ŀ ×Ķ",
      "× ł",
      "Ġ× ĳ",
      "× Ľ",
      "ĸ ×Ķ",
      "Ġ× ©",
      "× Ĺ",
      "Ġ× ł",
      "Ġ× Ļ",
      "Ġ× ĸ×Ķ",
      "Ġ× Ľ",
      "×Ļ× Ŀ",
      "Ġ× ª",
      "Ġ×ľ ×Ĳ",
      "Ġ× ¨",
      "× ¢",
      "× ŀ",
      "× ¤",
      "× ĵ",
      "× Ĵ",
      "×ķ× ¨",
      "× Ł",
      "Ġ×Ĳ ×Ļ×",
      "×ķ× ľ",
      "× §",
      "× Ŀ",
      "×ķ× Ł",
      "×ķ× ĵ",
      "×ķ× ª",
      "Ġ× ķ",
      "Ġ×¨ ×ķ×",
      "× ¡",
      "Ġ× Ĺ",
      "¦ ×Ķ",
      "× ļ",
      "Ġ× §",
      "×ķ× Ĳ",
      "¤ ×Ķ",
      "Ġ×¨×ķ× ¦×Ķ",
      "Ġ× ¡",
      "Ġ× Ĵ",
      "×ł ×Ļ",
      "Ġ×Ĳ×ª ×Ķ",
      "Ġ×ł ×Ľ",
      "Ġ×ł×Ľ ×ķ×Ł",
      "× ĸ",
      "×ķ× ĳ",
      "×¨ ×Ļ",
      "×Ļ× Ĳ",
      "Ġ×© ×ľ",
      "× ¦",
      "Ġ× ĺ",
      "Ġ×Ĳ ×ł×Ļ",
      "× ĺ",
      "×ķ× ©",
      "Ġ×Ķ ×Ĵ",
      "Ġ×Ļ ×©",
      "Ġ× ¦",
      "Ġ×¢ ×ľ",
      "×Ļ× ª",
      "Ġ×Ĳ ×ĳ",
      "×Ļ× ¨",
      "Ġ×ľ ×ļ",
      "Ġ×Ķ×Ĵ ×¨×Ļ",
      "×Ļ ×ķ",
      "×ł ×Ķ",
      "Ġ×ŀ ×Ļ",
      "Ġ× ĵ",
      "Ġ×Ĳ×Ļ× ¤×Ķ",
      "Ġ× ¤",
      "Ġ×Ľ ×Ł",
      "Ġ×Ķ ×ķ×Ĳ",
      "Ġ×¢ ×ķ×ĵ",
      "Ġ×¢ ×Ľ",
      "×© ×Ļ×ķ",
      "Ġ×¢×Ľ ×©×Ļ×ķ",
      "Ġ×ľ ×Ķ",
      "Ġ× ¤×Ķ",
      "Ġ×Ĳ ×ķ×",
      "Ġ×¢ ×ķ×©",
      "×ķ× Ŀ",
      "Ġ×Ĳ ×ĸ",
      "×Ļ× ¤",
      "Ġ×Ķ ×ł×Ķ",
      "Ġ×ĳ ×ķ×Ĳ",
      "Ġ×¢×ķ×© ×Ķ",
      "×ŀ ×Ķ",
      "×ķ× §",
      "×Ļ× §",
      "×ķ× ¤",
      "×Ļ ×Ķ",
      "×ĳ ×ª",
      "×¨ ×Ĳ",
      "Ġ×ľ ×Ļ",
      "×Ļ× ĵ",
      "Ġ×ĺ ×ķ×ĳ",
      "Ġ×Ĳ ×ķ×ª",
      "×¤ ×¨",
      "×© ×Ķ",
      "Ġ×ľ ×Ļ×Ĳ",
      "Ġ×ľ×Ļ×Ĳ ×ķ×¨",
      "Ġ×Ĳ×ĳ ×ľ",
      "×ł ×ķ",
      "Ġ×ľ ×©",
      "×ĳ ×¨",
      "Ġ×Ĳ ×ķ",
      "Ġ×Ĳ ×Ĺ",
      "×Ļ× ľ",
      "×Ļ× ł",
      "×Ļ ×Ļ×Ŀ",
      "Ġ× ĸ",
      "Ġ×¢ ×Ŀ",
      "Ġ×Ĳ×Ļ× ĸ×Ķ",
      "×ķ× ł",
      "×Ĺ ×Ĺ",
      "Ġ×Ĺ ×Ĺ×Ĺ",
      "×Ľ ×ľ",
      "×¨ ×Ķ",
      "×¢ ×ª",
      "ŀ ×Ĳ",
      "Ġ×Ĳ×Ļ× ŀ×Ĳ",
      "×¨ ×ª",
      "Ġ×Ĵ ×Ŀ",
      "Ġ×Ľ ×Ĳ",
      "×Ľ ×ķ×ľ",
      "Ġ×ľ ×ŀ×Ķ",
      "×¤ ×ª",
      "Ġ×ĳ×ķ×Ĳ ×Ļ",
      "×¤ ×Ķ",
      "×ķ× Ĺ",
      "×ķ× Ľ",
      "Ġ×Ĳ×ĳ ×Ĳ",
      "×ķ× ŀ",
      "Ġ×Ľ×Ĳ ×Ł",
      "Ġ×Ĳ ×Ķ",
      "Ġ×Ķ ×Ļ×Ĳ",
      "×ķ× ¡",
      "×¨ ×Ļ×",
      "×¢ ×©",
      "Ġ×Ľ ×ķ×ľ",
      "×ľ ×Ķ",
      "×Ľ ×Ķ",
      "× ĸ×Ķ",
      "×Ĳ ×ª",
      "×Ĳ ×ķ×ĵ",
      "×ķ×ľ ×Ļ",
      "Ġ×ª ×©",
      "Ġ×ª ×¡",
      "×ķ×¤ ×Ļ",
      "×ĵ ×¨",
      "×ķ× ĸ",
      "×ĳ ×¢",
      "Ġ×ľ ×ķ",
      "Ġ×ŀ ×¡",
      "Ġ×Ļ ×ķ×ĵ",
      "×ķ×ĵ ×Ķ",
      "×Ĺ ×ª",
      "Ġ×ŀ ×ª",
      "Ġ×Ĳ ×ķ×ľ×Ļ",
      "×Ĵ ×Ļ×ĵ",
      "×ĳ ×Ļ×Ĳ",
      "Ġ×Ĳ ×ķ×¨",
      "Ġ×ŀ ×©",
      "Ġ×Ĳ×Ļ× Ł",
      "Ġ×Ļ ×ľ",
      "Ġ !",
      "×ķ× ļ",
      "×ľ ×Ļ",
      "×ķ× Ĵ",
      "×Ļ× ĳ",
      "Ġ×Ļ ×ķ×¤×Ļ",
      "×ľ ×ª",
      "Ġ×Ĳ ×ł",
      "Ġ×¦ ×¨×Ļ×",
      "Ġ×Ĳ×Ļ× ļ",
      "Ġ×ŀ ×Ľ",
      "×Ļ× ¡",
      "Ġ×Ļ×ľ ×ĵ",
      "Ġ×ľ×Ļ×Ĳ×ķ×¨ ×Ļ",
      "Ġ×© ×ŀ",
      "Ġ×¢ ×©",
      "Ġ×¨×ķ× Ĳ",
      "Ġ×Ĳ ×ŀ",
      "×Ĵ ×ľ",
      "Ġ×ł ×¢",
      "Ġ×Ķ ×Ļ",
      "×ķ× ¢",
      "Ġ×Ļ×ķ×ĵ ×¢×ª",
      "×Ľ ×ª",
      "Ġ×¡ ×¤×¨",
      "×Ļ× ĺ",
      "×Ļ× ŀ",
      "Ġ×Ļ ×ĵ",
      "Ġ×ŀ ×§",
      "Ġ×Ĳ×ķ× ĺ",
      "Ġ×ł ×©",
      "×Ļ× ¦",
      "×Ĺ ×§",
      "Ġ×ľ ×¢×©",
      "Ġ×ľ×¢×© ×ķ×ª",
      "Ġ×ľ ×ĳ",
      "×¤ ×©",
      "Ġ×Ļ ×¤×Ķ",
      "×ł ×ĵ",
      "Ġ×¨×ķ×Ĳ ×Ķ",
      "×Ļ× Ł",
      "×Ļ×¤ ×ķ×¨",
      "Ġ×ª ×¨×Ĳ",
      "Ġ×ĺ ×Ļ",
      "Ġ×Ĳ ×¨",
      "×ľ ×ĳ",
      "Ġ×¨ ×Ĳ",
      "Ġ×¡ ×ĳ×ª",
      "Ġ×ª ×Ĵ×Ļ×ĵ",
      "Ġ×Ľ ×Ļ",
      "Ġ×¦ ×ĳ×¢",
      "×ł ×¡",
      "Ġ×¡×ĳ×ª ×Ĳ",
      "×¨ ×ĳ",
      "Ġ×Ĳ×ķ×ª ×ķ",
      "Ġ×§ ×¨×Ķ",
      "Ġ×ŀ ×Ĳ×ķ×ĵ",
      "×¦ ×Ļ",
      "Ġ×§ ×ĺ",
      "Ġ×Ĳ×Ĺ ×¨",
      "Ġ×Ĳ×ķ×ĺ ×ķ",
      "Ġ×Ĺ ×ŀ",
      "Ġ×Ĳ×ķ ×Ļ",
      "Ġ×Ľ ×Ľ×Ķ",
      "Ġ×ĺ×Ļ ×Ļ×¤",
      "×Ĺ ×ł×ķ",
      "×¢ ×Ŀ",
      "Ġ×ĳ ×Ĳ",
      "Ġ×Ĳ×ł ×Ĺ×ł×ķ",
      "×Ļ ×ķ×ª",
      "Ġ×Ĵ ×ĵ",
      "Ġ×©×ľ ×ļ",
      "Ġ×Ĳ×ķ× Ľ",
      "Ġ×ľ×Ĳ ×Ł",
      "×¨ ×§",
      "×ª ×Ľ×ľ",
      "Ġ×Ķ ×ķ×ľ",
      "×¡ ×ĵ×¨",
      "Ġ×Ķ ×Ŀ",
      "Ġ×Ļ ×Ľ×ķ×ľ",
      "Ġ×¢×© ×Ļ×ª",
      "Ġ×Ĵ×ĵ ×ķ×ľ",
      "×ľ ×ķ×Ł",
      "×ľ ×ļ",
      "Ġ×ĳ ×ª",
      "Ġ×ŀ ×Ĺ",
      "×ķ× ¦",
      "Ġ×ľ×Ĳ ×ķ×¨",
      "Ġ×¦×¨×Ļ× ļ",
      "Ġ×Ķ×Ļ ×ķ×Ŀ",
      "Ġ×ª ×ŀ",
      "Ġ×Ĵ ×ŀ",
      "×Ļ× Ĺ",
      "×Ĵ ×ķ×¨",
      "×Ĺ ×Ļ",
      "Ġ×Ĳ ×ľ",
      "Ġ×© ×Ŀ",
      "Ġ×ª×¨×Ĳ ×Ļ",
      "Ġ×ľ ×§",
      "Ġ×§ ×ķ×¨",
      "Ġ×¡ ×Ļ×¤×ķ×¨",
      "Ġ×ŀ ×¦",
      "Ġ×Ľ ×ĳ×¨",
      "Ġ×ľ ×ŀ",
      "Ġ×¡ ×ĳ",
      "×¦ ×ª",
      "Ġ×Ķ×Ĵ ×¨",
      "Ġ×Ĳ×ķ× ŀ",
      "Ġ×ĳ ×¡×ĵ×¨",
      "Ġ×Ĵ ×Ł",
      "Ġ×¨ ×§",
      "×ķ×ł ×Ķ",
      "Ġ×ľ×© ×Ļ×Ŀ",
      "×¦×Ļ ×Ļ×¨",
      "×Ĳ ×Ļ×Ŀ",
      "Ġ×Ķ ×Ļ×Ķ",
      "×Ĵ ×¢",
      "Ġ×Ĳ ×Ŀ",
      "Ġ×ł ×Ļ×¦",
      "Ġ×Ĳ×ķ×ª ×ļ",
      "Ġ×ľ ×¡",
      "×Ļ×ł ×Ķ",
      "×¤ ×¢×Ŀ",
      "Ľ ×Ķ",
      "Ġ×Ĳ×ķ×Ľ ×ľ",
      "×ķ×ĳ ×Ļ",
      "Ġ×ľ×Ĳ ×Ľ×ķ×ľ",
      "Ġ×ł ×ķ",
      "Ġ×© ×ł×Ļ",
      "×ĳ ×§",
      "Ġ×ł ×¤",
      "Ġ×Ļ ×Ķ",
      "×Ļ×§ ×Ķ",
      "Ġ×ĺ ×ľ",
      "×ł ×Ļ×Ŀ",
      "Ġ×ĳ ×Ļ×ª",
      "×¤×© ×¨",
      "×¤ ×¨×Ļ",
      "Ġ×¨×Ĳ ×©",
      "Ġ×ĳ×ª ×ķ×ļ",
      "×Ľ ×ļ",
      "×Ļ× Ĵ",
      "×¨ ×ķ×§",
      "×ĵ ×ĳ×¨",
      "×¢ ×Ļ×Ŀ",
      "×ĵ ×ª",
      "×¡ ×Ķ",
      "×ŀ ×Ĳ×ķ×ĵ",
      "Ġ×ľ×Ĳ×ķ×¨ ×Ļ",
      "Ġ×Ľ ×ŀ",
      "Ġ×¨ ×Ĵ×¢",
      "Ġ×¨ ×¦",
      "Ġ×Ĳ ×ĵ",
      "×¨ ×Ĺ",
      "×ķ×Ľ ×Ķ",
      "×ł ×ª",
      "×¨ ×Ļ×Ŀ",
      "Ġ×ŀ ×Ĵ",
      "×ķ×¨ ×Ķ",
      "×ķ×ĳ ×Ķ",
      "Ġ×ĳ ×ł×ĵ",
      "×Ļ×¨ ×Ļ",
      "Ġ×ª×Ĵ×Ļ×ĵ ×Ļ",
      "Ġ×ª ×ĳ×Ļ×Ĳ",
      "Ġ×Ĵ ×ľ",
      "Ġ×ł×¢ ×ľ",
      "Ġ×ŀ ×Ļ×Ŀ",
      "Ġ×ŀ×© ×Ĺ×§",
      "×Ļ×ĺ ×Ķ",
      "Ġ×ª ×§",
      "Ġ×Ĳ×Ĺ ×ĵ",
      "Ġ×¡×ĳ ×Ĳ",
      "Ġ×ĸ ×Ĳ×ª",
      "Ġ×ĳ ×ĺ",
      "Ġ×Ľ ×ĵ",
      "×ľ ×Ľ×ª",
      "Ġ×Ľ ×Ļ×¡",
      "Ġ×Ĳ ×¡",
      "×ĺ ×Ķ",
      "Ġ×Ļ×Ķ ×Ļ×Ķ",
      "Ġ×ĳ×ł×ĵ ×Ļ",
      "×Ļ× ¢",
      "×¨×Ĳ ×Ķ",
      "Ġ×¨ ×Ĵ×ľ",
      "Ġ×Ĺ ×ķ×©",
      "Ġ×Ĵ ×ĳ",
      "Ġ×ª×¡ ×ª×Ľ×ľ",
      "Ġ×Ĺ ×ª",
      "Ġ×§ ×¦×ª",
      "Ġ×Ľ×ŀ ×ķ",
      "×©×Ķ ×ķ",
      "×Ļ×ŀ ×Ļ",
      "Ġ×ŀ ×ľ",
      "Ġ×ĵ ×ķ×ĳ×Ļ",
      "×¨×ĳ ×Ķ",
      "Ġ×ł×¤ ×ľ",
      "Ġ×Ĳ ×Ļ",
      "Ġ×Ļ ×ķ×ª",
      "Ġ×ŀ ×©×Ķ×ķ",
      "×¨×Ĳ ×ķ×ª",
      "Ġ×Ļ×ľ×ĵ ×Ķ",
      "×ķ ×ķ×ĸ",
      "Ġ×Ķ ×ª",
      "Ġ×ª ×¢",
      "Ġ×§×ĺ ×Ł",
      "Ġ×ŀ ×ĺ",
      "Ġ×ª×¡ ×¤×¨×Ļ",
      "×Ļ×ľ ×Ķ",
      "Ġ×ľ×ĳ ×ĵ",
      "Ġ×ľ ×Ĺ",
      "Ġ×Ĺ ×ķ×ľ",
      "×ĸ ×Ĳ×ª",
      "Ġ×ĵ ×Ļ",
      "Ġ×ľ ×¤×ª",
      "Ġ×ľ×¤×ª ×ķ×Ĺ",
      "Ġ×ł ×Ļ×¨",
      "×ķ× ĺ",
      "Ġ×© ×Ļ×¨",
      "×Ĺ ×Ł",
      "Ġ×ł ×§",
      "×Ĵ ×ŀ",
      "×ĳ ×Ļ",
      "×Ĺ ×ķ×ľ",
      "Ġ×§×ķ×¨ ×Ĳ×Ļ×Ŀ",
      "Ġ×ĳ ×ķ×Ľ×Ķ",
      "Ġ×¤ ×ª",
      "Ġ×Ĳ×ķ ×Ķ",
      "Ġ×ŀ ×ł",
      "×§ ×ª",
      "Ġ×© ×ŀ×Ķ",
      "Ġ×Ĳ×Ļ× ©",
      "Ġ×Ľ×Ļ×¡ ×Ĳ",
      "Ġ×ª ×Ĳ",
      "Ġ×ª ×Ĺ",
      "×ķ×ĵ ×Ŀ",
      "Ġ×Ĵ ×ķ×Ĵ",
      "×Ļ× ©",
      "Ġ×ĳ ×ľ×ķ×Ł",
      "×ķ×ľ ×Ĺ×Ł",
      "Ġ×Ĺ×ŀ ×ķ×ĵ×Ķ",
      "Ġ×© ×ķ×ľ×Ĺ×Ł",
      "×ķ×¨ ×Ļ×ĵ",
      "Ġ×¢×ķ×© ×Ļ×Ŀ",
      "×Ļ× Ľ",
      "Ġ×Ĺ ×¨",
      "Ġ×¨×¦ ×¤×Ķ",
      "Ġ×Ľ ×ª",
      "Ġ×Ľ ×ķ×Ĳ",
      "Ġ×§ ×ķ×ĵ×Ŀ",
      "Ġ×Ļ ×ķ×©",
      "Ġ×Ļ×Ľ×ķ×ľ ×Ķ",
      "Ġ×© ×ķ×ŀ",
      "×ŀ ×ª",
      "Ġ×§ ×Ĺ×Ļ",
      "×ĸ ×ķ×¨",
      "×Ļ×ł ×ķ×§",
      "×¤×ª ×Ļ",
      "Ġ×ł×Ļ×¦ ×Ł",
      "Ġ×Ļ×ķ×ª ×¨",
      "Ġ×ŀ ×Ļ×ĺ×Ķ",
      "Ġ×§ ×¨",
      "Ġ×ľ ×ł×ķ",
      "×© ×Ļ×Ŀ",
      "Ġ×ł ×ķ×¡",
      "Ġ×¡ ×¤×ª×Ļ",
      "Ġ×ľ ×ľ×Ľ×ª",
      "Ġ×¦ ×Ļ",
      "×Ļ×ª ×Ķ",
      "Ġ×¢ ×ķ×Ĵ",
      "Ġ×ł ×¡",
      "Ġ×ĵ ×ĳ×¨",
      "Ġ×ľ×© ×ķ×Ł",
      "Ġ×ĵ ×ķ×ĵ×Ķ",
      "Ġ×¤ ×¨",
      "Ġ×© ×¢",
      "×ķ×ŀ ×Ķ",
      "Ġ×ŀ ×¨",
      "Ġ×ª×ĳ×Ļ×Ĳ ×Ļ",
      "×ĵ ×ľ",
      "Ġ×Ĺ ×ĸ",
      "Ġ×ŀ×§ ×ķ×Ŀ",
      "Ġ×Ľ×ĵ ×ķ×¨",
      "Ġ×Ķ ×Ĳ",
      "Ġ×Ķ ×¨×ĳ×Ķ",
      "×ľ ×Ĳ",
      "Ġ×ł ×ª",
      "Ġ×Ľ ×©",
      "Ġ×Ľ ×Ĺ×ķ×ľ",
      "×¦ ×Ĳ",
      "Ġ×Ĺ×¨ ×ķ×ĸ",
      "Ġ×ŀ ×Ĳ",
      "×© ×ª",
      "Ġ×ľ ×¢",
      "Ġ×ĺ ×¢×Ļ×Ŀ",
      "Ġ×ľ ×¦×Ļ×Ļ×¨",
      "Ġ×¢ ×Ļ×ł",
      "×¤ ×ķ×Ł",
      "Ġ×Ļ ×ª",
      "×ķ ×Ķ",
      "Ġ×Ľ×ķ×Ĳ ×ĳ",
      "Ġ×¢×Ļ×ł ×Ļ×Ļ×Ŀ",
      "Ġ×ĳ ×¨",
      "Ġ×ĳ ×ķ×ĳ×Ķ",
      "Ġ×Ľ ×¨",
      "×Ļ×ł ×ķ",
      "×Ľ ×ĳ",
      "Ġ×Ĳ×ĵ ×ķ×Ŀ",
      "×¨ ×ł×ķ",
      "Ġ×ĳ ×§",
      "×ĵ ×Ļ",
      "Ġ×§ ×ķ×¤",
      "Ġ×Ķ ×ĳ",
      "×Ļ×¤ ×Ļ",
      "Ġ×Ĳ×ŀ ×¨×ª",
      "Ġ×ľ ×¨×Ĳ×ķ×ª",
      "×Ļ×¨ ×Ķ",
      "Ġ×¦×Ļ ×ķ×¨",
      "× ¦×Ķ",
      "Ġ×ª ×¢×©",
      "Ġ×©×ľ ×Ļ",
      "×Ļ×ĵ ×Ķ",
      "×ķ×¦ ×Ļ×Ĳ",
      "Ġ×ª×ŀ ×ķ×ł×Ķ",
      "Ġ×Ĺ×ķ×© ×ĳ×ª",
      "×Ľ ×Ļ×Ŀ",
      "Ġ×Ľ ×ŀ×Ķ",
      "×ŀ ×¢",
      "Ġ×Ĳ×Ļ× ª",
      "Ġ×ª×¢×© ×Ļ",
      "Ġ×ĸ×Ķ ×ķ",
      "×Ĳ ×¤×©×¨",
      "×ª ×Ļ",
      "Ġ×ŀ ×¢",
      "Ġ×Ĳ×ķ×ª ×Ķ",
      "Ġ×ª ×¨",
      "Ġ×ª ×¤",
      "Ġ×Ĳ ×Ľ×ľ",
      "Ġ×Ļ ×¨×ķ×§",
      "Ġ×ª ×Ļ×ł×ķ×§",
      "Ġ×ĺ×ľ ×ķ×ķ×ĸ",
      "Ġ×ĺ×ľ×ķ×ķ×ĸ ×Ļ×Ķ",
      "Ġ×§ ×ľ",
      "Ġ×ĵ ×ľ×ª",
      "×§ ×ľ",
      "Ġ×§ ×ķ×ĳ",
      "×ł ×ķ×ª",
      "Ġ×ł ×ŀ",
      "Ġ×Ķ×ķ×ľ ×Ľ×ª",
      "Ġ×¡ ×ķ×¡",
      "×¤×ª ×Ĺ",
      "Ġ×¢ ×Ĵ",
      "Ġ×¢ ×©×Ķ",
      "Ġ×ª ×ķ×ĵ×Ķ",
      "Ġ×Ļ×ĵ ×Ļ×Ļ×Ŀ",
      "Ġ×ª ×ĳ",
      "×¢ ×ľ×Ķ",
      "Ġ×Ĳ×Ĺ ×ª",
      "Ġ×Ĳ×ķ×¨ ×ľ×Ļ",
      "Ġ× ¦×Ķ",
      "Ġ×ĸ ×ķ",
      "Ġ×ŀ×§ ×ľ",
      "×Ľ ×Ļ",
      "Ġ×ľ×Ķ ×ĳ×Ļ×Ĳ",
      "Ġ×Ĺ×ª ×ķ×ľ",
      "×ł ×ĳ",
      "Ġ×¦×¨×Ļ× Ľ×Ķ",
      "Ġ×ľ×ŀ ×¢×ľ×Ķ",
      "Ġ×ľ×© ×ĳ×ª",
      "Ġ×Ĵ×ŀ ×¨×ª",
      "×Ļ× ļ",
      "×§ ×Ļ",
      "×ķ×ĳ ×ĳ",
      "Ġ×Ĳ×ķ×ŀ ×¨",
      "Ġ×Ĳ×ķ×ŀ ×¨×ª",
      "Ġ×ł×¢ ×©×Ķ",
      "Ġ×Ķ ×ľ×ļ",
      "×Ĺ ×ķ×¨",
      "Ġ×ł ×¨",
      "Ġ×ł ×ľ×ļ",
      "×¢ ×¦",
      "Ġ×ª×© ×Ļ×Ŀ",
      "Ġ×ľ×¡ ×¤×¨",
      "×Ĳ ×ĳ",
      "×ł ×Ĵ",
      "Ġ×¢ ×¦",
      "Ġ×ĳ ×ĳ×§",
      "Ġ×ł ×Ĺ",
      "Ġ×Ľ ×ľ×ĳ",
      "Ġ×ª ×Ķ",
      "Ġ×ł ×¨×Ĳ×Ķ",
      "×¦ ×ľ",
      "Ġ×ŀ×Ľ ×ķ×ł",
      "Ġ×ĳ×ĳ×§ ×©×Ķ",
      "Ġ×¢ ×ĵ",
      "×¡ ×ª",
      "Ġ×ª×Ĳ ×Ľ×ľ",
      "Ġ×ĳ ×ł",
      "×¦ ×¢",
      "Ġ×Ĳ×Ĺ ×¨×Ļ",
      "Ġ×ŀ ×ĵ×ĳ×¨",
      "Ġ×ª×¡×ª×Ľ×ľ ×Ļ",
      "×Ļ× ¤×Ķ",
      "×Ľ ×ķ",
      "×ķ×ł ×Ļ×Ŀ",
      "Ġ×Ĵ×ĵ×ķ×ľ ×Ķ",
      "Ġ×ł×¢×ľ ×Ļ×Ļ×Ŀ",
      "×Ļ× ¦×Ķ",
      "Ġ×Ķ ×Ľ×ķ×ľ",
      "×© ×ĳ",
      "×ł×Ļ ×Ļ×Ŀ",
      "Ġ×ľ×¡ ×Ĵ×ķ×¨",
      "Ġ×Ĺ ×ľ",
      "Ġ×ľ×Ķ ×ª",
      "Ġ×ŀ ×ĳ",
      "×ķ×§ ×Ļ",
      "Ġ×ĳ×Ĳ ×ŀ×ª",
      "Ġ×Ĳ ×¤×©×¨",
      "Ġ×©×ķ×ŀ ×¢×ª",
      "Ġ×§×ķ×¤ ×¡×Ķ",
      "Ġ×¡ ×Ĵ",
      "Ġ×Ĳ×ķ×ª ×Ŀ",
      "×Ļ×ľ ×Ļ",
      "Ġ×Ķ×ķ×ľ ×Ľ×Ļ×Ŀ",
      "×¨×Ļ ×Ķ",
      "Ġ×©×ľ ×ķ",
      "Ġ×ª×© ×Ļ×ŀ×Ļ",
      "Ġ×Ļ×ķ×© ×ĳ",
      "Ġ×Ļ ×¢",
      "Ġ×ª ×Ľ",
      "×¤ ×Ļ×§",
      "Ġ×Ĵ×ŀ ×¨×ł×ķ",
      "Ġ×Ķ ×ľ",
      "Ġ×ľ×ŀ ×ĺ×Ķ",
      "Ġ×Ĺ ×Ŀ",
      "Ġ×Ķ×ķ×ľ ×ļ",
      "Ġ×Ĳ×¡ ×ķ×¨",
      "Ġ×© ×ĺ",
      "Ġ×ª ×Ļ×§",
      "Ġ×ŀ×¡ ×¤×¨",
      "×ķ×¢ ×Ļ×Ŀ",
      "Ġ×ŀ ×ķ×ĸ",
      "Ġ×ŀ ×Ļ×ª",
      "Ġ×¦ ×ľ",
      "Ġ×ĸ ×¨×§",
      "×Ļ ×ķ×¤×Ļ",
      "Ġ×© ×¤",
      "Ġ×Ľ ×¤",
      "Ġ×ľ×© ×Ĺ×§",
      "Ġ×Ļ×ľ×ĵ ×Ļ×Ŀ",
      "Ġ×¦×ĳ×¢ ×Ļ×Ŀ",
      "Ġ×¢ ×Ļ×Ĵ",
      "Ġ×Ľ×ķ×ľ ×Ŀ",
      "Ġ×ŀ×¡ ×¤×Ļ×§",
      "Ġ×Ļ×ķ×ĵ ×¢",
      "Ġ×Ĺ×ŀ ×ķ×ĵ",
      "Ġ×ľ×§ ×Ĺ×ª",
      "Ġ×¦×Ķ ×ķ×ĳ",
      "×ķ ×Ļ×¨",
      "Ġ×¦ ×Ļ×¤×ķ×¨",
      "Ġ×Ĵ×ľ ×Ļ×ĵ×Ķ",
      "Ġ×© ×Ĳ",
      "×Ĺ ×Ķ",
      "Ġ×ª ×¦",
      "Ġ×¡ ×ľ",
      "Ġ×¢×Ļ×Ĵ ×ķ×ľ",
      "×ĵ ×Ļ×Ŀ",
      "Ġ×ŀ×Ľ ×ł×¡",
      "Ġ×Ĳ×ª ×Ł",
      "×© ×Ļ",
      "Ġ×© ×§",
      "Ġ×Ľ ×ķ×¡",
      "Ġ×§ ×Ĺ",
      "Ġ×ĳ×ĺ ×Ł",
      "Ġ×ł×© ×Ļ×Ŀ",
      "Ġ×§×ĺ ×ł×Ķ",
      "Ġ×ĳ×§ ×ĳ",
      "Ġ×ľ×Ķ ×Ļ×ķ×ª",
      "Ġ×Ĳ×ŀ ×¨",
      "Ġ×ĳ ×Ĺ",
      "Ġ×ª ×ł",
      "×ķ×ł ×ķ×ª",
      "Ġ×Ĳ ×¤",
      "Ġ×Ľ ×ĳ",
      "×ķ×¨ ×Ĳ",
      "Ġ×Ĺ ×ľ×ķ×Ł",
      "Ġ×Ĳ×ķ×ª ×Ļ",
      "Ġ×ĸ ×ķ×Ľ",
      "×Ļ× ĸ×Ķ",
      "Ġ×ľ ×ķ×Ĺ",
      "Ġ×ŀ ×ķ×ª",
      "Ġ×Ĳ×ŀ ×ĳ",
      "×¨ ×ķ×ª",
      "Ġ×ĳ ×ľ",
      "Ġ×Ľ ×ĸ×Ķ",
      "Ġ×Ĳ×ķ× ¤",
      "Ġ×Ĳ×ķ×Ľ ×ľ×ª",
      "×ª ×Ļ×Ļ×Ŀ",
      "Ġ×Ļ×© ×Ł",
      "Ġ×ľ ×¤",
      "Ġ×ŀ×Ķ ×¨",
      "×¤ ×Ļ×Ļ×Ŀ",
      "Ġ×¡ ×Ļ×¨",
      "×ĳ ×Ĺ",
      "Ġ×§×ķ×ĳ ×Ļ×ķ×ª",
      "Ġ×ŀ×Ľ×ł×¡ ×Ļ×Ļ×Ŀ",
      "Ġ×Ĳ×ŀ×ĳ ×ĺ",
      "×Ĳ ×ķ×Ŀ",
      "×ł ×§",
      "Ġ×Ĺ ×ĵ",
      "Ġ×ľ ×Ĵ",
      "Ġ×ľ ×Ļ×¦",
      "×Ļ×¨ ×ķ×ª",
      "×ķ×ł ×ª",
      "Ġ×ŀ×ª ×ł×Ķ",
      "×Ļ×ĳ ×Ķ",
      "Ġ×ĺ×ľ ×¤×ķ×Ł",
      "Ġ×Ĳ×Ľ×ľ ×ª",
      "Ġ×ŀ×Ļ×ª ×Ĺ×ª",
      "Ġ×ª ×ª",
      "Ġ×§ ×¡",
      "Ġ×©×ŀ ×Ļ×Ŀ",
      "Ġ×¢×ķ×Ĵ ×Ķ",
      "×ł ×Ļ×¡",
      "Ġ×Ĳ×ķ ×ķ×Ļ×¨",
      "Ġ×ŀ×ķ×ĸ ×Ļ×§×Ķ",
      "Ġ×Ĳ ×©",
      "Ġ×© ×ĳ",
      "×Ĺ ×ĵ",
      "Ġ×ł ×Ĵ×ŀ",
      "×ŀ ×Ł",
      "Ġ×Ĳ×ķ×Ķ ×ĳ×ª",
      "Ġ×ŀ×ł ×ķ×¨×Ķ",
      "Ġ×ĵ×ĳ×¨ ×Ļ×Ŀ",
      "×ľ ×Ļ×Ŀ",
      "Ġ×Ĺ ×ķ×¨",
      "Ġ×¦ ×¢×¦",
      "Ġ×¨×Ĳ ×Ļ×ª",
      "Ġ×ŀ×ĺ ×ĳ×Ĺ",
      "Ġ×Ĳ×ŀ×ĳ×ĺ ×Ļ×Ķ",
      "Ġ×ľ ×ª",
      "Ġ×ŀ ×Ľ×Ķ",
      "×ķ×ľ ×Ķ",
      "Ġ×© ×¨",
      "×ŀ ×ĵ",
      "×ĸ ×¨×ķ×§",
      "×ķ×ĳ ×¢",
      "Ġ×Ķ×Ļ ×Ļ×ª",
      "Ġ×Ĺ ×ĵ×¨",
      "Ġ×Ĺ×ķ×ľ ×¦×Ķ",
      "×ŀ×¢ ×ĺ",
      "×¤ ×ķ×ļ",
      "Ġ×§ ×Ļ×ĳ",
      "Ġ×¡ ×ł×ĵ",
      "Ġ×Ĵ ×ķ×ľ",
      "Ġ×ĵ ×Ĵ",
      "Ġ×ľ×© ×ŀ",
      "×Ļ×ŀ ×Ķ",
      "Ġ×ŀ ×ŀ",
      "Ġ×¨ ×¢",
      "Ġ×Ĺ ×¡",
      "Ġ×©×¢ ×ķ×Ł",
      "×ª ×Ķ",
      "Ġ×ľ ×Ĺ×Ļ",
      "Ġ×ª ×ľ",
      "×¤ ×Ļ×Ŀ",
      "Ġ×§ ×§×Ļ",
      "Ġ×ľ×Ķ ×ķ×¨×Ļ×ĵ",
      "Ġ×§×¡ ×ĺ×Ķ",
      "Ġ×ŀ×Ĺ ×¨",
      "Ġ×ľ×Ĺ ×Ŀ",
      "Ġ×ª×¦ ×Ļ×¨×Ļ",
      "Ġ×Ķ ×ĳ×Ļ×Ĳ",
      "Ġ×ŀ ×ĸ",
      "×¨ ×ķ×ĵ",
      "×Ľ ×ĳ×ª",
      "Ġ×ł ×ķ×ª",
      "Ġ×Ļ ×ķ×Ŀ",
      "Ġ×ľ×© ×ª",
      "×ķ×ŀ ×Ļ",
      "Ġ×ª×¨×Ĳ ×Ķ",
      "Ġ×©×§ ×Ļ×ª",
      "Ġ×©×ľ ×ķ×Ŀ",
      "Ġ×¤ ×¢×Ŀ",
      "Ġ×ŀ×ĳ ×Ļ×ł×Ķ",
      "Ġ×ĳ ×Ļ×Ĺ",
      "Ġ×¨×Ĵ×ľ ×Ļ×Ļ×Ŀ",
      "Ġ×ŀ×¨ ×©×Ķ",
      "Ġ×©×ĺ ×Ļ×Ĺ",
      "Ġ×ŀ×ķ×ª ×§",
      "Ġ×ľ×©×ª ×ķ×ª",
      "Ġ×ĳ×Ļ×Ĺ ×ĵ",
      "Ġ×©×ľ ×ķ×©",
      "Ġ×ľ×Ķ ×Ĵ×Ļ×ĵ",
      "Ġ×ł×ķ×¡ ×¢",
      "Ġ×Ĺ×ĸ ×§",
      "Ġ×ľ×©×ŀ ×ķ×¢",
      "Ġ×ĳ ×¤",
      "Ġ×Ļ ×ĳ",
      "Ġ×¤ ×Ļ×¤×Ļ",
      "Ġ×Ĳ×ł ×©×Ļ×Ŀ",
      "Ġ×ł×Ļ×¦ ×ł",
      "Ġ×ĸ×ķ×Ľ ×¨×ª",
      "Ġ×ĳ×¤ ×ł×Ļ×Ŀ",
      "×Ļ× Ľ×Ķ",
      "Ġ×ŀ ×ķ×¦",
      "×Ĳ ×ľ×Ķ",
      "Ġ×ł ×ĵ",
      "Ġ×¦ ×ĵ",
      "×Ĳ ×Ļ",
      "Ġ×© ×Ļ×ŀ×Ļ",
      "Ġ×§ ×©",
      "Ġ×ŀ×¦ ×Ĺ",
      "Ġ×ľ ×¨",
      "Ġ×ľ ×ĺ",
      "Ġ×ľ ×ĸ×¨×ķ×§",
      "Ġ×Ľ ×ľ",
      "Ġ×ª ×ł×Ļ",
      "×ķ×ľ ×ĵ×ª",
      "×ĸ ×¨×Ķ",
      "Ġ×ŀ×¡ ×ª×Ľ×ľ",
      "Ġ×ª×Ĳ×Ľ×ľ ×Ļ",
      "Ġ×ł×Ĵ×ŀ ×¨",
      "Ġ×Ķ ×Ļ×ª×Ķ",
      "Ġ×ŀ ×¤",
      "×ľ ×Ļ×ª",
      "Ġ×ĳ ×©×ĳ",
      "Ġ×ł×Ľ ×ł×¡",
      "Ġ×ĺ ×ķ×¡",
      "Ġ×ľ×Ķ ×Ŀ",
      "×Ľ×ľ ×ľ",
      "×Ļ×Ľ ×ł×¡",
      "Ġ×Ķ ×ķ×¤",
      "×ª ×Ŀ",
      "Ġ×ŀ ×¦×Ļ×Ļ×¨",
      "Ġ×Ļ ×ķ×ŀ×Ķ",
      "Ġ×¡ ×Ĵ×ķ×¨",
      "Ġ×¤ ×Ļ×ľ",
      "Ġ×¢ ×ķ×ŀ",
      "Ġ×Ļ ×Ĳ",
      "Ġ×¡ ×ķ×¤",
      "×ķ×§ ×¨",
      "Ġ×Ĵ×ĳ ×ķ×Ķ",
      "Ġ×¦×ľ ×Ĺ×ª",
      "Ġ×Ĳ×ķ×ķ×Ļ×¨ ×ķ×Ł",
      "Ġ×Ĵ×ķ×ľ ×Ĵ",
      "Ġ×ľ ×Ľ",
      "×¨ ×ĺ",
      "Ġ×ĳ ×Ľ×ľ×ľ",
      "Ġ×Ľ ×ķ×ĳ×¢",
      "Ġ×Ĵ ×¨",
      "Ġ×©×ľ ×Ķ",
      "Ġ×ĸ ×ķ×¨",
      "Ġ×Ĳ×¨ ×Ļ×§",
      "Ġ×ŀ×Ĵ ×ĵ×ľ",
      "Ġ×¦×¢×¦ ×ķ×¢×Ļ×Ŀ",
      "Ġ×ĳ×©×ĳ ×Ļ×ľ",
      "Ġ×¢ ×ĳ",
      "Ġ×ĳ ×Ļ×¦×Ķ",
      "Ġ×¨ ×Ľ×ĳ×ª",
      "Ġ×¡ ×ª×Ŀ",
      "Ġ×¤ ×¦×¢",
      "Ġ×ª×¡ ×¤×¨",
      "×Ļ×¡ ×Ķ",
      "Ġ×ŀ×Ĺ ×ĸ",
      "×ķ× ¤×Ķ",
      "Ġ×ŀ ×ĵ",
      "Ġ×ĳ ×Ķ",
      "Ġ×© ×ª×Ļ×Ļ×Ŀ",
      "Ġ×Ĺ ×ķ×Ŀ",
      "Ġ×ŀ×¡ ×ª",
      "Ġ×ŀ×ª ×Ļ",
      "Ġ×ł×© ×Ļ×§×Ķ",
      "Ġ×ŀ×Ľ×ķ×ł ×Ļ×ª",
      "Ġ×ĳ×§×ĳ ×ķ×§",
      "Ġ×Ĳ ×Ĳ",
      "Ġ×Ĳ ×¢",
      "×ĳ ×Ķ",
      "Ġ×¢ ×ĺ",
      "×Ľ ×Ļ×Ł",
      "Ġ×Ĳ×ķ×¤ ×ł×Ļ×Ļ×Ŀ",
      "×Ĺ ×Ļ×Ŀ",
      "Ġ×ł ×ķ×¨×Ĳ",
      "Ġ×¦ ×Ļ×¨",
      "Ġ×ŀ×© ×§",
      "Ġ×¤×ª ×ķ×Ĺ",
      "Ġ×Ĳ×ķ×Ķ ×ĳ",
      "Ġ×Ķ×ľ ×Ľ×Ķ",
      "Ġ×¢ ×Ļ×Ł",
      "Ġ×¢ ×ł×ĳ",
      "Ġ×¤ ×ķ×ª",
      "×Ļ×¤ ×ķ×ľ",
      "×Ļ×ľ ×ķ",
      "Ġ×ŀ×ľ ×¤",
      "Ġ×Ĵ×ķ×Ĵ ×Ļ",
      "Ġ×©×¤ ×Ł",
      "Ġ×ĳ×Ĺ ×ĸ×¨×Ķ",
      "Ġ×Ľ×ľ ×ķ×Ŀ",
      "×Ĳ ×Ķ",
      "×ŀ ×ķ×ľ",
      "Ġ×Ĳ×ķ× ĸ",
      "Ġ×ĸ ×ŀ×Ł",
      "Ġ×ł×¢ ×Ļ×Ŀ",
      "Ġ×Ĳ×¨ ×ĳ×¢",
      "Ġ×ª×ŀ ×ķ×ł×ķ×ª",
      "×Ľ×ĳ ×ķ×ĵ",
      "Ġ×¢×Ĵ ×ľ×Ķ",
      "Ġ×Ļ×ĳ ×ķ×Ĳ",
      "×¨ ×ĵ",
      "Ġ×ĳ ×¨×Ļ×",
      "Ġ×ĳ×Ĳ ×Ķ",
      "Ġ×Ĳ ×§",
      "Ġ×Ĳ×ª ×ŀ×ķ×ľ",
      "Ġ×¨ ×Ĺ",
      "×¤×ª ×Ĳ×ķ×Ŀ",
      "Ġ×ŀ×Ľ ×¡×Ķ",
      "Ġ×ĳ×¨×Ļ× Ľ×Ķ",
      "Ġ×Ļ ×§",
      "×¢ ×ŀ",
      "×Ļ×ķ ×Ļ×ķ",
      "Ġ×ª×© ×Ļ×¨×Ļ",
[...]
