{
  "version": "1.0",
  "truncation": {
    "direction": "Right",
    "max_length": 128,
    "strategy": "LongestFirst",
    "stride": 0
  },
  "padding": {
    "strategy": "BatchLongest",
    "direction": "Right",
    "pad_to_multiple_of": null,
    "pad_id": 1,
    "pad_type_id": 0,
    "pad_token": "<pad>"
  },
  "added_tokens": [
    {
      "id": 0,
      "content": "<mask>",
      "single_word": false,
      "lstrip": false,
      "rstrip": false,
      "normalized": false,
      "special": true
    },
    {
      "id": 1,
      "content": "<pad>",
      "single_word": false,
      "lstrip": false,
      "rstrip": false,
      "normalized": false,
      "special": true
    },
    {
      "id": 2,
      "content": "<unk>",
      "single_word": false,
      "lstrip": false,
      "rstrip": false,
      "normalized": false,
      "special": true
    },
    {
      "id": 3,
      "content": "<s>",
      "single_word": false,
      "lstrip": false,
      "rstrip": false,
      "normalized": false,
      "special": true
    },
    {
      "id": 4,
      "content": "</s>",
      "single_word": false,
      "lstrip": false,
      "rstrip": false,
      "normalized": false,
      "special": true
    }
  ],
  "normalizer": null,
  "pre_tokenizer": {
    "type": "ByteLevel",
    "add_prefix_space": true,
    "trim_offsets": true,
    "use_regex": true
  },
  "post_processor": {
    "type": "RobertaProcessing",
    "sep": [
      "</s>",
      4
    ],
    "cls": [
      "<s>",
      3
    ],
    "trim_offsets": true,
    "add_prefix_space": true
  },
  "decoder": {
    "type": "ByteLevel",
    "add_prefix_space": true,
    "trim_offsets": true,
    "use_regex": true
  },
  "model": {
    "type": "BPE",
    "dropout": null,
    "unk_token": "<unk>",
    "continuing_subword_prefix": null,
    "end_of_word_suffix": null,
    "fuse_unk": false,
    "byte_fallback": false,
    "ignore_merges": false,
    "vocab": {
      "<mask>": 0,
      "<pad>": 1,
      "<unk>": 2,
      "<s>": 3,
      "</s>": 4,
      "0": 5,
      "1": 6,
      "2": 7,
      "3": 8,
      "4": 9,
      "5": 10,
      "6": 11,
      "7": 12,
      "8": 13,
      "¡": 14,
      "¢": 15,
      "£": 16,
      "¤": 17,
      "¥": 18,
      "¦": 19,
      "§": 20,
      "¨": 21,
      "©": 22,
      "ª": 23,
      "×": 24,
      "Ċ": 25,
      "Ġ": 26,
      "Ĳ": 27,
      "ĳ": 28,
      "Ĵ": 29,
      "ĵ": 30,
      "Ķ": 31,
      "ķ": 32,
      "ĸ": 33,
      "Ĺ": 34,
      "ĺ": 35,
      "Ļ": 36,
      "ļ": 37,
      "Ľ": 38,
      "ľ": 39,
      "Ŀ": 40,
      "ŀ": 41,
      "Ł": 42,
      "ł": 43,
      "Ġ×": 44,
      "×Ļ": 45,
      "×ķ": 46,
      "×ķ×": 47,
      "×Ļ×": 48,
      "Ġ×Ķ": 49,
      "×¨": 50,
      "ŀ×": 51,
      "Ĳ×": 52,
      "×Ķ": 53,
      "Ġ×ľ": 54,
      "Ġ×ĳ": 55,
      "×ľ": 56,
      "Ġ×Ĳ×": 57,
      "Ġ×ŀ×": 58,
      "Ġ×©": 59,
      "×ª": 60,
      "×Ļ×Ŀ": 61,
      "×ĳ": 62,
      "×ķ×ª": 63,
      "Ġ×¢": 64,
      "×¨×": 65,
      "×©": 66,
      "×ĵ": 67,
      "Ġ×Ľ": 68,
      "Ġ×ľ×": 69,
      "Ġ×Ļ": 70,
      "Ġ×Ĺ": 71,
      "×ł": 72,
      "×Ĺ": 73,
      "×¢": 74,
      "×ķ×¨": 75,
      "×§": 76,
      "Ġ×ł": 77,
      "Ġ×ŀ": 78,
      "Ġ×Ĳ": 79,
      "×Ŀ": 80,
      "×Ļ×ª": 81,
      "Ġ×ª": 82,
      "Ġ×ķ": 83,
      "Ġ×¨": 84,
      "×¤": 85,
      "Ġ×¤": 86,
      "×ŀ×": 87,
      "Ġ×§": 88,
      "Ġ×Ĳ×ª": 89,
      "×Ĳ": 90,
      "×Ļ×Ķ": 91,
      "Ġ×ĸ": 92,
      "×ķ×ł": 93,
      "×¦": 94,
      "×ĺ": 95,
      "Ġ×Ĵ": 96,
      "×Ľ": 97,
      "×ŀ": 98,
      "Ġ×ĵ": 99,
      "Ġ×©×ľ": 100,
      "×ķ×ľ": 101,
      "Ġ×¦": 102,
      "×¡": 103,
      "×Ĵ": 104,
      "×Ĳ×": 105,
      "×ķ×ĳ": 106,
      "Ġ×¡": 107,
      "×Ļ×ł": 108,
      "×Ł": 109,
      "Ġ×Ĳ×ł": 110,
      "Ġ×Ķ×ķ×": 111,
      "×Ļ×¨": 112,
      "×ķ×ĵ": 113,
      "×Ļ×§": 114,
      "×ķ×Ł": 115,
      "Ġ×ľ×Ĳ": 116,
      "×Ļ×Ł": 117,
      "Ġ×¢×¨×": 118,
      "Ġ×ľ×Ķ": 119,
      "×Ļ×ľ": 120,
      "Ġ×¢×ľ": 121,
      "Ġ×ŀ×©": 122,
      "×ĳ×¨": 123,
      "×ķ×©": 124,
      "Ġ×Ķ×ķ×Ĳ": 125,
      "×Ļ×Ļ×Ŀ": 126,
      "×ķ×¤": 127,
      "Ġ×Ļ×©": 128,
      "×ķ×¡": 129,
      "×Ļ×ĳ": 130,
      "×ķ×§": 131,
      "×Ļ×ķ×ª": 132,
      "Ġ×ĸ×Ķ": 133,
      "×ķ×Ŀ": 134,
      "Ĺ×¨": 135,
      "×Ļ×©": 136,
      "Ġ×Ĳ×ł×Ļ": 137,
      "×¨×Ļ×": 138,
      "Ġ×Ľ×ľ": 139,
      "×ª×Ļ": 140,
      "×ļ": 141,
      "Ġ×¢×¨×ļ": 142,
      "×Ļ×¤": 143,
      "Ġ×ŀ×§": 144,
      "×Ļ×Ĳ": 145,
      "×ķ×¢": 146,
      "×ł×Ļ": 147,
      "Ġ×Ĵ×Ŀ": 148,
      "×ĸ": 149,
      "Ġ×ľ×ŀ×": 150,
      "×Ļ×ĵ": 151,
      "Ġ×ĺ": 152,
      "×Ļ×¦": 153,
      "Ġ×Ĳ×ľ": 154,
      "Ġ×ŀ×¡": 155,
      "×Ļ×¢": 156,
      "×ķ×¦": 157,
      "×©×¨": 158,
      "Ġ×Ķ×Ļ×Ĳ": 159,
      "×ķ×Ĺ": 160,
      "×ķ×Ĵ": 161,
      "Ġ×Ĳ×Ĺ×¨": 162,
      "Ġ×ŀ×ĵ": 163,
      "×ķ×Ľ": 164,
      "×£": 165,
      "×Ļ×¡": 166,
      "×Ļ×ķ": 167,
      "Ġ×Ĳ×Ŀ": 168,
      "Ġ×ŀ×Ĺ": 169,
      "×Ļ×ĺ": 170,
      "Ġ×ĳ×¢": 171,
      "×¨×Ĳ×": 172,
      "×¤×¨": 173,
      "Ġ×ŀ×¢": 174,
      "×Ļ×Ĺ": 175,
      "×ł×Ķ": 176,
      "×ŀ×©": 177,
      "Ľ×Ļ×Ŀ": 178,
      "×Ļ×ŀ×": 179,
      "×ķ×ł×Ķ": 180,
      "×ķ×ŀ×": 181,
      "×ķ×ŀ": 182,
      "×Ļ×ŀ": 183,
      "×ĵ×Ļ×Ķ": 184,
      "Ġ×ŀ×ª": 185,
      "Ġ×Ķ×ª": 186,
      "Ġ×ŀ×Ķ": 187,
      "Ġ×Ĳ×¤": 188,
      "×Ĳ×©": 189,
      "Ġ×Ķ×Ŀ": 190,
      "×¨×Ļ×Ŀ": 191,
      "Ġ×Ķ×¦": 192,
      "×ķ×¨×Ļ×Ŀ": 193,
      "×ĵ×Ļ": 194,
      "Ġ×ŀ×¦": 195,
      "Ġ×¦×¨×Ļ×": 196,
      "Ġ×Ĳ×ª×Ķ": 197,
      "×¨×ĳ": 198,
      "Ġ×Ĺ×©": 199,
      "×¨×Ķ": 200,
      "Ġ×Ĳ×Ļ×ł": 201,
      "Ġ×§×Ļ×©": 202,
      "×¨×ª": 203,
      "Ġ×¨×Ĳ×©": 204,
      "×ķ×Ĳ": 205,
      "Ġ×Ĳ×ĳ": 206,
      "Ġ×¤×¨×": 207,
      "×ķ×Ļ": 208,
      "Ġ×ŀ×ľ": 209,
      "×¨×Ľ": 210,
      "Ġ×Ĳ×Ĺ": 211,
      "×Ļ×¤×ĵ×Ļ×Ķ": 212,
      "Ġ×¢×¨×Ľ×Ļ×Ŀ": 213,
      "×Ĳ×ª": 214,
      "Ġ×ľ×¤": 215,
      "Ġ×ľ×Ĳ×": 216,
      "Ġ×¨×ĳ": 217,
      "Ġ×Ĺ×ľ": 218,
      "Ġ×ĳ×Ĺ": 219,
      "Ġ×ĸ×ķ": 220,
      "×ŀ×Ķ": 221,
      "Ġ×Ĳ×¤×©×¨": 222,
      "Ġ×Ļ×Ķ": 223,
      "×ķ×ĺ": 224,
      "Ġ×ª×Ĺ": 225,
      "×Ĵ×ľ": 226,
      "Ġ×ª×ŀ": 227,
      "Ġ×ľ×¢": 228,
      "×Ļ×¦×ķ×ł": 229,
      "×ĳ×¢": 230,
      "×¨×ļ": 231,
      "×Ļ×ķ×Ł": 232,
      "Ġ×ŀ×¤": 233,
      "×ķ×ĸ": 234,
      "Ġ×Ĳ×¨×": 235,
      "Ġ×ŀ×©×¤": 236,
      "×Ĺ×§": 237,
      "Ġ×Ĺ×Ļ×¦×ķ×ł": 238,
      "Ġ×¦×¨×Ļ×ļ": 239,
      "×¨×Ĺ": 240,
      "Ġ×ľ×ŀ×Ĺ": 241,
      "×ķ×ª×¨": 242,
      "Ġ×Ķ×Ļ×Ķ": 243,
      "Ġ×§×Ļ×©×ķ×¨×Ļ×Ŀ": 244,
      "Ġ×Ĳ×Ļ×Ł": 245,
      "×ĵ×©": 246,
      "Ġ×ľ×ŀ×Ĺ×ķ×§": 247,
      "×ķ×ł×Ļ×Ŀ": 248,
      "×¨×Ĳ×ľ": 249,
      "Ġ×ľ×Ĳ×Ĺ×¨": 250,
      "Ġ×Ľ×ª": 251,
      "×ŀ×ķ": 252,
      "×ķ×ļ": 253,
      "Ġ×ł×ķ×¡": 254,
      "Ġ×Ļ×©×¨×Ĳ×ľ": 255,
      "Ġ×¢×Ŀ": 256,
      "×Ļ×Ļ×ª": 257,
      "Ġ×Ĳ×ĸ": 258,
      "Ġ×¢×ĳ×¨": 259,
      "×ĳ×ł": 260,
      "Ġ×¨×Ĳ": 261,
      "×ķ×ł×ķ×ª": 262,
      "Ġ×Ĺ×ĳ×¨": 263,
      "Ġ×ł×ŀ×": 264,
      "Ġ×Ľ×ļ": 265,
      "Ġ×Ĺ×Ļ×¦×ķ×ł×Ļ×Ļ×Ŀ": 266,
      "×¨×Ļ": 267,
      "×©×ª": 268,
      "Ġ×©×ł": 269,
      "Ġ×ŀ×ĳ": 270,
      "×ľ×Ķ": 271,
      "×Ļ×§×Ķ": 272,
      "Ġ×Ļ×§": 273,
      "×Ĳ×Ļ": 274,
      "Ġ×ŀ×Ĳ×": 275,
      "×Ĺ×ķ×ª": 276,
      "×¢×ª": 277,
      "×ķ×Ļ×§": 278,
      "×Ļ×Ľ": 279,
      "Ġ×ĵ×ĳ×¨": 280,
      "Ġ×Ļ×ķ×ª×¨": 281,
      "Ġ×ª×§": 282,
      "×Ļ×ł×Ķ": 283,
      "×¨×ķ×ª": 284,
      "×Ĳ×Ŀ": 285,
      "Ġ×¤×¢": 286,
      "×©×Ķ": 287,
      "Ġ×Ĳ×ª×¨": 288,
      "Ġ×¡×¤×¨": 289,
      "Ġ×©×Ŀ": 290,
      "Ġ×©×ł×Ļ": 291,
      "×ŀ×ª": 292,
      "Ġ×Ĳ×ķ": 293,
      "×ķ×ľ×Ŀ": 294,
      "×Ļ×£": 295,
      "Ġ×¨×©": 296,
      "Ġ×Ĺ×ĵ×©": 297,
      "×ł×ķ": 298,
      "×ľ×Ļ×Ŀ": 299,
      "Ġ×ľ×Ľ": 300,
      "Ġ×ľ×©": 301,
      "Ġ×Ľ×Ł": 302,
      "Ġ×ĸ×Ľ": 303,
      "×ķ×Ķ": 304,
      "×Ĺ×ľ": 305,
      "Ġ×§×¦": 306,
      "Ġ×¢×¦": 307,
      "×ķ×£": 308,
      "×Ļ×ĸ": 309,
      "Ġ×¨×§": 310,
      "Ġ×ĸ×Ĳ×ª": 311,
      "×ĳ×Ļ": 312,
      "Ġ×ľ×ĳ": 313,
      "Ġ×ŀ×ł": 314,
      "×¨×Ĵ": 315,
      "Ġ×Ĺ×Ļ": 316,
      "Ġ×Ĺ×ľ×§": 317,
      "×¨×ĵ": 318,
      "Ġ×Ļ×Ľ": 319,
      "×ŀ×Ł": 320,
      "Ġ×Ķ×Ĳ×Ŀ": 321,
      "Ġ×ŀ×©×Ĺ×§": 322,
      "Ġ×ĳ×Ļ×Ł": 323,
      "×¢×Ķ": 324,
      "Ġ×ĳ×¨": 325,
      "×Ļ×¨×ķ×ª": 326,
      "×¨×ĺ": 327,
      "Ġ×Ĳ×ĳ×ľ": 328,
      "×ŀ×Ļ": 329,
      "Ġ×ĳ×Ļ×ª": 330,
      "Ġ×Ĺ×¡": 331,
      "×ľ×Ļ": 332,
      "Ġ×¦×ĳ": 333,
      "Ġ×Ĳ×ķ×¤": 334,
      "×ŀ×Ļ×Ŀ": 335,
      "Ġ×ŀ×Ĳ": 336,
      "Ġ×§×ĺ": 337,
      "×ķ×¥": 338,
      "×ķ×¨×Ķ": 339,
      "×ķ×©×ĳ": 340,
      "×Ļ×Ĵ": 341,
      "Ġ×Ļ×¦": 342,
      "×ķ×ķ×ł": 343,
      "Ġ×Ļ×Ľ×ķ×ľ": 344,
      "Ġ×ª×ĳ×ł": 345,
      "×¤×ª": 346,
      "Ġ×Ľ×ł": 347,
      "Ġ×ľ×Ĵ": 348,
      "×¨×¡": 349,
      "×ĳ×ľ": 350,
      "×Ĺ×Ķ": 351,
      "Ġ×ł×Ļ×ª": 352,
      "Ġ×Ĵ×ĵ": 353,
      "Ġ×ŀ×Ľ": 354,
      "Ġ×ŀ×ŀ×": 355,
      "×Ļ×ľ×Ķ": 356,
      "Ġ×ŀ×¡×¤×¨": 357,
      "Ġ×ł×ķ×©": 358,
      "Ġ×ŀ×ľ×Ĺ": 359,
      "×ŀ×¢": 360,
      "Ġ×Ĺ×©×ķ×ĳ": 361,
      "Ġ×Ķ×Ļ×Ļ×ª": 362,
      "Ġ×¢×ĵ": 363,
      "Ġ×Ļ×Ĺ": 364,
      "Ġ×ŀ×Ļ": 365,
      "×Ļ×¨×Ķ": 366,
      "Ġ×ł×ķ×©×Ĳ": 367,
      "×¥": 368,
      "Ġ×ŀ×Ļ×ĵ": 369,
      "×ķ×¨×Ļ×Ķ": 370,
      "Ġ×ª×ķ×Ľ": 371,
      "ŀ×¨": 372,
      "Ĺ×§": 373,
      "Ġ×Ķ×Ĵ": 374,
      "Ġ×ĵ×£": 375,
      "Ġ×ł×Ļ×ª×Ł": 376,
      "×¤×§": 377,
      "×©×Ļ×Ŀ": 378,
      "Ġ×Ľ×Ļ": 379,
      "×Ļ×ł×ª": 380,
      "¦×ķ×Ĳ": 381,
      "Ġ×¢×Ļ×¨": 382,
      "Ġ×ľ×ŀ×¦×ķ×Ĳ": 383,
      "×Ĺ×ª": 384,
      "Ġ×Ĳ×ķ×ľ": 385,
      "Ġ×Ķ×¢": 386,
      "Ġ×Ļ×Ķ×ķ×ĵ": 387,
      "×Ļ×ļ": 388,
      "×ĳ×ĵ": 389,
      "Ġ×ŀ×©×ª": 390,
      "Ġ×ł×Ľ": 391,
      "Ġ×Ĳ×Ĺ×ĵ": 392,
      "Ġ×Ĳ×ł×Ĵ×ľ": 393,
      "Ġ×¤×Ĺ×ķ×ª": 394,
      "×ľ×ª": 395,
      "×¨×¤": 396,
      "Ġ×Ĳ×ĵ": 397,
      "×¢×ķ×ª": 398,
      "×Ĳ×ķ×ª": 399,
      "×Ĳ×ľ": 400,
      "×Ļ×ĳ×ķ×ª": 401,
      "Ġ×Ĺ×ķ×©×ĳ": 402,
      "Ġ×ľ×§": 403,
      "Ġ×ľ×Ķ×Ļ×ķ×ª": 404,
      "Ġ×©×Ļ×Ĺ": 405,
      "Ġ×¨×Ĳ×ķ": 406,
      "Ġ×ª×ĳ×ł×Ļ×ª": 407,
      "Ġ×Ľ×ĵ": 408,
      "×¨×Ĳ": 409,
      "×Ļ×¡×ĺ": 410,
      "Ġ×¤×¡": 411,
      "×ł×ķ×ª": 412,
      "×ĳ×Ĺ": 413,
      "×ŀ×ķ×ª": 414,
      "Ġ×¨×ķ×ĳ": 415,
      "×ķ×Ĳ×": 416,
      "Ġ×ľ×Ĺ": 417,
      "×Ĳ×Ļ×Ŀ": 418,
      "Ġ×ŀ×§×ķ×¨": 419,
      "×ĵ×Ļ×Ŀ": 420,
      "Ġ×Ĳ×Ļ": 421,
      "Ġ×¤×ª": 422,
      "Ġ×¤×¨": 423,
      "Ġ×Ľ×ŀ×ķ": 424,
      "×ł×Ļ×Ŀ": 425,
      "×Ĳ×Ł": 426,
      "Ġ×Ĳ×ľ×Ķ": 427,
      "Ġ×Ķ×Ĺ×ľ": 428,
      "Ġ×Ĳ×©": 429,
      "Ġ×¢×ķ×ĵ": 430,
      "×Ĳ×Ķ": 431,
      "Ġ×Ļ×ĵ": 432,
      "Ġ×Ĳ×ķ×ª": 433,
      "×¢×ª×Ļ": 434,
      "×Ļ×§×ľ": 435,
      "Ġ×¢×ĳ×¨×Ļ×ª": 436,
      "Ġ×ŀ×§×ķ×Ŀ": 437,
      "×ķ×Ļ×§×Ļ×¤×ĵ×Ļ×Ķ": 438,
      "Ġ×Ķ×Ļ×ķ": 439,
      "Ġ×¡×¤": 440,
      "×ķ×¤×Ķ": 441,
      "Ġ×¢×ķ×ľ×Ŀ": 442,
      "×¡×ª": 443,
      "×ķ×ł×Ļ": 444,
      "×ķ×Ļ×ķ×ª": 445,
      "×Ĺ×ł×ķ": 446,
      "Ġ×§×ĳ": 447,
      "Ġ×Ĳ×ł×Ĺ×ł×ķ": 448,
      "×¨×Ĳ×Ķ": 449,
      "×ķ×¦×Ķ": 450,
      "×Ļ×ŀ×Ķ": 451,
      "Ġ×¨×¦": 452,
      "Ġ×ĸ×ŀ×Ł": 453,
      "Ġ×Ĳ×Ĺ×¨×Ļ×Ŀ": 454,
      "Ġ×ª×ŀ×ķ×ł×Ķ": 455,
      "Ġ×Ĵ×ĵ×ķ×ľ": 456,
      "Ġ×Ķ×Ł": 457,
      "×ł×ĵ": 458,
      "Ġ×Ĳ×Ļ×¨": 459,
      "Ġ×Ķ×Ļ×Ļ×ª×Ķ": 460,
      "×Ļ×Ĳ×": 461,
      "Ġ×ŀ×ĸ": 462,
      "×ª×Ŀ": 463,
      "Ġ×ŀ×¨×Ľ": 464,
      "Ġ×Ļ×§×Ļ×¤×ĵ×Ļ×Ķ": 465,
      "Ġ×ŀ×©×ª×ŀ×©": 466,
      "Ġ×ľ×Ĵ×ĳ×Ļ": 467,
      "×ĵ×ķ×ª": 468,
      "×ķ×ĵ×Ķ": 469,
      "Ġ×¢×ĳ": 470,
      "Ġ×ĵ×Ļ×ķ×Ł": 471,
      "×¦×Ļ×§×ľ": 472,
      "×¦×Ļ×§×ľ×ķ×¤": 473,
      "Ġ×ĳ×ľ": 474,
      "Ġ×ł×¤": 475,
      "×Ļ×ŀ×ª": 476,
      "×©×ĳ": 477,
      "Ġ×ŀ×©×ŀ×¢": 478,
      "×Ļ×ĳ×Ķ": 479,
      "Ġ×Ĳ×ł×¦×Ļ×§×ľ×ķ×¤": 480,
      "×Ľ×ľ": 481,
      "Ġ×Ľ×ª×ĳ": 482,
      "Ġ×¨×Ĺ": 483,
      "Ġ×ĵ×¨×ļ": 484,
      "Ġ×¦×ķ×¨": 485,
      "Ġ×ł×ŀ×¦": 486,
      "×ĵ×¨": 487,
      "Ġ×Ĳ×ķ×ľ×Ļ": 488,
      "×ľ×Ĳ": 489,
      "Ġ×Ľ×Ĳ×Ł": 490,
      "Ġ×Ĳ×ķ×¤×Ł": 491,
      "Ġ×ŀ×Ļ×ĵ×¢": 492,
      "Ġ×Ķ×¦×ĳ×¢": 493,
      "Ġ×¦×ĳ×Ĳ": 494,
      "ŀ×ł": 495,
      "Ġ×Ĺ×ķ×§": 496,
      "Ġ×ł×ŀ×Ĺ×§": 497,
      "Ġ×ĵ×¢×ª×Ļ": 498,
      "Ġ×ł×©": 499,
      "Ġ×ŀ×¨×Ľ×ĸ": 500,
      "Ġ×Ķ×¤": 501,
      "Ġ×Ļ×ĵ×Ļ": 502,
      "×ķ×ĳ×Ķ": 503,
      "Ġ×Ķ×©": 504,
      "×ľ×ķ": 505,
      "Ġ×ĳ×ł×Ļ": 506,
      "Ġ×©×Ļ×ŀ": 507,
      "×ª×ķ×ĳ": 508,
      "×¨×Ļ×Ľ": 509,
      "×¤×Ļ": 510,
      "×Ľ×ł": 511,
      "×¤×Ļ×Ŀ": 512,
      "Ġ×¤×ķ×¨": 513,
      "Ġ×¤×Ļ×¨": 514,
      "×Ľ×ķ×ķ×ł": 515,
      "Ġ×Ĳ×ł×Ĵ×ľ×Ļ×ª": 516,
      "Ġ×ŀ×©×ŀ×¢×ķ×ª": 517,
      "Ġ×Ĺ×ķ×¤": 518,
      "Ġ×ł×¢": 519,
      "×Ļ×©×Ķ": 520,
      "×ŀ×ł": 521,
      "Ġ×ŀ×¦×ĳ": 522,
      "Ġ×ª×ŀ×ķ×ł×ķ×ª": 523,
      "×ķ×ĳ×¨": 524,
      "Ġ×ĳ×¢×¨×ļ": 525,
      "Ġ×Ķ×ª×Ľ×ķ×ķ×ł": 526,
      "Ġ×§×ĺ×Ĵ": 527,
      "Ġ×Ķ×Ļ×¡×ĺ": 528,
      "Ġ×ł×§": 529,
      "×Ļ×ķ×ª×¨": 530,
      "Ġ×©×Ļ×ŀ×ķ×©": 531,
      "Ġ×Ļ×¨": 532,
      "×ŀ×ĵ": 533,
      "Ġ×Ķ×¡": 534,
      "Ġ×ŀ×ķ×ĸ": 535,
      "×ŀ×Ĺ": 536,
      "Ġ×©×Ļ×Ĺ×Ķ": 537,
      "Ġ×©×Ľ": 538,
      "×ĵ×Ķ": 539,
      "Ġ×ŀ×ŀ×©": 540,
      "×¨×ķ": 541,
      "Ġ×ŀ×ĺ": 542,
      "×§×Ķ": 543,
      "Ġ×ł×Ĺ": 544,
      "Ġ×Ĳ×¨×¥": 545,
      "Ġ×ŀ×©×¤×ĺ": 546,
      "Ġ×Ĺ×©×Ļ×ĳ×ķ×ª": 547,
      "Ġ×ł×ĳ×Ĺ": 548,
      "Ġ×¤×¨×¡": 549,
      "Ġ×ł×ķ×¡×£": 550,
      "Ġ×Ľ×ŀ×Ķ": 551,
      "Ġ×Ļ×ķ×¦": 552,
      "Ġ×Ĵ×¨×": 553,
      "×ķ×¡×Ļ×£": 554,
      "×ķ×ŀ×¨": 555,
      "Ġ×ŀ×Ĵ": 556,
      "×©×ķ×ª": 557,
      "Ġ×ľ×Ľ×Ł": 558,
      "Ġ×Ľ×ĳ×¨": 559,
      "×Ļ×ª×Ļ": 560,
      "×Ļ×Ļ×Ł": 561,
      "Ġ×©×ĳ": 562,
      "Ġ×Ĺ×ĸ": 563,
      "×§×ĳ": 564,
      "Ġ×Ĳ×Ĵ": 565,
      "Ġ×ª×©": 566,
      "Ġ×ŀ×ĵ×Ļ×ł": 567,
      "Ġ×¢×ª": 568,
      "Ġ×ŀ×ľ×Ĺ×ŀ×ª": 569,
      "Ġ×ĳ×§": 570,
      "Ġ×Ĳ×ļ": 571,
      "Ġ×Ĳ×ķ×ł": 572,
      "Ġ×ľ×¤×ł×Ļ": 573,
      "×Ļ×§×¨": 574,
      "Ġ×Ĳ×Ĺ×¨×ª": 575,
      "×Ķ×ľ": 576,
      "×ľ×ķ×ª": 577,
      "Ġ×¢×ł×Ļ": 578,
      "Ġ×§×ķ×¨": 579,
      "×¡×ĺ": 580,
      "Ġ×Ķ×ª×Ľ×ķ×ķ×ł×ª×Ŀ": 581,
      "Ġ×Ĳ×ľ×ķ": 582,
      "Ġ×¨×Ĳ×©×ķ×Ł": 583,
      "Ġ×ŀ×ķ×¢": 584,
      "Ġ×¡×¨×ĺ": 585,
      "Ġ×ĺ×¢": 586,
      "×Ļ×Ļ×Ķ": 587,
      "Ġ×Ĳ×Ļ×©": 588,
      "Ġ×§×Ļ": 589,
      "×Ĳ×¨": 590,
      "×Ļ×¨×ª": 591,
      "Ġ×ª×ł": 592,
      "Ġ×Ĵ×ĳ": 593,
      "Ġ×¨×ĳ×Ļ×Ŀ": 594,
      "Ġ×ķ×Ļ×§": 595,
      "×Ļ×ľ×ª": 596,
      "Ġ×©×ł×Ļ×Ŀ": 597,
      "Ġ×©×Ļ×ł": 598,
      "×Ĵ×ĵ": 599,
      "Ġ×ĳ×Ļ×ķ×ª×¨": 600,
      "Ġ×ŀ×ķ×ŀ×": 601,
      "×¤×Ķ": 602,
      "Ġ×Ĳ×Ĺ×ª": 603,
      "Ġ×Ĺ×ķ×¤×©": 604,
      "Ġ×ŀ×§×¨×Ķ": 605,
      "Ġ×ľ×ª": 606,
      "Ġ×¢×¨×Ļ×Ľ": 607,
      "Ġ×Ķ×¦×ĳ×¢×Ķ": 608,
      "Ġ×¤×ķ×ľ": 609,
      "Ġ×Ļ×Ķ×Ļ×Ķ": 610,
      "Ġ×ŀ×Ĳ×ķ×ĵ": 611,
      "Ġ×ŀ×Ł": 612,
      "×ĳ×Ļ×Ŀ": 613,
      "Ġ×ĵ×¨": 614,
      "Ġ×¦×Ļ": 615,
      "Ġ×Ķ×ķ×¡": 616,
      "×ķ×¨×ª": 617,
      "Ġ×¦×ĳ×¢": 618,
      "×Ļ×ĳ×¨×¡": 619,
      "Ġ×Ĳ×¨×¦": 620,
      "Ġ×ĵ×ĳ×¨×Ļ×Ŀ": 621,
      "Ġ×Ĳ×ķ×ł×Ļ×ĳ×¨×¡": 622,
      "Ġ×Ĳ×ķ×ł×Ļ×ĳ×¨×¡×Ļ×ĺ": 623,
      "Ġ×¦×¢": 624,
      "×§×¨": 625,
      "Ġ×¤×Ļ×¨×ķ×©": 626,
      "Ġ×©×Ĳ×ľ": 627,
      "Ġ×Ĺ×ķ×ĵ": 628,
      "Ġ×ľ×Ķ×ª": 629,
      "Ġ×ľ×Ķ×ķ×¡×Ļ×£": 630,
      "Ġ×ŀ×§×¦": 631,
      "Ġ×Ĳ×£": 632,
      "×ķ×ľ×Ķ": 633,
      "Ġ×ĺ×ķ×ĳ": 634,
      "Ġ×ľ×Ľ×ª×ķ×ĳ": 635,
      "Ġ×¦×ĵ": 636,
      "×ķ×¤×Ļ×¢": 637,
      "Ġ×Ĳ×¦": 638,
      "Ġ×ł×ª": 639,
      "×ŀ×ķ×ĵ": 640,
      "×¨×Ļ×ĺ": 641,
      "×ķ×ŀ×Ķ": 642,
      "×¨×ĳ×Ķ": 643,
      "Ġ×Ķ×¦×ľ": 644,
      "Ġ×ĳ×Ĺ×Ļ×ł×Ķ": 645,
      "Ġ×ł×Ļ×¡": 646,
      "Ġ×©×ľ×ķ×©": 647,
      "×Ļ×ł×Ļ": 648,
      "Ġ×ĳ×¨×Ļ×ª": 649,
      "Ġ×ĳ×ª": 650,
      "×¨×¦": 651,
      "Ġ×ŀ×ķ×¨": 652,
      "Ġ×ŀ×©×¤×Ĺ×Ķ": 653,
      "Ġ×¢×ķ×ĳ": 654,
      "×ķ×¨×Ĵ": 655,
      "×ŀ×Ĳ": 656,
      "×Ļ×ĳ×ķ×¨": 657,
      "×ķ×Ĺ×ĵ": 658,
      "×¨×ł": 659,
      "Ġ×¤×ľ": 660,
      "Ġ×Ĳ×Ĺ×¨×Ļ": 661,
      "Ġ×ŀ×ĵ×ķ×ĳ×¨": 662,
      "Ġ×Ĳ×ŀ": 663,
      "Ġ×ķ×ķ×Ļ×§×Ļ×¤×ĵ×Ļ×Ķ": 664,
      "Ġ×¦×¤": 665,
      "Ġ×Ķ×ķ×¦": 666,
      "Ġ×Ļ×¨×ķ×©": 667,
      "Ġ×©×ł×Ķ": 668,
      "×ł×Ļ×Ķ": 669,
      "Ġ×Ĳ×Ļ×ĸ": 670,
      "Ġ×Ķ×Ľ": 671,
      "Ġ×¢×ĸ": 672,
      "Ġ×Ľ×ķ×ľ": 673,
      "Ġ×ª×ľ": 674,
      "Ġ×Ľ×ĵ×Ļ": 675,
      "×Ĺ×¨": 676,
      "Ġ×ł×Ķ": 677,
      "×¤×ķ×ª": 678,
      "Ġ×¤×©": 679,
      "×Ļ×ľ×Ļ×Ŀ": 680,
      "Ġ×ŀ×ĵ×Ļ×ł×Ķ": 681,
      "×¨×Ĺ×ĳ": 682,
      "×Ĳ×ķ": 683,
      "Ġ×¤×¨×ĺ": 684,
      "Ġ×¦×ķ×¨×ļ": 685,
      "Ġ×Ĳ×¨×¦×ķ×ª": 686,
      "Ġ×ŀ×ķ×¦": 687,
      "Ġ×Ľ×ľ×ľ": 688,
      "×Ļ×¤×Ķ": 689,
      "Ġ×Ķ×¦×¢×Ķ": 690,
      "Ġ×ŀ×§×¦×ķ×¢": 691,
      "Ġ×ľ×¤×Ļ": 692,
      "×ķ×ķ×Ķ": 693,
      "Ġ×ľ×ľ×Ĳ": 694,
      "Ġ×ª×¢": 695,
      "Ġ×ª×¤×§": 696,
      "×Ļ×ĳ×ª": 697,
      "×©×ª×ŀ×©": 698,
      "×ķ×Ļ×Ļ×Ŀ": 699,
      "Ġ×Ĳ×ŀ×¨": 700,
      "Ġ×ĵ×Ļ": 701,
      "Ġ×ŀ×¢×¨×Ľ": 702,
      "Ġ×Ĺ×ĵ×©×Ļ×Ŀ": 703,
      "Ġ×Ļ×¨×ķ×©×ľ×Ļ×Ŀ": 704,
      "×ĳ×Ļ×¨": 705,
      "×Ľ×Ķ": 706,
      "Ġ×ĵ×¢×ª": 707,
      "×ŀ×©×ļ": 708,
      "Ġ×Ķ×ľ": 709,
      "Ġ×Ĳ×Ļ×ł×ķ": 710,
      "Ġ×Ľ×ĵ×ķ×¨": 711,
      "Ġ×ĳ×ĵ": 712,
      "Ġ×¢×ĵ×Ļ": 713,
      "Ġ×Ĺ×¦": 714,
      "×¢×Ļ×Ŀ": 715,
      "Ġ×§×Ļ×©×ķ×¨": 716,
      "Ġ×ľ×¢×©×ķ×ª": 717,
      "Ġ×Ĳ×¡": 718,
      "Ġ×Ķ×ķ×¤": 719,
      "Ġ×ķ×Ļ×§×Ļ×¤×ĵ×Ļ×Ķ": 720,
      "Ġ×ª×¤×§×Ļ×ĵ": 721,
      "Ġ×Ĳ×ł×©×Ļ×Ŀ": 722,
      "Ġ×ŀ×©×¤×Ĺ×ª": 723,
      "Ġ×¢×ĵ×Ļ×Ļ×Ł": 724,
      "×Ļ×¥": 725,
      "Ġ×ľ×ł": 726,
      "Ġ×§×ĺ×Ĵ×ķ×¨×Ļ×Ķ": 727,
      "×ķ×ĳ×Ł": 728,
      "Ġ×¤×Ļ×¨×ķ×©×ķ×ł×Ļ×Ŀ": 729,
      "ŀ×¦": 730,
      "×ķ×ľ×ķ×Ĵ": 731,
      "×Ļ×ľ×ķ": 732,
      "Ġ×Ķ×Ļ×¡×ĺ×ķ×¨×Ļ×Ķ": 733,
      "Ġ×ľ×Ķ×¦": 734,
      "×ķ×Ľ×ľ": 735,
      "Ġ×Ĳ×ł×¦×Ļ×§×ľ×ķ×¤×ĵ×Ļ×Ķ": 736,
      "×Ļ×ķ×Ŀ": 737,
      "×¨×©": 738,
      "×ķ×Ĳ×Ķ": 739,
      "Ġ×Ĵ×¨×ŀ×ł": 740,
      "×ľ×ļ": 741,
      "Ġ×¢×Ļ×¦": 742,
      "×ŀ×ľ": 743,
      "×Ļ×¢×Ķ": 744,
      "Ġ×¨×Ĳ×©×ķ×ł×Ķ": 745,
      "Ġ×Ĳ×¨×Ĵ": 746,
      "Ġ×ľ×¦": 747,
      "Ġ×Ĳ×ķ×¨": 748,
      "Ġ×§×Ļ×ĳ": 749,
      "Ġ×ĳ×Ĳ×": 750,
      "Ġ×Ļ×Ĺ×¡": 751,
      "Ġ×Ķ×¨×ĳ×Ķ": 752,
      "Ġ×ł×¨×Ĳ×Ķ": 753,
      "Ġ×§×¨": 754,
      "Ġ×ŀ×Ķ×ľ×ļ": 755,
      "Ġ×ª×§×ķ×¤×Ķ": 756,
      "Ġ×§×¦×ª": 757,
      "Ġ×Ĺ×Ļ×Ļ×Ŀ": 758,
      "Ġ×ŀ×Ĺ×Ļ×§×Ķ": 759,
      "×ķ×ŀ×ķ×ª": 760,
      "Ġ×Ľ×ł×¡×ª": 761,
      "Ġ×¤×©×ķ×ĺ": 762,
      "Ġ×Ľ×ķ×ª": 763,
      "×Ļ×ľ×ķ×ª": 764,
      "Ġ×Ļ×Ĺ×Ļ×ĵ": 765,
      "Ġ×¢×ł×Ļ×Ļ×Ł": 766,
      "Ġ×¦×Ļ×ĳ×ķ×¨": 767,
      "Ġ×ľ×Ķ×¢": 768,
      "Ġ×ĳ×Ĺ×Ļ×ł×ª": 769,
      "×¨×ķ×Ł": 770,
      "×¨×§": 771,
      "Ġ×ľ×ŀ×¢": 772,
      "Ġ×ŀ×Ĺ×ľ": 773,
      "Ġ×ĳ×Ĺ×Ļ×¨×ķ×ª": 774,
      "Ġ×¢×Ļ×¦×ķ×ĳ": 775,
      "Ġ×ľ×ĵ": 776,
      "×ª×ĳ": 777,
      "Ġ×ŀ×ķ×ł": 778,
      "Ġ×§×©×¨": 779,
      "Ġ×ª×Ĺ×ķ×Ŀ": 780,
      "Ġ×ŀ×ķ×¡": 781,
      "Ġ×§×ķ×ĵ": 782,
      "Ġ×Ĳ×ķ×ª×Ķ": 783,
      "Ġ×¢×©×¨": 784,
      "Ġ×Ķ×ķ×ĵ": 785,
      "×ķ×ŀ×Ļ×Ŀ": 786,
      "Ġ×©×ĺ": 787,
      "×ŀ×§": 788,
      "Ġ×¦×¨×¤": 789,
      "×ķ×ĳ×ľ": 790,
      "Ġ×Ľ×ª×ķ×ĳ": 791,
      "Ġ×Ĺ×Ļ×ł": 792,
      "×Ľ×©": 793,
      "×Ļ×ŀ×Ļ×Ŀ": 794,
      "×ł×ª": 795,
      "Ġ×§×Ķ": 796,
      "Ġ×ĳ×¢×Ļ×Ķ": 797,
      "Ġ×©×ª×Ļ": 798,
      "×Ļ×¢×ķ": 799,
      "Ġ×Ĺ×¦×Ļ": 800,
      "×ĺ×¨": 801,
      "Ġ×Ķ×§": 802,
      "×Ļ×ł×Ļ×Ŀ": 803,
      "Ġ×¢×¨×Ľ": 804,
      "Ġ×ª×ķ×Ľ×ľ": 805,
      "×ķ×ľ×ĵ": 806,
      "Ġ×ľ×ŀ×ĵ": 807,
      "Ġ×ª×Ĺ×Ļ×ľ×ª": 808,
      "Ġ×Ļ×ľ": 809,
      "Ġ×Ĺ×ŀ": 810,
      "Ġ×ŀ×ķ×¤×Ļ×¢": 811,
      "Ġ×ĵ×ķ×Ĵ": 812,
      "Ġ×Ĺ×ķ×ĵ×©": 813,
      "×ł×Ļ×ª": 814,
      "Ġ×Ľ×ĵ×Ĳ×Ļ": 815,
      "Ġ×©×Ĺ×§": 816,
      "Ġ×¡×ĺ": 817,
      "×ķ×Ĵ×¨×¤": 818,
      "Ġ×Ĺ×¡×¨": 819,
      "Ġ×Ĺ×ķ×ľ": 820,
      "×¦×¢": 821,
      "×¡×Ķ": 822,
      "Ġ×ľ×Ķ×©×ª×ŀ×©": 823,
      "Ġ×ŀ×ĸ×¨×Ĺ": 824,
      "Ġ×ĳ×¨×Ļ×ĺ": 825,
      "Ġ×¤×ķ×¢": 826,
      "×Ļ×¦×ķ×¨": 827,
      "Ġ×Ĳ×ĵ×Ŀ": 828,
      "×§×©": 829,
      "×ķ×ŀ×ª": 830,
      "Ġ×¨×ķ×¦×Ķ": 831,
      "Ġ×ŀ×¡×ķ": 832,
      "Ġ×ĸ×Ľ×ķ×Ļ×ķ×ª": 833,
      "Ġ×§×¦×¨×": 834,
      "Ġ×ĳ×Ļ×§": 835,
      "Ġ×Ĳ×§": 836,
      "Ġ×ª×¨×Ĵ": 837,
      "Ġ×ľ×Ķ×©": 838,
      "Ġ×¦×¨×Ļ×Ľ": 839,
      "Ġ×¤×¨×§": 840,
      "Ġ×¢×ĳ×ķ×ĵ×Ķ": 841,
      "Ġ×ĳ×ľ×ĳ×ĵ": 842,
      "Ġ×ł×ĳ×Ĺ×¨×ª": 843,
      "Ġ×Ĺ×Ļ×ľ": 844,
      "Ġ×ª×Ĳ": 845,
      "×Ľ×ª": 846,
      "Ġ×¡×ĳ": 847,
      "Ġ×¡×ķ×Ĵ": 848,
      "Ġ×¤×¢×Ŀ": 849,
      "Ġ×Ĺ×ķ×¥": 850,
      "×ŀ×Ļ×ª": 851,
      "Ġ×ŀ×¤×¢": 852,
      "Ġ×ŀ×ľ×Ĺ×ŀ×Ķ": 853,
      "Ġ×Ķ×ĳ": 854,
      "Ġ×Ļ×¢": 855,
      "Ġ×¤×ł": 856,
      "Ġ×Ĵ×ķ×¨": 857,
      "×¨×ĳ×ķ×ª": 858,
      "Ġ×ª×§×ķ×¤": 859,
      "Ġ×Ĺ×Ļ×Ļ×ĳ": 860,
      "×¨×ķ×ļ": 861,
      "×ł×Ĵ": 862,
      "Ġ×¤×Ļ": 863,
      "Ġ×Ĺ×ĳ×¨×Ļ": 864,
      "Ġ×ľ×Ļ×ŀ": 865,
      "Ġ×Ĵ×Ļ×ľ": 866,
      "Ġ×ŀ×©×Ķ": 867,
      "×ķ×ŀ×Ļ": 868,
      "Ġ×Ĳ×ĸ×ķ×¨": 869,
      "Ġ×Ĳ×Ļ×ĸ×Ķ": 870,
      "Ġ×ŀ×¢×¨×Ľ×ª": 871,
      "Ġ×ĳ×Ł": 872,
      "Ġ×©×ķ×ĳ": 873,
      "Ġ×Ľ×ŀ": 874,
      "Ġ×ĺ×§": 875,
      "Ġ×Ľ×ŀ×ķ×ĳ×Ł": 876,
      "×Ľ×Ł": 877,
      "Ġ×ŀ×ª×§": 878,
      "Ġ×¢×¨×Ļ×Ľ×Ķ": 879,
      "Ġ×¦×¨×¤×ª": 880,
      "×Ľ×©×Ļ×ķ": 881,
      "Ġ×ľ×Ļ×ŀ×ķ×ĵ": 882,
      "Ġ×Ļ×ª": 883,
      "×ķ×¡×§": 884,
      "Ġ×©×ł×Ļ×Ļ×Ķ": 885,
      "Ġ×Ľ×Ļ×ķ×Ŀ": 886,
      "Ġ×Ļ×Ķ×ķ×ĵ×Ļ×Ŀ": 887,
      "Ġ×ª×ł×ķ×¢": 888,
      "Ġ×Ķ×©×ª": 889,
      "Ġ×¢×©": 890,
      "Ġ×¢×Ľ×©×Ļ×ķ": 891,
      "Ġ×Ļ×ķ×Ŀ": 892,
      "Ġ×ł×ķ×¦": 893,
      "×¦×Ļ×Ķ": 894,
      "×¡×Ļ×¡": 895,
      "×Ļ×ł×ª×Ļ": 896,
      "Ġ×¢×¦×ŀ×ķ": 897,
      "Ġ×Ĳ×Ĵ×ĳ": 898,
      "Ġ×¤×ķ×ľ×Ļ×ĺ": 899,
      "Ġ×Ĳ×Ľ": 900,
      "×ª×ķ": 901,
      "×Ļ×ŀ×¤": 902,
      "Ġ×ŀ×¦×Ļ×¢": 903,
      "Ġ×ł×ķ×¡×¤×Ļ×Ŀ": 904,
      "Ġ×ł×Ľ×ķ×Ł": 905,
      "×Ļ×©×Ķ×ķ": 906,
      "×ķ×ķ×Ĺ": 907,
      "Ġ×ł×¡": 908,
      "Ġ×Ĳ×Ļ×ł×Ķ": 909,
      "Ġ×¤×ķ×¨×ĺ": 910,
      "×ľ×Ĵ": 911,
      "Ġ×Ļ×ŀ×Ļ×Ŀ": 912,
      "×ķ×¨×ĺ": 913,
      "Ġ×ª×¤": 914,
      "×ĺ×ķ×Ł": 915,
      "Ġ×¦×ķ×¨×Ķ": 916,
      "×ķ×§×ª": 917,
      "Ġ×Ķ×Ĺ×ľ×ĺ": 918,
      "×Ĺ×ĳ": 919,
      "Ġ×ł×ĵ": 920,
      "×Ļ×¨×Ļ×Ŀ": 921,
      "×ĸ×ķ×¨": 922,
      "×ķ×Ľ×Ķ": 923,
      "×Ļ×ŀ×ķ×ª": 924,
      "Ġ×Ĺ×ĳ×¨×Ķ": 925,
      "Ġ×¦×ĳ×Ĳ×Ļ": 926,
      "Ġ×©×Ļ×ł×ķ×Ļ": 927,
      "Ġ×¦×¤×ķ×Ł": 928,
      "×ł×ĺ": 929,
      "Ġ×¤×Ķ": 930,
      "Ġ×§×ľ": 931,
      "×Ļ×Ĺ×¡": 932,
      "×Ĳ×©×¨": 933,
      "Ġ×Ļ×§×Ļ×¤": 934,
      "×ķ×Ĵ×¨×¤×Ļ×Ķ": 935,
      "ŀ×ª": 936,
      "Ġ×ľ×ŀ×©": 937,
      "Ġ×Ĳ×©×ŀ×Ĺ": 938,
      "Ġ×ŀ×Ļ×©×Ķ×ķ": 939,
      "Ġ×¨×Ľ": 940,
      "Ġ×¡×ķ×£": 941,
      "Ġ×Ĳ×Ļ×ł×ĺ": 942,
      "Ġ×ł×ŀ×¦×Ĳ": 943,
      "Ġ×Ļ×ķ×¦×¨×Ļ×Ŀ": 944,
      "Ġ×¦×¨×Ļ×Ľ×Ķ": 945,
      "Ġ×ľ×ķ×Ĺ": 946,
      "Ġ×©×ķ×Ŀ": 947,
      "Ġ×¢×ķ×¡×§": 948,
      "Ġ×Ľ×ķ×Ĺ": 949,
      "×¡×§": 950,
      "×ķ×ĳ×ķ×ª": 951,
      "×Ľ×ľ×ľ": 952,
      "Ġ×ĳ×Ļ×ĺ": 953,
      "Ġ×ł×Ĵ×ĵ": 954,
      "Ġ×Ĳ×¨×ĳ": 955,
      "×ķ×ł×Ļ×ª": 956,
      "Ġ×ĸ×Ķ×ķ": 957,
      "×Ļ×©×Ļ×ª": 958,
      "Ġ×Ĳ×Ļ×ł×Ŀ": 959,
      "Ġ×ł×Ĺ×©×ĳ": 960,
      "Ġ×©×ĳ×ķ×¢": 961,
      "Ġ×ŀ×ĵ×Ļ×ł×Ļ×ķ×ª": 962,
      "Ġ×Ĳ×¦×ľ": 963,
      "Ġ×ĳ×ŀ×§": 964,
      "×ķ×¨×ķ×ª": 965,
      "Ġ×Ĵ×ľ": 966,
      "Ġ×ľ×Ķ×Ĵ": 967,
      "×ķ×Ľ×Ĺ": 968,
      "Ġ×ŀ×§×ķ×¨×ķ×ª": 969,
      "Ġ×ŀ×ķ×ŀ×ľ": 970,
      "Ġ×Ĳ×ķ×ł×Ļ×ĳ×¨×¡×Ļ×ĺ×ª": 971,
      "×ŀ×Ĳ×ķ×ª": 972,
      "Ġ×¨×ľ": 973,
      "Ġ×¡×ĵ": 974,
      "Ġ×¡×Ĵ": 975,
      "Ġ×Ĺ×©×ĳ": 976,
      "Ġ×¨×Ĳ×ķ×Ļ": 977,
      "Ġ×Ľ×ĵ×ķ×¨×Ĵ×ľ": 978,
      "Ġ×ľ×ŀ×©×ľ": 979,
      "×¨×Ļ×Ķ": 980,
      "Ġ×ĳ×Ķ": 981,
      "Ġ×ĳ×Ļ×ł": 982,
      "Ġ×©×ŀ": 983,
      "Ġ×ª×Ĵ": 984,
      "Ġ×§×ķ×ľ": 985,
      "Ġ×Ĳ×Ļ×¨×ķ×¢": 986,
      "×§×ĳ×ķ×ª": 987,
      "×ķ×ķ×ª": 988,
      "Ġ×ĳ×Ľ×ľ×ľ": 989,
      "Ġ×ŀ×ķ×ĵ": 990,
      "Ġ×¨×¤": 991,
      "Ġ×Ĵ×¨×¡": 992,
      "Ġ×ŀ×¡×Ĺ×¨": 993,
      "Ġ×ª×Ĺ×ª": 994,
      "Ġ×¤×ª×Ļ×Ĺ": 995,
      "Ġ×©×Ĳ×ľ×Ķ": 996,
      "Ġ×Ĺ×Ļ×ł×ķ×ļ": 997,
      "ŀ×¨×Ļ×Ŀ": 998,
      "Ġ×ĳ×¡×Ļ×¡": 999,
      "×Ĺ×Ļ×Ŀ": 1000,
      "×Ľ×Ļ×Ŀ": 1001,
      "Ġ×¨×©×Ļ×ŀ×Ķ": 1002,
      "Ġ×Ĺ×©×ķ×ĳ×Ļ×Ŀ": 1003,
      "×ķ×Ĳ×ľ": 1004,
      "Ġ×ĳ×ŀ×Ļ": 1005,
      "Ġ×ª×ķ×¦": 1006,
      "Ġ×¨×¢": 1007,
      "×Ļ×ł×Ĵ": 1008,
      "Ġ×Ĳ×ľ×Ĳ": 1009,
      "Ġ×ĳ×¢×Ļ×§×¨": 1010,
      "Ġ×¨×©×ŀ×Ļ": 1011,
      "×¨×Ĳ×ķ×ª": 1012,
      "Ġ×ĳ×ŀ×Ļ×ķ×Ĺ×ĵ": 1013,
      "Ġ×¢×¨×ĳ": 1014,
      "Ġ×Ļ×ķ×ĵ": 1015,
      "Ġ×ľ×Ķ×¤": 1016,
      "Ġ×ĳ×¢×§×ĳ×ķ×ª": 1017,
      "Ġ×¨×Ĳ×©×Ļ": 1018,
      "×ķ×ķ×ł×ĺ": 1019,
      "Ġ×¤×Ļ×ľ": 1020,
      "×ĸ×¨": 1021,
      "Ġ×Ĳ×ľ×ĳ": 1022,
      "Ġ×ŀ×¤×ľ×Ĵ": 1023,
      "Ġ×Ľ×ľ×ľ×Ļ": 1024,
      "×Ļ×ķ×ķ×Ł": 1025,
      "Ġ×ŀ×¢×¨×ĳ": 1026,
      "Ġ×¨×ľ×ķ×ķ×ł×ĺ": 1027,
      "Ġ×Ķ×ª×Ļ": 1028,
      "×ł×ķ×Ł": 1029,
      "Ġ×ŀ×Ļ×ľ": 1030,
      "Ġ×Ĳ×ķ×Ľ×ľ": 1031,
      "Ġ×§×Ļ×Ļ×Ŀ": 1032,
      "×ķ×Ĳ×¨": 1033,
      "Ġ×¨×ĳ×ķ×ª": 1034,
      "Ġ×¨×©×Ļ×ŀ×ª": 1035,
      "Ġ×Ĳ×Ľ×Ł": 1036,
      "Ġ×Ķ×ķ×¨": 1037,
      "Ġ×Ļ×ķ×¨": 1038,
      "Ġ×Ĺ×ķ×ŀ×¨": 1039,
      "×§×ĵ": 1040,
      "×Ĳ×Ļ×¨": 1041,
      "Ġ×ĳ×Ĺ×Ļ×ł×ª×Ļ": 1042,
      "Ġ×¢×ĵ×Ļ×£": 1043,
      "Ġ×¤×¨×ľ": 1044,
      "Ġ×Ĳ×¨×Ĵ×ķ×Ł": 1045,
      "Ġ×ª×§×ķ×¤×ª": 1046,
      "Ġ×ł×ķ×Ľ×Ĺ": 1047,
      "Ġ×©×ľ×ķ×Ŀ": 1048,
      "Ġ×ŀ×ª×Ļ": 1049,
      "Ġ×§×ĳ×ķ×¦": 1050,
      "Ġ×ŀ×©×ª×ŀ×©×Ļ×Ŀ": 1051,
      "×ŀ×ł×ĺ": 1052,
      "Ġ×ŀ×ķ×ŀ×Ĺ": 1053,
      "Ġ×ĵ×¨×ķ×Ŀ": 1054,
      "Ġ×ŀ×Ĺ×ľ×ķ×§×ª": 1055,
      "×ķ×Ĺ×¨": 1056,
      "Ġ×ĳ×ĺ": 1057,
      "Ġ×©×ŀ×ķ×ª": 1058,
      "Ġ×Ľ×ķ": 1059,
      "Ġ×Ľ×©": 1060,
      "Ġ×ĵ×ķ×ŀ×Ķ": 1061,
      "×ķ×ĵ×ķ×ª": 1062,
      "Ġ×Ĳ×¤×Ļ×ľ×ķ": 1063,
      "Ġ×Ĳ×ĸ×¨×Ĺ": 1064,
      "Ġ×§×ĳ×ķ×¦×Ķ": 1065,
      "Ġ×§×Ķ×Ļ×ľ×Ķ": 1066,
      "Ġ×Ľ×Ĳ×©×¨": 1067,
      "Ġ×Ĺ×ĳ×ľ": 1068,
      "×ł×§": 1069,
      "Ġ×Ĵ×¨": 1070,
      "Ġ×¦×Ķ×ľ": 1071,
      "Ġ×ľ×Ķ×ĳ": 1072,
      "Ġ×ŀ×ŀ×ľ": 1073,
      "×¨×ł×ĺ": 1074,
      "Ġ×ŀ×©×Ķ×ķ": 1075,
      "Ġ×ĳ×Ļ": 1076,
      "Ġ×ĳ×ĵ×Ļ": 1077,
      "Ġ×©×ķ×ł×Ļ×Ŀ": 1078,
      "×ķ×¨×Ļ": 1079,
      "×¤×©": 1080,
      "Ġ×¡×ĵ×¨": 1081,
      "Ġ×ŀ×§×ķ×ĳ×ľ": 1082,
      "Ġ×ŀ×¡×¤": 1083,
      "Ġ×¦×¨×Ļ×Ľ×Ļ×Ŀ": 1084,
      "Ġ×ŀ×ĵ×Ļ×ł×ķ×ª": 1085,
      "×ĳ×ķ×¨": 1086,
      "×©×Ļ": 1087,
      "×¢×ķ": 1088,
      "Ġ×ŀ×ķ×©": 1089,
      "×Ľ×Ŀ": 1090,
      "×ķ×§×Ķ": 1091,
      "Ġ×ľ×¤×Ĺ×ķ×ª": 1092,
      "×¨×Ĵ×¢": 1093,
      "Ġ×¤×¨×ľ×ŀ×ł×ĺ": 1094,
      "×ĵ×ľ": 1095,
      "×§×ª": 1096,
      "Ġ×Ĳ×Ļ×ļ": 1097,
      "Ġ×ŀ×Ĺ×ķ×ĸ": 1098,
      "Ġ×ĸ×Ľ×Ķ": 1099,
      "×ķ×ľ×ķ×Ĵ×Ļ×Ķ": 1100,
      "Ġ×ĳ×ĵ×Ļ×ķ×§": 1101,
      "Ġ×¢×Ļ×§×¨": 1102,
      "Ġ×§×ĵ": 1103,
      "Ġ×Ĵ×Ĳ": 1104,
      "×ķ×ĵ×ª": 1105,
      "×¨×Ļ×Ĳ×": 1106,
      "Ġ×ŀ×ĵ×ķ×¢": 1107,
      "Ġ×ľ×¤×ª": 1108,
      "Ġ×ª×ŀ×Ļ×ĵ": 1109,
      "Ġ×Ļ×Ķ×ķ×ĵ×Ļ": 1110,
      "Ġ×ł×©×Ļ×Ĳ": 1111,
      "Ġ×©×ľ×ķ×©×Ķ": 1112,
      "Ġ×ľ×¨×Ĳ×ķ×ª": 1113,
      "Ġ×©×¨": 1114,
      "Ġ×Ľ×¨×Ĵ×¢": 1115,
      "Ġ×ł×¦": 1116,
      "Ġ×ª×¨×ĳ×ķ×ª": 1117,
      "Ġ×¤×Ĵ": 1118,
      "Ġ×¡×Ļ×ĳ×Ķ": 1119,
      "Ġ×ŀ×ĵ×¢": 1120,
      "Ġ×ĳ×¢×ľ": 1121,
      "Ġ×©×ł×ķ×ª": 1122,
      "Ġ×Ĺ×ĵ×©×Ķ": 1123,
      "Ġ×ĺ×§×¡×ĺ": 1124,
      "Ġ×Ĳ×Ļ×ł×ĺ×¨×ł×ĺ": 1125,
      "Ġ×Ķ×ĵ": 1126,
      "Ġ×Ķ×ŀ×©×ļ": 1127,
      "Ġ×Ķ×Ļ×ķ×Ŀ": 1128,
      "Ġ×ĳ×Ĵ×ľ": 1129,
      "×ĳ×ª": 1130,
      "Ġ×¢×ŀ×ķ×ĵ": 1131,
      "Ġ×Ľ×ĳ": 1132,
      "Ġ×ľ×¡": 1133,
      "×ł×¡": 1134,
      "Ġ×Ĳ×ķ×¡": 1135,
      "×Ļ×©×Ļ": 1136,
      "×¨×Ļ×ĵ": 1137,
      "×Ļ×¤×ķ×¨": 1138,
      "Ġ×ł×Ľ×ª×ĳ": 1139,
      "Ġ×ĳ×Ĵ×ľ×ľ": 1140,
      "Ġ×ł×ķ×ľ×ĵ": 1141,
      "×¦×Ķ": 1142,
      "×Ļ×ł×ķ": 1143,
      "Ġ×ŀ×§×ķ×ŀ×ķ×ª": 1144,
      "Ġ×Ĳ×Ĺ×¨×ķ×ª": 1145,
      "Ġ×¤×¢×Ļ×ľ×ķ×ª": 1146,
      "Ġ×Ĳ×Ļ×¨×ķ×¤×Ķ": 1147,
      "Ġ×Ĳ×ŀ×¨×Ļ×§": 1148,
      "×ķ×ķ×Ł": 1149,
      "Ġ×©×Ļ×¨×ķ×ª": 1150,
      "Ġ×Ĺ×ķ×ĸ": 1151,
      "×Ĺ×Ļ×ľ": 1152,
      "×ķ×¨×¨": 1153,
      "Ġ×ł×Ĳ×": 1154,
      "Ġ×¨×ķ×¡": 1155,
      "Ġ×¡×Ļ": 1156,
      "Ġ×ŀ×Ĺ×ĵ×©": 1157,
      "Ġ×Ĳ×ĳ×Ļ×ĳ": 1158,
      "Ġ×¨×Ĳ×Ļ×ª×Ļ": 1159,
      "Ġ×¨×Ĺ×ĳ": 1160,
      "Ġ×Ĵ×¨×ŀ×ł×Ļ×Ķ": 1161,
      "Ġ×¢×¨×Ľ×Ļ": 1162,
      "Ġ×Ĳ×ŀ×ł": 1163,
      "×ª×Ļ×Ļ×Ŀ": 1164,
      "Ġ×ł×Ļ×¦": 1165,
      "×Ľ×ķ×ª": 1166,
      "Ġ×ĵ×ķ": 1167,
      "×ķ×ľ×ķ×ª": 1168,
      "×¨×Ļ×ļ": 1169,
      "×Ļ×Ĺ×ķ×ĵ": 1170,
      "Ġ×¤×¨×©": 1171,
      "Ġ×¨×Ĺ×ķ×ĳ": 1172,
      "Ġ×¤×¨×ĺ×Ļ×Ŀ": 1173,
      "Ġ×ŀ×ŀ": 1174,
      "Ġ×©×Ļ×ĺ": 1175,
      "Ġ×Ľ×¤×Ļ": 1176,
      "Ġ×ķ×ķ×Ļ×§": 1177,
      "Ġ×§×©": 1178,
      "Ġ×¡×ķ×¤": 1179,
      "Ġ×ľ×Ķ×¡": 1180,
      "Ġ×ŀ×¡×Ĵ": 1181,
      "Ġ×ĳ×¨×ķ×¨": 1182,
      "Ġ×ľ×§×ĳ×ľ": 1183,
      "Ġ×Ļ×ĵ×ķ×¢": 1184,
      "×Ļ×Ĳ×ľ": 1185,
      "Ġ×¢×ĳ×ķ×¨": 1186,
      "Ġ×ŀ×ķ×¨×Ĺ×ĳ": 1187,
      "Ġ×©×ĺ×Ĺ": 1188,
      "Ġ×©×ķ×ľ": 1189,
      "Ġ×Ĺ×Ļ×¤": 1190,
      "×ŀ×¦": 1191,
      "Ġ×¦×ľ": 1192,
      "×ķ×ŀ×Ļ×ª": 1193,
      "Ġ×¡×¤×¨×Ļ×Ŀ": 1194,
      "Ġ×ª×ĳ×ł×Ļ×ķ×ª": 1195,
      "Ġ×¡×¤×¨×ĵ": 1196,
      "Ġ×ľ×ª×ª": 1197,
      "Ġ×§×¦×¨×ŀ×¨": 1198,
      "Ġ×Ĳ×ľ×ĳ×ķ×Ŀ": 1199,
      "Ġ×ŀ×¡×¤×Ļ×§": 1200,
      "×ĵ×ķ×Ł": 1201,
      "Ġ×¨×Ĵ": 1202,
      "Ġ×¤×Ĳ": 1203,
      "Ġ×ł×ķ×¡×¤×ª": 1204,
      "Ġ×ŀ×ĳ×ł×Ķ": 1205,
      "Ġ×Ĳ×ķ×ª×ķ": 1206,
      "Ġ×©×Ļ×ł×ķ×Ļ×Ļ×Ŀ": 1207,
      "Ġ×ĳ×Ļ×¦": 1208,
      "×¤×ķ": 1209,
      "Ġ×ŀ×§×¨×Ļ×Ŀ": 1210,
      "Ġ×Ľ×ł×¡": 1211,
      "Ġ×ľ×ŀ×¢×©×Ķ": 1212,
      "×ĳ×ķ×ª": 1213,
      "Ġ×Ľ×Ķ": 1214,
      "Ġ×ľ×ŀ": 1215,
      "Ġ×Ļ×Ļ×©": 1216,
      "Ġ×Ĺ×§": 1217,
      "×Ļ×ĵ×Ļ": 1218,
      "×ŀ×©×Ļ×ļ": 1219,
      "Ġ×¡×¤×¨×ķ×ª": 1220,
      "Ġ×ĳ×ª×ķ×ļ": 1221,
      "×¨×ª×Ļ": 1222,
      "Ġ×ĳ×ľ×Ļ": 1223,
      "Ġ×Ļ×ŀ×Ļ": 1224,
      "Ġ×ŀ×ĵ×Ļ×ł×ª": 1225,
      "×ķ×ŀ×ĵ": 1226,
      "Ġ×ŀ×ľ×ļ": 1227,
      "Ġ×ŀ×ł×Ķ": 1228,
      "Ġ×ª×ķ×Ľ×ł×Ļ×ª": 1229,
      "Ġ×Ĵ×ĵ×ķ×ľ×Ķ": 1230,
      "Ġ×¦×ĳ×Ĳ×Ļ×ª": 1231,
      "Ġ×Ĺ×ķ×¤×©×Ļ": 1232,
      "Ġ×ĳ×ŀ×§×ķ×Ŀ": 1233,
      "Ġ×Ķ×¨×Ļ": 1234,
      "×ľ×ĺ": 1235,
      "Ġ×Ĺ×ķ×¡": 1236,
      "×ŀ×Ĳ×": 1237,
      "Ġ×Ĳ×ª×Ŀ": 1238,
      "Ġ×ŀ×ĵ×Ļ": 1239,
      "×Ļ×ĺ×ľ": 1240,
      "Ġ×ŀ×ª×ķ×ļ": 1241,
      "×¨×Ľ×Ķ": 1242,
      "Ġ×ľ×Ĺ×ľ": 1243,
      "ŀ×¦×¢×ķ×ª": 1244,
      "Ġ×ĳ×Ĳ×ŀ×¦×¢×ķ×ª": 1245,
      "Ġ×¤×ķ×¢×ľ": 1246,
      "Ġ×ŀ×¡×Ĵ×¨×ª": 1247,
      "Ġ×Ļ×ŀ": 1248,
      "Ġ×ŀ×ķ×Ľ": 1249,
      "Ġ×¨×Ĳ×Ķ": 1250,
      "×ŀ×ĺ": 1251,
      "Ġ×§×©×Ķ": 1252,
      "×Ľ×Ļ×¨": 1253,
      "×¡×ķ×Ł": 1254,
      "Ġ×Ĳ×ł×©×Ļ": 1255,
      "Ġ×ĳ×¢×ľ×Ļ": 1256,
      "Ġ×ŀ×¢×ĺ": 1257,
      "Ġ×Ĳ×¤×©×¨×ķ×ª": 1258,
      "×¤×ª×Ĺ": 1259,
      "Ġ×Ķ×Ļ×Ļ×ª×Ļ": 1260,
      "Ġ×Ķ×©×ª×ª": 1261,
      "×ķ×¨×Ļ×ķ×ª": 1262,
      "×§×Ļ×Ŀ": 1263,
      "Ġ×ľ×Ĳ×Ĺ×¨×ķ×ł×Ķ": 1264,
      "Ġ×ŀ×Ĳ×ŀ×¨": 1265,
      "Ġ×Ĺ×Ļ×Ļ×ķ": 1266,
      "Ġ×Ĵ×ĳ×ķ×Ķ": 1267,
      "Ġ×Ĳ×ķ×ł×Ļ×ĳ×¨×¡×Ļ×ĺ×Ķ": 1268,
      "Ġ×ŀ×©×¤×Ĺ×ª×ķ": 1269,
      "×ľ×ł×ĵ": 1270,
      "×ª×Ķ": 1271,
      "Ġ×ł×¨×Ĺ×ĳ": 1272,
      "Ġ×ŀ×¨×Ĺ×ĳ": 1273,
      "Ġ×ĵ×ķ×ĵ": 1274,
      "Ġ×¡×§": 1275,
      "×ķ×¦×Ļ×Ŀ": 1276,
      "×Ļ×ŀ×©": 1277,
      "Ġ×Ķ×¦×ľ×Ĺ×Ķ": 1278,
      "Ġ×ĳ×Ĳ×ŀ×ª": 1279,
      "Ġ×§×ķ×ĵ×Ŀ": 1280,
      "×ķ×ķ": 1281,
      "×¨×ľ": 1282,
      "Ġ×©×ķ×ł×ķ×ª": 1283,
      "Ġ×¢×Ļ×ª": 1284,
      "×ł×Ł": 1285,
      "Ġ×ł×ľ": 1286,
      "Ġ×Ĳ×ķ×ľ×Ŀ": 1287,
      "Ġ×¨×ķ×ķ×Ĺ": 1288,
      "Ġ×ŀ×¤×§×ĵ": 1289,
      "Ġ×Ļ×©×¨×Ĳ×ľ×Ļ": 1290,
      "Ġ×ŀ×Ĳ×¤": 1291,
      "Ġ×Ķ×¡×ĳ×¨": 1292,
      "Ġ×ŀ×ŀ×©×ľ×Ķ": 1293,
      "Ġ×Ķ×¦×ľ×Ļ×Ĺ": 1294,
      "Ġ×ľ×Ļ×¦×ķ×¨": 1295,
      "Ġ×©×Ĳ×¨": 1296,
      "Ġ×ª×Ļ×§": 1297,
      "×ķ×ł×ª": 1298,
      "×ŀ×¨": 1299,
      "Ġ×ŀ×©×¨×ĵ": 1300,
      "×ķ×¡×ķ×¤": 1301,
      "×ķ×§×Ĳ": 1302,
      "Ġ×ŀ×Ĺ×©×ĳ": 1303,
      "×¨×Ĺ×Ļ×ĳ": 1304,
      "Ġ×Ľ×ª×Ļ×ĳ×ª": 1305,
      "Ġ×Ļ×Ķ×ķ×ĵ×Ļ×ª": 1306,
      "Ġ×Ľ×ª×ĳ×ª×Ļ": 1307,
      "Ġ×ª×©×ķ×ĳ×Ķ": 1308,
      "Ġ×ĳ×§×©×Ķ": 1309,
      "Ġ×Ķ×ķ×¡×¤×ª": 1310,
      "Ġ×Ľ×ķ×ľ×ľ": 1311,
      "Ġ×Ķ×ķ×ľ": 1312,
      "Ġ×ĳ×ķ×ĺ": 1313,
      "Ġ×ł×ķ×¢": 1314,
      "Ġ×Ĳ×¨×Ľ": 1315,
      "×¤×ľ": 1316,
      "×Ļ×ł×ķ×ª": 1317,
      "×ķ×©×Ķ": 1318,
      "Ġ×Ľ×ľ×©×Ķ": 1319,
      "×ŀ×¢×ĺ": 1320,
      "Ġ×ª×ķ×Ľ×Ł": 1321,
      "Ġ×ĵ×¢×ª×ļ": 1322,
      "Ġ×Ķ×Ĺ×ľ×ĺ×Ķ": 1323,
      "Ġ×ŀ×ķ×ŀ×ľ×¥": 1324,
      "Ġ×ĳ×ª×Ļ": 1325,
      "Ġ×Ĳ×ŀ×¦": 1326,
      "Ġ×Ľ×ŀ×¢×ĺ": 1327,
      "Ġ×ł×Ĵ": 1328,
      "Ġ×ŀ×Ļ×ł": 1329,
      "Ġ×ª×Ķ": 1330,
      "Ġ×¨×ķ×Ĳ×Ķ": 1331,
      "Ġ×ĺ×Ľ×ł": 1332,
      "×¨×Ĳ×©": 1333,
      "Ġ×Ķ×ª×§": 1334,
      "Ġ×§×ķ×¨×Ĳ": 1335,
      "Ġ×ľ×¦×Ļ×Ļ×Ł": 1336,
      "Ġ×Ļ×ķ×ĵ×¢": 1337,
      "Ġ×ľ×ķ": 1338,
      "×ĵ×ª": 1339,
      "Ġ×Ľ×ķ×Ľ": 1340,
      "×ŀ×ĳ": 1341,
      "×ŀ×ļ": 1342,
      "×Ļ×¤×Ļ": 1343,
      "Ġ×ľ×ŀ×Ķ": 1344,
      "Ġ×ľ×¢×¨×ķ×ļ": 1345,
      "Ġ×Ľ×ł×¨×Ĳ×Ķ": 1346,
      "Ġ×©×Ĺ×§×Ł": 1347,
      "Ġ×ĳ×ł×ķ": 1348,
      "Ġ×¢×ķ×ľ": 1349,
      "×ĵ×Ļ×ª": 1350,
      "×§×ķ×ª": 1351,
      "Ġ×Ĵ×Ļ": 1352,
      "Ġ×ĵ×¤×Ļ": 1353,
      "Ġ×©×ľ×ĳ": 1354,
      "×ķ×ľ×ĺ": 1355,
      "×Ĵ×Ļ×Ŀ": 1356,
      "Ġ×¡×Ļ×ķ×Ŀ": 1357,
      "×ķ×§×¨×ĺ": 1358,
      "×Ļ×¤×ķ×ª": 1359,
      "Ġ×ŀ×¢×ł×Ļ": 1360,
      "Ġ×Ĺ×ĳ×¨×ª": 1361,
      "Ġ×ľ×ĳ×Ļ×Ł": 1362,
      "Ġ×¤×¡×§×Ķ": 1363,
      "Ġ×¤×ª×Ĺ": 1364,
      "Ġ×ł×ŀ×¦×Ĳ×ª": 1365,
      "Ġ×§×Ļ×Ļ×ŀ×Ļ×Ŀ": 1366,
      "Ġ×Ĳ×§×ĵ": 1367,
      "Ġ×ľ×¤×ª×ķ×Ĺ": 1368,
      "Ġ×ĳ×ł": 1369,
      "×ª×Ļ×Ŀ": 1370,
      "×ª×ļ": 1371,
      "Ġ×ĵ×ķ×¨": 1372,
      "Ġ×Ķ×ķ×¢": 1373,
      "×Ļ×ľ×Ļ": 1374,
      "×ķ×ŀ×ł": 1375,
      "Ġ×ľ×Ķ×¢×ľ×ķ×ª": 1376,
      "Ġ×ª×¨×Ĵ×ķ×Ŀ": 1377,
      "Ġ×ľ×ŀ×¨×ķ×ª": 1378,
      "Ġ×©×Ĵ": 1379,
      "Ġ×©×Ļ×ŀ×©": 1380,
      "×¨×Ŀ": 1381,
      "Ġ×ŀ×¨": 1382,
      "×Ļ×ª×Ķ": 1383,
      "×¤×ª×Ļ": 1384,
      "Ġ×ĵ×ŀ": 1385,
      "Ġ×¨×ĳ×Ķ": 1386,
      "Ġ×Ļ×Ķ×Ļ×ķ": 1387,
      "Ġ×ľ×¢×ª×Ļ×Ŀ": 1388,
      "×ķ×Ļ×§×ĺ": 1389,
      "×Ļ×ĸ×Ŀ": 1390,
      "Ġ×Ĺ×ķ×©×ĳ×Ļ×Ŀ": 1391,
      "Ġ×¤×¨×ķ×Ļ×§×ĺ": 1392,
      "Ġ×§×Ļ×ĳ×ľ": 1393,
      "Ġ×§×¨×ķ×ĳ": 1394,
      "Ġ×Ĺ×Ļ×Ļ×ĳ×Ļ×Ŀ": 1395,
      "Ġ×ĳ×ŀ×©×ļ": 1396,
      "×ĳ×Ļ×ľ": 1397,
      "Ġ×¢×§×¨": 1398,
      "×ķ×¨×ļ": 1399,
      "×¦×Ļ×Ŀ": 1400,
      "×ķ×ĺ×Ļ×Ł": 1401,
      "Ġ×ŀ×Ĳ×Ķ": 1402,
      "Ġ×Ĺ×ĵ×©×ķ×ª": 1403,
      "Ġ×§×¦×¨": 1404,
      "×Ľ×ł×Ļ×¡": 1405,
      "Ġ×Ļ×ľ×ĵ×Ļ×Ŀ": 1406,
      "Ġ×ĵ×ķ×ķ×§×Ĳ": 1407,
      "×Ļ×Ļ×ĺ": 1408,
      "Ġ×Ľ×ķ×ľ×Ŀ": 1409,
      "Ġ×Ĺ×ª": 1410,
      "Ġ×ł×ķ×Ĵ": 1411,
      "Ġ×Ĳ×¨": 1412,
      "Ġ×Ĳ×Ļ×Ĺ×ķ×ĵ": 1413,
      "Ġ×§×ķ×ł": 1414,
      "Ġ×ŀ×©×ł×Ķ": 1415,
      "×ķ×§×¡": 1416,
      "Ġ×Ĺ×Ļ×¦×ķ×ł×Ļ": 1417,
      "Ġ×ŀ×©×Ĺ×§×Ļ×Ŀ": 1418,
      "Ġ×Ķ×Ĵ×ĵ": 1419,
      "Ġ×¡×¤×¦": 1420,
      "Ġ×Ķ×©×¤": 1421,
      "Ġ×ľ×Ķ×©×Ĳ×Ļ×¨": 1422,
      "Ġ×¤×ķ×¨×ĺ×ľ": 1423,
      "Ġ×ł×ķ×Ľ×Ĺ×Ļ": 1424,
      "Ġ×ŀ×ķ×ŀ×Ĺ×Ķ": 1425,
      "Ġ×Ĺ×ķ×¡×¨": 1426,
      "Ġ×©×Ļ": 1427,
      "Ġ×©×Ļ×¨": 1428,
      "Ġ×Ļ×ĳ": 1429,
      "Ġ×§×ķ×ĳ": 1430,
      "Ġ×§×¨×ĳ": 1431,
      "Ġ×§×¨×Ļ×Ĳ×": 1432,
      "×ŀ×ķ×ļ": 1433,
      "Ġ×ĵ×ŀ×ķ": 1434,
      "×Ĵ×ķ×ª": 1435,
      "Ġ×Ķ×ķ×§": 1436,
      "Ġ×Ķ×¦×¢×ª": 1437,
      "Ġ×ł×ķ×¡×¤×ķ×ª": 1438,
      "Ġ×ľ×©×ł×ķ×ª": 1439,
      "Ġ×ŀ×©×Ĺ×§×Ļ": 1440,
      "Ġ×ŀ×Ĳ×ķ×Ĺ×¨": 1441,
      "Ġ×¤×ª×ķ×Ĺ": 1442,
      "Ġ×¨×¦×ķ×Ļ": 1443,
      "Ġ×Ľ×ķ×ª×ĳ": 1444,
      "Ġ×Ķ×ł": 1445,
      "Ġ×Ķ×ĳ×ł": 1446,
      "×¨×Ľ×Ļ×Ŀ": 1447,
      "Ġ×Ĺ×¨×Ļ×": 1448,
      "×Ĺ×Ł": 1449,
      "×§×Ł": 1450,
      "Ġ×ľ×Ķ×¨×Ĺ×Ļ×ĳ": 1451,
      "×ķ×Ĵ×ľ": 1452,
      "Ġ×Ľ×ª×Ļ×ĳ×Ķ": 1453,
      "Ġ×ł×ķ×¡×Ĺ": 1454,
      "Ġ×ŀ×ĳ×Ļ×Ł": 1455,
      "Ġ×¦×¢×ĵ": 1456,
      "Ġ×ľ×ĵ×¢×ª": 1457,
      "Ġ×ĳ×Ļ×§×ķ×¨×ª": 1458,
      "Ġ×¤×Ļ×ľ×ķ×¡×ķ×¤": 1459,
      "Ġ×Ĺ×Ļ×¤×ķ×©": 1460,
      "Ġ×ľ×Ĺ×ľ×ķ×ĺ×Ļ×Ł": 1461,
      "Ġ×ĳ×Ļ×ł×ª": 1462,
      "Ġ×¢×ŀ×ĵ": 1463,
      "Ġ×Ĺ×ĵ": 1464,
      "Ġ×Ĳ×ł×Ĳ": 1465,
      "Ġ×ĺ×ķ×¨": 1466,
      "Ġ×ª×Ĺ×¨×ķ×ª": 1467,
      "Ġ×¦×ĳ×¢×Ļ×Ŀ": 1468,
      "Ġ×ł×Ļ×¡×ķ×Ĺ": 1469,
      "Ġ×ĵ×ķ×Ĵ×ŀ×Ķ": 1470,
      "Ġ×ª×ł×ķ×¢×Ķ": 1471,
      "Ġ×ĳ×Ļ×ķ×Ĵ×¨×¤×Ļ×Ķ": 1472,
      "Ġ×Ļ×Ļ×©×ķ×ĳ": 1473,
      "Ġ×ĳ×Ļ×ł×ª×Ļ×Ļ×Ŀ": 1474,
      "Ġ×©×ŀ×ķ": 1475,
      "Ġ×©×ŀ×Ĺ": 1476,
      "Ġ×¢×ł": 1477,
      "×©×ľ": 1478,
      "Ġ×Ĺ×Ĵ": 1479,
      "Ġ×ŀ×Ļ×ľ×Ķ": 1480,
      "Ġ×¡×¤×§": 1481,
      "Ġ×Ĳ×Ĺ×¨×ķ×Ł": 1482,
      "Ġ×ŀ×Ĺ×§": 1483,
      "Ġ×Ķ×ª×ł×Ķ": 1484,
      "Ġ×¢×¦×ŀ×Ĳ×ķ×ª": 1485,
      "Ġ×ĳ×ľ×ª×Ļ": 1486,
      "Ġ×§×ĺ×Ĵ×ķ×¨×Ļ×ķ×ª": 1487,
      "Ġ×§×Ļ×Ļ×ŀ×ª": 1488,
      "Ġ×ĵ×ŀ×ķ×Ļ×ķ×ª": 1489,
      "Ġ×Ķ×¨×¦": 1490,
      "×¨×ķ×Ĳ": 1491,
      "Ġ×ľ×ĳ×ł": 1492,
      "Ġ×Ĳ×Ķ": 1493,
      "Ġ×Ĳ×Ļ×ĺ×ľ": 1494,
      "×ŀ×Ĺ×§": 1495,
      "Ġ×ĸ×ŀ×ł": 1496,
      "Ġ×ĺ×¨": 1497,
      "Ġ×Ļ×©×¨×Ĳ×ľ×Ļ×ª": 1498,
      "Ġ×ŀ×Ļ×ĵ×Ķ": 1499,
      "Ġ×ľ×§×¨×ķ×Ĳ": 1500,
      "Ġ×¤×¨×ķ×¤": 1501,
      "Ġ×ł×¤×¨×ĵ": 1502,
      "Ġ×ŀ×¤×ľ×Ĵ×Ķ": 1503,
      "×ŀ×Ĳ×ľ": 1504,
      "Ġ×Ķ×Ĺ": 1505,
      "×Ĺ×ª×Ļ": 1506,
      "Ġ×ª×¨": 1507,
      "Ġ×ª×Ļ×Ĳ": 1508,
      "×ŀ×Ļ×ĵ": 1509,
      "Ġ×©×ľ×ĺ×ķ×Ł": 1510,
      "×Ļ×§×ª": 1511,
      "Ġ×ŀ×©×ŀ×©": 1512,
      "×ķ×©×Ļ×Ŀ": 1513,
      "×Ļ×Ĳ×ķ×Ł": 1514,
      "×ķ×Ĳ×Ļ": 1515,
      "Ġ×ŀ×ķ×ĸ×ŀ×Ł": 1516,
      "Ġ×ĳ×§×¨×ĳ": 1517,
      "Ġ×Ĳ×¨×ĳ×¢×Ķ": 1518,
      "×Ļ×©×Ļ×ª×ķ×£": 1519,
      "Ġ×Ĳ×ķ×Ľ×ľ×ķ×¡": 1520,
      "Ġ×¤×Ĳ×¨×§": 1521,
      "Ġ×©×Ĺ": 1522,
      "Ġ×¢×ķ×ŀ×ĵ": 1523,
      "Ġ×ŀ×ķ×ª": 1524,
      "Ġ×ŀ×ķ×§": 1525,
      "Ġ×ª×Ķ×ľ": 1526,
      "Ġ×ŀ×ĵ×ĳ×¨": 1527,
      "Ġ×ŀ×ĳ×ķ×¡": 1528,
      "Ġ×¨×©×ķ×ª": 1529,
      "×Ĺ×ľ×ĺ": 1530,
      "Ġ×Ļ×¦×Ļ×¨×ª": 1531,
      "Ġ×Ĳ×©×¨": 1532,
      "Ġ×¡×¨×ĺ×Ļ×Ŀ": 1533,
      "Ġ×ĺ×¢×Ŀ": 1534,
      "Ġ×Ĺ×ķ×ĵ×©×Ļ×Ŀ": 1535,
      "Ġ×ĵ×Ļ×ķ×ł×Ļ×Ŀ": 1536,
      "Ġ×ľ×ł×¡": 1537,
      "Ġ×ĳ×Ķ×Ĺ×ľ×ĺ": 1538,
      "Ġ×ĳ×Ļ×ł×ľ×Ĳ": 1539,
      "Ġ×¨×¢×Ļ×ķ×Ł": 1540,
      "Ġ×ŀ×ķ×©×Ĵ": 1541,
      "Ġ×ª×Ķ×Ļ×Ķ": 1542,
      "×¨×£": 1543,
      "×¨×ĸ": 1544,
      "Ġ×Ľ×Ļ×ķ×ķ×Ł": 1545,
      "×Ĺ×ķ×Ł": 1546,
      "×ķ×¨×Ļ×ª": 1547,
      "Ġ×ŀ×ķ×Ĵ": 1548,
      "Ġ×ª×Ľ": 1549,
      "Ġ×¤×ķ×¤": 1550,
      "Ġ×ĵ×Ĵ×ľ": 1551,
      "Ġ×ľ×Ķ×Ľ×ł×Ļ×¡": 1552,
      "×Ļ×Ĳ×ķ×ª": 1553,
      "×Ļ×ĺ×ķ×ĺ": 1554,
      "×Ļ×ŀ×Ļ": 1555,
      "Ġ×ŀ×ĳ×§×©": 1556,
      "Ġ×ŀ×Ĳ×ŀ×¨×Ļ×Ŀ": 1557,
      "Ġ×Ķ×Ĵ×Ļ×¢": 1558,
      "Ġ×Ľ×ª×ĳ×ª": 1559,
      "Ġ×Ķ×ķ×¡×¤×ª×Ļ": 1560,
      "Ġ×ľ×Ķ×¢×ĳ×Ļ×¨": 1561,
      "Ġ×ĵ×ŀ×ķ×§×¨×ĺ": 1562,
      "Ġ×ĳ×©×ĳ": 1563,
      "Ġ×©×¢": 1564,
      "Ġ×¢×Ļ×ł×Ļ": 1565,
      "×¨×Ł": 1566,
      "Ġ×ł×ķ×Ķ": 1567,
      "Ġ×ª×¦": 1568,
      "Ġ×ª×ķ×Ĳ×¨": 1569,
      "Ġ×¨×ķ×Ĺ": 1570,
      "Ġ×¤×Ļ×ª": 1571,
      "Ġ×¤×ł×Ļ": 1572,
      "×ŀ×Ľ": 1573,
      "Ġ×Ĵ×ĸ": 1574,
      "×Ļ×§×ķ×ĵ": 1575,
      "Ġ×ĺ×ĳ×¢": 1576,
      "Ġ×ŀ×Ĺ×§×¨": 1577,
      "Ġ×ŀ×¢×ĳ×¨": 1578,
      "Ġ×ŀ×¦×Ĳ×ª": 1579,
      "Ġ×¨×ĳ×Ļ×¢": 1580,
      "Ġ×¤×¢×ŀ×Ļ×Ŀ": 1581,
      "Ġ×ł×ķ×©×Ĳ×Ļ×Ŀ": 1582,
      "×¨×¦×Ķ": 1583,
      "Ġ×ł×Ķ×ķ×Ĵ": 1584,
      "Ġ×ª×¢×©": 1585,
      "Ġ×Ľ×ķ×ª×ĳ×Ļ×Ŀ": 1586,
      "Ġ×Ķ×ª×Ļ×Ļ×Ĺ×¡": 1587,
      "Ġ×ĳ×©×ĳ×Ļ×ľ": 1588,
      "×Ĺ×ķ": 1589,
      "×Ĳ×ĳ": 1590,
      "×Ĳ×ŀ": 1591,
      "Ġ×¡×ŀ×ľ": 1592,
      "×ķ×§×Ļ×Ŀ": 1593,
      "Ġ×Ľ×ľ×Ľ": 1594,
      "Ġ×Ĳ×ľ×ŀ": 1595,
      "Ġ×Ĳ×Ĺ×¨×ķ×ł×ķ×ª": 1596,
      "Ġ×ŀ×¢×ŀ×ĵ": 1597,
      "Ġ×ŀ×ª×Ĳ×Ļ×Ŀ": 1598,
      "Ġ×ŀ×¤×ķ×¨": 1599,
      "Ġ×ŀ×ĳ×¦×¢": 1600,
      "Ġ×¤×¢×ķ×ľ×Ķ": 1601,
      "Ġ×ĸ×Ľ×ķ×ª": 1602,
      "Ġ×Ĺ×¡×¨×Ļ": 1603,
      "Ġ×Ļ×¦×Ĺ×§": 1604,
      "Ġ×Ļ×¦×Ĳ×ķ": 1605,
      "Ġ×ŀ×Ľ×Ļ×ľ": 1606,
      "Ġ×Ĳ×ł×¦×Ļ×§×ľ×ķ×¤×ĵ×Ļ": 1607,
      "Ġ×¢×ª×Ļ×ĵ": 1608,
      "Ġ×Ķ×ľ×ľ×ķ": 1609,
      "Ġ×Ļ×Ĺ×Ļ×ĵ×Ķ": 1610,
      "Ġ×Ļ×ª×¨": 1611,
      "Ġ×¡×ĵ×¨×Ķ": 1612,
      "Ġ×ª×ķ×¦×Ĳ×Ķ": 1613,
      "Ġ×¨×ľ×ķ×ķ×ł×ĺ×Ļ": 1614,
      "Ġ×ľ×ľ": 1615,
      "×ľ×Ļ×Ĺ": 1616,
      "Ġ×©×§": 1617,
      "Ġ×¢×¡×§": 1618,
      "Ġ×Ļ×Ŀ": 1619,
      "Ġ×Ļ×Ļ×ª": 1620,
      "Ġ×ł×Ĳ×ľ": 1621,
      "Ġ×ŀ×ķ×ª×¨": 1622,
      "Ġ×¨×ŀ×ª": 1623,
      "Ġ×ĵ×ŀ×ķ×ª": 1624,
      "×Ļ×ł×Ļ×ª": 1625,
      "Ġ×ľ×Ķ×§×Ķ": 1626,
      "×¨×Ļ×ĸ": 1627,
      "×ķ×ŀ×ķ": 1628,
      "Ġ×Ķ×ª×ł×Ĵ": 1629,
      "Ġ×©×ł×Ļ×Ļ×Ŀ": 1630,
      "×¢×ª×Ļ×§": 1631,
      "×Ļ×Ľ×Ķ": 1632,
      "Ġ×Ĳ×ł×Ĵ×ľ×Ļ×Ķ": 1633,
      "Ġ×ŀ×¨×Ľ×ĸ×Ļ": 1634,
      "Ġ×ł×¢×©×Ķ": 1635,
      "Ġ×ŀ×ķ×ł×Ĺ": 1636,
      "Ġ×Ĺ×ŀ×Ļ×©×Ķ": 1637,
      "Ġ×ĳ×¨×Ļ×ĺ×Ļ": 1638,
      "Ġ×ŀ×Ĳ×¤×©×¨": 1639,
      "Ġ×©×ŀ×Ĳ×ľ": 1640,
      "Ġ×Ľ×¤×¨": 1641,
      "Ġ×Ĺ×ŀ×©": 1642,
      "×Ĺ×Ŀ": 1643,
      "Ġ×ł×ķ×ª": 1644,
      "Ġ×ŀ×ķ×ĺ": 1645,
      "Ġ×ķ×ķ×©": 1646,
      "Ġ×¡×¢": 1647,
      "Ġ×ŀ×§×ķ×ķ×Ķ": 1648,
      "Ġ×ĺ×ķ×¢": 1649,
      "×©×¨×Ķ": 1650,
      "Ġ×ŀ×ª×Ĳ": 1651,
      "Ġ×Ĳ×¤×¨": 1652,
      "Ġ×Ĳ×Ļ×ł×ł×Ļ": 1653,
      "×Ļ×Ľ×ķ×ª": 1654,
      "Ġ×ľ×©×ŀ": 1655,
      "Ġ×ŀ×ł×Ļ×Ĺ": 1656,
      "Ġ×Ļ×Ĺ×ĵ": 1657,
      "Ġ×Ĳ×ķ×ľ×Ļ×ŀ×¤": 1658,
      "Ġ×Ķ×Ľ×Ļ": 1659,
      "Ġ×Ļ×§×Ļ×¤×ĵ×Ļ×Ŀ": 1660,
      "×Ļ×ł×Ĵ×ĺ×ķ×Ł": 1661,
      "Ġ×¤×Ļ×ľ×ķ×¡×ķ×¤×Ļ×Ķ": 1662,
      "Ġ×ķ×ķ×©×Ļ×ł×Ĵ×ĺ×ķ×Ł": 1663,
      "×Ļ×Ļ×¡": 1664,
      "Ġ×Ķ×¨": 1665,
      "Ġ×ĳ×Ĳ": 1666,
      "Ġ×ĳ×©×ľ": 1667,
      "×ĳ×Ķ": 1668,
      "Ġ×Ľ×Ļ×¦": 1669,
      "Ġ×ľ×ĺ": 1670,
      "Ġ×Ĺ×Ļ×¤×Ķ": 1671,
      "Ġ×ª×ķ×ļ": 1672,
      "Ġ×¨×©×ª": 1673,
      "Ġ×§×ª": 1674,
      "×Ĳ×ķ×ľ": 1675,
      "×Ļ×ĵ×ķ×ª": 1676,
      "Ġ×ĺ×Ļ×¤": 1677,
      "×¨×Ľ×ķ": 1678,
      "Ġ×ľ×©×ľ": 1679,
      "Ġ×¢×¦×ŀ×Ķ": 1680,
      "Ġ×Ļ×¦×Ĳ": 1681,
      "Ġ×ŀ×Ļ×ķ×Ĺ×ĵ": 1682,
      "Ġ×¢×ĸ×¨×Ķ": 1683,
      "Ġ×ľ×Ķ×¦×Ļ×Ĵ": 1684,
      "Ġ×§×Ļ×ĳ×ķ×¥": 1685,
      "Ġ×Ĵ×¨×¡×Ĳ×ķ×ª": 1686,
      "Ġ×§×ĳ×ķ×¦×ķ×ª": 1687,
      "Ġ×ĳ×ĺ×ķ×Ĺ": 1688,
      "Ġ×Ķ×ĵ×£": 1689,
      "Ġ×Ľ×Ļ×¦×ĵ": 1690,
      "Ġ×Ľ×Ĺ": 1691,
      "Ġ×ł×©×Ļ×Ŀ": 1692,
      "Ġ×ŀ×ķ×ľ": 1693,
      "Ġ×¨×ķ×¦×Ļ×Ŀ": 1694,
      "Ġ×¤×¦": 1695,
      "Ġ×§×¨×Ļ": 1696,
      "Ġ×Ĵ×ķ×Ĵ×ľ": 1697,
      "Ġ×ĵ×¨×Ĵ": 1698,
      "Ġ×Ķ×ķ×Ľ": 1699,
      "×Ļ×¢×ª": 1700,
      "Ġ×Ĳ×ĳ×Ļ×ķ": 1701,
      "Ġ×¤×¨×ł": 1702,
      "Ġ×Ļ×Ķ×ĵ×ķ×ª": 1703,
      "×Ļ×Ľ×ķ×Ł": 1704,
      "×Ļ×Ĵ×ķ×ĵ": 1705,
      "Ġ×Ķ×Ĵ×Ļ×¢×ķ": 1706,
      "Ġ×¨×Ĺ×ĳ×Ļ": 1707,
      "Ġ×ł×ŀ×Ĺ×§×ķ": 1708,
      "Ġ×ł×§×¨×Ĳ": 1709,
      "Ġ×ŀ×ķ×ĸ×Ļ×Ĳ×ķ×Ł": 1710,
      "Ġ×Ļ×Ĺ×¡×Ļ×ª": 1711,
      "Ġ×§×¦×¨×ŀ×¨×Ļ×Ŀ": 1712,
      "Ġ×Ľ×ķ×Ĺ×ķ×ª": 1713,
      "Ġ×Ĳ×ŀ×¦×¢": 1714,
      "Ġ×Ĳ×§×ĵ×ŀ": 1715,
      "Ġ×Ļ×Ļ×ª×Ľ×Ł": 1716,
      "Ġ×Ķ×Ľ×ľ": 1717,
      "Ġ×Ķ×Ļ×ª×Ķ": 1718,
      "Ġ×ĳ×ķ×Ļ×§×Ļ×¤×ĵ×Ļ×Ķ": 1719,
      "×©×ķ": 1720,
      "Ġ×Ļ×¡": 1721,
      "Ġ×Ĺ×ĺ": 1722,
      "×ł×Ŀ": 1723,
      "×ł×Ļ×ķ×ª": 1724,
      "Ġ×ł×ĺ": 1725,
      "Ġ×ĵ×Ļ×Ł": 1726,
      "Ġ×¦×Ļ×ľ": 1727,
      "Ġ×¦×Ļ×ĺ×ķ×ĺ": 1728,
      "×Ĵ×ŀ×©": 1729,
      "Ġ×ĺ×ķ×ĳ×Ķ": 1730,
      "Ġ×Ĳ×Ĺ×¨×ķ×ł×Ķ": 1731,
      "×Ļ×ĺ×Ļ×Ŀ": 1732,
      "×¨×Ĳ×ª": 1733,
      "Ġ×ľ×¤×¢": 1734,
      "Ġ×ľ×¢×ķ×ŀ×ª": 1735,
      "Ġ×Ĺ×Ļ×ķ×ĳ": 1736,
      "Ġ×Ĺ×ľ×§×Ļ×Ŀ": 1737,
      "Ġ×Ĺ×¡×¨×Ļ×Ŀ": 1738,
      "Ġ×Ĺ×¡×Ļ×ŀ×Ķ": 1739,
      "Ġ×Ķ×Ĵ×ł×Ķ": 1740,
      "Ġ×¤×¡×§": 1741,
      "Ġ×Ļ×ĵ×¢": 1742,
      "Ġ×¡×¤×ķ×¨×ĺ": 1743,
      "×ľ×ķ×ķ": 1744,
      "Ġ×Ķ×¡×Ľ": 1745,
      "Ġ×ŀ×ķ×¢×¦": 1746,
      "Ġ×¢×ķ×ĳ×ĵ": 1747,
      "Ġ×ĵ×ķ×Ĵ×ŀ×Ĳ×ķ×ª": 1748,
      "Ġ×Ĵ×Ļ×ľ×Ĵ×ŀ×©": 1749,
      "Ġ×Ĳ×Ļ×¨×ķ×¢×Ļ×Ŀ": 1750,
      "Ġ×¤×ª×Ļ×Ĺ×ª": 1751,
      "Ġ×ł×¦×¨×ķ×ª": 1752,
      "Ġ×ª×Ķ×ľ×Ļ×ļ": 1753,
      "Ġ×Ķ×Ļ×Ľ": 1754,
      "×¨×Ļ×ª": 1755,
      "Ġ×ĳ×¤": 1756,
      "Ġ×©×ĵ×Ķ": 1757,
      "Ġ×©×¤×Ķ": 1758,
      "×ĺ×Ļ×Ļ×Ł": 1759,
      "Ġ×Ĵ×ķ×£": 1760,
      "Ġ×ĵ×¢×ķ×ª": 1761,
      "Ġ×Ĳ×ł×ķ": 1762,
      "Ġ×Ļ×©×ł×Ŀ": 1763,
      "Ġ×ŀ×§×ķ×ĳ": 1764,
      "×Ļ×¢×ķ×ª": 1765,
      "Ġ×ĳ×¢×ĵ": 1766,
      "Ġ×ĳ×¢×Ļ×ķ×ª": 1767,
      "Ġ×ĳ×¢×Ļ×Ļ×ª": 1768,
      "Ġ×Ķ×ª×¤×ª": 1769,
      "Ġ×ŀ×Ķ×Ļ×¨×Ķ": 1770,
      "Ġ×ŀ×¤×ª": 1771,
      "Ġ×ĸ×Ľ×ª×Ķ": 1772,
      "×Ļ×ĸ×Ļ×Ķ": 1773,
      "×Ļ×Ĳ×Ķ": 1774,
      "Ġ×Ĵ×ĳ×ķ×ľ": 1775,
      "Ġ×Ķ×§×ŀ×ª": 1776,
      "Ġ×©×Ĺ×§×ł×Ļ×Ŀ": 1777,
      "Ġ×Ľ×ł×¡×Ļ×Ļ×Ķ": 1778,
      "Ġ×§×¨×Ļ×Ĳ×Ķ": 1779,
      "Ġ×¤×ķ×¤×ķ×ľ": 1780,
      "×ķ×Ļ×Ķ": 1781,
      "Ġ×Ķ×ĳ×ĵ": 1782,
      "Ġ×ĳ×Ĵ": 1783,
      "Ġ×©×ķ×¤": 1784,
      "Ġ×Ľ×¡": 1785,
      "Ġ×Ĳ×Ļ×¤×Ķ": 1786,
      "Ġ×¤×ķ×ł": 1787,
      "×Ļ×Ķ×Ŀ": 1788,
      "Ġ×¦×Ļ×ķ×Ł": 1789,
      "Ġ×¡×Ļ×ŀ×": 1790,
      "Ġ×¡×ª×Ŀ": 1791,
      "Ġ×ŀ×¢×ķ×ľ×Ŀ": 1792,
      "Ġ×Ĺ×ĳ×¨×ķ×ª": 1793,
      "Ġ×ŀ×Ĳ×©": 1794,
      "Ġ×ľ×ĳ×¦×¢": 1795,
      "Ġ×Ļ×Ľ×ķ×ľ×Ļ×Ŀ": 1796,
      "Ġ×Ĳ×ĵ×ķ×Ŀ": 1797,
      "Ġ×Ĳ×ł×¦×Ļ×§×ľ×ķ×¤×ĵ×Ļ×ª": 1798,
      "Ġ×Ĺ×ķ×§×Ļ": 1799,
      "Ġ×ŀ×ĺ×¨×Ķ": 1800,
      "Ġ×§×ķ×¨×¡": 1801,
      "Ġ×¢×ķ×ĳ×ĵ×Ķ": 1802,
      "Ġ×¤×ľ×¡×ĺ": 1803,
      "Ġ×ľ×Ķ×ĳ×Ļ×Ĳ": 1804,
      "×ķ×Ļ×¨": 1805,
      "Ġ×ĳ×ķ×ĵ": 1806,
      "Ġ×©×ķ": 1807,
      "×ĳ×ķ×ĵ": 1808,
      "Ġ×¢×§×ĳ": 1809,
      "Ġ×Ĺ×¤": 1810,
      "×ł×ķ×¢": 1811,
      "×ķ×¨×Ļ×ĵ": 1812,
      "Ġ×ª×ķ×ľ": 1813,
      "Ġ×ª×ķ×ŀ×": 1814,
      "Ġ×§×¨×Ļ×ĺ": 1815,
      "Ġ×Ĳ×ª×¨×Ļ×Ŀ": 1816,
      "Ġ×©×ľ×Ļ×©×Ļ": 1817,
      "Ġ×ľ×Ķ×Ĺ×ľ": 1818,
      "Ġ×ľ×ŀ×ł": 1819,
      "Ġ×ĺ×ĳ": 1820,
      "Ġ×ĺ×ľ×ķ×ķ": 1821,
      "Ġ×ŀ×ĵ×ķ×Ļ×§": 1822,
      "Ġ×Ĳ×Ļ×ł×ł×Ķ": 1823,
      "Ġ×Ĺ×ĳ×¨×Ļ×Ŀ": 1824,
      "Ġ×¢×¦×ŀ×Ĳ": 1825,
      "Ġ×Ĺ×Ļ×Ļ×ľ×Ļ×Ŀ": 1826,
      "Ġ×Ĳ×ķ×¤×¦×Ļ×Ķ": 1827,
      "Ġ×ŀ×Ĳ×ķ×ª": 1828,
      "Ġ×Ľ×ł×Ĵ×ĵ": 1829,
      "×ĳ×ľ×ª": 1830,
      "Ġ×Ĺ×©×ķ×ĳ×Ķ": 1831,
      "Ġ×Ķ×Ĺ×ľ×Ļ×ĺ": 1832,
      "×ł×ĵ×Ķ": 1833,
      "Ġ×Ĺ×ķ×¤×©×Ļ×ª": 1834,
      "Ġ×ľ×ª×§×Ł": 1835,
      "Ġ×¢×¨×Ļ×Ľ×ķ×ª": 1836,
      "Ġ×©×Ĳ×ľ×ķ×ª": 1837,
      "Ġ×¢×ĸ×¨×ª": 1838,
      "Ġ×ĳ×¨×Ļ×ĺ×ł×Ļ×Ķ": 1839,
      "Ġ×ľ×Ķ×Ĵ×Ļ×¢": 1840,
      "Ġ×Ĺ×©×ĳ×ª×Ļ": 1841,
      "Ġ×Ļ×ķ×¨×§": 1842,
      "Ġ×§×ĳ×ķ×¦×ª": 1843,
      "Ġ×Ĵ×¨×ķ×¢": 1844,
      "Ġ×Ĳ×¤×¨×Ļ×§×Ķ": 1845,
      "Ġ×ĺ×ľ×ķ×ķ×Ļ×ĸ×Ļ×Ķ": 1846,
      "Ġ×Ķ×ĸ": 1847,
      "×¨×ķ×Ŀ": 1848,
      "Ġ×ĳ×ĸ": 1849,
      "×ľ×ķ×ľ": 1850,
      "×ľ×Ļ×Ł": 1851,
      "Ġ×Ĳ×ŀ×": 1852,
      "Ġ×¢×Ļ": 1853,
      "Ġ×¢×¨×ķ×ª": 1854,
      "×¨×ŀ×": 1855,
      "×§×ľ": 1856,
      "Ġ×ŀ×ķ×Ĺ": 1857,
      "Ġ×ŀ×ķ×©×ĳ": 1858,
      "Ġ×ª×ķ×ĵ×Ķ": 1859,
      "Ġ×§×ķ": 1860,
      "Ġ×Ĵ×ķ×ĵ": 1861,
      "Ġ×ĵ×ª": 1862,
      "×¡×Ŀ": 1863,
      "×Ĵ×ķ": 1864,
      "×Ĳ×ł": 1865,
      "×Ļ×§×ķ×ª": 1866,
      "Ġ×Ľ×ľ×Ļ": 1867,
      "×ķ×¦×¨": 1868,
      "Ġ×©×ł×Ļ×ª": 1869,
      "Ġ×Ĳ×ķ×ķ×Ļ×¨": 1870,
      "Ġ×ľ×ĳ×ĵ": 1871,
      "Ġ×Ĺ×ľ×§×Ŀ": 1872,
      "×Ļ×Ĵ×Ķ": 1873,
      "Ġ×Ļ×Ķ×ķ×ĵ×Ķ": 1874,
      "Ġ×ľ×Ĺ×¤×©": 1875,
      "Ġ×Ķ×¤×ļ": 1876,
      "Ġ×ĳ×ĵ×£": 1877,
      "Ġ×Ķ×ķ×ĵ×¢×Ķ": 1878,
      "Ġ×ŀ×¡×ķ×Ļ×ŀ×ª": 1879,
      "Ġ×ľ×Ļ×ŀ×ķ×ĵ×Ļ": 1880,
      "Ġ×ł×ķ×¦×¨×ķ": 1881,
      "Ġ×¨×Ľ×ĳ×ª": 1882,
      "Ġ×ĳ×Ļ×ĺ×ķ×Ļ": 1883,
      "Ġ×Ĵ×¨×¡×Ķ": 1884,
      "Ġ×Ļ×ŀ×Ļ×Ł": 1885,
      "Ġ×¡×¤×¦×Ļ×¤×Ļ": 1886,
      "Ġ×Ķ×ª×Ļ×Ļ×Ĺ×¡×ķ×ª": 1887,
      "Ġ×ª×ķ×ľ×ĵ×ķ×ª": 1888,
      "Ġ×Ķ×Ļ×ķ×ª": 1889,
      "Ġ×¢×¨×Ļ×Ŀ": 1890,
      "Ġ×ł×ĸ": 1891,
      "Ġ×Ĳ×ķ×§": 1892,
      "×¤×ķ×¨": 1893,
      "Ġ×§×Ļ×¡": 1894,
      "×Ľ×¡": 1895,
      "×¡×Ļ×§": 1896,
      "×Ĵ×ª": 1897,
      "Ġ×¡×Ļ×¤×ķ×¨": 1898,
      "Ġ×ŀ×©×ķ×Ŀ": 1899,
      "×ķ×Ľ×Ļ×Ŀ": 1900,
      "Ġ×ŀ×Ĺ×ĸ": 1901,
      "Ġ×Ķ×ª×Ĳ×Ŀ": 1902,
      "Ġ×Ĳ×Ļ×ł×Ļ": 1903,
      "Ġ×¨×Ĳ×©×Ļ×ª": 1904,
      "×ķ×Ĳ×Ļ×Ŀ": 1905,
      "Ġ×ŀ×ĳ×ĺ": 1906,
      "Ġ×¤×¢×ķ×ľ×ķ×ª": 1907,
      "Ġ×Ļ×Ľ×ķ×ľ×Ķ": 1908,
      "Ġ×ŀ×Ľ×Ļ×ķ×ķ×Ł": 1909,
      "Ġ×ŀ×©×¤×ĺ×Ļ×Ŀ": 1910,
      "Ġ×ł×ĳ×Ĺ×¨": 1911,
      "Ġ×¤×¨×¡×ķ×Ŀ": 1912,
      "Ġ×ĳ×ĵ×Ļ×§×Ķ": 1913,
      "Ġ×ŀ×¤×¢×Ļ×ľ": 1914,
      "Ġ×ª×ł×ķ×¢×ª": 1915,
      "Ġ×§×ķ×ľ×ł×ķ×¢": 1916,
      "Ġ×Ķ×ĳ×ł×ª×Ļ": 1917,
      "Ġ×Ķ×ª×ł×Ķ×Ĵ×ķ×ª": 1918,
      "Ġ×ŀ×¦×Ĳ×ª×Ļ": 1919,
      "Ġ×Ľ×¢×ª": 1920,
      "Ġ×ŀ×Ļ×ķ×ª": 1921,
      "Ġ×ŀ×¨×ĵ": 1922,
      "Ġ×¤×ķ×ª": 1923,
      "Ġ×ĸ×ķ×Ķ": 1924,
      "×Ľ×Ļ": 1925,
      "×¨×Ļ×Ĳ": 1926,
      "Ġ×ŀ×ª×ŀ×ĺ": 1927,
      "Ġ×Ķ×¦×ĺ": 1928,
      "Ġ×ľ×¢×ĸ×ķ×¨": 1929,
      "Ġ×¢×ĳ×¨×Ķ": 1930,
      "Ġ×ª×§×©": 1931,
      "Ġ×ŀ×Ļ×Ļ×ľ": 1932,
      "Ġ×ŀ×ķ×¢×ŀ×ĵ": 1933,
      "Ġ×ĺ×¢×ł×Ķ": 1934,
      "Ġ×ŀ×ķ×¦×Ĳ": 1935,
      "Ġ×Ļ×§×Ļ×¤×ĵ": 1936,
      "Ġ×ł×Ĺ×©×ĳ×ª": 1937,
      "Ġ×¡×Ĵ×ł×ķ×Ł": 1938,
      "Ġ×¤×Ĵ×Ļ×¢×Ķ": 1939,
      "×¨×Ĳ×©×ķ×ł×Ķ": 1940,
      "Ġ×ŀ×ĳ×ķ×¡×¡": 1941,
      "Ġ×Ķ×ª×ł×Ĵ×ĵ×ķ×ª": 1942,
      "Ġ×ľ×Ļ×ĵ": 1943,
      "Ġ×ĳ×ķ×¦": 1944,
      "Ġ×©×¤": 1945,
      "Ġ×¢×ĳ×ĵ": 1946,
      "×¨×¥": 1947,
      "Ġ×Ľ×ŀ×ķ×ª": 1948,
      "Ġ×ŀ×ķ×ĳ": 1949,
      "Ġ×ŀ×Ļ×ľ×Ļ×Ŀ": 1950,
      "Ġ×ŀ×Ļ×ĸ×Ŀ": 1951,
      "Ġ×¤×§": 1952,
      "Ġ×¤×Ļ×¡": 1953,
      "×ĺ×Ļ×ĳ": 1954,
      "Ġ×ĵ×¤×Ļ×Ŀ": 1955,
      "Ġ×©×ľ×ĺ": 1956,
      "×Ļ×ł×ķ×Ļ": 1957,
      "Ġ×Ķ×ķ×Ĵ": 1958,
      "×ĳ×¨×Ķ": 1959,
      "Ġ×ŀ×¡×¤×§": 1960,
      "×Ļ×¢×Ļ×Ŀ": 1961,
      "Ġ×ŀ×Ķ×ķ×ķ×Ķ": 1962,
      "Ġ×©×ł×ª×Ļ×Ļ×Ŀ": 1963,
      "Ġ×ª×§×¦": 1964,
      "Ġ×ľ×©×Ļ×Ŀ": 1965,
      "Ġ×Ĺ×©×ķ×ĳ×ķ×ª": 1966,
      "Ġ×¤×ª×¨×ķ×Ł": 1967,
      "Ġ×ŀ×ĸ×ł×ķ×Ł": 1968,
      "Ġ×ł×ŀ×¦×Ĳ×Ļ×Ŀ": 1969,
      "Ġ×¦×ĵ×ĵ×Ļ×Ŀ": 1970,
      "Ġ×Ĳ×ŀ×ķ×¨": 1971,
      "Ġ×ŀ×§×¦×ķ×¢×Ļ": 1972,
      "Ġ×Ĳ×ŀ×¨×Ļ×§×Ķ": 1973,
      "Ġ×¢×©×¨×ķ×ª": 1974,
      "Ġ×¤×ķ×ľ×Ļ×ĺ×Ļ×ª": 1975,
      "Ġ×ł×ĵ×¨×©": 1976,
      "Ġ×ª×ķ×¦×Ĳ×ķ×ª": 1977,
      "×ŀ×ĳ×¨": 1978,
      "Ġ×ŀ×¢×ł×Ļ×Ļ×Ł": 1979,
      "Ġ×©×ŀ×Ĺ×Ķ": 1980,
      "Ġ×Ĳ×§×ĵ×ŀ×Ļ×Ķ": 1981,
      "Ġ×ŀ×Ĳ×©×¨": 1982,
      "Ġ×ĳ×Ľ": 1983,
      "Ġ×ĳ×ķ×ľ×ĺ": 1984,
      "Ġ×Ľ×Ľ×ľ": 1985,
      "Ġ×Ļ×ķ×¡": 1986,
      "×Ĺ×Ļ×ľ×Ķ": 1987,
      "Ġ×ł×Ļ×ķ": 1988,
      "Ġ×ŀ×ķ×¤": 1989,
      "Ġ×Ĳ×ķ×ĺ": 1990,
      "Ġ×ª×ķ×¡": 1991,
      "Ġ×ķ×¢": 1992,
      "×ŀ×¤": 1993,
      "×ŀ×Ŀ": 1994,
      "Ġ×Ĵ×ĳ×¢": 1995,
      "Ġ×Ĵ×ķ×¨×Ĵ": 1996,
      "Ġ×¦×ķ×ķ×ª": 1997,
      "Ġ×¡×Ļ×ŀ": 1998,
      "×Ļ×¤×Ļ×Ŀ": 1999,
      "×Ļ×ĺ×ĳ": 2000,
      "×ķ×ŀ×ĺ": 2001,
      "×ķ×ŀ×Ļ×Ļ×Ŀ": 2002,
      "Ġ×ŀ×¦×ĵ": 2003,
      "Ġ×ŀ×¦×¨×Ļ×Ŀ": 2004,
      "Ġ×ĳ×Ĺ×Ļ×¨×Ķ": 2005,
      "Ġ×ľ×ĳ×Ł": 2006,
      "Ġ×§×ĺ×Ł": 2007,
      "×¨×Ĳ×Ļ": 2008,
      "Ġ×Ķ×¤×ł×Ļ×Ķ": 2009,
      "Ġ×ŀ×ĺ×¨×ª": 2010,
      "Ġ×Ĺ×ĸ×¨×Ķ": 2011,
      "Ġ×¦×¢×Ļ×¨": 2012,
      "Ġ×ª×¤×§×Ļ×ĵ×ķ": 2013,
      "Ġ×¦×Ļ×ĳ×ķ×¨×Ļ": 2014,
      "Ġ×Ĺ×ķ×ľ×Ļ×Ŀ": 2015,
      "Ġ×Ĺ×©×ĳ×ķ×Ł": 2016,
      "Ġ×Ĺ×¨×Ļ×Ĵ": 2017,
      "Ġ×Ķ×ĳ×ĵ×ľ": 2018,
      "Ġ×ľ×¨×Ĳ×©×ķ×ł×Ķ": 2019,
      "×ĳ×¨×Ĵ": 2020,
      "Ġ×Ļ×ŀ×Ĺ×§": 2021,
      "Ġ×Ĺ×ķ×ĳ": 2022,
      "Ġ×Ĺ×ķ×ĳ×Ķ": 2023,
      "×Ĺ×¨×Ļ": 2024,
      "×Ĺ×ĸ×¨": 2025,
      "Ġ×ª×ĳ": 2026,
      "Ġ×ª×ķ×¤": 2027,
      "Ġ×¤×Ļ×ĸ": 2028,
      "Ġ×ĵ×ľ": 2029,
      "×ķ×ľ×Ļ": 2030,
      "Ġ×ľ×Ķ×ķ×¤×Ļ×¢": 2031,
      "Ġ×ŀ×¡×Ĺ×¨×Ļ": 2032,
      "Ġ×ŀ×¢×ķ×ł×Ļ": 2033,
      "Ġ×ŀ×¤×ķ×¨×ĺ": 2034,
      "Ġ×¢×ĳ×¨×Ļ": 2035,
      "Ġ×¤×¢×Ļ×ľ": 2036,
      "Ġ×ľ×©×Ŀ": 2037,
      "Ġ×¢×ł×Ļ×Ļ×ł×Ļ": 2038,
      "Ġ×Ķ×ķ×¦×Ĳ×ª": 2039,
      "Ġ×ľ×ł×ķ": 2040,
      "Ġ×ŀ×¤×¢×Ļ×ľ×Ļ×Ŀ": 2041,
      "Ġ×ŀ×ķ×ĵ×¨×ł": 2042,
      "Ġ×ł×ķ×¢×¨": 2043,
      "Ġ×ĺ×Ļ×¤×ķ×ľ": 2044,
      "Ġ×ª×§×©×ķ×¨×ª": 2045,
      "Ġ×Ķ×¡×ª": 2046,
      "×¨×ķ×¥": 2047,
      "Ġ×ľ×ķ×ł": 2048,
      "Ġ×©×ĳ×¢": 2049,
      "Ġ×¢×ķ×ĸ": 2050,
      "×ł×ĸ": 2051,
      "×ł×Ļ×Ĺ": 2052,
      "×ł×Ĵ×ĵ": 2053,
      "×§×ķ": 2054,
      "Ġ×¨×Ļ×¦": 2055,
      "×Ľ×ķ": 2056,
      "Ġ×¦×ŀ×Ĺ": 2057,
      "×¡×ľ": 2058,
      "Ġ×¡×Ļ×¤": 2059,
      "Ġ×Ķ×ķ×Ĺ": 2060,
      "Ġ×Ľ×ľ×ķ×ŀ×¨": 2061,
      "Ġ×ŀ×¡×Ľ×Ļ×Ŀ": 2062,
      "Ġ×Ĳ×Ĺ×¨×ķ×ł×Ļ×Ŀ": 2063,
      "Ġ×Ĳ×Ļ×ł×ł×ķ": 2064,
      "Ġ×ĵ×ĳ×¨×Ļ": 2065,
      "Ġ×¢×¦×Ŀ": 2066,
      "Ġ×ŀ×ł×¡×Ķ": 2067,
      "Ġ×ľ×§×¦": 2068,
      "×Ļ×Ĳ×ĺ": 2069,
      "Ġ×ł×ŀ×Ĺ×§×Ķ": 2070,
      "Ġ×ŀ×ķ×ĸ×Ļ×§×Ķ": 2071,
      "Ġ×Ĺ×ķ×¤×©×Ļ×ķ×ª": 2072,
      "Ġ×¦×¢×¨×Ļ": 2073,
      "Ġ×ł×ª×ķ×ł×Ļ×Ŀ": 2074,
      "Ġ×¡×ĺ×ķ×ĵ": 2075,
      "Ġ×ª×Ĳ×¨×Ļ×ļ": 2076,
      "Ġ×ŀ×ª×§×Ļ": 2077,
      "Ġ×ŀ×ķ×ŀ×ľ×¦×Ļ×Ŀ": 2078,
      "Ġ×©×Ļ×ĺ×Ķ": 2079,
      "Ġ×ķ×ķ×Ļ×§×Ļ×©×Ļ×ª×ķ×£": 2080,
      "Ġ×¨×Ĵ×¢": 2081,
      "Ġ×Ĵ×ĳ×ķ×Ķ×Ķ": 2082,
      "Ġ×Ĳ×¨×Ľ×Ĳ": 2083,
      "Ġ×Ľ×ľ×©×Ķ×ķ": 2084,
      "Ġ×ł×ķ×Ĵ×¢": 2085,
      "Ġ×ľ×ĳ×ł×ķ×Ł": 2086,
      "Ġ×ĺ×ĳ×ľ×Ķ": 2087,
      "Ġ×Ķ×ŀ×©×Ļ×ļ": 2088,
      "Ġ×ľ×Ļ": 2089,
      "Ġ×ĳ×ķ": 2090,
      "Ġ×ĳ×Ļ×ĵ×Ļ": 2091,
      "Ġ×©×¤×ķ×ª": 2092,
      "Ġ×¢×ŀ": 2093,
      "Ġ×ł×ĳ": 2094,
      "Ġ×Ĳ×ķ×Ķ": 2095,
      "Ġ×Ĳ×ķ×ŀ×¨": 2096,
      "Ġ×Ĳ×ķ×ĵ×ķ×ª": 2097,
      "Ġ×¨×ķ×ŀ×": 2098,
      "Ġ×ĸ×ķ×Ĵ": 2099,
      "Ġ×Ĵ×ķ×ľ": 2100,
      "Ġ×ĵ×Ĺ": 2101,
      "×¡×ķ×£": 2102,
      "Ġ×¡×ľ": 2103,
      "Ġ×¡×Ļ×ĳ×ķ×ª": 2104,
      "×Ļ×§×Ļ×Ŀ": 2105,
      "Ġ×ľ×Ķ×ĸ": 2106,
      "Ġ×ŀ×¡×¢": 2107,
      "Ġ×Ĳ×Ĺ×¨×Ļ×ķ×ª": 2108,
      "×ķ×ŀ×ĳ": 2109,
      "Ġ×Ķ×ª×Ĺ": 2110,
      "Ġ×ŀ×ľ×Ĳ": 2111,
      "Ġ×ľ×Ĵ×ŀ": 2112,
      "Ġ×ł×Ľ×ł×¡": 2113,
      "Ġ×¤×¡×Ļ×Ľ": 2114,
      "Ġ×ł×¤×Ĵ": 2115,
      "Ġ×ĳ×ł×Ļ×Ļ×ª": 2116,
      "Ġ×ŀ×ŀ×©×ľ×ª": 2117,
      "Ġ×ŀ×ķ×¢×ĵ×ķ×Ł": 2118,
      "Ġ×Ĵ×ĳ×ķ×ľ×ķ×ª": 2119,
      "Ġ×ŀ×ķ×¤×Ļ×¢×Ļ×Ŀ": 2120,
      "Ġ×Ĳ×¨×ĳ×¢": 2121,
      "Ġ×ŀ×¡×Ĺ×¨×Ļ×ª": 2122,
      "Ġ×Ľ×ķ×ķ×ł×Ķ": 2123,
      "Ġ×Ľ×ĳ×ķ×ĵ": 2124,
      "Ġ×Ķ×Ĵ×ĵ×¨×Ķ": 2125,
      "Ġ×Ĳ×Ļ×ĺ×ľ×Ļ×Ķ": 2126,
      "Ġ×Ĳ×ľ×ŀ×ķ×Ĵ": 2127,
      "Ġ×Ķ×ª×¤×ª×Ĺ×ķ×ª": 2128,
      "Ġ×¤×ķ×ł×§": 2129,
      "Ġ×¡×ĺ×ķ×ĵ×ł×ĺ": 2130,
      "Ġ×Ķ×©×ª×ŀ×©": 2131,
      "Ġ×ĳ×¨×ĸ": 2132,
      "Ġ×©×Ļ×§": 2133,
      "Ġ×©×ķ×¨×Ķ": 2134,
      "Ġ×©×Ļ×¨×ª": 2135,
      "Ġ×©×Ļ×¨×Ļ×Ŀ": 2136,
      "Ġ×Ľ×¤": 2137,
      "Ġ×Ļ×ĸ": 2138,
      "Ġ×ł×Ļ×ŀ": 2139,
      "Ġ×Ĳ×Ļ×ŀ×¤": 2140,
      "Ġ×ª×ª": 2141,
      "Ġ×ª×Ļ×Ľ×ķ×Ł": 2142,
      "Ġ×ª×Ļ×Ĳ×ĺ": 2143,
      "Ġ×¤×ĺ": 2144,
      "Ġ×Ĳ×ª×¨×Ļ": 2145,
      "×¦×Ļ×ķ×ª": 2146,
      "Ġ×ĵ×Ļ×¡": 2147,
      "Ġ×©×ľ×Ļ×ĺ": 2148,
      "Ġ×¡×ł": 2149,
      "Ġ×ľ×Ĳ×ķ×ŀ×Ļ×ª": 2150,
      "Ġ×ľ×Ķ×Ĺ": 2151,
      "Ġ×ľ×Ķ×ķ×¨×Ļ×ĵ": 2152,
      "×¨×Ļ×¢": 2153,
      "×ĸ×Ļ×¨": 2154,
      "Ġ×ŀ×¡×ķ×ĵ": 2155,
      "Ġ×ŀ×¢×ĵ": 2156,
      "Ġ×ľ×¢×ĳ×ķ×¨": 2157,
      "Ġ×ŀ×Ĳ×ĵ": 2158,
      "Ġ×¢×¦×ŀ×Ļ": 2159,
      "Ġ×ŀ×ł×ª": 2160,
      "Ġ×Ĵ×ĵ×ľ": 2161,
      "Ġ×ł×§×ķ×ĵ×Ķ": 2162,
      "Ġ×ŀ×ĺ×ķ×¡": 2163,
      "Ġ×Ĺ×ĸ×¨": 2164,
      "Ġ×ª×©×ķ×ĳ×ķ×ª": 2165,
      "Ġ×§×ķ×¨×Ĳ×Ļ×Ŀ": 2166,
      "Ġ×¦×ĳ×¢×ª": 2167,
      "Ġ×ĺ×ķ×ĳ×Ļ×Ŀ": 2168,
      "Ġ×¤×¨×ĺ×Ļ": 2169,
      "Ġ×ŀ×¡×ķ×Ļ×Ŀ": 2170,
      "Ġ×¦×¨×¤×ª×Ļ×ª": 2171,
      "Ġ×¤×ķ×¨×ĺ×ľ×Ļ×Ŀ": 2172,
      "Ġ×ĳ×Ļ×ł×Ļ×Ļ×Ŀ": 2173,
      "Ġ×Ĳ×ķ×¡×ĺ×¨": 2174,
      "Ġ×Ĳ×ŀ×ł×ķ×ª": 2175,
      "Ġ×ľ×Ķ×¡×Ļ×¨": 2176,
      "Ġ×ŀ×ķ×§×ĵ": 2177,
      "Ġ×ĸ×ķ×Ķ×Ļ": 2178,
      "Ġ×ľ×ķ×ł×ĵ×ķ×Ł": 2179,
      "Ġ×Ĳ×Ļ×ŀ×¤×¨×Ļ×Ķ": 2180,
      "Ġ×ª×Ļ×Ĳ×ĺ×¨×ķ×Ł": 2181,
      "×Ļ×ķ×ł×ķ×ª": 2182,
      "×ľ×Ŀ": 2183,
      "Ġ×©×ķ×ł×Ķ": 2184,
      "Ġ×¢×ķ×¨": 2185,
      "Ġ×¢×ķ×ł×Ķ": 2186,
      "Ġ×ł×Ļ×Ļ×ĺ": 2187,
      "Ġ×Ĳ×Ļ×ľ×ķ": 2188,
      "Ġ×Ĳ×Ļ×Ľ×ķ×ª": 2189,
      "Ġ×ª×¢×ª×Ļ×§": 2190,
      "Ġ×ķ×ķ×¢": 2191,
      "Ġ×¤×Ļ×¦": 2192,
      "Ġ×¤×ł×Ļ×Ķ": 2193,
      "Ġ×¤×©×¨×Ķ": 2194,
      "Ġ×§×ĳ×¨": 2195,
      "Ġ×§×Ļ×¦×ķ×¨": 2196,
      "×ķ×ł×Ļ×Ļ×Ŀ": 2197,
      "×ŀ×Ļ×Ļ×Ŀ": 2198,
      "Ġ×ĵ×¤": 2199,
      "Ġ×¦×Ļ×¨": 2200,
      "×Ĵ×ķ×¨×¨": 2201,
      "Ġ×¡×ŀ×ķ×ļ": 2202,
      "Ġ×ľ×Ķ×©×ª": 2203,
      "×ķ×¡×ĺ": 2204,
      "Ġ×ĸ×Ķ×ĳ": 2205,
      "Ġ×Ľ×ľ×ľ×Ļ×Ŀ": 2206,
      "Ġ×ĺ×Ļ×¢": 2207,
      "Ġ×ĺ×ķ×ķ×Ĺ": 2208,
      "×Ļ×¡×Ķ": 2209,
      "Ġ×ŀ×Ķ×¤": 2210,
      "Ġ×ŀ×¦×Ļ×Ĵ": 2211,
      "Ġ×Ĺ×©×ŀ×ľ": 2212,
      "Ġ×Ĳ×ĳ×§×©": 2213,
      "Ġ×Ĺ×ľ×ķ×§×Ķ": 2214,
      "Ġ×ŀ×¤×Ķ": 2215,
      "Ġ×ŀ×©×¤×Ĺ×ķ×ª": 2216,
      "×Ļ×Ľ×¨": 2217,
      "Ġ×ľ×©×Ĳ×ķ×ľ": 2218,
      "Ġ×Ĳ×ĵ×¨×Ļ×Ľ": 2219,
      "Ġ×§×ĳ×ķ×¢": 2220,
      "Ġ×¨×¦×Ĺ": 2221,
      "Ġ×ĳ×ł×Ļ×ķ": 2222,
      "Ġ×ł×§×ķ×ĵ×ª": 2223,
      "Ġ×Ķ×ĳ×Ļ×Ĳ": 2224,
      "Ġ×ª×Ĵ×ķ×ĳ×Ķ": 2225,
      "Ġ×Ĺ×ķ×ĸ×¨": 2226,
      "Ġ×ĳ×Ļ×¦×ķ×¢": 2227,
      "Ġ×§×ķ×ĳ×¥": 2228,
      "Ġ×Ķ×Ĺ×ľ×Ķ": 2229,
      "Ġ×ª×Ļ×Ĳ×ķ×¨": 2230,
      "Ġ×ľ×ł×¡×ķ×ª": 2231,
      "Ġ×¤×Ļ×ª×ķ×Ĺ": 2232,
      "Ġ×©×ķ×ķ×Ļ": 2233,
      "Ġ×ľ×ŀ×ł×ķ×¢": 2234,
      "Ġ×ª×§×¦×Ļ×¨": 2235,
      "Ġ×ľ×Ĵ×ŀ×¨×Ļ": 2236,
      "Ġ×ĳ×¨×Ļ×Ĳ": 2237,
      "×ľ×Ĺ": 2238,
      "Ġ×©×Ļ×ª": 2239,
      "×ĳ×Ļ×¢": 2240,
      "×©×ķ×ĳ": 2241,
      "×©×ĺ×Ļ×Ļ×Ł": 2242,
      "Ġ×Ļ×¤": 2243,
      "Ġ×Ļ×ķ×Ľ×ľ": 2244,
      "Ġ×Ĺ×ł": 2245,
      "×ł×¦": 2246,
      "Ġ×ŀ×¨×ĳ": 2247,
      "Ġ×ŀ×Ļ×ķ×ª×¨": 2248,
      "Ġ×ŀ×ķ×ĳ×Ł": 2249,
      "Ġ×¨×Ļ×©": 2250,
      "Ġ×¤×ł×Ļ×Ŀ": 2251,
      "Ġ×¤×Ļ×§×ķ×ĵ": 2252,
      "×Ĳ×Ļ×ª": 2253,
      "×ĺ×ķ×ª": 2254,
      "Ġ×Ĵ×Ļ×¨": 2255,
      "×Ĵ×Ķ": 2256,
      "Ġ×¡×Ļ×ŀ×¤": 2257,
      "Ġ×ľ×Ĳ×ķ×¨×ļ": 2258,
      "Ġ×ľ×Ķ×ŀ×©×Ļ×ļ": 2259,
      "×¨×Ļ×¤": 2260,
      "×ķ×Ľ×ķ×ª": 2261,
      "Ġ×ĳ×¢×ķ×ĵ": 2262,
      "Ġ×ĳ×Ĺ×Ļ×¨×ª": 2263,
      "×¨×Ļ×ķ×ł×Ļ×Ŀ": 2264,
      "×ŀ×ª×Ļ": 2265,
      "Ġ×¨×§×¢": 2266,
      "Ġ×Ĺ×ľ×§×Ļ": 2267,
      "Ġ×Ļ×¦×Ļ×¨×ķ×ª": 2268,
      "Ġ×Ķ×©×Ľ": 2269,
      "Ġ×Ļ×ķ×¦×Ĳ": 2270,
      "×¡×ĺ×¨": 2271,
      "Ġ×¦×ĳ×¢×ķ×ª": 2272,
      "Ġ×Ľ×ĵ×ķ×¨×¡×ľ": 2273,
      "Ġ×¢×©×¨×Ļ×Ŀ": 2274,
      "Ġ×Ķ×ķ×ĵ×ķ": 2275,
      "Ġ×Ĺ×ķ×ĵ×©×Ļ×Ļ×Ŀ": 2276,
      "Ġ×ŀ×ķ×ŀ×Ĺ×Ļ×Ŀ": 2277,
      "Ġ×¨×ķ×¡×Ļ×Ķ": 2278,
      "Ġ×©×ķ×ľ×Ļ×Ļ×Ŀ": 2279,
      "Ġ×Ľ×ķ×Ľ×ĳ": 2280,
      "Ġ×ĳ×ł×Ļ×Ĵ×ķ×ĵ": 2281,
      "Ġ×ĵ×¨×Ĵ×ª": 2282,
      "Ġ×Ķ×¡×Ľ×ŀ×Ķ": 2283,
      "Ġ×ĳ×¤×ł×Ļ": 2284,
      "Ġ×§×¨×Ļ×ĺ×¨×Ļ×ķ×ł×Ļ×Ŀ": 2285,
      "ĵ×Ķ": 2286,
      "×Ķ×¨×Ķ": 2287,
      "Ġ×©×ķ×Ĳ×Ķ": 2288,
      "×ĳ×ķ": 2289,
      "Ġ×¢×¥": 2290,
      "Ġ×¢×ķ×©×Ķ": 2291,
      "Ġ×Ļ×¨×ĵ": 2292,
      "Ġ×Ĺ×ĳ×ĵ": 2293,
      "×ł×ª×Ļ": 2294,
      "Ġ×ł×¨×Ĳ": 2295,
      "Ġ×ŀ×Ļ×§": 2296,
      "Ġ×ª×ķ×©": 2297,
      "Ġ×ª×ķ×¨×Ķ": 2298,
      "×ĺ×Ļ": 2299,
      "×ĺ×Ļ×Ŀ": 2300,
      "Ġ×Ĵ×ŀ×¨": 2301,
      "×ķ×ľ×Ļ×Ŀ": 2302,
      "Ġ×¦×ķ×ĵ": 2303,
      "Ġ×Ĳ×ł×¡×Ķ": 2304,
      "Ġ×Ļ×©×Ļ×ĳ×Ķ": 2305,
      "×Ļ×ĵ×Ķ": 2306,
      "Ġ×ĺ×¢×ķ×ª": 2307,
      "Ġ×ŀ×Ĺ×ł×Ķ": 2308,
      "Ġ×ŀ×¢×ķ×¨": 2309,
      "Ġ×Ķ×ª×¢": 2310,
      "Ġ×Ĳ×Ļ×ł×Ł": 2311,
      "Ġ×¨×Ĳ×©×ķ×ł×Ļ×Ŀ": 2312,
      "×ķ×Ļ×Ļ×§": 2313,
      "Ġ×ľ×¢×¨×ļ": 2314,
      "Ġ×ľ×¢×ĳ×ķ×ĵ": 2315,
      "Ġ×Ľ×ª×Ļ×ĳ": 2316,
      "×ķ×Ļ×§×Ļ": 2317,
      "Ġ×Ļ×Ľ×ķ×ľ×ª": 2318,
      "×Ĺ×ª×Ķ": 2319,
      "Ġ×Ķ×¢×ľ": 2320,
      "Ġ×Ķ×¢×¤": 2321,
      "Ġ×ŀ×§×ķ×¨×Ļ": 2322,
      "Ġ×Ĵ×ĵ×ķ×ľ×Ļ×Ŀ": 2323,
      "Ġ×Ķ×¦×ĳ×¢×ª": 2324,
      "Ġ×Ĳ×Ļ×©×ķ×¨": 2325,
      "Ġ×ĳ×ª×ķ×¨": 2326,
      "Ġ×¢×ķ×ĳ×ĵ×ķ×ª": 2327,
      "Ġ×Ķ×ķ×¦×Ĳ×Ķ": 2328,
      "Ġ×Ķ×ķ×¤×Ļ×¢×ķ": 2329,
      "Ġ×ŀ×ķ×ł×Ĺ×Ļ×Ŀ": 2330,
      "Ġ×¡×ĺ×ĺ": 2331,
      "Ġ×ŀ×¡×ķ×Ļ×ŀ×Ļ×Ŀ": 2332,
      "Ġ×ĺ×§×¡": 2333,
      "Ġ×ł×ķ×¦×¨": 2334,
      "Ġ×Ĵ×Ĳ×ķ×Ĵ×¨×¤×Ļ×Ķ": 2335,
      "Ġ×ľ×Ķ×¡×ĳ×Ļ×¨": 2336,
      "Ġ×ľ×©×ľ×ķ×Ĺ": 2337,
      "Ġ×§×¨×Ļ×Ļ×¨×Ķ": 2338,
      "Ġ×Ķ×Ļ×Ľ×Ł": 2339,
      "Ġ×ª×ķ×©×ĳ×Ļ": 2340,
      "ŀ×¥": 2341,
      "Ġ×©×¨×Ļ×ĵ": 2342,
      "Ġ×¢×©×Ķ": 2343,
      "Ġ×Ľ×¢": 2344,
      "Ġ×Ľ×Ĳ×ŀ": 2345,
      "Ġ×Ļ×Ĵ": 2346,
      "Ġ×Ļ×¤×Ķ": 2347,
      "Ġ×ŀ×Ļ×Ŀ": 2348,
      "Ġ×ª×ķ×Ŀ": 2349,
      "×¦×Ŀ": 2350,
      "×¦×ª×Ļ": 2351,
      "Ġ×¡×ĳ×Ļ×¨": 2352,
      "Ġ×¡×ŀ×Ľ": 2353,
      "Ġ×Ĳ×ł×ķ×©": 2354,
      "Ġ×ŀ×©×ľ": 2355,
      "×ķ×¤×Ļ": 2356,
      "×Ļ×ĵ×ķ×¨": 2357,
      "Ġ×ĳ×¢×¦×Ŀ": 2358,
      "Ġ×ŀ×ª×Ľ": 2359,
      "Ġ×ŀ×¦×ķ×Ļ": 2360,
      "Ġ×ŀ×¦×ľ×Ļ×Ĺ": 2361,
      "Ġ×Ĳ×Ĺ×ķ×ĸ": 2362,
      "Ġ×Ĳ×ĸ×ķ×¨×Ļ×Ŀ": 2363,
      "Ġ×§×ĺ×¢": 2364,
      "Ġ×§×ĺ×ł×Ķ": 2365,
      "Ġ×ŀ×Ľ×ķ×Ł": 2366,
      "Ġ×ŀ×©×ª×ª": 2367,
      "Ġ×¦×ķ×¨×ª": 2368,
      "Ġ×¦×ĳ×Ĳ×Ļ×Ļ×Ŀ": 2369,
      "Ġ×¤×Ļ×¨×ķ×ĺ": 2370,
      "Ġ×ł×§×ķ×ĵ×ķ×ª": 2371,
      "Ġ×©×Ľ×Ł": 2372,
      "Ġ×©×Ľ×ķ×ł×ª": 2373,
      "Ġ×ª×ł×Ĳ×Ļ": 2374,
      "Ġ×ľ×Ķ×ª×Ĺ×Ļ×ľ": 2375,
      "Ġ×¤×¨×§×Ļ×Ŀ": 2376,
      "Ġ×Ķ×©×ª×ª×£": 2377,
      "Ġ×¢×ķ×ľ×ŀ×Ļ×ª": 2378,
      "Ġ×©×Ĵ×Ļ×Ĳ×ķ×ª": 2379,
      "Ġ×Ĳ×ķ×Ľ×ľ×ķ×¡×Ļ×Ļ×Ķ": 2380,
      "Ġ×ĳ×Ļ×ł×ľ×Ĳ×ķ×ŀ×Ļ": 2381,
      "Ġ×ľ×©×ŀ×ķ×¢": 2382,
      "Ġ×Ĳ×ķ×ľ×Ļ×ŀ×¤×Ļ×Ĳ×": 2383,
      "Ġ×ľ×¤×¢×ŀ×Ļ×Ŀ": 2384,
      "Ġ×¤×Ļ×¡×§×Ķ": 2385,
      "Ġ×Ľ×Ĳ×ŀ×ķ×¨": 2386,
      "Ġ×Ķ×ŀ": 2387,
      "Ġ×Ķ×ł×Ķ": 2388,
      "Ġ×Ķ×Ļ×ł×ķ": 2389,
      "×¨×Ļ×Ļ×Ŀ": 2390,
      "Ġ×ľ×ķ×Ĵ": 2391,
      "Ġ×ľ×ķ×§×Ķ": 2392,
      "Ġ×ĳ×¨×Ľ×Ķ": 2393,
      "×ľ×Ļ×Ķ": 2394,
      "Ġ×Ĳ×ŀ×ª": 2395,
      "Ġ×©×ķ×Ľ": 2396,
      "Ġ×©×Ĺ×¨": 2397,
      "Ġ×¢×ķ×¨×ļ": 2398,
      "Ġ×¢×ķ×©×Ļ×Ŀ": 2399,
      "×¨×¢": 2400,
      "Ġ×Ľ×Ļ×ł×ķ×Ļ": 2401,
      "Ġ×Ĺ×ķ×¨": 2402,
      "Ġ×Ĺ×ķ×Ĵ": 2403,
      "Ġ×ł×Ļ×Ķ": 2404,
      "Ġ×ł×ķ×Ľ×ľ": 2405,
      "Ġ×ŀ×Ļ×¨": 2406,
      "Ġ×ª×ĸ": 2407,
      "Ġ×¨×ķ×¤": 2408,
      "Ġ×¨×ķ×ŀ×ł": 2409,
      "Ġ×¤×¨×Ļ×ĸ": 2410,
      "Ġ×§×Ļ×¦×ķ×ł": 2411,
      "×Ļ×Ķ×ķ": 2412,
      "Ġ×Ĵ×ł": 2413,
      "Ġ×ĵ×¨×Ľ×Ļ×Ŀ": 2414,
      "Ġ×ľ×Ĳ×ķ×¨": 2415,
      "×Ļ×ĳ×ķ×©": 2416,
      "Ġ×ŀ×§×ĳ": 2417,
      "×ķ×Ľ×Ļ×Ł": 2418,
      "Ġ×ĳ×¢×ľ×ķ×ª": 2419,
      "Ġ×ŀ×¢×ľ": 2420,
      "Ġ×¨×ĳ×Ļ": 2421,
      "Ġ×ľ×©×§": 2422,
      "Ġ×ĸ×Ľ×ķ": 2423,
      "Ġ×Ļ×¦×Ļ×¨×Ķ": 2424,
      "Ġ×Ķ×¢×¨×Ķ": 2425,
      "Ġ×Ĺ×ķ×§×Ļ×Ŀ": 2426,
      "Ġ×Ķ×¤×Ľ×Ķ": 2427,
      "Ġ×ĳ×ł×Ļ×Ļ×Ł": 2428,
      "Ġ×ŀ×ŀ×©×ľ": 2429,
      "Ġ×Ĳ×Ļ×©×Ļ×ª": 2430,
      "Ġ×Ĳ×¦×ĺ": 2431,
      "Ġ×Ĳ×¡×ķ×¨": 2432,
      "Ġ×ľ×Ķ×¦×ĳ×Ļ×¢": 2433,
      "Ġ×¢×©×¨×Ķ": 2434,
      "Ġ×Ķ×ķ×ĵ×¢×ķ×ª": 2435,
      "Ġ×Ĵ×ķ×¨×Ŀ": 2436,
      "Ġ×ĳ×Ļ×ĺ×Ĺ×ķ×Ł": 2437,
      "Ġ×©×ĳ×ķ×¢×Ļ×Ļ×Ŀ": 2438,
      "Ġ×ŀ×¤×ľ×Ĵ×ª": 2439,
      "Ġ×ŀ×Ļ×ľ×Ļ×ķ×Ł": 2440,
      "Ġ×Ĳ×ĸ×¨×Ĺ×Ļ×Ŀ": 2441,
      "Ġ×ŀ×ŀ×ľ×Ļ×¥": 2442,
      "Ġ×Ľ×ĳ×Ļ×©": 2443,
      "Ġ×¨×ķ×¡×Ļ×ª": 2444,
      "Ġ×¨×Ĺ×ĳ×Ķ": 2445,
      "Ġ×ŀ×ŀ×ķ×§": 2446,
      "×ŀ×¦×Ĳ": 2447,
      "×ķ×ķ×Ļ×Ŀ": 2448,
      "Ġ×ĵ×ķ×¨×©": 2449,
      "Ġ×¨×ĳ×Ļ×¢×Ļ": 2450,
      "Ġ×ŀ×§×ķ×ĳ×ľ×ª": 2451,
      "Ġ×¡×Ļ×ŀ×ķ×Ľ×Ļ×Ł": 2452,
      "Ġ×ŀ×¢×ķ×ł×Ļ×Ļ×Ł": 2453,
      "Ġ×ŀ×¨×ĳ×Ļ×ª": 2454,
      "Ġ×¦×ķ×ĵ×§": 2455,
      "Ġ2": 2456,
      "Ġ×Ĳ×¢": 2457,
      "Ġ×©×ŀ×©": 2458,
      "Ġ×¢×Ļ×ł": 2459,
      "Ġ×ľ×ĸ": 2460,
      "Ġ×Ļ×ķ×Ĺ": 2461,
      "Ġ×Ĺ×¨×ĵ": 2462,
      "Ġ×ł×Ĳ": 2463,
      "Ġ×ł×Ĺ×ľ": 2464,
      "Ġ×ª×¨×¦×Ķ": 2465,
      "Ġ×§×ķ×ŀ": 2466,
      "Ġ×§×¨×Ł": 2467,
      "×ķ×ł×Ĵ": 2468,
      "×ĺ×ľ": 2469,
      "Ġ×Ĵ×ĳ×¨": 2470,
      "×ķ×ĳ×ķ×¡": 2471,
      "Ġ×ľ×Ķ×¡×ª": 2472,
      "Ġ×¢×ľ×Ļ×ķ×Ł": 2473,
      "Ġ×Ļ×©×Ļ×ĳ×ª": 2474,
      "Ġ×Ľ×ľ×Ľ×ľ": 2475,
      "Ġ×Ĳ×ľ×§": 2476,
      "Ġ×Ĳ×ľ×Ľ×¡": 2477,
      "Ġ×ŀ×¢×Ļ×Ł": 2478,
      "×Ļ×ŀ×ķ": 2479,
      "Ġ×ŀ×ľ×Ĳ×": 2480,
      "Ġ×Ĺ×ľ×ľ": 2481,
      "×¨×Ĺ×©": 2482,
      "Ġ×¢×ĳ×¨×ķ": 2483,
      "×Ļ×Ľ×ķ×Ĺ": 2484,
      "Ġ×¡×¤×¨×Ļ": 2485,
      "Ġ×ľ×©×ŀ×©": 2486,
      "Ġ×ŀ×ł×Ķ×ľ": 2487,
      "Ġ×ŀ×Ľ×ľ": 2488,
      "Ġ×ŀ×¡×¤×¨×Ļ×Ŀ": 2489,
      "Ġ×Ķ×¢×¨×ķ×ª": 2490,
      "Ġ×¤×¡×ĺ×Ļ×ĳ": 2491,
      "Ġ×¨×ķ×ĳ×Ŀ": 2492,
      "Ġ×Ķ×Ļ×¡×ĺ×ķ×¨×Ļ×ª": 2493,
      "Ġ×ł×§×ĳ×¢": 2494,
      "Ġ×ŀ×©×¤×ĺ×Ļ×ª": 2495,
      "Ġ×§×ķ×¨×ķ×ª": 2496,
      "Ġ×ĺ×¢×ł×ķ×ª": 2497,
      "Ġ×Ĵ×ĳ×Ļ×¢": 2498,
      "Ġ×Ķ×ķ×¡×Ļ×£": 2499,
      "Ġ×¤×ľ×Ļ×ĺ×Ļ×Ŀ": 2500,
      "Ġ×Ľ×ķ×ľ×ķ": 2501,
      "Ġ×ª×ľ×ŀ×Ļ×ĵ": 2502,
      "Ġ×ł×Ķ×¨×Ĵ": 2503,
      "Ġ×ª×¢×¨": 2504,
      "Ġ×Ķ×ľ×Ľ×Ķ": 2505,
      "×ķ×ľ×ķ×Ĵ×Ļ": 2506,
      "Ġ×ľ×ŀ×¢×ľ×Ķ": 2507,
      "Ġ×ŀ×ķ×¡×ľ": 2508,
      "Ġ×¡×ĳ×Ļ×ĳ": 2509,
      "Ġ×Ĵ×Ĳ×ķ×¨×Ĵ": 2510,
      "Ġ×¡×ķ×¤×ķ": 2511,
      "Ġ×Ĺ×§×ľ": 2512,
      "Ġ×¢×Ļ×ª×ķ×Ł": 2513,
      "Ġ×Ľ×ľ×©×Ķ×Ļ": 2514,
      "Ġ×Ĵ×ĸ×¢": 2515,
      "Ġ×ľ×ľ×ŀ×ķ×ĵ": 2516,
      "Ġ×Ķ×ķ×Ĵ×Ł": 2517,
      "Ġ×ľ×§×¦×¥": 2518,
      "Ġ×Ķ×¤×¨": 2519,
      "Ġ×Ķ×ŀ×©": 2520,
      "Ġ×ľ×Ļ×Ĵ×Ķ": 2521,
      "Ġ×©×Ļ×¢": 2522,
      "Ġ×©×¢×ķ×ª": 2523,
      "×ĵ×ķ": 2524,
      "Ġ×Ľ×ĳ×ĵ": 2525,
      "Ġ×Ľ×Ļ×ĳ×ķ×©": 2526,
      "Ġ×Ĺ×ķ×£": 2527,
      "Ġ×ł×¤×ª×Ĺ": 2528,
      "Ġ×Ĳ×Ļ×¡": 2529,
      "Ġ×ª×ķ×§": 2530,
      "Ġ×ª×Ľ×ł": 2531,
      "Ġ×ķ×Ļ×ľ": 2532,
      "Ġ×¤×Ļ×ł": 2533,
      "Ġ×§×Ļ×ĵ": 2534,
      "Ġ×ĸ×Ļ×Ķ": 2535,
      "×ĺ×¨×Ķ": 2536,
      "Ġ×©×ľ×Ĳ": 2537,
      "Ġ×©×ľ×Ļ×©×Ļ×ª": 2538,
      "Ġ×¡×Ļ×Ļ×Ŀ": 2539,
      "×ĳ×¨×¨": 2540,
      "×ķ×¤×ķ×ª": 2541,
      "Ġ×Ļ×©×ł×Ķ": 2542,
      "×Ļ×ĳ×ķ×ĳ": 2543,
      "×¨×Ļ×¦": 2544,
      "Ġ×Ľ×ľ×¤×Ļ": 2545,
      "×Ļ×¤×ĵ×Ļ×Ŀ": 2546,
      "×Ļ×ŀ×ĵ": 2547,
      "Ġ×Ĳ×Ĺ×Ļ×Ŀ": 2548,
      "Ġ×ľ×¤×Ļ×Ľ": 2549,
      "×ķ×ĺ×¨": 2550,
      "Ġ×Ĳ×¨×ŀ": 2551,
      "Ġ×¢×¦×ŀ×Ŀ": 2552,
      "Ġ×ľ×ĳ×§×©": 2553,
      "Ġ×ľ×ĳ×¡×ķ×£": 2554,
      "Ġ×ľ×Ĺ×¥": 2555,
      "Ġ×¨×¦×Ļ×ª×Ļ": 2556,
      "Ġ×ł×¢×¨×ļ": 2557,
      "Ġ×ł×¢×¨×Ľ×ķ": 2558,
      "Ġ×Ķ×Ļ×¡×ĺ×ķ×¨×Ļ": 2559,
      "Ġ×©×Ľ×ķ×ł×Ķ": 2560,
      "Ġ×Ļ×ķ×¦×¨": 2561,
      "Ġ×¢×ª×Ļ×§×Ķ": 2562,
      "Ġ×ĺ×¢×ŀ×Ļ": 2563,
      "Ġ×ª×ł×ļ": 2564,
      "Ġ×ł×Ļ×¡×Ļ×ķ×Ł": 2565,
      "Ġ×ŀ×ķ×¨×©×ª": 2566,
      "Ġ×Ĳ×Ļ×ĸ×ķ": 2567,
      "Ġ×Ľ×ķ×ľ×ľ×ª": 2568,
      "Ġ×ŀ×¢×¨×Ľ×Ķ": 2569,
      "Ġ×ĳ×ĵ×Ļ×§×ķ×ª": 2570,
      "Ġ×ª×¤×§×Ļ×ĵ×Ļ×Ŀ": 2571,
      "Ġ×ľ×¦×ĵ": 2572,
      "Ġ×ŀ×ķ×¡×ĵ": 2573,
      "Ġ×ŀ×ķ×¤×Ļ×¢×Ķ": 2574,
      "Ġ×Ļ×¢×§×ĳ": 2575,
      "×¡×§×Ļ": 2576,
      "Ġ×ľ×Ķ×ĳ×Ļ×Ł": 2577,
      "Ġ×ł×Ľ×ª×ĳ×ķ": 2578,
      "Ġ×©×Ļ×¨×ķ×ª×ķ": 2579,
      "Ġ×ł×Ĳ×¦": 2580,
      "Ġ×ŀ×ł×Ķ×Ļ×Ĵ": 2581,
      "Ġ×ĺ×¨×ķ×¨": 2582,
      "Ġ×ŀ×ķ×ª×ķ": 2583,
      "Ġ×¤×ł×Ļ×Ļ×Ķ": 2584,
      "Ġ×ª×¢×©×Ļ×Ļ×Ķ": 2585,
      "Ġ×Ļ×¡×ķ×ĵ": 2586,
      "Ġ×¦×Ļ×ľ×ķ×Ŀ": 2587,
      "Ġ×Ĵ×ķ×ĵ×ľ": 2588,
      "Ġ×ĵ×ľ×¤×§": 2589,
      "Ġ×¨×Ļ×¦×¨×ĵ": 2590,
      "Ġ×¡×ĺ×ķ×ĵ×ł×ĺ×Ļ×Ŀ": 2591,
      "Ġ×ł×Ļ×Ļ×ĺ×¨×ľ": 2592,
      "Ġ×ĳ×¨×Ļ×Ĳ×ķ×ª": 2593,
      "Ġ×©×Ļ×ª×ķ×£": 2594,
      "Ġ×ľ×¤×Ļ×Ľ×ļ": 2595,
      "Ġ×Ķ×ķ×ĳ": 2596,
      "Ġ×Ķ×Ļ×©": 2597,
      "Ġ×Ķ×Ľ×ł": 2598,
      "Ġ×Ķ×ķ×¨×Ĵ": 2599,
      "Ġ×ĳ×Ĳ×Ļ×Ŀ": 2600,
      "Ġ×ĳ×Ĳ×Ķ": 2601,
      "×ľ×ĵ": 2602,
      "Ġ×©×ķ×§": 2603,
      "Ġ×©×¢×Ķ": 2604,
      "Ġ×©×ķ×ŀ×¨": 2605,
      "×¨×ŀ": 2606,
      "×©×Ļ×ª": 2607,
      "×ĵ×¨×ķ×ª": 2608,
      "Ġ×ł×ŀ": 2609,
      "Ġ×Ĳ×ķ×ŀ": 2610,
      "Ġ×Ĳ×¨×ķ×ļ": 2611,
      "Ġ×ª×ķ×¨": 2612,
      "Ġ×§×ĳ×ľ×ª": 2613,
      "Ġ×Ĵ×Ł": 2614,
      "×ŀ×Ļ×ł": 2615,
      "×¡×ķ×¨": 2616,
      "×Ĵ×ķ×¨": 2617,
      "Ġ×¡×Ļ×Ľ": 2618,
      "Ġ×ľ×Ĳ×ķ×ŀ×Ļ": 2619,
      "×ķ×¤×Ļ×Ŀ": 2620,
      "Ġ×ĳ×¢×ľ×ª": 2621,
      "Ġ×ŀ×ª×Ĺ": 2622,
      "Ġ×Ķ×ª×Ĳ×": 2623,
      "×ķ×Ĳ×¨×ĵ": 2624,
      "Ġ×ŀ×ľ×ĳ×ĵ": 2625,
      "Ġ×ŀ×ľ×Ľ×ķ×ª": 2626,
      "Ġ×ª×Ĺ×ķ×ŀ×Ļ×Ŀ": 2627,
      "Ġ×©×ł×Ļ×Ķ": 2628,
      "Ġ×ľ×©×Ĺ×ĸ×¨": 2629,
      "Ġ×ľ×ĳ×ĺ×ľ": 2630,
      "Ġ×ĳ×¨×ķ×ļ": 2631,
      "Ġ×ŀ×Ļ×ķ×Ĺ": 2632,
      "Ġ×ł×¤×ķ×¥": 2633,
      "Ġ×ĳ×ł×Ļ×Ļ×Ķ": 2634,
      "Ġ×©×Ľ×ª×ķ×ĳ": 2635,
      "Ġ×ł×ĳ×Ĺ×¨×ķ×ª": 2636,
      "Ġ×Ĺ×ĸ×Ļ×ª": 2637,
      "Ġ×ª×©×ķ×ŀ×ª": 2638,
      "Ġ×ŀ×ķ×¢×ĵ": 2639,
      "Ġ×¡×¨×ĺ×Ļ": 2640,
      "Ġ×§×Ļ×ķ×Ŀ": 2641,
      "Ġ×¦×ĵ×§": 2642,
      "Ġ×ŀ×§×¦×ķ×¢×Ļ×Ļ×Ŀ": 2643,
      "Ġ×ľ×Ķ×¦×Ļ×¥": 2644,
      "Ġ×Ĵ×¨×ŀ×ł×Ļ×ª": 2645,
      "Ġ×Ļ×Ĺ×¡×Ļ×Ŀ": 2646,
      "Ġ×Ľ×ķ×ª×¨×ª": 2647,
      "Ġ×ŀ×ĸ×¨×Ĺ×Ļ": 2648,
      "Ġ×ľ×Ķ×©×Ļ×Ĵ": 2649,
      "Ġ×¡×ĳ×Ļ×ĳ×Ķ": 2650,
      "Ġ×Ļ×ª×Ľ×Ł": 2651,
      "Ġ×¤×ķ×ľ×Ļ×ĺ×Ļ×§×Ķ": 2652,
      "Ġ×ľ×ķ×Ĺ×ŀ×Ļ×Ŀ": 2653,
      "Ġ×¨×¤×ķ×ĳ×ľ": 2654,
      "Ġ×ł×ķ×Ľ×Ĺ×Ļ×ª": 2655,
      "Ġ×©×Ļ×ĺ×ª": 2656,
      "Ġ×§×©×ķ×¨": 2657,
      "Ġ×¡×§×ķ×ĺ": 2658,
      "Ġ×¡×§×¨×Ļ×¤": 2659,
      "Ġ×Ķ×ķ×ľ×ł×ĵ": 2660,
      "Ġ×Ľ×ķ×Ľ×ĳ×Ļ×Ŀ": 2661,
      "Ġ×ŀ×Ĺ×§×ª×Ļ": 2662,
      "Ġ×ŀ×Ļ×ķ×Ĺ×ĵ×ª": 2663,
      "Ġ×ľ×Ķ×Ĺ×ľ×Ļ×£": 2664,
      "Ġ×ľ×ĳ×ĵ×ķ×§": 2665,
      "Ġ×ĳ×ķ×¦×¢×ķ": 2666,
      "Ġ×Ļ×ķ×¡×£": 2667,
      "×ķ×ŀ×ĺ×Ļ×ª": 2668,
      "Ġ×Ķ×©×Ľ×ľ×Ķ": 2669,
      "Ġ×Ķ×¢×¤×Ļ×ľ×Ķ": 2670,
      "Ġ×ŀ×Ļ×¨×ķ×¥": 2671,
      "×Ļ×Ļ": 2672,
      "Ġ×©×Ļ×Ŀ": 2673,
      "Ġ×©×Ļ×¤": 2674,
      "×ª×¨": 2675,
      "Ġ×Ľ×Ľ×Ķ": 2676,
      "Ġ×Ļ×ķ×¢": 2677,
      "Ġ×Ļ×Ļ×¦×ķ×¨": 2678,
      "Ġ×Ĺ×ĳ": 2679,
      "Ġ×ŀ×¨×Ĳ×©": 2680,
      "Ġ×ķ×ķ": 2681,
      "Ġ×¨×ķ×§": 2682,
      "Ġ×¨×Ļ×Ľ": 2683,
      "×¤×¡": 2684,
      "Ġ×ĸ×§": 2685,
      "×ķ×ł×ķ": 2686,
      "Ġ×Ĵ×©×¨": 2687,
      "×Ľ×ķ×¨": 2688,
      "Ġ×ĵ×ķ×ĳ": 2689,
      "Ġ×ĵ×ķ×Ĺ": 2690,
      "×ķ×ľ×ª": 2691,
      "×Ĳ×¡": 2692,
      "×ķ×©×ª": 2693,
      "Ġ×ŀ×§×ĵ×©": 2694,
      "Ġ×ŀ×§×ĳ×Ļ×ľ": 2695,
      "×ĸ×Ļ×Ŀ": 2696,
      "Ġ×ĺ×ĳ×Ĺ": 2697,
      "Ġ×ŀ×Ĺ×Ļ×§×ª": 2698,
      "Ġ×ŀ×¢×ľ×Ķ": 2699,
      "×Ļ×ŀ×¡": 2700,
      "×ķ×ŀ×¦": 2701,
      "Ġ×ŀ×ª×ĳ": 2702,
      "Ġ×Ķ×ª×Ĺ×ľ": 2703,
      "Ġ×Ĳ×Ļ×ł×ļ": 2704,
      "Ġ×ŀ×¤×Ĵ": 2705,
      "Ġ×¤×¢×ŀ×Ļ×Ļ×Ŀ": 2706,
      "Ġ×¨×©×ŀ×Ļ×ª": 2707,
      "Ġ×ĸ×Ľ×¨": 2708,
      "Ġ×§×¦×¨×Ķ": 2709,
      "Ġ×Ĺ×Ļ×Ļ": 2710,
      "Ġ×Ĺ×ľ×§×ķ": 2711,
      "Ġ×§×ĺ×¢×Ļ×Ŀ": 2712,
      "Ġ×ŀ×Ľ×Ļ×¨": 2713,
      "Ġ×Ķ×¢×ĳ×¨": 2714,
      "Ġ×Ķ×¡×Ľ×Ŀ": 2715,
      "Ġ×ŀ×ķ×ĸ×Ľ": 2716,
      "Ġ×ŀ×Ĵ×ķ×ķ×Ł": 2717,
      "Ġ×ľ×Ķ×ª×Ĵ×ķ×¨×¨": 2718,
      "Ġ×ł×Ļ×¡×Ļ×ª×Ļ": 2719,
      "Ġ×ŀ×ķ×¨×Ľ": 2720,
      "Ġ×Ĳ×ķ×¨×Ļ": 2721,
      "Ġ×Ļ×Ĺ×¡×Ļ": 2722,
      "Ġ×Ĺ×Ļ×ł×ķ×Ľ": 2723,
      "Ġ×§×Ķ×Ļ×ľ×ķ×ª": 2724,
      "Ġ×Ļ×ľ×ĵ": 2725,
      "Ġ×ĵ×ķ×Ĵ×ŀ×Ĳ": 2726,
      "Ġ×ª×¨×Ĵ×Ŀ": 2727,
      "Ġ×ľ×Ļ×ŀ×ķ×ĵ×Ļ×Ŀ": 2728,
      "Ġ×¤×ķ×ľ×Ļ×ĺ×Ļ": 2729,
      "Ġ×ĳ×ŀ×§×ĳ×Ļ×ľ": 2730,
      "Ġ×ŀ×ª×Ļ×Ļ×Ĺ×¡": 2731,
      "Ġ×ŀ×ŀ×ľ×Ľ×Ķ": 2732,
      "Ġ×ŀ×ĵ×¢×Ļ": 2733,
      "Ġ×Ĳ×ŀ×¨×Ļ×§×Ĳ×Ļ": 2734,
      "Ġ×Ĳ×ŀ×ł×Ŀ": 2735,
      "Ġ×ł×Ļ×¦×Ĺ": 2736,
      "Ġ×Ķ×¦×ľ×Ļ×Ĺ×ķ": 2737,
      "Ġ×ª×Ļ×§×ķ×Ł": 2738,
      "Ġ×ĺ×Ľ×ł×Ļ×ª": 2739,
      "Ġ×Ĵ×Ļ×Ļ×ŀ×¡": 2740,
      "Ġ×§×ķ×ł×Ĵ": 2741,
      "Ġ×©×¢×¨": 2742,
      "Ġ×Ĳ×ŀ×¦×¢×Ļ": 2743,
      "Ġ×¡×Ļ×ŀ×ł": 2744,
      "Ġ×ľ×Ķ×Ĺ×ĸ×Ļ×¨": 2745,
      "Ġ×ŀ×¢×ĵ×Ļ×£": 2746,
      "Ġ×ŀ×Ļ×§×ķ×Ŀ": 2747,
      "Ġ×Ľ×¢×ĳ×ķ×¨": 2748,
      "Ġ×Ĳ×ľ×§×ĺ×¨": 2749,
      "Ġ×¤×¡×ĺ×Ļ×ĳ×ľ": 2750,
      "×Ļ×Ľ×Ļ×Ŀ": 2751,
      "Ġ×ĳ×ķ×¨": 2752,
      "×ľ×ĳ": 2753,
      "×ľ×¡": 2754,
      "Ġ×©×Ļ×¤×ķ×¨": 2755,
      "Ġ×¢×ķ×ĳ×¨": 2756,
      "×©×ª×Ļ": 2757,
      "Ġ×Ļ×Ļ×¢": 2758,
      "Ġ×Ļ×ķ×ķ×ł": 2759,
      "Ġ×Ļ×ķ×ł×Ļ": 2760,
      "Ġ×ŀ×ķ×¨×Ķ": 2761,
      "Ġ×¨×ĵ": 2762,
      "×¤×Ł": 2763,
      "Ġ×§×Ķ×ľ": 2764,
      "Ġ×Ĵ×§": 2765,
      "×Ľ×¨×Ĺ": 2766,
      "Ġ×¡×ķ×ĳ": 2767,
      "Ġ×Ĳ×ł×ķ×ł": 2768,
      "×Ļ×ľ×ł×ĵ": 2769,
      "Ġ×Ļ×©×ł×ķ": 2770,
      "×Ļ×©×Ĳ×¨": 2771,
      "×¨×Ļ×Ľ×Ļ×Ŀ": 2772,
      "Ġ×Ĳ×ľ×ķ×£": 2773,
      "Ġ×ŀ×¡×ķ×Ļ×Ļ×Ŀ": 2774,
      "×Ļ×ŀ×Ĺ×§": 2775,
      "Ġ×ŀ×Ĳ×ª": 2776,
      "Ġ×ŀ×Ĳ×Ĺ": 2777,
      "Ġ×ĵ×ĳ×¨×Ļ×ļ": 2778,
      "Ġ×¢×¦×ŀ×ļ": 2779,
      "Ġ×ĳ×¨×ķ×¨×Ķ": 2780,
      "Ġ×ŀ×Ļ×Ļ×¦": 2781,
      "Ġ×Ĳ×ł×Ĵ×ľ×Ļ": 2782,
      "Ġ×Ļ×ĵ×Ļ×¢": 2783,
      "Ġ×ŀ×ĸ×Ľ×Ļ×¨": 2784,
      "Ġ×ł×ŀ×¦×Ĳ×ķ×ª": 2785,
      "Ġ×©×Ľ×ķ×ł×ķ×ª": 2786,
      "Ġ×ĳ×§×©×ª": 2787,
      "Ġ×ŀ×ķ×¢×¦×Ķ": 2788,
      "Ġ×Ĳ×Ļ×©×Ļ×Ŀ": 2789,
      "Ġ×¦×Ļ×Ļ×ł×ª": 2790,
      "Ġ×ĺ×ķ×ĳ×ķ×ª": 2791,
      "Ġ×Ķ×¦×ľ×Ĺ×ª×Ļ": 2792,
      "Ġ×Ĳ×¨×Ĵ×ĸ": 2793,
      "Ġ×¦×Ļ×ĳ×ķ×¨×Ļ×ª": 2794,
      "Ġ×¦×¨×¤×ª×Ļ": 2795,
      "Ġ×Ķ×§×©×¨": 2796,
      "Ġ×¤×ł×Ļ×ŀ": 2797,
      "Ġ×ľ×Ķ×Ĵ×Ļ×ĵ": 2798,
      "Ġ×¡×ĵ×¨×ª": 2799,
      "Ġ×¡×Ĵ×Ł": 2800,
      "Ġ×ĳ×Ķ×Ľ×¨×Ĺ": 2801,
      "Ġ×¨×¤×ķ×Ĳ×Ķ": 2802,
      "Ġ×Ķ×ª×Ļ×Ļ×©": 2803,
      "Ġ×Ľ×Ķ×Ł": 2804,
      "Ġ×Ĵ×Ļ×ķ×¡": 2805,
      "Ġ×Ķ×©×¤×¢×Ķ": 2806,
      "Ġ×ł×ķ×Ķ×ľ": 2807,
      "Ġ×¤×¡×§×Ĳ×ķ×ª": 2808,
      "Ġ×ŀ×ķ×¢×¦×ķ×ª": 2809,
      "Ġ×ł×ĸ×§": 2810,
      "Ġ×ª×ķ×¡×¤×ª": 2811,
      "Ġ×¨×ķ×ŀ×Ĳ": 2812,
      "Ġ×ľ×©×§×ķ×ľ": 2813,
      "Ġ×¡×§×¨×Ļ×¤×ĺ": 2814,
      "Ġ×¨×Ļ×Ľ×ķ×ĸ": 2815,
      "Ġ×Ļ×Ļ×¢×ķ×¥": 2816,
      "×Ļ×ķ×ł×Ļ": 2817,
      "×¨×Ļ×ķ×ª": 2818,
      "Ġ×ľ×ķ×§": 2819,
      "Ġ×ľ×ķ×Ļ": 2820,
      "Ġ×ĳ×Ļ×¨×ª": 2821,
      "Ġ×Ĳ×ĺ": 2822,
      "Ġ×©×ķ×©": 2823,
      "Ġ×©×Ļ×©×Ķ": 2824,
      "×ĳ×ķ×ľ": 2825,
      "×Ĺ×ł×Ļ×Ŀ": 2826,
      "Ġ×ł×ķ×Ĺ": 2827,
      "Ġ×ŀ×Ļ×ª": 2828,
      "Ġ×ŀ×Ļ×©": 2829,
      "Ġ×ŀ×¨×©": 2830,
      "Ġ×ŀ×Ļ×ĺ×ĳ": 2831,
      "Ġ×ª×ķ×©×ĳ": 2832,
      "Ġ×¨×Ļ×ĳ": 2833,
      "×ŀ×ĸ": 2834,
      "Ġ×§×Ļ×¥": 2835,
      "Ġ×ĸ×ķ×Ľ×Ķ": 2836,
      "Ġ×ĵ×Ķ": 2837,
      "Ġ×ĵ×ķ×§": 2838,
      "Ġ×©×ľ×ŀ×Ķ": 2839,
      "×ķ×ľ×Ļ×ª": 2840,
      "Ġ×¦×ĳ×Ļ": 2841,
      "×¡×ķ×§": 2842,
      "Ġ×¡×Ļ×Ł": 2843,
      "×ķ×ĵ×Ĳ×Ļ": 2844,
      "×Ļ×§×¡": 2845,
      "Ġ×ľ×Ĳ×ķ": 2846,
      "Ġ×ľ×Ķ×Ľ": 2847,
      "Ġ×ľ×Ķ×ª×Ļ": 2848,
      "Ġ×Ľ×ľ×Ļ×Ŀ": 2849,
      "Ġ×ĺ×ł×§": 2850,
      "Ġ×ŀ×¡×ľ×ķ×ľ": 2851,
      "Ġ×ŀ×ĵ×¨×Ļ×ļ": 2852,
      "Ġ×ŀ×Ĺ×ķ×§": 2853,
      "Ġ×ŀ×Ĺ×ł×ķ×ª": 2854,
      "Ġ×ŀ×ª×ł×Ĵ": 2855,
      "Ġ×Ķ×ª×¤": 2856,
      "Ġ×ŀ×Ķ×ķ×ª": 2857,
      "Ġ×ŀ×¦×Ļ×Ĳ×ķ×ª": 2858,
      "Ġ×ľ×¤×ł×ķ×ª": 2859,
      "Ġ×ª×ŀ×Ļ×Ľ×Ķ": 2860,
      "Ġ×ľ×¢×Ļ×ľ": 2861,
      "Ġ×Ļ×©×¨×Ĳ×ľ×Ļ×Ŀ": 2862,
      "Ġ×ŀ×Ĳ×ĳ": 2863,
      "Ġ×§×¦×Ļ×Ł": 2864,
      "Ġ×Ķ×Ĵ×Ļ×¢×Ķ": 2865,
      "Ġ×ł×Ľ×ķ×ł×Ķ": 2866,
      "Ġ×ľ×§×Ļ×Ļ×Ŀ": 2867,
      "Ġ×¤×¨×ķ×Ļ×Ļ×§": 2868,
      "Ġ×Ĳ×©×ª": 2869,
      "Ġ×Ĳ×Ļ×¨×ľ×ł×ĵ": 2870,
      "×Ļ×Ĳ×ł": 2871,
      "Ġ×Ľ×ª×ĳ×Ķ": 2872,
      "Ġ×ł×©×Ĳ": 2873,
      "Ġ×ŀ×ķ×ĸ×ŀ×ł": 2874,
      "Ġ×©×ĳ×ª": 2875,
      "Ġ×¢×ª×Ķ": 2876,
      "Ġ×¤×ķ×ľ×Ĺ×Ł": 2877,
      "Ġ×Ĳ×¦×ķ×ľ×Ķ": 2878,
      "Ġ×ĳ×ª×Ļ×Ŀ": 2879,
      "Ġ×ľ×ĵ×ķ×Ł": 2880,
      "Ġ×¤×ķ×¢×ľ×Ļ×Ŀ": 2881,
      "Ġ×¡×ĳ×ķ×¨": 2882,
      "Ġ×Ĵ×ķ×¨×ŀ×Ļ×Ŀ": 2883,
      "Ġ×©×ĳ×ķ×¢×ķ×ª": 2884,
      "Ġ×©×ŀ×ķ×ł×Ķ": 2885,
      "Ġ×ª×Ĵ×ķ×ĳ×ķ×ª": 2886,
      "Ġ×¢×¨×ĳ×Ļ×ª": 2887,
      "Ġ×ľ×Ķ×¤×ł×ķ×ª": 2888,
      "Ġ×ĳ×ĺ×Ĺ": 2889,
      "Ġ×Ĺ×ķ×ĸ×¨×ª": 2890,
      "Ġ×§×©×ķ×¨×Ļ×Ŀ": 2891,
      "Ġ×¢×ł×£": 2892,
      "Ġ×¨×ĳ×Ļ×¢×Ļ×ª": 2893,
      "Ġ×Ľ×ľ×Ľ×ľ×Ķ": 2894,
      "Ġ×ł×ķ×ª×Ł": 2895,
      "Ġ×Ľ×Ĺ×ķ×ľ": 2896,
      "Ġ×Ĺ×ĺ×Ļ×ĳ×ª": 2897,
      "Ġ×ŀ×ķ×¢×¦×ª": 2898,
      "Ġ×Ķ×ķ×Ĺ×ľ×ĺ": 2899,
      "Ġ×ĳ×ķ×ķ×ĵ×Ĳ×Ļ": 2900,
      "Ġ×ľ×Ķ×ĸ×Ľ×Ļ×¨": 2901,
      "Ġ×ł×Ļ×ŀ×ķ×§": 2902,
      "Ġ×¡×ĺ×ĺ×Ļ×¡×ĺ": 2903,
      "Ġ×©×Ĺ×¨×ķ×¨": 2904,
      "Ġ×Ļ×ķ×Ĺ×ł×Ł": 2905,
      "Ġ×ķ×Ļ×ľ×Ļ×Ĳ×": 2906,
      "Ġ×Ĳ×¨×ŀ×ķ×Ł": 2907,
      "Ġ×Ļ×ķ×¢×¥": 2908,
      "Ġ×¤×¨×ķ×Ļ×Ļ×§×ĺ": 2909,
      "Ġ×Ķ×¨×Ĺ×ĳ": 2910,
      "×¨×ķ×ĳ": 2911,
      "Ġ×ľ×ķ×ŀ×¨": 2912,
      "Ġ×ĳ×ķ×Ĵ": 2913,
      "Ġ×ĳ×Ļ×¨×Ķ": 2914,
      "Ġ×ĳ×ł×§": 2915,
      "Ġ×©×Ļ×ľ": 2916,
      "Ġ×©×ŀ×¢": 2917,
      "×ĳ×§": 2918,
      "Ġ×¢×ķ×ľ×Ķ": 2919,
      "Ġ×¢×¨×ķ×¥": 2920,
      "Ġ×Ļ×ķ×ķ×Ł": 2921,
      "Ġ×Ĺ×Ļ×ĵ": 2922,
      "Ġ×Ĺ×ķ×ŀ": 2923,
      "Ġ×Ĺ×§×¨": 2924,
      "×Ĺ×ĳ×Ļ×Ŀ": 2925,
      "Ġ×ŀ×ķ×ł×Ķ": 2926,
      "Ġ×ŀ×Ļ×ĸ": 2927,
      "Ġ×ŀ×¨×Ĳ×Ķ": 2928,
      "Ġ×ª×¡": 2929,
      "Ġ×ª×ķ×¨×Ĵ": 2930,
      "Ġ×§×¨×ĳ×ķ×ª": 2931,
      "Ġ×§×ł×ĵ×Ķ": 2932,
      "Ġ×ĸ×Ĳ×ĳ": 2933,
      "Ġ×Ĵ×ķ": 2934,
      "Ġ×Ĵ×ŀ": 2935,
      "Ġ×Ĵ×Ļ×ĵ": 2936,
      "Ġ×ĵ×Ĵ": 2937,
      "Ġ×ĵ×¨×Ľ×ķ": 2938,
      "×Ĳ×ĸ": 2939,
      "Ġ×Ļ×©×ł×Ł": 2940,
      "×ķ×§×ķ×ª": 2941,
      "×Ļ×©×Ļ×Ŀ": 2942,
      "Ġ×ŀ×§×ĳ×ľ": 2943,
      "×ĸ×Ļ×Ķ": 2944,
      "Ġ×Ĳ×ľ×¤×Ļ": 2945,
      "Ġ×ŀ×¡×ķ×¨": 2946,
      "Ġ×ŀ×¡×ķ×¨×ª": 2947,
      "Ġ×ŀ×ª×¢": 2948,
      "Ġ×ŀ×ª×Ĳ×¨": 2949,
      "Ġ×Ķ×ª×ĳ": 2950,
      "Ġ×Ķ×¦×¢×ķ×ª": 2951,
      "×ĵ×Ļ×ķ×Ł": 2952,
      "×¨×Ķ×Ŀ": 2953,
      "Ġ×Ĳ×ĳ×¨×Ķ×Ŀ": 2954,
      "Ġ×Ĳ×¤×©×¨×Ļ": 2955,
      "Ġ×©×ł×ª": 2956,
      "Ġ×ŀ×ĳ×ł×Ļ×Ŀ": 2957,
      "Ġ×ª×§×ľ": 2958,
      "Ġ×ª×§×ķ×ķ×Ķ": 2959,
      "×ķ×Ķ×ľ×ª": 2960,
      "Ġ×ŀ×ł×¦": 2961,
      "Ġ×ŀ×ł×ķ×Ķ×ľ×ª": 2962,
      "Ġ×ĳ×¨×ľ×Ļ×Ł": 2963,
      "Ġ×ŀ×Ĳ×ķ×Ĺ×ĵ": 2964,
      "×¨×¡×Ŀ": 2965,
      "Ġ×ŀ×ľ×Ĺ×ŀ×ķ×ª": 2966,
      "Ġ×Ķ×¢×¨×ª": 2967,
      "Ġ×ľ×§×Ĺ×ª": 2968,
      "Ġ×ľ×Ĺ×ĸ×ķ×¨": 2969,
      "Ġ×Ĵ×ĵ×ķ×ľ×ķ×ª": 2970,
      "Ġ×Ĳ×Ļ×¨×ķ×¤": 2971,
      "Ġ×¢×ĳ×ķ×ĵ×ª": 2972,
      "Ġ×ŀ×©×ŀ×¢×ķ×ª×Ļ": 2973,
      "Ġ×¤×¨×¡×Ŀ": 2974,
      "Ġ×Ĺ×ĸ×¨×ª×Ļ": 2975,
      "Ġ×ŀ×ķ×¨×Ĺ×ĳ×Ļ×Ŀ": 2976,
      "Ġ×Ľ×ľ×ľ×Ļ×ª": 2977,
      "Ġ×Ĳ×¡×ľ": 2978,
      "Ġ×¤×©×ķ×ĺ×Ķ": 2979,
      "Ġ×ľ×ŀ×¢×Ł": 2980,
      "Ġ×ŀ×ķ×¡×ĵ×ķ×ª": 2981,
      "Ġ×ľ×ŀ×ĵ×Ļ": 2982,
      "Ġ×Ĺ×ŀ×Ļ×©×Ļ": 2983,
      "Ġ×ª×§×ķ×¤×ķ×ª": 2984,
      "Ġ×ŀ×ķ×ĵ×¢×ķ×ª": 2985,
      "Ġ×¤×ª×Ļ×Ĺ×Ķ": 2986,
      "Ġ×ĳ×¡×Ļ×¡×Ļ": 2987,
      "Ġ×ł×Ĳ×¡": 2988,
      "Ġ×ª×Ļ×§×ł×ª×Ļ": 2989,
      "Ġ×Ĳ×¨×Ľ×Ļ×ķ×Ł": 2990,
      "Ġ×ª×¢×©×Ļ×Ļ×ª": 2991,
      "Ġ×ł×Ĳ×ľ×¥": 2992,
      "Ġ×¡×¢×Ļ×£": 2993,
      "Ġ×ĺ×ķ×¢×Ķ": 2994,
      "Ġ×Ķ×Ļ×ķ×ª×ķ": 2995,
      "Ġ×§×Ļ×¡×¨": 2996,
      "Ġ×ŀ×ķ×ĵ×¨×ł×Ļ×ª": 2997,
      "Ġ×ĳ×¨×ĸ×Ļ×ľ": 2998,
      "Ġ×©×ķ×ķ×Ļ×Ļ×¥": 2999,
      "Ġ×¨×Ļ×©×Ļ×ķ×Ł": 3000,
      "Ġ×Ļ×¨×ĵ×Ł": 3001,
      "Ġ×Ĳ×¦×ĺ×ĵ×Ļ×ķ×Ł": 3002,
      "Ġ×ŀ×ľ×Ĳ×Ľ": 3003,
      "Ġ×¡×§×ķ×ĺ×ľ×ł×ĵ": 3004,
      "Ġ×Ķ×ª×Ĺ×ľ×ª×Ļ": 3005,
      "Ġ×Ķ×¢×ĳ×¨×ª": 3006,
      "Ġ×ľ×Ķ×ª×Ļ×Ļ×Ĺ×¡": 3007,
      "Ġ×Ĳ×©×ª×ĵ×ľ": 3008,
      "×ķ×ķ×Ĳ×Ķ": 3009,
      "Ġ×Ķ×ŀ×ľ": 3010,
      "Ġ×ľ×Ļ×ľ×Ķ": 3011,
      "Ġ×ľ×ķ×ŀ×ĵ": 3012,
      "×ª×£": 3013,
      "Ġ×¢×Ļ×§": 3014,
      "Ġ×¢×ŀ×ķ×ª": 3015,
      "Ġ×Ľ×Ĳ": 3016,
      "Ġ×Ľ×ķ×ķ×ł": 3017,
      "Ġ×Ĺ×Ľ×Ŀ": 3018,
      "Ġ×ŀ×Ļ×Ł": 3019,
      "Ġ×ŀ×¨×Ĵ": 3020,
      "Ġ×ŀ×Ļ×§×¨": 3021,
      "Ġ×ª×ķ": 3022,
      "Ġ×¨×ķ×ĸ": 3023,
      "Ġ×¤×Ļ×Ĵ": 3024,
      "Ġ×ĸ×ŀ": 3025,
      "×¦×ķ×ª": 3026,
      "Ġ×Ĵ×ķ×ĳ×Ķ": 3027,
      "×Ľ×ł×Ļ": 3028,
      "Ġ×¦×Ķ": 3029,
      "Ġ×¡×ŀ": 3030,
      "Ġ×Ĳ×ł×ĵ": 3031,
      "Ġ×ľ×Ķ×Ļ×©×Ĳ×¨": 3032,
      "Ġ×¢×ľ×Ļ×Ļ×Ķ": 3033,
      "Ġ×ŀ×©×ķ×ª": 3034,
      "Ġ×ŀ×©×§": 3035,
      "Ġ×ŀ×©×ļ": 3036,
      "×Ļ×©×ķ×ª": 3037,
      "Ġ×ŀ×Ĺ×¤×©": 3038,
      "Ġ×ŀ×Ĺ×§×ª": 3039,
      "Ġ×ŀ×¢×¨×ļ": 3040,
      "×Ļ×ŀ×Ł": 3041,
      "Ġ×Ķ×ª×ł×ĵ": 3042,
      "Ġ×ŀ×Ķ×Ļ×¨×ķ×ª": 3043,
      "×ķ×Ĳ×ķ": 3044,
      "Ġ×ŀ×ľ×Ĳ×Ķ": 3045,
      "Ġ×Ĺ×ĳ×¨×ª×Ļ": 3046,
      "Ġ×ŀ×ĳ×¦": 3047,
      "Ġ×ŀ×Ĳ×ŀ": 3048,
      "Ġ×ĵ×ĳ×¨×Ļ×ķ": 3049,
      "Ġ×§×¦×¨×Ļ×Ŀ": 3050,
      "Ġ×Ĺ×Ļ×Ļ×ĳ×ª": 3051,
      "Ġ×¦×ĳ×Ĳ×ķ×ª": 3052,
      "Ġ×Ĳ×ĵ×ķ×Ĳ×¨×ĵ": 3053,
      "Ġ×Ķ×Ĺ×ľ×ķ": 3054,
      "Ġ×ł×¤×ķ×¦×Ķ": 3055,
      "Ġ×ł×©×§": 3056,
      "Ġ×¤×ķ×¨×ķ×Ŀ": 3057,
      "Ġ×Ĳ×Ļ×©×Ļ": 3058,
      "Ġ×ª×ł×Ĳ×Ļ×Ŀ": 3059,
      "Ġ×ľ×ª×¨×ķ×Ŀ": 3060,
      "Ġ×¢×¨×Ļ×Ľ×ª": 3061,
      "Ġ×ĵ×¨×ķ×¨": 3062,
      "Ġ×ł×ª×Ł": 3063,
      "Ġ×ł×ª×ķ×Ł": 3064,
      "Ġ×ĳ×ª×Ĺ×Ļ×ľ×Ķ": 3065,
      "Ġ×¢×ĸ×ĳ": 3066,
      "Ġ×Ķ×ľ×Ľ×ª": 3067,
      "Ġ×Ķ×ķ×¤×¢×ķ×ª": 3068,
      "Ġ×ľ×Ķ×¦×Ļ×¢": 3069,
      "Ġ×Ĵ×¨×ŀ×ł×Ļ×Ŀ": 3070,
      "Ġ×Ļ×Ĺ×Ļ×ĵ×ķ×ª": 3071,
      "Ġ×§×ķ×ĵ×ŀ×ķ×ª": 3072,
      "Ġ×ĳ×Ļ×§×ķ×¨×ķ×ª": 3073,
      "Ġ×ŀ×¤×¢×ľ": 3074,
      "Ġ×ľ×Ļ×ŀ×ķ×ĵ×Ļ×ķ": 3075,
      "Ġ×Ļ×ķ×ĵ×¢×Ļ×Ŀ": 3076,
      "Ġ×ŀ×ŀ×ľ×Ľ×ª": 3077,
      "Ġ×ł×Ĳ×ŀ×¨": 3078,
      "Ġ×¤×¨×©×ª": 3079,
      "Ġ×©×ķ×ľ×Ĺ×Ł": 3080,
      "Ġ×Ķ×ķ×¢×ĳ×¨": 3081,
      "Ġ×¢×§×¨×ķ×ł×Ļ": 3082,
      "Ġ×Ĳ×¨×ķ×Ľ×Ķ": 3083,
      "Ġ×Ķ×ķ×§×Ŀ": 3084,
      "Ġ×Ĺ×Ĵ×Ļ": 3085,
      "Ġ×¤×¨×ķ×¤×¡×ķ×¨": 3086,
      "Ġ×ª×¨×ķ×ŀ×ķ×ª": 3087,
      "Ġ×ĵ×ŀ×ķ×§×¨×ĺ×Ļ×ª": 3088,
      "Ġ×ŀ×ª×Ĳ×Ļ×ŀ×Ķ": 3089,
      "Ġ×§×ª×ķ×ľ×Ļ×ª": 3090,
      "Ġ×¤×ķ×¤×ķ×ľ×¨×Ļ×ķ×ª": 3091,
      "Ġ×¤×ľ×¡×ĺ×Ļ×ł×Ļ×Ŀ": 3092,
      "Ġ×ĳ×ĸ×ĳ": 3093,
      "Ġ×ŀ×Ļ×ķ×ª×¨×ª": 3094,
      "Ġ×ķ×¢×ĵ×ª": 3095,
      "Ġ×Ĵ×ĳ×¢×ª": 3096,
      "Ġ×Ĺ×¨×Ļ×Ĵ×Ļ×Ŀ": 3097,
      "Ġ×ľ×Ķ×©×ª×ª×£": 3098,
      "Ġ×Ķ×¤×¨×ª": 3099,
      "Ġ×§×Ļ×ĵ×ķ×Ŀ": 3100,
      "Ġ×Ķ×ª×Ļ×Ļ×©×ĳ×ķ×ª": 3101,
      "Ġ×©×ķ×©×ľ×ª": 3102,
      "Ġ×ŀ×ª×ł×Ĵ×ĵ×Ļ×Ŀ": 3103,
      "Ġ×Ĵ×Ļ×ĵ×ķ×ľ": 3104,
      "Ġ×¤×Ļ×Ĵ×ķ×¢": 3105,
      "Ġ×Ķ×ª×ł×ĵ×ĳ×ķ×ª": 3106,
      "×Ļ×Ļ×ł": 3107,
      "Ġ×ĳ×Ļ×Ĺ": 3108,
      "Ġ×ĳ×Ĳ×ķ×ª": 3109,
      "Ġ×ĳ×Ĳ×©×¨": 3110,
      "Ġ×ĳ×Ļ×Ĳ×ľ": 3111,
      "Ġ×©×ĳ×Ĺ": 3112,
      "Ġ×©×ķ×ķ×Ķ": 3113,
      "Ġ×©×ķ×¨×ķ×ª": 3114,
      "×ĳ×ķ×¢": 3115,
      "×ĵ×¨×¦": 3116,
      "×ĵ×Ľ×Ł": 3117,
      "Ġ×Ľ×Ļ×Ľ×¨": 3118,
      "Ġ×Ļ×ł": 3119,
      "Ġ×Ļ×Ļ×Ĺ×ķ×ĵ": 3120,
      "×ł×Ļ×¨": 3121,
      "×§×Ļ×Ķ": 3122,
      "Ġ×ł×ķ×ĵ": 3123,
      "Ġ×ł×ķ×ª×¨": 3124,
      "Ġ×¨×Ľ×©": 3125,
      "Ġ×¤×Ļ×§": 3126,
      "Ġ×¤×ł×Ķ": 3127,
      "Ġ×¤×ķ×ŀ×ĳ": 3128,
      "Ġ×§×¤": 3129,
      "Ġ×§×¨×Ĳ": 3130,
      "×Ļ×Ķ×Ł": 3131,
      "×ĺ×¨×ļ": 3132,
      "Ġ×Ĵ×ķ×©": 3133,
      "Ġ×ĵ×ł": 3134,
      "Ġ×ĵ×ª×Ļ": 3135,
      "Ġ×¦×ķ×ľ": 3136,
      "×Ĵ×Ļ×Ķ": 3137,
      "Ġ×¢×ľ×Ķ": 3138,
      "Ġ×ŀ×©×ĺ×¨×Ķ": 3139,
      "×ķ×©×¢": 3140,
      "Ġ×Ļ×©×Ł": 3141,
      "Ġ×ĸ×Ķ×ķ×ª": 3142,
      "Ġ×ŀ×§×ķ×ŀ×ķ": 3143,
      "×Ļ×¦×Ļ×Ķ": 3144,
      "×Ļ×ŀ×¦": 3145,
      "Ġ×ŀ×ª×Ł": 3146,
      "Ġ×Ķ×ª×ŀ×ķ×ĵ": 3147,
      "Ġ×Ķ×ª×¤×ª×Ĺ": 3148,
      "Ġ×ŀ×¦×¤×Ķ": 3149,
      "Ġ×Ĺ×©×©": 3150,
      "Ġ×Ĳ×Ĺ×¨×Ĳ×Ļ": 3151,
      "Ġ×ª×Ĺ×Ļ×ľ×Ķ": 3152,
      "Ġ×ľ×¢×ŀ×ķ×ĵ": 3153,
      "Ġ×ŀ×¤×ł×Ķ": 3154,
      "Ġ×¢×ĳ×¨×ª×Ļ": 3155,
      "Ġ×ŀ×ĳ×§": 3156,
      "Ġ×Ļ×§×Ļ": 3157,
      "Ġ×¤×¢×ľ": 3158,
      "Ġ×ľ×©×ķ×Ł": 3159,
      "Ġ×ĸ×Ľ×Ļ×Ļ×Ķ": 3160,
      "Ġ×ŀ×ł×ĵ": 3161,
      "Ġ×Ĺ×¡×¨×ª": 3162,
      "Ġ×Ĳ×ķ×¤×¦×Ļ×ķ×ª": 3163,
      "Ġ×©×Ļ×Ĺ×ķ×ª": 3164,
      "Ġ×¨×ķ×ĳ×¢": 3165,
      "Ġ×Ĳ×©×Ľ×ł": 3166,
      "Ġ×ł×ŀ×¦×Ĳ×ķ": 3167,
      "Ġ×Ķ×¦×ĳ×¢×ķ×ª": 3168,
      "Ġ×Ĺ×ķ×§×¨×Ļ×Ŀ": 3169,
      "Ġ×Ķ×¤×¢": 3170,
      "Ġ×ł×¢×©×ķ": 3171,
      "Ġ×ł×Ĺ×ķ×¥": 3172,
      "Ġ×¤×¨×¡×ķ×ŀ×ª": 3173,
      "Ġ×Ĳ×Ļ×©×Ļ×ķ×ª": 3174,
      "Ġ×¤×ķ×ľ×Ļ×Ł": 3175,
      "Ġ×¦×Ļ×ķ×¨": 3176,
      "Ġ×¦×¢×Ļ×¨×Ļ×Ŀ": 3177,
      "Ġ×ł×ª×ł×Ļ×Ķ": 3178,
      "Ġ×Ĳ×ŀ×ķ×¨×Ķ": 3179,
      "Ġ×ª×¢×ķ×¤×Ķ": 3180,
      "Ġ×Ĳ×ŀ×¨×ª×Ļ": 3181,
      "Ġ×ľ×ĵ×ĳ×¨": 3182,
      "Ġ×©×ĺ×Ĺ×Ļ×Ŀ": 3183,
      "Ġ×¤×ł×Ļ×ķ×ª": 3184,
      "Ġ×¢×©×Ļ×ª×Ļ": 3185,
      "Ġ×ª×Ĵ×ķ×ĳ": 3186,
      "Ġ×¨×¤×ķ×Ĳ×Ļ": 3187,
      "Ġ×ŀ×¢×¨×ĳ×Ļ": 3188,
      "Ġ×Ļ×ķ×¨×Ĺ×ĳ": 3189,
      "×¨×Ļ×Ĳ×ľ": 3190,
      "Ġ×¦×ľ×ĳ": 3191,
      "Ġ×¢×§×¨×ķ×ł×ķ×ª": 3192,
      "Ġ×Ĺ×ª×Ļ×ŀ×Ķ": 3193,
      "Ġ×§×ķ×ł×¦": 3194,
      "Ġ×¡×¤×¦×Ļ×¤": 3195,
      "Ġ×ĺ×ķ×¨×ł×Ļ×¨": 3196,
      "Ġ×ŀ×¤×ķ×¨×¡": 3197,
      "Ġ×ł×Ĳ×ľ×¦×ª×Ļ": 3198,
      "Ġ×ĵ×ŀ×ķ×ª×ķ": 3199,
      "Ġ×ľ×©×ŀ×ķ×¨": 3200,
      "Ġ×¢×¦×ŀ×Ĳ×Ļ×ª": 3201,
      "Ġ×ŀ×ª×§×Ļ×Ļ×ŀ×ª": 3202,
      "Ġ×ĵ×Ļ×¡×§": 3203,
      "Ġ×ķ×ķ×¢×ĵ×Ķ": 3204,
      "Ġ×ĵ×¤×ķ×¡": 3205,
      "Ġ×Ķ×ĳ×Ļ×Ĳ×ķ": 3206,
      "Ġ×Ĺ×ł×ķ×Ľ×Ķ": 3207,
      "Ġ×ł×¨×Ĳ×Ļ×ª": 3208,
      "Ġ×ŀ×ª×Ľ×ķ×ķ×Ł": 3209,
      "Ġ×Ĵ×ĳ×¨×Ļ×Ŀ": 3210,
      "Ġ×ĸ×Ļ×Ķ×ķ×Ļ": 3211,
      "×ŀ×Ļ×ł×¡×ĺ×¨": 3212,
      "Ġ×Ķ×ª×Ĳ×Ĺ": 3213,
      "Ġ×ŀ×¤×Ĵ×©": 3214,
      "Ġ×ĵ×ķ×§×ĺ": 3215,
      "Ġ×ĳ×Ļ×Ĺ×ĵ": 3216,
      "Ġ×ĳ×Ļ×Ĳ×ľ×Ļ×§": 3217,
      "Ġ5": 3218,
      "ŀ×Ķ": 3219,
      "Ġ×ľ×Ļ×ł": 3220,
      "Ġ×ĳ×ŀ×Ķ": 3221,
      "Ġ×ĳ×¨×§": 3222,
      "×ľ×Ł": 3223,
      "Ġ×©×ķ×ĵ": 3224,
      "Ġ×©×ŀ×Ķ": 3225,
      "Ġ×©×©×ª": 3226,
      "Ġ×©×ĵ×ķ×ª": 3227,
      "×ĳ×ķ×¨×Ķ": 3228,
      "Ġ×Ľ×Ĵ": 3229,
      "Ġ×Ĺ×Ľ": 3230,
      "Ġ×ł×¨×¦": 3231,
      "Ġ×ŀ×¨×Ĺ": 3232,
      "Ġ×Ĳ×Ļ×¤": 3233,
      "Ġ×Ĳ×ķ×Ĵ": 3234,
      "Ġ×Ĳ×ķ×ŀ×ł": 3235,
      "Ġ×Ĳ×¨×Ļ×Ĳ×ľ": 3236,
      "Ġ×ª×ķ×ª": 3237,
      "Ġ×ķ×ª": 3238,
      "Ġ×¨×Ĵ×ľ": 3239,
      "Ġ×§×ķ×¤": 3240,
      "Ġ×ĸ×ľ": 3241,
      "×¦×ª": 3242,
      "Ġ×Ĵ×ķ×Ł": 3243,
      "×ŀ×ķ×¨×ª": 3244,
      "Ġ×ĵ×Ł": 3245,
      "Ġ×ĵ×¢×Ķ": 3246,
      "Ġ×©×ľ×ŀ×Ļ×Ŀ": 3247,
      "×¡×¡": 3248,
      "Ġ×¡×ª": 3249,
      "Ġ×¡×Ļ×ł": 3250,
      "Ġ×¡×ķ×¦": 3251,
      "Ġ×¡×ł×ĺ": 3252,
      "Ġ×¡×Ļ×ĳ×ķ×ĳ": 3253,
      "Ġ×ľ×Ķ×ķ×¦": 3254,
      "×Ļ×ľ×ĵ": 3255,
      "×Ļ×ĳ×Ļ": 3256,
      "×Ļ×©×ª": 3257,
      "×¨×Ļ×¡": 3258,
      "×Ļ×¤×ª": 3259,
      "×Ļ×ĵ×ķ": 3260,
      "Ġ×Ĳ×ľ×Ĵ": 3261,
      "Ġ×Ĳ×ľ×Ļ×¤×ķ×ª": 3262,
      "Ġ×ŀ×¡×ª": 3263,
      "Ġ×ŀ×¡×ķ×Ļ": 3264,
      "×ķ×Ĵ×Ķ": 3265,
      "×ķ×ŀ×Ŀ": 3266,
      "×ķ×ŀ×Ł": 3267,
      "Ġ×ŀ×ª×ł×Ĵ×ĵ": 3268,
      "Ġ×Ķ×ª×§×ĳ": 3269,
      "Ġ×Ĳ×¤×Ļ×¤×Ļ": 3270,
      "Ġ×Ķ×¦×ĳ": 3271,
      "Ġ×ŀ×¦×ķ": 3272,
      "Ġ×Ĳ×Ĺ×Ļ×ĵ×ķ×ª": 3273,
      "×ķ×ĺ×Ķ": 3274,
      "Ġ×ª×Ĺ×ł×ª": 3275,
      "Ġ×ª×Ĺ×ķ×ŀ×Ļ": 3276,
      "Ġ×ª×Ĺ×ĳ×ķ×¨×Ķ": 3277,
      "Ġ×ł×ŀ×ľ": 3278,
      "Ġ×ł×ŀ×ł": 3279,
      "Ġ×©×ł×Ļ×Ķ×Ŀ": 3280,
      "Ġ×Ļ×§×Ļ×ŀ×ĵ": 3281,
      "×©×Ķ×ķ": 3282,
      "Ġ×ľ×©×¤×¨": 3283,
      "×ķ×Ķ×Ļ×Ŀ": 3284,
      "Ġ×§×¦×Ķ": 3285,
      "Ġ×Ĺ×¡×Ļ×ĵ×ķ×ª": 3286,
      "Ġ×Ĳ×ķ×¤×Ļ": 3287,
      "×Ļ×Ĵ×Ł": 3288,
      "Ġ×Ľ×ł×Ļ×¡×Ķ": 3289,
      "Ġ×Ĵ×ĵ×ķ×ĵ": 3290,
      "Ġ×Ĵ×ĵ×ľ×Ķ": 3291,
      "Ġ×ŀ×Ļ×ķ×¢": 3292,
      "Ġ×ŀ×Ļ×Ļ×¡": 3293,
      "Ġ×Ķ×¢×¨×ļ": 3294,
      "Ġ×©×Ļ×Ĺ×§": 3295,
      "Ġ×¤×¡×ķ×ľ": 3296,
      "Ġ×Ķ×Ĺ×ľ×¤×ķ×ª": 3297,
      "×ł×ĵ×¨×ĺ": 3298,
      "×Ļ×Ĳ×ª": 3299,
      "Ġ×¦×ķ×¨×ķ×ª": 3300,
      "Ġ×ł×©×ŀ×¢": 3301,
      "Ġ×ł×©×Ĳ×¨": 3302,
      "Ġ×Ķ×©×§": 3303,
      "Ġ×Ķ×©×ķ×ķ×Ĳ×Ķ": 3304,
      "Ġ×©×Ľ×¨": 3305,
      "Ġ×©×Ľ×ª×ĳ": 3306,
      "Ġ×ŀ×ĺ×Ķ": 3307,
      "Ġ×ŀ×©×¤×ĺ×Ļ": 3308,
      "Ġ×ł×ĳ×Ĺ×¨×Ļ×Ŀ": 3309,
      "Ġ×ĳ×§×¨×ķ×ĳ": 3310,
      "Ġ×§×Ļ×Ļ×ŀ×ķ×ª": 3311,
      "Ġ×©×ľ×ķ×©×ª": 3312,
      "Ġ×¢×ķ×ĳ×ĵ×Ļ×Ŀ": 3313,
      "Ġ×ŀ×§×¦×ķ×¢×ķ×ª": 3314,
      "Ġ×ŀ×§×¦×ķ×¢×Ļ×ª": 3315,
      "Ġ×§×¨×Ļ×Ļ×ª": 3316,
      "Ġ×ľ×ŀ×¢×ĺ": 3317,
      "Ġ×¢×¨×Ľ×ª": 3318,
      "Ġ×¢×¨×Ľ×ª×Ļ": 3319,
      "Ġ×¡×ĺ×ŀ×Ļ×ł×¡×ĺ×¨": 3320,
      "Ġ×¡×ĺ×ł×ĵ×¨×ĺ": 3321,
      "Ġ×ŀ×ĸ×¨×Ĺ×Ļ×ª": 3322,
      "Ġ×¤×Ļ×Ļ×¨": 3323,
      "Ġ×ŀ×¦×Ļ×¢×Ļ×Ŀ": 3324,
      "Ġ×Ĵ×ľ×ķ×ĳ×ķ×¡": 3325,
      "Ġ×ª×Ĺ×ª×Ļ×ª": 3326,
      "Ġ×¢×¨×ĳ×Ļ×Ŀ": 3327,
      "Ġ×Ķ×ª×Ļ×Ļ×¢": 3328,
      "Ġ×ķ×ķ×Ļ×§×Ļ": 3329,
      "Ġ×Ĺ×§×ľ×Ĳ": 3330,
      "Ġ×Ķ×©×ª×ª×¤×ķ": 3331,
      "Ġ×Ķ×ķ×ľ×ļ": 3332,
      "Ġ×ĺ×Ľ×ł×ķ×ľ×ķ×Ĵ×Ļ×Ķ": 3333,
      "Ġ×¤×ª×ķ×Ĺ×Ķ": 3334,
      "Ġ×ŀ×¤×ķ×¨×¡×Ŀ": 3335,
      "Ġ×©×§×ĺ": 3336,
      "Ġ×§×ª×ĵ×¨": 3337,
      "Ġ×ĳ×¢×Ļ×Ļ×ª×Ļ": 3338,
      "Ġ×Ĺ×¤×Ļ×¨×ķ×ª": 3339,
      "×Ĳ×ł×¡": 3340,
      "×¡×Ļ×§×ķ": 3341,
      "Ġ×ŀ×ª×ŀ×ĺ×Ļ×§×Ķ": 3342,
      "Ġ×ŀ×ķ×¤×¢": 3343,
      "Ġ×Ĳ×ķ×ĺ×ķ×ŀ×ĺ×Ļ×ª": 3344,
      "Ġ×ª×ķ×¤×¢×Ķ": 3345,
      "Ġ×¤×Ļ×ĸ×Ļ×§×Ķ": 3346,
      "Ġ×ĵ×Ĺ×ķ×£": 3347,
      "Ġ×Ķ×ª×Ĺ×ľ×Ķ": 3348,
      "Ġ×ŀ×©×ª×ª×¤×Ļ×Ŀ": 3349,
      "Ġ×ª×ĸ×ŀ×ķ×¨×ª": 3350,
      "Ġ×¨×ķ×¤×Ĳ": 3351,
      "Ġ×§×Ļ×¦×ķ×ł×Ļ": 3352,
      "Ġ×Ĵ×Ĳ×ķ×¨×Ĵ×Ļ×Ķ": 3353,
      "Ġ×ª×ķ×§×£": 3354,
      "Ġ×Ĺ×Ļ×ł×ķ×Ľ×Ļ": 3355,
      "Ġ×ŀ×Ĳ×ĳ×§": 3356,
      "Ġ×ŀ×ķ×ĸ×ŀ×ł×Ļ×Ŀ": 3357,
      "Ġ×Ķ×ŀ×ľ×¦×Ķ": 3358,
      "Ġ×ľ×Ķ×ķ×¦×Ļ×Ĳ": 3359,
      "Ġ×Ķ×ª×§×ĳ×ľ×Ķ": 3360,
      "Ġ×Ĳ×¤×Ļ×¤×Ļ×ķ×¨": 3361,
      "Ġ×Ļ×§×Ļ×ŀ×ĵ×Ļ×Ķ": 3362,
      "ŀ×ĺ": 3363,
      "×Ķ×Ļ×¨": 3364,
      "Ġ×ĳ×ł×Ķ": 3365,
      "Ġ×©×¨×ª": 3366,
      "×ĳ×ķ×¨×Ĵ": 3367,
      "Ġ×¢×ķ×ª": 3368,
      "×ĵ×Ŀ": 3369,
      "×ĵ×ŀ×ł": 3370,
      "Ġ×Ļ×¤×ķ": 3371,
      "Ġ×Ĺ×Ļ×ķ×ª": 3372,
      "Ġ×Ĺ×ĵ×¨": 3373,
      "Ġ×Ĺ×Ļ×ĳ×ķ×¨": 3374,
      "×ł×Ļ×§": 3375,
      "×Ĺ×ķ×¨": 3376,
      "×Ĺ×Ļ×ª": 3377,
      "×§×ĳ×ľ": 3378,
      "Ġ×ł×Ļ×©": 3379,
      "Ġ×ł×ŀ×ķ×ļ": 3380,
      "Ġ×ł×Ļ×§×ķ×ĵ": 3381,
      "Ġ×ª×Ļ": 3382,
      "Ġ×¨×ķ×ĺ": 3383,
      "Ġ×¨×ŀ×ĳ": 3384,
      "Ġ×¨×ŀ×ĸ": 3385,
      "Ġ×ĸ×Ļ×Ľ": 3386,
      "×ĺ×ķ": 3387,
      "Ġ×Ĵ×¨×¤": 3388,
      "Ġ×Ĵ×Ļ×©×Ķ": 3389,
      "Ġ×ĵ×Ļ×ĳ": 3390,
      "Ġ×ĵ×ķ×ŀ×Ļ×Ŀ": 3391,
      "Ġ×¦×ķ": 3392,
      "Ġ×¦×Ĳ×¨": 3393,
      "×¡×§×Ķ": 3394,
      "Ġ×¡×Ł": 3395,
      "Ġ×¡×ķ×Ľ": 3396,
      "×Ļ×§×ľ×Ļ": 3397,
      "Ġ×ľ×Ķ×ł×Ļ×Ĺ": 3398,
      "×ķ×¤×Ł": 3399,
      "Ġ×Ļ×©×Ļ×¨×ķ×ª": 3400,
      "×Ļ×ĳ×Ļ×Ŀ": 3401,
      "×Ļ×ĳ×ķ×ĵ": 3402,
      "×ķ×¢×ĸ": 3403,
      "×ł×Ļ×Ļ×Ł": 3404,
      "Ġ×ĺ×Ļ": 3405,
      "Ġ×ŀ×¡×ł×Ĵ": 3406,
      "×Ļ×ĺ×Ļ": 3407,
      "×Ļ×ŀ×ľ": 3408,
      "×Ļ×ŀ×ķ×Ŀ": 3409,
      "Ġ×ŀ×ª×¨×Ĺ×©": 3410,
      "Ġ×ŀ×¦×¢": 3411,
      "Ġ×¤×¨×ŀ×ĺ": 3412,
      "Ġ×ŀ×ľ×ķ×Ľ×Ķ": 3413,
      "Ġ×Ĺ×ľ×ĳ": 3414,
      "Ġ×Ĺ×ľ×ķ×§×ª": 3415,
      "Ġ×ª×Ĺ×ķ×©×Ķ": 3416,
      "Ġ×ŀ×¤×¨×¥": 3417,
      "Ġ×Ľ×ª×ĳ×Ļ": 3418,
      "Ġ×Ļ×©×¨×Ĳ×ľ×Ļ×Ļ×Ŀ": 3419,
      "Ġ×ª×§×Ł": 3420,
      "Ġ×ľ×ĳ×Ĺ×ķ×¨": 3421,
      "×¨×ĺ×Ķ": 3422,
      "Ġ×Ĺ×¡×¨×ķ×ª": 3423,
      "Ġ×ŀ×ŀ×ª": 3424,
      "Ġ×ª×ķ×Ľ×ł×Ļ×ķ×ª": 3425,
      "Ġ×Ķ×Ĵ×¢×ª": 3426,
      "Ġ×Ķ×¢×ľ×Ķ": 3427,
      "Ġ×ł×Ľ×ľ": 3428,
      "Ġ×Ĳ×ĵ×ķ×ŀ×Ļ×Ŀ": 3429,
      "Ġ×ľ×§×¨×Ĳ×ª": 3430,
      "Ġ×¨×Ĳ×ķ×Ļ×Ļ×Ŀ": 3431,
      "Ġ×ľ×Ĺ×¡": 3432,
      "Ġ×ł×¤×¦×¢": 3433,
      "Ġ×ł×§×ĳ×¨": 3434,
      "Ġ×Ķ×¡×ĵ×¨": 3435,
      "Ġ×ŀ×Ĵ×ĵ×ľ": 3436,
      "Ġ×ĺ×¢×ķ×Ļ×ķ×ª": 3437,
      "Ġ×§×Ļ×ķ×ŀ×ķ": 3438,
      "Ġ×Ĺ×ķ×¤×©×Ļ×Ļ×Ŀ": 3439,
      "Ġ×¦×Ļ×Ļ×ł×ª×Ļ": 3440,
      "Ġ×©×Ĳ×ľ×ª×Ļ": 3441,
      "Ġ×ľ×Ķ×ª×§": 3442,
      "Ġ×ł×Ļ×¡×Ķ": 3443,
      "Ġ×¢×ĸ×Ķ": 3444,
      "Ġ×ŀ×¢×¨×Ľ×ķ×ª": 3445,
      "Ġ×Ĳ×¡×Ļ×Ķ": 3446,
      "Ġ×Ķ×ķ×¤×Ļ×¢": 3447,
      "Ġ×Ĵ×¨×ŀ×ł×Ļ": 3448,
      "Ġ×Ĳ×ķ×¨×Ĺ": 3449,
      "Ġ×Ĳ×§×¡": 3450,
      "Ġ×ª×ł×ķ×¢×ķ×ª": 3451,
      "Ġ×ª×¤×Ļ×ľ×Ķ": 3452,
      "Ġ×§×ľ×Ļ×¤×ķ×¨": 3453,
      "Ġ×¢×ķ×¡×§×Ļ×Ŀ": 3454,
      "Ġ×Ĳ×Ļ×¨×ķ×¢×Ļ": 3455,
      "Ġ×¨×ľ×ķ×ķ×ł×ĺ×Ļ×ª": 3456,
      "Ġ×¨×ľ×ķ×ķ×ł×ĺ×Ļ×Ļ×Ŀ": 3457,
      "Ġ×¢×Ļ×§×¨×Ļ×ª": 3458,
      "Ġ×¢×Ļ×§×¨×Ļ×Ļ×Ŀ": 3459,
      "Ġ×Ĳ×ķ×¡×£": 3460,
      "Ġ×¡×ķ×¤×¨": 3461,
      "Ġ×Ĺ×§×Ļ×¨×Ķ": 3462,
      "Ġ×§×Ļ×ĳ×ľ×ª×Ļ": 3463,
      "Ġ×§×¨×ķ×ĳ×Ļ×Ŀ": 3464,
      "Ġ×Ķ×©×¤×¢×ª": 3465,
      "Ġ×Ķ×ķ×§×ŀ×ķ": 3466,
      "Ġ×ŀ×Ĺ×§×¨×Ļ×Ŀ": 3467,
      "Ġ×Ľ×ľ×Ľ×ľ×Ļ": 3468,
      "Ġ×Ĺ×Ļ×ķ×ĳ×Ļ×ķ×ª": 3469,
      "Ġ×ŀ×¤×ª×Ĺ": 3470,
      "Ġ×¡×Ļ×ŀ×Ł": 3471,
      "Ġ×ľ×Ķ×Ĺ×ľ×Ļ×ĺ": 3472,
      "Ġ×Ķ×ĸ×ĵ×ŀ×ł": 3473,
      "×¨×ŀ×Ł": 3474,
      "Ġ×ŀ×ķ×Ĺ×ľ×ĺ": 3475,
      "Ġ×ŀ×ķ×©×ĳ×Ķ": 3476,
      "Ġ×Ķ×¦×ĺ×¨×¤": 3477,
      "Ġ×ŀ×¡×¤×§×Ļ×Ŀ": 3478,
      "×ł×ĸ×ķ×¡": 3479,
      "Ġ×¦×ŀ×Ĺ×Ļ×Ŀ": 3480,
      "Ġ×Ĳ×¨×Ľ×Ĳ×ķ×ľ×ķ×Ĵ×Ļ×Ķ": 3481,
      "Ġ×¤×ķ×ł×§×¦×Ļ×Ķ": 3482,
      "Ġ×¤×Ļ×¦×ķ×ľ": 3483,
      "Ġ×§×ĳ×¨×ķ×ª": 3484,
      "Ġ×¡×Ļ×ŀ×¤×¡×ķ×Ł": 3485,
      "Ġ×Ķ×¢×ľ×Ĳ×ª": 3486,
      "Ġ×©×¨×Ļ×ĵ×Ļ": 3487,
      "Ġ×Ĳ×ķ×ľ×Ļ×ŀ×¤×Ļ×Ĳ×ĵ×Ķ": 3488,
      "Ġ×©×ķ×Ľ×ł×ª": 3489,
      "Ġ×Ľ×ľ×Ľ×ľ×Ļ×ª": 3490,
      "Ġ×ł×Ķ×¨×Ĵ×ķ": 3491,
      "Ġ×Ķ×Ļ×©×Ĵ": 3492,
      "Ġ×§×ķ×ł×Ĵ×¨×¡": 3493,
      "Ġ×¡×ķ×ĳ×Ļ×Ļ×ĺ": 3494,
      "Ġ×ª×ķ×©×ĳ×Ļ×Ŀ": 3495,
      "Ġ×ķ×Ļ×ľ×Ļ×Ĳ×Ŀ": 3496,
      "Ġ×Ĵ×ķ×Ļ×¡": 3497,
      "Ġ×Ĳ×¡×ľ×Ĳ×Ŀ": 3498,
      "Ġ×Ľ×Ĳ×Ļ×ľ×ķ": 3499,
      "Ġ×§×ķ×ł×¦×ł×ĸ×ķ×¡": 3500,
      "Ġ×Ľ×Ĵ×ķ×Ł": 3501,
      "Ġ×Ķ×¦×ĳ×Ļ×¢×ķ": 3502,
      "Ġ×ĸ×Ļ×Ľ×¨×ķ×Ł": 3503,
      "Ġ×ŀ×¡×ł×Ĵ×¨": 3504,
      "Ġ×§×ľ×Ļ×¤×ķ×¨×ł×Ļ×Ķ": 3505,
      "¦×Ĳ×Ļ×Ŀ": 3506,
      "×Ļ×Ļ×¢": 3507,
      "Ġ×ľ×ķ×Ļ×§×Ļ×¤×ĵ×Ļ×Ķ": 3508,
      "Ġ×ľ×ķ×¢×ĸ": 3509,
      "Ġ×ĳ×ķ×ľ": 3510,
      "×ľ×ķ×Ŀ": 3511,
      "Ġ×ŀ×Ĺ×¨": 3512,
      "Ġ×©×Ķ": 3513,
      "Ġ×©×©": 3514,
      "Ġ×©×ķ×Ĺ": 3515,
      "Ġ×©×ķ×ł×Ļ×ª": 3516,
      "Ġ×©×Ļ×ĵ×ķ×¨": 3517,
      "Ġ×¢×ŀ×Ļ×Ŀ": 3518,
      "×©×Ļ×ľ×ĵ": 3519,
      "Ġ×Ľ×ķ×ł×Ķ": 3520,
      "Ġ×Ļ×Ļ×¦": 3521,
      "Ġ×Ļ×ķ×ĸ": 3522,
      "×ł×ĳ×¨×Ĵ": 3523,
      "×ķ×¨×©": 3524,
      "×§×¡": 3525,
      "Ġ×ł×¨×Ĺ": 3526,
      "Ġ×ŀ×¨×§": 3527,
      "Ġ×Ĳ×Ļ×ª": 3528,
      "Ġ×Ĳ×¨×Ļ×Ķ": 3529,
      "Ġ×ª×ŀ×¦×Ĳ": 3530,
      "Ġ×ķ×Ļ×Ľ×ķ×Ĺ": 3531,
      "Ġ×¨×ŀ×Ķ": 3532,
      "Ġ×§×ĳ×¢": 3533,
      "Ġ×§×¨×§": 3534,
      "×ķ×ł×Ļ×Ķ": 3535,
      "×ķ×ł×ª×ķ": 3536,
      "Ġ×Ĵ×ķ×ľ×ĵ": 3537,
      "×ķ×ľ×£": 3538,
      "Ġ×¦×ł": 3539,
      "Ġ×¦×Ľ": 3540,
      "×¡×Ļ×Ŀ": 3541,
      "Ġ×¡×ļ": 3542,
      "Ġ×¡×§×¨": 3543,
      "Ġ×Ķ×ķ×ŀ": 3544,
      "Ġ×ľ×Ķ×Ļ×Ľ": 3545,
      "Ġ×ľ×Ķ×ľ×Ł": 3546,
      "Ġ×¢×ľ×Ļ×ª": 3547,
      "Ġ×¢×ľ×Ļ×Ļ×ª": 3548,
      "×Ļ×ĵ×Ļ×Ŀ": 3549,
      "Ġ×ĺ×¨×Ŀ": 3550,
      "Ġ×Ĳ×ľ×¤": 3551,
      "×Ļ×ķ×ķ×Ļ": 3552,
      "Ġ×ŀ×¢×¨×Ļ×¦": 3553,
      "×Ļ×ŀ×Ļ×Ł": 3554,
      "Ġ×Ķ×¦×¢×ª×Ļ": 3555,
      "×¨×Ľ×ĸ": 3556,
      "Ġ×Ĳ×Ĺ×ķ×ª": 3557,
      "Ġ×Ĳ×ĸ×Ķ×¨×Ķ": 3558,
      "Ġ×Ĺ×ĳ×¨×ª×Ļ×Ļ×Ŀ": 3559,
      "Ġ×ŀ×ĳ×Ĺ×Ł": 3560,
      "Ġ×ŀ×Ĳ×ĸ": 3561,
      "Ġ×ŀ×Ĳ×Ĺ×¨": 3562,
      "Ġ×ŀ×Ĳ×ŀ×¥": 3563,
      "×Ļ×Ľ×ķ": 3564,
      "×Ļ×Ľ×ª": 3565,
      "Ġ×ĸ×Ľ×Ĳ×Ļ": 3566,
      "Ġ×ĸ×Ľ×¨×ķ": 3567,
      "Ġ×ľ×ĳ×ķ×Ĳ": 3568,
      "Ġ×¦×ĳ×ª": 3569,
      "Ġ×ľ×Ĵ×Ļ×ĺ": 3570,
      "Ġ×ľ×Ĵ×Ļ×ķ×Ł": 3571,
      "Ġ×ł×Ļ×ª×ķ×Ĺ": 3572,
      "Ġ×ł×ķ×©×Ĳ×Ļ": 3573,
      "Ġ×Ķ×¢×ĵ": 3574,
      "Ġ×ľ×§×ĳ×ķ×¢": 3575,
      "Ġ×¤×¡×ľ": 3576,
      "Ġ×ľ×Ĺ×Ļ×ŀ×Ķ": 3577,
      "Ġ×Ĳ×ķ×ª×Ļ×ķ×ª": 3578,
      "Ġ×§×ĳ×¦×Ļ×Ŀ": 3579,
      "Ġ×¢×ĳ×ķ×ĵ×ķ×ª": 3580,
      "Ġ×¨×Ĺ×ķ×ĳ×ķ×ª": 3581,
      "Ġ×¤×ķ×¨×ŀ×ľ": 3582,
      "Ġ×¤×ķ×¨×¡×Ŀ": 3583,
      "Ġ×ł×¢×¨×Ľ×Ķ": 3584,
      "Ġ×ł×Ĺ×©": 3585,
      "Ġ×Ĵ×¨×¢": 3586,
      "Ġ×Ĳ×Ĵ×ķ×ĵ×Ķ": 3587,
      "Ġ×¦×Ļ×ķ×ł×ķ×ª": 3588,
      "Ġ×¦×Ļ×ķ×ł×Ļ": 3589,
      "Ġ×©×Ĳ×ľ×ª": 3590,
      "Ġ×ł×Ļ×¡×ķ×Ļ": 3591,
      "Ġ×¢×ĸ×¨": 3592,
      "Ġ×ª×ľ×ŀ×ķ×ĵ": 3593,
      "Ġ×ł×Ķ×ľ×Ļ×Ŀ": 3594,
      "Ġ×Ĺ×¦×¨": 3595,
      "Ġ×ŀ×Ĺ×ľ×§×ª": 3596,
      "Ġ×ŀ×ķ×ł×ĺ": 3597,
      "Ġ×§×ķ×ĵ×ŀ×ª": 3598,
      "Ġ×Ĺ×ŀ×Ļ×©×Ļ×ª": 3599,
      "Ġ×¤×ķ×¢×ľ×ª": 3600,
      "Ġ×ª×¨×Ĵ×Ļ×©": 3601,
      "Ġ×¤×ł×Ļ×ŀ×Ļ": 3602,
      "Ġ×ŀ×ª×§×Ļ×Ļ×Ŀ": 3603,
      "Ġ×ŀ×ª×§×¤×Ķ": 3604,
      "Ġ×¢×©×Ļ×ª": 3605,
      "Ġ×ª×¤×Ļ×¡": 3606,
      "Ġ×Ķ×Ĺ×ľ×ĺ×ķ×ª": 3607,
      "Ġ×¢×ķ×¡×§×ª": 3608,
      "Ġ×©×ŀ×ķ×Ĳ×ľ": 3609,
      "Ġ×ľ×Ķ×¤×ķ×ļ": 3610,
      "Ġ×ŀ×Ĺ×ķ×ĸ×ķ×ª": 3611,
      "Ġ×ŀ×ĵ×¢×Ļ×ª": 3612,
      "Ġ×ľ×¡×¤×§": 3613,
      "Ġ×¤×Ĳ×ķ×ľ": 3614,
      "Ġ×ŀ×ķ×Ľ×¨": 3615,
      "Ġ×¢×Ļ×ª×ķ×ł×Ļ×Ŀ": 3616,
      "Ġ×ľ×ķ×ķ×ª×¨": 3617,
      "Ġ×¢×ķ×ľ×Ļ×Ŀ": 3618,
      "Ġ×Ķ×ĳ×ł×ª": 3619,
      "Ġ×Ĺ×¨×Ļ×¤": 3620,
      "Ġ×¢×¡×§×ķ": 3621,
      "Ġ×ĺ×ķ×¢×Ł": 3622,
      "Ġ×Ķ×ķ×Ľ×Ĺ×Ķ": 3623,
      "Ġ×ľ×¤×¢×ķ×ľ": 3624,
      "Ġ×ĳ×Ĵ×¥": 3625,
      "Ġ×©×ķ×¤×ĺ": 3626,
      "Ġ×Ľ×¡×¤×Ļ×Ŀ": 3627,
      "Ġ×ŀ×ĵ×ķ×Ļ×§×ª": 3628,
      "Ġ×ĵ×ª×Ļ×ª": 3629,
      "Ġ×¤×ķ×ª×Ĺ×Ļ×Ŀ": 3630,
      "Ġ×Ķ×¦×ĺ×¨×£": 3631,
      "Ġ×Ĳ×¨×Ľ×Ĳ×ķ×ľ×ķ×Ĵ": 3632,
      "Ġ×¤×¡×Ļ×Ľ×ķ×ľ×ķ×Ĵ×Ļ×Ķ": 3633,
      "Ġ×©×ľ×Ļ×ĺ×Ķ": 3634,
      "Ġ×ĺ×Ļ×¢×ķ×Ł": 3635,
      "Ġ×ĺ×Ļ×¢×ķ×ł×Ļ×Ŀ": 3636,
      "Ġ×Ĵ×Ļ×¨×ķ×©": 3637,
      "Ġ×Ĳ×ľ×Ľ×¡×ł×ĵ": 3638,
      "Ġ×Ĺ×§×ľ×Ĳ×ķ×ª": 3639,
      "Ġ×Ķ×Ľ×ł×¡": 3640,
      "Ġ×¨×¤×ķ×ĳ×ľ×Ļ×§×Ķ": 3641,
      "Ġ×¢×Ļ×§×¨×Ļ": 3642,
      "Ġ×¤×ķ×ŀ×ĳ×Ļ": 3643,
      "Ġ×ŀ×ł×ĵ×ĺ": 3644,
      "Ġ×Ķ×ª×Ĳ×Ĺ×ĵ×ķ×ª": 3645,
      "Ġ×¨×ķ×ĺ×©×Ļ×ľ×ĵ": 3646,
      "Ġ×Ķ×ĸ×ĵ×ŀ×ł×ķ×ª": 3647,
      "Ġ×ł×¨×Ĺ×ĳ×Ļ×Ŀ": 3648,
      "¤×©×¨": 3649,
      "ŀ×Ļ": 3650,
      "Ġ×Ķ×Ĳ": 3651,
      "Ġ×Ķ×Ļ×ĺ×ĳ": 3652,
      "Ġ×Ķ×ķ×ł×Ĵ": 3653,
      "ŀ×¡": 3654,
      "×Ķ×¨×ª": 3655,
      "Ġ×ĳ×Ļ×¨": 3656,
      "Ġ×©×ķ×ª": 3657,
      "Ġ×©×Ĳ×ķ×ľ": 3658,
      "Ġ×¢×Ļ×ĵ": 3659,
      "Ġ×¢×Ļ×ĳ×ķ×ĵ": 3660,
      "Ġ×Ľ×Ļ×Ķ×Ł": 3661,
      "Ġ×Ļ×Ļ×Ľ": 3662,
      "Ġ×Ļ×ķ×©×ĳ": 3663,
      "Ġ×Ļ×Ļ×ŀ×Ĺ×§": 3664,
      "Ġ×Ĺ×ķ×ķ×ª": 3665,
      "×§×Ļ": 3666,
      "×§×¤": 3667,
      "×§×ª×Ļ": 3668,
      "Ġ×ł×Ļ": 3669,
      "Ġ×ł×Ļ×§": 3670,
      "Ġ×ŀ×ķ×¡×Ļ×£": 3671,
      "Ġ×ª×¨×Ĳ×Ķ": 3672,
      "Ġ×ª×ŀ×Ĺ×§": 3673,
      "×¤×Ļ×ª": 3674,
      "×¤×ķ×§×¡": 3675,
      "Ġ×¤×¨×Ļ×ĵ": 3676,
      "Ġ×§×¨×Ĳ×ª": 3677,
      "Ġ×ĸ×¨": 3678,
      "Ġ×ĸ×¢": 3679,
      "Ġ×ĸ×ķ×Ľ": 3680,
      "×ĺ×¨×£": 3681,
      "Ġ×ĵ×Ļ×Ĵ": 3682,
      "Ġ×ĵ×§×ķ×ª": 3683,
      "Ġ×ĵ×ķ×¤×Ł": 3684,
      "Ġ×¦×Ĳ×": 3685,
      "×Ĵ×Ł": 3686,
      "Ġ×¡×Ļ×¨": 3687,
      "Ġ×¢×ľ×Ļ×ľ×Ķ": 3688,
      "×ķ×§×ķ": 3689,
      "×¨×Ļ×Ĺ": 3690,
      "Ġ×ŀ×§×¡×Ļ×§×ķ": 3691,
      "Ġ×ĺ×ľ": 3692,
      "Ġ×Ĳ×ľ×£": 3693,
      "×ķ×Ĵ×Ļ×Ŀ": 3694,
      "Ġ×ŀ×¢×¦": 3695,
      "Ġ×ŀ×¢×©×Ķ": 3696,
      "×Ļ×Ĺ×Ķ": 3697,
      "×ķ×ŀ×Ļ×ķ×ª": 3698,
      "Ġ×ŀ×ª×Ĺ×Ŀ": 3699,
      "Ġ×ŀ×Ķ×¢": 3700,
      "Ġ×Ķ×¦×Ļ×¢": 3701,
      "Ġ×ŀ×¦×ķ×ŀ×¦": 3702,
      "Ġ×Ĳ×ĳ×Ł": 3703,
      "Ġ×¤×¨×ĵ": 3704,
      "Ġ×ŀ×ľ×ŀ×ĵ": 3705,
      "Ġ×ŀ×ľ×Ľ×Ķ": 3706,
      "Ġ×ŀ×ľ×Ľ×ª": 3707,
      "×¨×Ľ×ĳ": 3708,
      "Ġ×Ĳ×Ĺ×Ļ×ķ": 3709,
      "Ġ×¨×ĳ×ł×Ļ×Ŀ": 3710,
      "Ġ×ª×Ĺ×ł×Ķ": 3711,
      "Ġ×ł×ķ×¡×Ĺ×Ķ": 3712,
      "×ĳ×ł×Ļ×ª": 3713,
      "×©×ª×Ķ": 3714,
      "Ġ×¡×¤×¨×ķ": 3715,
      "Ġ×¨×©×ķ×ŀ×Ļ×Ŀ": 3716,
      "Ġ×ľ×©×¢": 3717,
      "Ġ×Ļ×¦×¨": 3718,
      "Ġ×Ļ×¦×¨×ª": 3719,
      "Ġ×Ļ×¦×¨×ª×Ļ": 3720,
      "Ġ×Ļ×Ľ×ķ×ľ×ķ×ª": 3721,
      "Ġ×ľ×Ĵ×ľ×ķ×ª": 3722,
      "Ġ×Ķ×Ĵ×Ļ×ķ×ł×Ļ": 3723,
      "Ġ×Ķ×¢×¨×Ľ×Ķ": 3724,
      "×Ļ×¡×ĺ×Ļ×ª": 3725,
      "Ġ×¤×¡×Ĺ": 3726,
      "Ġ×¨×¦×ķ×ł": 3727,
      "Ġ×ł×¤×ĺ×¨": 3728,
      "Ġ×Ķ×¤×ł×Ļ×ķ×ª": 3729,
      "Ġ×¤×ķ×¨×¡": 3730,
      "Ġ×¤×ķ×¨×ķ×ŀ×Ļ×Ŀ": 3731,
      "Ġ×ŀ×©×ŀ×¢×ķ×ª×Ļ×ª": 3732,
      "Ġ×Ļ×¨×ķ×§": 3733,
      "Ġ×ŀ×ĺ×¢": 3734,
      "Ġ×ŀ×ĺ×¨×ķ×ª": 3735,
      "Ġ×ŀ×Ĵ×Ł": 3736,
      "Ġ×Ĺ×ĸ×§×ķ×ª": 3737,
      "Ġ×ª×©×ķ×ĳ": 3738,
      "Ġ×ĳ×§×©×ķ×ª": 3739,
      "Ġ×¢×ł×Ļ×Ļ×ł×Ļ×Ŀ": 3740,
      "Ġ×ľ×ª×ķ×ļ": 3741,
      "Ġ×¦×Ļ×ķ×ł×Ļ×ª": 3742,
      "Ġ×ľ×Ķ×ª×¢": 3743,
      "Ġ×ĺ×ķ×ĳ×ª": 3744,
      "Ġ×¢×ķ×ĳ×ĵ×ª": 3745,
      "Ġ×¦×¤×Ļ×¤×ķ×ª": 3746,
      "Ġ×Ķ×ķ×¦×Ĵ×Ķ": 3747,
      "Ġ×ŀ×ķ×¦×Ĵ": 3748,
      "Ġ×Ĳ×¡×ĺ": 3749,
      "Ġ×Ĳ×¡×ŀ×Ľ": 3750,
      "Ġ×Ķ×ķ×¤×ļ": 3751,
      "Ġ×ľ×ł×Ķ": 3752,
      "Ġ×ľ×Ķ×¦×ĺ×¨×£": 3753,
      "Ġ×Ĳ×¨×Ĵ×ķ×ł×Ļ×Ŀ": 3754,
      "Ġ×§×Ļ×ĳ×ľ×ķ": 3755,
      "Ġ×Ľ×ª×ķ×ĳ×ª": 3756,
      "Ġ×Ķ×§×Ļ×Ŀ": 3757,
      "Ġ×ľ×ŀ×ĵ×Ķ": 3758,
      "Ġ×ĳ×Ļ×§×ķ×¨": 3759,
      "Ġ×¡×ķ×Ĵ×Ļ×Ŀ": 3760,
      "Ġ×¤×Ļ×ķ×ĺ×¨": 3761,
      "Ġ×¢×©×ķ×Ļ": 3762,
      "Ġ×§×ķ×ľ×ķ×ŀ×ĳ": 3763,
      "Ġ×¨×¢×Ļ×ķ×ł×ķ×ª": 3764,
      "Ġ×¤×Ļ×ľ×Ļ×¤": 3765,
      "Ġ×Ķ×ķ×¨×ĵ": 3766,
      "Ġ×¢×Ļ×§×¨×ķ×Ł": 3767,
      "Ġ×©×¨×Ļ×ķ×Ł": 3768,
      "Ġ×ł×¦×Ļ×Ĵ": 3769,
      "Ġ×Ĳ×ŀ×¨×Ļ×§×Ĳ×Ļ×ª": 3770,
      "Ġ×©×Ļ×ĺ×ķ×ª": 3771,
      "Ġ×ŀ×ł×Ķ×ľ×Ļ×Ŀ": 3772,
      "Ġ×ŀ×ķ×Ľ×Ł": 3773,
      "Ġ×Ķ×ª×§×Ļ": 3774,
      "Ġ×Ķ×ª×§×ĳ×ľ": 3775,
      "Ġ×§×¨×Ļ×Ĳ×ª": 3776,
      "Ġ×Ķ×ł×Ĺ": 3777,
      "Ġ×Ļ×Ļ×©×ķ×ĳ×Ļ×Ŀ": 3778,
      "Ġ×¢×ł×Ļ×Ł": 3779,
      "Ġ×Ķ×¨×¦×ľ": 3780,
      "Ġ×ĸ×ŀ×ł×Ļ": 3781,
      "Ġ×ª×Ľ×ķ×ł×ķ×ª": 3782,
      "Ġ×ł×ķ×Ķ×Ĵ": 3783,
      "Ġ×ľ×ĺ×¤×ľ": 3784,
      "Ġ×ľ×ĺ×Ļ×ł×Ļ×ª": 3785,
      "Ġ×¢×¦×ŀ×Ĳ×Ļ": 3786,
      "Ġ×ĳ×ĸ×Ľ×ķ×ª": 3787,
      "Ġ×¢×ķ×ĸ×Ļ": 3788,
      "Ġ×©×Ļ×§×ķ×ľ": 3789,
      "Ġ×Ĳ×ķ×¡×ĺ×¨×Ļ×Ķ": 3790,
      "Ġ×¢×ķ×¨×Ľ×Ļ×Ŀ": 3791,
      "Ġ×¤×Ļ×¦×ķ×¥": 3792,
      "Ġ×¡×ŀ×Ľ×ķ×ª": 3793,
      "Ġ×ľ×ķ×Ĵ×ķ": 3794,
      "Ġ×ł×Ļ×Ķ×ķ×ľ": 3795,
      "Ġ×ŀ×ŀ×ķ×§×Ŀ": 3796,
      "Ġ×§×ķ×ŀ×ķ×ł": 3797,
      "Ġ×¡×Ļ×Ľ×ķ×Ŀ": 3798,
      "Ġ×¡×ĺ×ĺ×Ļ×¡×ĺ×Ļ×§×Ķ": 3799,
      "Ġ×©×Ļ×ľ×ķ×ĳ": 3800,
      "Ġ×ŀ×Ĳ×ķ×Ĺ×ĵ×ª": 3801,
      "Ġ×ŀ×Ĳ×ŀ×Ļ×Ł": 3802,
      "Ġ×¤×Ļ×Ļ×¨×¤×ķ×§×¡": 3803,
      "Ġ×¨×ŀ×ĳ×Ŀ": 3804,
      "Ġ×Ĳ×¡×ŀ×Ľ×ª": 3805,
      "Ġ3": 3806,
      "×ķ×ķ×Ĳ×Ļ": 3807,
      "Ġ×Ķ×ĺ": 3808,
      "Ġ×Ķ×¤×§": 3809,
      "Ġ×Ķ×¨×©": 3810,
      "Ġ×Ķ×¢×ª×Ļ×§": 3811,
      "×¨×ľ×Ļ": 3812,
      "Ġ×ľ×ķ×¨": 3813,
      "Ġ×ĳ×Ĳ×ª": 3814,
      "Ġ×ĳ×Ĳ×Ļ": 3815,
      "Ġ×ĳ×ł×ķ×ª": 3816,
      "Ġ×ĳ×¨×ł": 3817,
      "Ġ×ĳ×Ľ×Ļ×¨": 3818,
      "Ġ×ĳ×ĳ×§": 3819,
      "×ľ×¨": 3820,
      "Ġ×©×ŀ×ª": 3821,
      "Ġ×©×¨×ķ×Ł": 3822,
      "Ġ×©×ĵ×¨×ķ×ª": 3823,
      "×ª×§": 3824,
      "Ġ×¢×Ļ×Ł": 3825,
      "×ĵ×Ļ×ķ×ª": 3826,
      "×ĵ×¨×ª": 3827,
      "Ġ×Ľ×Ļ×ŀ": 3828,
      "Ġ×Ļ×ķ×¤×Ļ×¢": 3829,
      "Ġ×Ĺ×ķ×ª": 3830,
      "Ġ×Ĺ×Ļ×§×Ķ": 3831,
      "Ġ×ł×ŀ×©": 3832,
      "Ġ×ł×ĳ×ł": 3833,
      "Ġ×ł×ŀ×©×ļ": 3834,
      "Ġ×ŀ×ķ": 3835,
      "Ġ×ŀ×Ļ×¢": 3836,
      "Ġ×ŀ×Ļ×ł×Ļ": 3837,
      "Ġ×Ĳ×Ļ×Ļ×Ŀ": 3838,
      "Ġ×Ĳ×¨×Ķ": 3839,
      "Ġ×Ĳ×Ļ×Ĵ×ķ×ĵ": 3840,
      "Ġ×ª×ķ×¨×ª": 3841,
      "Ġ×¨×ĸ": 3842,
      "Ġ×¨×ķ×ŀ×Ļ×ª": 3843,
      "Ġ×¨×ķ×Ĳ×Ļ×Ŀ": 3844,
      "Ġ×¤×¨×Ķ": 3845,
      "Ġ×§×ķ×¨×Ķ": 3846,
      "Ġ×ĸ×¨×Ŀ": 3847,
      "×¦×ŀ×ĳ×¨": 3848,
      "×ĺ×ŀ×ĳ×¨": 3849,
      "Ġ×Ĵ×ķ×ĺ": 3850,
      "×ŀ×ķ×ľ": 3851,
      "Ġ×ĵ×¦×ŀ×ĳ×¨": 3852,
      "Ġ×¦×¤×ª": 3853,
      "×ķ×ĳ×Ļ": 3854,
      "Ġ×¡×¦": 3855,
      "Ġ×Ĳ×ł×ĺ×Ļ": 3856,
      "Ġ×ľ×Ķ×§×ķ×ª": 3857,
      "Ġ×¢×ľ×Ļ": 3858,
      "×ķ×©×Ļ": 3859,
      "Ġ×Ļ×©×ķ×ĳ": 3860,
      "×Ļ×¤×ľ": 3861,
      "Ġ×ŀ×§×ķ×ŀ×Ļ×ª": 3862,
      "×Ļ×Ĳ×Ļ×Ŀ": 3863,
      "Ġ×ĺ×Ľ×ł×Ļ": 3864,
      "Ġ×ŀ×ĵ×Ļ×Ķ": 3865,
      "Ġ×Ĳ×Ļ×ł×¡": 3866,
      "Ġ×¨×Ĳ×©×ķ×ª": 3867,
      "Ġ×ĳ×Ĺ×Ļ×ł×ķ×ª": 3868,
      "Ġ×Ĳ×¤×©×¨×ķ×Ļ×ķ×ª": 3869,
      "×Ĵ×ľ×Ķ": 3870,
      "Ġ×ľ×¢×¡×ķ×§": 3871,
      "Ġ×ľ×¢×ĵ×Ľ×Ł": 3872,
      "Ġ×ŀ×¤×§": 3873,
      "Ġ×ŀ×©×¤×Ĺ×ª×Ļ": 3874,
      "Ġ×ł×ķ×¡×¢×Ļ×Ŀ": 3875,
      "Ġ×ł×ķ×¡×¤×ķ": 3876,
      "Ġ×Ĺ×ĳ×¨×Ļ×ķ": 3877,
      "Ġ×©×ł×ķ×Ļ": 3878,
      "Ġ×ŀ×ĳ×ľ×Ļ": 3879,
      "Ġ×¨×©×Ļ×ķ×Ł": 3880,
      "Ġ×¨×©×Ļ×ŀ×ķ×ª": 3881,
      "Ġ×ŀ×ł×ķ×¢": 3882,
      "Ġ×ĳ×¨×ķ×¨×Ļ×Ŀ": 3883,
      "Ġ×ŀ×Ĳ×ķ×¨": 3884,
      "Ġ×§×ĺ×ľ": 3885,
      "Ġ×ŀ×Ľ×Ķ": 3886,
      "Ġ×Ķ×¢×ĳ×¨×Ķ": 3887,
      "Ġ×ŀ×©×ª×ł×Ķ": 3888,
      "Ġ×Ĺ×ķ×©×ĳ×ª": 3889,
      "×Ļ×¡×ĺ×Ł": 3890,
      "Ġ×¤×¨×ķ×¥": 3891,
      "Ġ×Ķ×Ĺ×ľ×¤×Ķ": 3892,
      "Ġ×Ļ×ĵ×ķ": 3893,
      "Ġ×Ĳ×ķ×ª×Ŀ": 3894,
      "Ġ×¡×¤×ĺ×ŀ×ĳ×¨": 3895,
      "Ġ×§×ĳ×Ļ×¢×ª": 3896,
      "Ġ×ł×©×ľ×Ĺ": 3897,
      "Ġ×ŀ×¨×Ľ×ĸ×Ļ×ª": 3898,
      "Ġ×ŀ×¨×Ľ×ĸ×Ļ×ķ×ª": 3899,
      "Ġ×Ķ×¤×¡": 3900,
      "Ġ×ŀ×¦×ĳ×Ļ×¢×Ļ×Ŀ": 3901,
      "Ġ×ŀ×ŀ×©×Ļ×ļ": 3902,
      "Ġ×ł×Ĺ×ŀ×ĵ": 3903,
      "Ġ×©×ĳ×Ļ×¢": 3904,
      "Ġ×Ĺ×ĸ×§": 3905,
      "Ġ×Ĳ×Ĵ×£": 3906,
      "Ġ×Ĳ×ķ×ł×Ļ×ĳ×¨×¡×Ļ×ĺ×Ĳ×ķ×ª": 3907,
      "Ġ×¦×¢×¨": 3908,
      "Ġ×Ĳ×¦×ľ×Ļ": 3909,
      "Ġ×ł×ª×§×ľ": 3910,
      "Ġ×Ĳ×ŀ×¨×ª": 3911,
      "Ġ×Ĳ×Ļ×ĸ×©×Ķ×ķ": 3912,
      "Ġ×Ķ×Ľ×¨×Ĺ": 3913,
      "×Ĺ×¨×¨": 3914,
      "Ġ×ł×Ķ×¨": 3915,
      "Ġ×ĵ×Ļ×ķ×§": 3916,
      "Ġ×ĵ×¢×ª×ķ": 3917,
      "Ġ×ĵ×¢×ª×Ŀ": 3918,
      "Ġ×Ķ×ľ×Ĳ×Ķ": 3919,
      "Ġ×Ķ×ķ×¤×¢×ª": 3920,
      "Ġ×ľ×ł×Ķ×ľ": 3921,
      "×ķ×ľ×ķ×Ĵ×Ļ×ª": 3922,
      "Ġ×§×¨×ķ×ĳ×ķ×ª": 3923,
      "Ġ×§×ķ×ĵ×©": 3924,
      "×ŀ×§×ĵ": 3925,
      "Ġ×Ľ×ª×ķ×ĳ×Ļ×Ŀ": 3926,
      "Ġ×Ĺ×Ļ×ł×Ŀ": 3927,
      "Ġ×Ļ×ľ×ĵ×ķ×ª": 3928,
      "Ġ×Ķ×ĳ×ł×Ķ": 3929,
      "Ġ×Ĵ×ķ×¨×Ļ×ķ×Ł": 3930,
      "Ġ×ł×ĵ×Ĺ×ª×Ķ": 3931,
      "Ġ×Ĵ×ľ×Ļ×ľ": 3932,
      "Ġ×ĳ×Ķ×¨×ĳ×Ķ": 3933,
      "Ġ×¢×¨×ĳ×Ļ": 3934,
      "Ġ×ľ×Ķ×¤×¨×Ļ×ĵ": 3935,
      "Ġ×ŀ×¢×¨×ĳ×Ļ×ª": 3936,
      "Ġ×Ĳ×ĸ×¨×Ĺ×Ļ": 3937,
      "Ġ×Ĳ×ĸ×¨×Ĺ×ķ×ª": 3938,
      "Ġ×ľ×¡×Ļ×Ļ×¢": 3939,
      "Ġ×¤×¢×Ļ×ľ×ķ×ª×ķ": 3940,
      "Ġ×©×Ļ×¨×ķ×ª×Ļ×Ŀ": 3941,
      "Ġ×ł×Ļ×¦×Ĺ×ķ×Ł": 3942,
      "Ġ×¤×¨×©×Ļ×Ŀ": 3943,
      "Ġ×ĳ×Ļ×¦×¢": 3944,
      "Ġ×Ļ×ŀ×Ļ×ł×ķ": 3945,
      "Ġ×ŀ×¢×ĺ×Ļ×Ŀ": 3946,
      "Ġ×ŀ×Ĺ×©×ĳ×Ļ×Ŀ": 3947,
      "Ġ×ł×ķ×¢×ĵ": 3948,
      "×¤×ľ×ķ×¨×¨": 3949,
      "Ġ×ł×Ĵ×ĳ": 3950,
      "Ġ×Ķ×Ĵ×ĵ×¨×ķ×ª": 3951,
      "Ġ×Ķ×¨×¦×ķ×Ĵ": 3952,
      "Ġ×ľ×ĳ×ł×ķ×ª": 3953,
      "Ġ×ĸ×ŀ×ł×ķ": 3954,
      "Ġ×ŀ×©×ŀ×©×Ļ×Ŀ": 3955,
      "Ġ×ŀ×ĳ×ķ×¡×¡×ª": 3956,
      "Ġ×ª×¦×¤×Ļ×ª": 3957,
      "×Ĳ×ŀ×Ļ×Ł": 3958,
      "Ġ×Ĳ×ľ×ŀ×ķ×ł×Ļ": 3959,
      "Ġ×ľ×ľ×Ľ×ª": 3960,
      "Ġ×ŀ×ķ×ĺ×ĳ": 3961,
      "Ġ×¤×¨×ł×¡×Ļ×¡": 3962,
      "Ġ×Ľ×¡×£": 3963,
      "Ġ×ĳ×ķ×ĵ×ĵ×Ļ×Ŀ": 3964,
      "Ġ×ª×ķ×ŀ×Ľ": 3965,
      "Ġ×¢×Ļ×Ļ×¨×Ķ": 3966,
      "Ġ×Ĳ×ķ×§×Ļ×Ļ×ł": 3967,
      "×¤×ķ×¨×ĵ": 3968,
      "Ġ×ł×ĳ×ł×Ķ": 3969,
      "Ġ×Ĳ×ķ×¡×ĺ×¨×ľ×Ļ×Ķ": 3970,
      "Ġ×Ĳ×ĵ×¨×Ļ×Ľ×ľ×ķ×ª": 3971,
      "×ł×¦×ľ": 3972,
      "Ġ×¨×ķ×ŀ×ł×Ļ×Ķ": 3973,
      "Ġ×ŀ×§×ĳ×ľ×Ļ×Ŀ": 3974,
      "Ġ×ł×§×ĳ×¢×ķ": 3975,
      "Ġ×ª×¢×¨×ķ×Ľ×Ķ": 3976,
      "Ġ×ŀ×ķ×¡×ľ×ŀ×Ļ×Ŀ": 3977,
      "Ġ×Ķ×ŀ×©×Ļ×Ľ×ķ": 3978,
      "Ġ×Ĳ×Ļ×¡×ķ×¨": 3979,
      "Ġ×ŀ×ľ×Ľ×ķ×ª×Ļ": 3980,
      "Ġ×Ļ×ķ×ķ×ł×Ļ×ª": 3981,
      "Ġ×Ĳ×ł×ķ×ł×Ļ×ŀ×Ļ": 3982,
      "Ġ×ŀ×Ĳ×Ĺ×ķ×¨×Ļ": 3983,
      "Ġ×ŀ×¡×ķ×¨×ª×Ļ": 3984,
      "Ġ×ĳ×ŀ×Ķ×¨×Ķ": 3985,
      "Ġ×Ķ×ª×Ļ×Ļ×¢×¥": 3986,
      "Ġ×ª×Ļ×Ļ×¨×ķ×ª": 3987,
      "Ġ×¤×¨×ŀ×ĺ×¨×Ļ×Ŀ": 3988,
      "Ġ×ľ×Ĺ×¡×ķ×Ŀ": 3989,
      "Ġ×ľ×Ķ×ª×§×Ļ×Ļ×Ŀ": 3990,
      "Ġ×Ĳ×§×¡×¤×ľ×ķ×¨×¨": 3991,
      "Ġ×ŀ×¢×¨×Ļ×¦×Ļ×Ŀ": 3992,
      "Ġ×ŀ×Ķ×¢×¨×ļ": 3993,
      "Ġ×ľ×©×¢×ĳ×¨": 3994,
      "Ġ×ľ×ł×Ķ×ķ×Ĵ": 3995,
      "Ġ×ĳ×ĳ×§×©×Ķ": 3996,
      "Ġ×ŀ×Ļ×¢×ķ×ĺ": 3997,
      "Ġ×Ĳ×¨×Ķ×ĳ": 3998,
      "Ġ×Ĳ×ķ×§×Ļ×Ļ×ł×ķ×¡": 3999,
      "ĵ×ª": 4000,
      "Ġ×Ķ×Ļ×¢": 4001,
      "Ġ×Ķ×¢×ª": 4002,
      "Ġ×Ķ×ĳ×Ĺ": 4003,
      "Ġ×Ķ×ł×ĵ": 4004,
      "Ġ×Ķ×©×ĳ": 4005,
      "Ġ×ľ×Ļ×ĳ": 4006,
      "Ġ×ľ×Ļ×Ĵ": 4007,
      "Ġ×ĳ×ķ×Ĳ×": 4008,
      "Ġ×ĳ×ķ×¨×¨": 4009,
      "Ġ×©×Ļ×ł×Ķ": 4010,
      "Ġ×¢×¤": 4011,
      "Ġ×¢×ĺ": 4012,
      "Ġ×¢×¨×ķ×ļ": 4013,
      "Ġ×Ļ×ķ×ŀ×Ļ×Ļ×Ŀ": 4014,
      "Ġ×Ĺ×Ł": 4015,
      "×ł×¨": 4016,
      "×ķ×¨×¦×Ļ×Ķ": 4017,
      "Ġ×ł×ķ×ľ": 4018,
      "Ġ×ŀ×¨×ĳ×Ķ": 4019,
      "Ġ×ŀ×Ļ×ł×Ļ×Ŀ": 4020,
      "Ġ×ŀ×ķ×ķ×ª": 4021,
      "Ġ×Ĳ×Ļ×ľ×ª": 4022,
      "Ġ×ª×Ļ×ĳ×Ķ": 4023,
      "Ġ×ķ×ĵ": 4024,
      "Ġ×§×ł×Ķ": 4025,
      "Ġ×§×ŀ×¤": 4026,
      "Ġ×ĸ×ĳ": 4027,
      "×¦×Ļ": 4028,
      "×ĺ×ķ×Ĳ×ľ": 4029,
      "Ġ×Ĵ×ķ×ł": 4030,
      "×ŀ×Ļ×Ł": 4031,
      "Ġ×©×ľ×Ĺ": 4032,
      "Ġ×©×ľ×Ļ×Ĺ": 4033,
      "Ġ×¦×¤×Ļ": 4034,
      "×Ĳ×§": 4035,
      "×Ĳ×Ĵ": 4036,
      "Ġ×¡×¨×ĳ": 4037,
      "Ġ×¡×Ĵ×ľ": 4038,
      "Ġ×¡×Ľ×¡": 4039,
      "Ġ×Ĳ×ł×¨×Ĵ": 4040,
      "Ġ×Ķ×ķ×©": 4041,
      "Ġ×ŀ×©×ķ×ľ": 4042,
      "Ġ×ŀ×©×ĳ×¨": 4043,
      "Ġ×ŀ×©×Ļ×ŀ×ķ×ª": 4044,
      "×Ļ×ĳ×¨": 4045,
      "×ķ×§×Ļ": 4046,
      "Ġ×ĸ×Ķ×Ķ": 4047,
      "×Ļ×¤×ķ": 4048,
      "Ġ×ŀ×§×¨×Ĳ": 4049,
      "Ġ×ŀ×§×ķ×¦×¨": 4050,
      "Ġ×ŀ×§×ķ×ŀ×Ŀ": 4051,
      "×ķ×¢×¨": 4052,
      "Ġ×ĺ×ŀ×¤": 4053,
      "Ġ×ŀ×¡×ļ": 4054,
      "Ġ×ŀ×ĵ×£": 4055,
      "Ġ×ŀ×ª×Ĺ×ª": 4056,
      "Ġ×Ķ×ª×ł×Ĵ×ĵ": 4057,
      "Ġ×ŀ×Ķ×Ļ": 4058,
      "Ġ×ŀ×Ķ×ĵ": 4059,
      "Ġ×Ķ×¦×Ĵ×ª": 4060,
      "Ġ×Ĳ×Ļ×ł×ĵ": 4061,
      "Ġ×¨×Ĳ×©×ķ×ł×ķ×ª": 4062,
      "Ġ×¨×Ĳ×©×ķ×ł×Ļ": 4063,
      "Ġ×Ĳ×ĳ×Ļ": 4064,
      "Ġ×¤×¨×¥": 4065,
      "Ġ×ŀ×ľ×ķ×Ł": 4066,
      "Ġ×ľ×¤×¨×¡×Ŀ": 4067,
      "Ġ×ľ×Ĳ×ŀ×¥": 4068,
      "Ġ×Ĳ×¤×©×¨×Ļ×ª": 4069,
      "Ġ×ľ×¢×ľ×ķ×ª": 4070,
      "Ġ×ŀ×¤×ķ×ª": 4071,
      "×ķ×ĸ×Ļ×¦×Ļ×Ķ": 4072,
      "Ġ×ŀ×Ĳ×ŀ×¦": 4073,
      "Ġ×¤×¢×Ļ×ľ×Ļ": 4074,
      "Ġ×ľ×©×Ĺ×§": 4075,
      "Ġ×§×¦×ĳ": 4076,
      "Ġ×ŀ×ł×Ĺ×Ķ": 4077,
      "×¨×Ĵ×Ŀ": 4078,
      "Ġ×Ĳ×ķ×¤×ķ×ĸ×Ļ×¦×Ļ×Ķ": 4079,
      "Ġ×§×ĺ×ł×Ļ×Ŀ": 4080,
      "Ġ×ŀ×Ľ×ĳ×Ļ": 4081,
      "Ġ×ŀ×Ļ×Ļ×ĵ": 4082,
      "Ġ×ŀ×Ļ×ķ×¦": 4083,
      "Ġ×Ķ×¢×ķ×ł×Ķ": 4084,
      "Ġ×Ķ×¢×ĵ×¨": 4085,
      "Ġ×©×Ļ×Ĺ×ª": 4086,
      "Ġ×ľ×Ĺ×ª": 4087,
      "Ġ×¤×ª×Ĺ×ª": 4088,
      "Ġ×Ļ×ĵ×Ļ×¢×ķ×ª": 4089,
      "Ġ×Ķ×Ļ×ķ×ķ×Ķ": 4090,
      "Ġ×¢×ĳ×ķ×ĵ": 4091,
      "Ġ×ł×¤×ķ×ľ": 4092,
      "Ġ×Ĺ×ķ×§×Ķ": 4093,
      "Ġ×ł×ŀ×Ĺ×§×Ļ×Ŀ": 4094,
      "Ġ×ŀ×¨×Ľ×ĸ×Ļ×Ļ×Ŀ": 4095,
      "Ġ×Ķ×¤×Ĵ": 4096,
      "Ġ×¤×ķ×¨×ŀ×ĺ": 4097,
      "×ŀ×ł×Ķ": 4098,
      "Ġ×ŀ×¦×ĳ×ķ": 4099,
      "Ġ×Ķ×Ļ×¡×ĺ×ķ×¨": 4100,
      "Ġ×ŀ×ķ×ĸ×Ļ×§×ľ": 4101,
      "Ġ×©×Ľ×ĳ×ķ×ª": 4102,
      "Ġ×ŀ×ĺ×ĳ×¢": 4103,
      "Ġ×Ĺ×©×Ļ×ĳ×ķ×ª×ķ": 4104,
      "Ġ×¤×¨×¡×Ļ×Ŀ": 4105,
      "Ġ×Ļ×ķ×¦×¨×ª": 4106,
      "Ġ×ŀ×Ĵ×ķ×¨×Ļ×Ŀ": 4107,
      "Ġ×¦×Ļ×ķ×ł×Ļ×Ŀ": 4108,
      "Ġ×ľ×Ķ×ª×¨×Ľ×ĸ": 4109,
      "Ġ×Ķ×¦×ľ×Ĺ×ª": 4110,
      "Ġ×Ĳ×ŀ×Ļ×ª×Ļ": 4111,
      "Ġ×Ķ×ķ×¦×Ļ×Ĳ": 4112,
      "Ġ×Ķ×ķ×¦×Ĳ×ķ": 4113,
      "Ġ×Ľ×ķ×ľ×ł×ķ": 4114,
      "Ġ×ŀ×ķ×¦×ľ": 4115,
      "Ġ×ŀ×ķ×¦×ľ×Ĺ": 4116,
      "Ġ×ĳ×ĵ×Ļ×§×ª": 4117,
      "Ġ×Ķ×ķ×¤×Ľ×Ļ×Ŀ": 4118,
      "Ġ×§×©×¨×Ļ×Ŀ": 4119,
      "Ġ×§×Ķ×Ļ×ľ×ª": 4120,
      "Ġ×ĳ×¨×Ļ×ĺ×Ļ×ª": 4121,
      "Ġ×Ĺ×Ļ×ľ×ķ×§×Ļ": 4122,
      "Ġ×ª×Ĳ×¨×Ļ×Ľ×Ļ×Ŀ": 4123,
      "Ġ×¡×ķ×Ĵ×¨×Ļ×Ļ×Ŀ": 4124,
      "Ġ×Ķ×ĳ×Ļ×¢×ķ": 4125,
      "Ġ×Ĵ×Ļ×ľ×ķ×Ļ": 4126,
      "Ġ×Ļ×§×Ļ×¤×ĵ×Ļ×ª": 4127,
      "Ġ×¡×ĵ×¨×ķ×ª": 4128,
      "Ġ×ŀ×¡×Ĺ×¨×Ļ×Ļ×Ŀ": 4129,
      "Ġ×Ķ×ķ×¨×Ĳ×Ķ": 4130,
      "Ġ×Ĵ×¨×Ļ×ł": 4131,
      "Ġ×§×ĵ×ķ×©": 4132,
      "Ġ×©×¨×Ļ×¨×ķ×ª": 4133,
      "Ġ×Ĳ×ŀ×¨×Ļ×§×Ĳ×Ļ×Ŀ": 4134,
      "Ġ×¤×¨×©×Ķ": 4135,
      "Ġ×¤×¨×©×ł×ķ×ª": 4136,
      "Ġ×ķ×ķ×Ļ×§×Ļ×¤×ĵ×Ļ×Ŀ": 4137,
      "Ġ×Ļ×ĵ×ķ×¢×Ķ": 4138,
      "Ġ×ĳ×Ļ×¦×¢×ķ": 4139,
      "Ġ×ł×¨×Ĺ×ĳ×ª": 4140,
      "Ġ×¢×Ļ×ª×ķ×ł": 4141,
      "Ġ×Ķ×¦×ľ×Ļ×Ĺ×Ķ": 4142,
      "Ġ×Ĳ×ŀ×¦×¢×Ļ×Ŀ": 4143,
      "Ġ×Ĺ×ĳ×¨×ª×Ļ×ª": 4144,
      "Ġ×ĵ×ķ×¨×©×Ļ×Ŀ": 4145,
      "Ġ×Ĳ×¨×ķ×Ľ×Ļ×Ŀ": 4146,
      "Ġ×©×Ļ×Ļ×ļ": 4147,
      "Ġ×Ļ×ĳ×©×ª": 4148,
      "Ġ×Ķ×ł×Ĺ×Ķ": 4149,
      "Ġ×¤×¨×ķ×¤×ķ×¨×¦×Ļ×Ķ": 4150,
      "Ġ×©×Ĺ×ķ×¨": 4151,
      "Ġ×ľ×ł×¡×Ĺ": 4152,
      "Ġ×ĵ×ŀ×ķ×§×¨×ĺ×Ļ×Ķ": 4153,
      "Ġ×ŀ×Ĳ×¤×©×¨×ª": 4154,
      "Ġ×Ĺ×ĺ×Ļ×ĳ×Ķ": 4155,
      "Ġ×Ĳ×ŀ×Ĺ×§": 4156,
      "Ġ×ŀ×Ļ×ķ×ª×¨×ķ×ª": 4157,
      "Ġ×ŀ×¨×ĵ×Ľ×Ļ": 4158,
      "Ġ×ł×ĵ×¨×©×ª": 4159,
      "Ġ×ĳ×ķ×ľ×ĺ×Ļ×Ŀ": 4160,
      "Ġ×Ĳ×ķ×Ķ×ĳ": 4161,
      "Ġ×ł×¤×Ĵ×¢×ķ": 4162,
      "Ġ×¤×ķ×ł×§×¦×Ļ×ķ×ª": 4163,
      "Ġ×Ķ×©×ª×ŀ×©×ª": 4164,
      "Ġ×¤×ĺ×Ļ×¨×ª": 4165,
      "Ġ×ŀ×¡×ķ×ĵ×¨×ª": 4166,
      "Ġ×ŀ×Ķ×¤×Ľ×Ķ": 4167,
      "Ġ×Ķ×ŀ×ķ×Ł": 4168,
      "Ġ×ŀ×Ľ×ľ×ľ×ª": 4169,
      "Ġ×¤×Ļ×ł×ľ×ł×ĵ": 4170,
      "Ġ×ł×Ļ×Ļ×ĺ×¨×ľ×Ļ×ª": 4171,
      "Ġ×ł×Ļ×Ļ×ĺ×¨×ľ×Ļ×ķ×ª": 4172,
      "Ġ×Ĳ×ķ×ŀ×¨×ª": 4173,
      "Ġ×ŀ×Ļ×ķ×Ĺ×ĵ×Ļ×Ŀ": 4174,
      "Ġ×ŀ×ķ×ĸ×Ľ×¨": 4175,
      "Ġ×ľ×ķ×§×Ĺ": 4176,
      "Ġ×ŀ×Ļ×©×ķ×¨": 4177,
      "Ġ×ŀ×Ķ×ķ×ª×Ļ": 4178,
      "Ġ×Ķ×¨×Ĺ×ĳ×Ķ": 4179,
      "Ġ×Ĺ×Ļ×ĵ×ķ×©": 4180,
      "Ġ×ª×ķ×¨×Ĵ×Ŀ": 4181,
      "Ġ×ĵ×ł×Ļ×Ĳ×ľ": 4182,
      "Ġ×Ĳ×©×Ľ×ł×ĸ": 4183,
      "Ġ×ł×ª×ł×Ļ×Ķ×ķ": 4184,
      "Ġ×§×ª×ĵ×¨×ľ×Ķ": 4185,
      "Ġ×¦×Ĳ×¨×ľ×¡": 4186,
      "Ġ×ŀ×¦×¢×ĵ": 4187,
      "Ġ×¤×ķ×¨×ŀ×ľ×Ļ×ª": 4188,
      "Ġ×Ļ×Ļ×Ľ×ª×ĳ": 4189,
      "Ġ×¨×¦×ķ×ł×ļ": 4190,
      "Ġ×ĳ×ķ×Ĳ×ļ": 4191,
      "Ġ×ł×ķ×ľ×ĵ×Ķ": 4192,
      "Ġ×¦×¤×Ļ×Ļ×Ķ": 4193,
      "ĸ×Ļ": 4194,
      "×Ļ×Ļ×ł×Ļ×Ŀ": 4195,
      "×ķ×ķ×ľ×ĺ": 4196,
      "Ġ×Ķ×Ļ×¤": 4197,
      "Ġ×Ķ×Ļ×Ĵ": 4198,
      "Ġ×Ķ×¨×Ľ×ĳ": 4199,
      "×¨×ķ×Ļ×ķ×ª": 4200,
      "Ġ×ľ×ķ×Ĳ": 4201,
      "Ġ×ľ×Ļ×Ľ": 4202,
      "Ġ×©×Ļ×Ĳ": 4203,
      "Ġ×©×¤×ª": 4204,
      "Ġ×©×Ļ×¨×Ķ": 4205,
      "Ġ×©×ķ×¨×ª": 4206,
      "Ġ×©×ķ×Ĺ×¨": 4207,
      "Ġ×¢×§": 4208,
      "Ġ×Ľ×¨": 4209,
      "Ġ×Ľ×¥": 4210,
      "Ġ×Ļ×ķ": 4211,
      "Ġ×Ĺ×ķ×©": 4212,
      "Ġ×Ĺ×Ļ×©": 4213,
      "Ġ×Ĺ×Ļ×¡": 4214,
      "×Ĺ×¡": 4215,
      "×Ĺ×Ļ×§": 4216,
      "×¢×Ļ×ľ": 4217,
      "Ġ×ł×ķ×ĳ": 4218,
      "Ġ×ł×¡×ª": 4219,
      "Ġ×ŀ×ķ×ĳ×Ķ": 4220,
      "Ġ×Ĳ×ķ×©": 4221,
      "Ġ×Ĳ×Ļ×ŀ": 4222,
      "Ġ×Ĳ×ķ×ŀ×Ķ": 4223,
      "Ġ×ª×ķ×¢": 4224,
      "Ġ×¨×Ļ": 4225,
      "Ġ×¨×ķ×¦": 4226,
      "Ġ×¤×Ĺ": 4227,
      "Ġ×§×ķ×Ŀ": 4228,
      "Ġ×§×Ļ×¦": 4229,
      "Ġ×§×©×ª": 4230,
      "Ġ×§×¨×ĵ": 4231,
      "Ġ×§×¨×ł": 4232,
      "Ġ×Ĳ×ª×ŀ×ķ×ľ": 4233,
      "Ġ×ĸ×ł": 4234,
      "Ġ×ĸ×ł×Ļ×Ĺ": 4235,
      "×ķ×ł×ĵ": 4236,
      "×ķ×ł×Ļ×ķ×ª": 4237,
      "Ġ×Ĵ×ķ×Ĳ×ľ": 4238,
      "Ġ×Ĵ×Ĳ×ĸ": 4239,
      "×Ľ×ª×Ļ": 4240,
      "Ġ×ĵ×¨×Ľ": 4241,
      "Ġ×ĵ×ķ×ŀ×ķ×ª": 4242,
      "Ġ×ĵ×ķ×¨×ķ×ª": 4243,
      "Ġ×ĵ×ª×Ļ×Ļ×Ŀ": 4244,
      "Ġ×ĵ×Ļ×¤×ľ": 4245,
      "Ġ×©×ľ×ĳ×Ļ×Ŀ": 4246,
      "Ġ×¦×ŀ": 4247,
      "Ġ×¦×ķ×¤×Ļ×Ŀ": 4248,
      "×¡×Ļ": 4249,
      "Ġ×¡×ķ": 4250,
      "Ġ×¡×ķ×ľ": 4251,
      "Ġ×¡×ķ×Ķ": 4252,
      "Ġ×¡×ł×§": 4253,
      "Ġ×¡×Ļ×ĺ×Ļ": 4254,
      "×Ļ×§×Ĳ×Ļ×Ŀ": 4255,
      "Ġ×¢×¨×Ł": 4256,
      "×Ļ×ľ×ķ×Ł": 4257,
      "Ġ×¢×ľ×ķ": 4258,
      "Ġ×ŀ×©×Ļ×ŀ×Ķ": 4259,
      "Ġ×ŀ×©×Ĳ×ĳ": 4260,
      "×ķ×¢×ķ×ª": 4261,
      "Ġ×ĺ×¨×ł": 4262,
      "×Ļ×¦×Ķ": 4263,
      "Ġ×ŀ×¡×§": 4264,
      "Ġ×ŀ×¡×Ľ": 4265,
      "×Ļ×¢×Ļ×Ł": 4266,
      "Ġ×ŀ×Ĺ×Ļ": 4267,
      "Ġ×ŀ×Ĺ×ķ×ľ": 4268,
      "Ġ×ŀ×Ĺ×ķ×ĵ": 4269,
      "Ġ×ŀ×¢×§×ĳ": 4270,
      "×Ļ×Ĺ×ķ×ª": 4271,
      "Ġ×ŀ×ª×ł×Ķ": 4272,
      "Ġ×ŀ×ª×ķ×Ĳ": 4273,
      "Ġ×ŀ×ª×Ĺ×Ļ×ľ": 4274,
      "Ġ×Ķ×¦×ĵ": 4275,
      "Ġ×ŀ×¦×Ĳ×Ķ": 4276,
      "Ġ×ŀ×¦×Ĺ×Ļ×§": 4277,
      "Ġ×¤×¨×¦": 4278,
      "Ġ×¨×ĳ×Ļ×Ł": 4279,
      "Ġ×ª×Ĺ×¨×ķ×Ļ×ķ×ª": 4280,
      "×Ĵ×ľ×ķ": 4281,
      "×ĳ×ł×Ļ×Ķ": 4282,
      "Ġ×©×ł×ķ×Ļ×Ļ×Ŀ": 4283,
      "Ġ×ª×§×£": 4284,
      "Ġ×ª×§×ĳ×ľ": 4285,
      "Ġ×¡×¤×¨×Ļ×ķ": 4286,
      "Ġ×¨×©×ķ×Ŀ": 4287,
      "Ġ×¢×¦×ŀ×Ļ×ª": 4288,
      "×Ļ×ĸ×¦×Ļ×Ķ": 4289,
      "Ġ×ŀ×ł×Ĵ": 4290,
      "Ġ×ŀ×ł×ĸ×¨": 4291,
      "Ġ×ŀ×ł×Ĺ×Ŀ": 4292,
      "Ġ×Ĺ×Ļ×Ļ×ľ": 4293,
      "×¨×ĵ×Ķ": 4294,
      "Ġ×ŀ×Ĳ×Ļ×¨": 4295,
      "Ġ×§×ĺ×ł×ķ×ª": 4296,
      "Ġ×Ļ×¦×¨×ķ": 4297,
      "Ġ×ŀ×ŀ×ĵ": 4298,
      "Ġ×ŀ×ŀ×¦×Ĳ×Ļ×Ŀ": 4299,
      "Ġ×ª×ķ×Ľ×ł×Ķ": 4300,
      "Ġ×ª×ķ×Ľ×ł×Ł": 4301,
      "Ġ×Ķ×Ĵ×ł×ª": 4302,
      "Ġ×¤×¡×§×ª": 4303,
      "Ġ×ŀ×§×ķ×¨×Ļ×ª": 4304,
      "Ġ×Ļ×ĵ×¢×ķ": 4305,
      "Ġ×Ķ×Ļ×ķ×ķ": 4306,
      "Ġ×¡×¤×Ļ×¨×Ķ": 4307,
      "Ġ×¡×¤×Ļ×ł×ķ×ª": 4308,
      "Ġ×¨×¦×Ķ": 4309,
      "Ġ×¨×¦×ķ×Ł": 4310,
      "Ġ×¨×¦×Ļ×ł×Ļ": 4311,
      "Ġ×Ľ×ª×ĳ×ķ": 4312,
      "Ġ×¦×ķ×¨×ª×ķ": 4313,
      "Ġ×Ĺ×ķ×§×Ļ×ª": 4314,
      "Ġ×Ķ×©×ł×Ķ": 4315,
      "Ġ×ł×¢×¦": 4316,
      "Ġ×Ļ×ķ×¦×Ĳ×Ļ": 4317,
      "Ġ×ŀ×Ĵ×Ļ×¢×Ļ×Ŀ": 4318,
      "Ġ×Ĳ×Ĵ×ķ×ĵ×ª": 4319,
      "Ġ×ª×©×¡": 4320,
      "Ġ×ĵ×¨×ķ×©": 4321,
      "Ġ×ĵ×¨×ķ×ŀ×Ļ": 4322,
      "Ġ×Ķ×ķ×¡×£": 4323,
      "Ġ×¦×¢×Ļ×¨×ķ×ª": 4324,
      "Ġ×¦×¤×ķ×ł×Ļ": 4325,
      "Ġ×Ķ×Ľ×Ĺ": 4326,
      "Ġ×Ķ×Ľ×¨×Ļ×ĸ": 4327,
      "Ġ×¤×©×¢": 4328,
      "Ġ×§×Ļ×ĳ×ľ×Ķ": 4329,
      "Ġ×§×¨×ľ": 4330,
      "Ġ×¦×Ļ×ĳ×ķ×¨×Ļ×Ļ×Ŀ": 4331,
      "Ġ×ĳ×Ĺ×Ļ×ł×ª×ļ": 4332,
      "Ġ×ľ×ĵ×£": 4333,
      "Ġ×©×ĺ×ķ×Ļ×ķ×ª": 4334,
      "Ġ×ŀ×ķ×¤×Ļ×¢×ķ×ª": 4335,
      "Ġ×ĳ×¨×Ļ×ĺ×Ļ×Ŀ": 4336,
      "Ġ×ľ×Ķ×©×ľ×Ļ×Ŀ": 4337,
      "Ġ×¦×¨×Ļ×Ľ×ķ×ª": 4338,
      "Ġ×Ļ×¢×ķ×¥": 4339,
      "Ġ×Ķ×©×ª×ł×Ķ": 4340,
      "Ġ×ł×ķ×¦×¨×Ļ×Ŀ": 4341,
      "Ġ×ł×¡×Ļ×ļ": 4342,
      "Ġ×Ķ×Ĺ×ľ×ĺ×ª": 4343,
      "Ġ×§×ľ×Ĳ×¡": 4344,
      "Ġ×¨×Ľ×ĳ": 4345,
      "Ġ×¡×Ĵ×ķ×¨": 4346,
      "Ġ×ŀ×ķ×ĵ×ľ": 4347,
      "Ġ×ŀ×ķ×ĵ×Ļ×¢×Ļ×Ł": 4348,
      "Ġ×ľ×Ķ×¤×¡×Ļ×§": 4349,
      "Ġ×ľ×Ķ×¤×¢×Ļ×ľ": 4350,
      "Ġ×ŀ×Ļ×ľ×ķ×Ĳ×Ļ×Ŀ": 4351,
      "Ġ×Ķ×ķ×¨×Ĳ×ķ×ª": 4352,
      "Ġ×ŀ×ķ×©×ľ": 4353,
      "Ġ×Ĵ×Ĳ×ķ×Ĵ×¨×¤": 4354,
      "Ġ×ª×¨×ĳ×ķ×ª×Ļ×ª": 4355,
      "Ġ×ľ×¡×Ļ×Ļ×Ŀ": 4356,
      "Ġ×Ĳ×ķ×¡×§×¨": 4357,
      "Ġ×Ĺ×ķ×ĸ×¨×Ļ×Ŀ": 4358,
      "Ġ×¨×ķ×¡×Ļ": 4359,
      "Ġ×¡×Ļ×ķ×¨": 4360,
      "Ġ×ŀ×ŀ×Ļ×ľ": 4361,
      "×ŀ×¦×Ļ×Ĳ": 4362,
      "Ġ×Ķ×©×ª×ª×¤×Ķ": 4363,
      "Ġ×Ķ×©×ª×ª×¤×ķ×ª": 4364,
      "Ġ×¢×Ļ×ª×ķ×ł×ķ×ª": 4365,
      "Ġ×ŀ×¢×ł×Ļ×Ļ×ł×Ļ×Ŀ": 4366,
      "Ġ×Ĳ×§×ĵ×ŀ×Ļ×ª": 4367,
      "Ġ×ĳ×ł×Ļ×ŀ×Ļ×Ł": 4368,
      "Ġ×Ķ×ķ×¢×ľ×Ķ": 4369,
      "Ġ×Ķ×ķ×¢×ľ×ķ": 4370,
      "Ġ×ŀ×¨×ķ×§×ķ": 4371,
      "Ġ×¢×§×¨×ķ×ł×Ļ×ª": 4372,
      "Ġ×Ķ×ķ×§×ŀ×Ķ": 4373,
      "Ġ×¤×ª×ķ×Ĺ×Ļ×Ŀ": 4374,
      "Ġ×Ĳ×Ķ×¨×Ł": 4375,
      "Ġ×ĳ×Ļ×ł×ľ×Ĳ×ķ×ŀ×Ļ×Ļ×Ŀ": 4376,
      "Ġ×ŀ×ª×Ĳ×Ļ×ŀ×Ļ×Ŀ": 4377,
      "Ġ×Ĳ×ķ×ľ×Ļ×ŀ×¤×Ļ×Ļ×Ŀ": 4378,
      "Ġ×¤×¦×¦×ķ×ª": 4379,
      "Ġ×¦×Ļ×ĺ×ķ×ĺ×Ļ×Ŀ": 4380,
      "Ġ×Ķ×Ĺ×ľ×Ļ×ĺ×Ķ": 4381,
      "Ġ×ŀ×Ĺ×ĸ×Ķ": 4382,
      "Ġ×ª×ķ×¡×¤×ķ×ª": 4383,
      "Ġ×¡×ł×Ļ×£": 4384,
      "Ġ×¡×ł×Ļ×¤×Ļ×Ŀ": 4385,
      "Ġ×ŀ×¡×ķ×ĵ×¨": 4386,
      "Ġ×Ĳ×ĳ×§×©×ļ": 4387,
      "Ġ×Ľ×ķ×Ľ×ĳ×Ĳ": 4388,
      "Ġ×¡×ŀ×Ľ×ķ×Ļ×ķ×ª": 4389,
      "Ġ×Ĺ×ķ×¨×£": 4390,
      "Ġ×Ĵ×ł×¨×ľ": 4391,
      "Ġ×ª×ľ×ŀ×Ļ×ĵ×Ļ×Ŀ": 4392,
      "Ġ×Ķ×Ļ×¡×ĺ×ķ×¨×Ļ×ķ×ł×Ļ×Ŀ": 4393,
      "Ġ×©×ķ×ŀ×¨×ķ×Ł": 4394,
      "Ġ×Ĳ×ķ×ŀ×¨×Ļ×Ŀ": 4395,
      "Ġ×ŀ×ķ×¨×Ľ×ĳ×ª": 4396,
      "Ġ×ŀ×ª×Ļ×Ļ×Ĺ×¡×Ļ×Ŀ": 4397,
      "Ġ×ĳ×ķ×¨×¨×ķ×ª": 4398,
      "Ġ×Ļ×ĵ×Ļ×¢×ª×ļ": 4399,
      "Ġ×Ĺ×ķ×ŀ×¨×Ļ×Ŀ": 4400,
      "Ġ×¢×ŀ×ķ×ª×Ķ": 4401,
      "Ġ×¨×ķ×ĸ×ķ×ķ×ľ×ĺ": 4402,
      "Ġ×ĳ×ĸ×ĳ×ĸ": 4403,
      "Ġ×ŀ×ĳ×§×¨×Ļ×Ŀ": 4404,
      "Ġ×¡×¤×¦×Ļ×¤×Ļ×ª": 4405,
      "Ġ×¡×Ļ×ł×Ĵ×ľ": 4406,
      "Ġ×ŀ×¡×ķ×Ļ×Ļ×ŀ×ª": 4407,
      "Ġ×Ķ×¦×ĺ×¨×¤×ķ": 4408,
      "Ġ×§×¨×§×¢": 4409,
      "Ġ×Ĳ×ľ×Ľ×¡×ł×ĵ×¨": 4410,
      "Ġ×ŀ×Ĳ×ķ×¨×¢×ķ×ª": 4411,
      "Ġ×§×ĺ×ľ×ķ×Ĵ": 4412,
      "Ġ×¤×¨×ł×¡×Ļ×¡×§×ķ": 4413,
      "Ġ×Ĳ×ł×¨×Ĵ×Ļ×Ķ": 4414,
      "Ġ×ľ×Ĺ×ª×ķ×Ŀ": 4415,
      "Ġ×Ķ×Ļ×¡×ĺ×ķ×¨×Ļ×Ļ×Ŀ": 4416,
      "Ġ×Ĺ×Ļ×©×ķ×ĳ": 4417,
      "Ġ×§×¨×ĵ×Ļ×ĺ": 4418,
      "Ġ×¡×ķ×Ķ×¨": 4419,
      "Ġ1": 4420,
      "×Ļ×ķ×¡": 4421,
      "Ġ×Ķ×ķ×ª": 4422,
      "Ġ×Ķ×ķ×¨×Ķ": 4423,
      "Ġ×Ķ×Ļ×ĺ×ľ": 4424,
      "ŀ×Ł": 4425,
      "Ġ×ĳ×ķ×§": 4426,
      "Ġ×ĳ×ł×Ļ×Ŀ": 4427,
      "Ġ×ĳ×ŀ×¤": 4428,
      "Ġ×ĳ×ķ×Ĳ×ķ": 4429,
      "×ª×Ĺ": 4430,
      "×ª×Ļ×ª": 4431,
      "Ġ×¢×ŀ×ł": 4432,
      "Ġ×¢×ŀ×§": 4433,
      "Ġ×¢×ŀ×Ļ×ª": 4434,
      "×ĵ×¤×Ł": 4435,
      "Ġ×Ľ×ķ×ľ×Ķ": 4436,
      "Ġ×Ľ×©×¨×Ķ": 4437,
      "Ġ×Ļ×ł×§": 4438,
      "Ġ×Ĺ×ķ×ŀ×Ķ": 4439,
      "×ł×Ļ×Ļ×Ŀ": 4440,
      "×ķ×¨×ĵ": 4441,
      "×§×Ļ×ª": 4442,
      "×§×Ļ×¢": 4443,
      "Ġ×ł×Ļ×Ľ": 4444,
      "Ġ×ł×ķ×ĳ×ľ": 4445,
      "Ġ×ł×Ļ×Ľ×¨": 4446,
      "Ġ×ŀ×Ļ×Ľ": 4447,
      "Ġ×ŀ×¨×ĺ": 4448,
      "Ġ×ŀ×¨×¦×Ķ": 4449,
      "Ġ×Ĳ×Ļ×ª×Ļ": 4450,
      "Ġ×Ĳ×ķ×¨×ª": 4451,
      "×Ļ×ª×Ļ×Ŀ": 4452,
      "Ġ×ª×ĵ": 4453,
      "Ġ×ª×Ļ×Ľ": 4454,
      "Ġ×ª×ķ×¡×Ļ×£": 4455,
      "Ġ×ª×Ļ×ĳ×ª": 4456,
      "Ġ×ķ×ķ×ĵ": 4457,
      "Ġ×¨×ŀ×ķ×ª": 4458,
      "×¤×Ļ×Ķ": 4459,
      "×¤×ķ×Ł": 4460,
      "Ġ×¤×ķ×Ĵ": 4461,
      "Ġ×¤×ķ×ĺ": 4462,
      "×ŀ×Ľ×Ļ×Ŀ": 4463,
      "Ġ×§×ľ×ķ×ª": 4464,
      "×¦×ķ": 4465,
      "Ġ×Ĵ×ķ×¤": 4466,
      "×ŀ×Ļ×ķ×ª": 4467,
      "Ġ×ĵ×ķ×ľ": 4468,
      "Ġ×ĵ×Ļ×¨": 4469,
      "Ġ×ĵ×Ļ×ķ": 4470,
      "Ġ×¦×Ļ×Ļ×Ł": 4471,
      "×ķ×ĳ×Ļ×¥": 4472,
      "×ķ×ĳ×§×Ļ×Ķ": 4473,
      "Ġ×¡×ľ×Ļ×Ĺ": 4474,
      "Ġ×¡×Ļ×Ľ×ķ×Ł": 4475,
      "×Ļ×ł×¡": 4476,
      "×Ļ×ł×©×ĺ×Ļ×Ļ×Ł": 4477,
      "Ġ×Ĳ×ł×ĺ": 4478,
      "×ķ×ĵ×ĵ": 4479,
      "×ķ×ĵ×ķ×§×¡": 4480,
      "Ġ×ľ×Ķ×ĺ": 4481,
      "×Ļ×ľ×Ļ×ª": 4482,
      "Ġ×¢×ľ×Ļ×ª×Ļ": 4483,
      "Ġ×Ļ×©×Ĳ×¨": 4484,
      "×¨×Ļ×¥": 4485,
      "×Ļ×¤×ĵ×Ļ×ķ×ª": 4486,
      "Ġ×ŀ×§×¡": 4487,
      "Ġ×ŀ×§×Ļ×£": 4488,
      "×ķ×¢×Ļ×Ŀ": 4489,
      "×ĸ×Ļ×§": 4490,
      "Ġ×Ĳ×ľ×Ļ×ŀ×ķ×ª": 4491,
      "Ġ×ŀ×¡×ĵ×¨": 4492,
      "×ķ×Ľ×Ļ×ª": 4493,
      "Ġ×ŀ×Ĺ×¤": 4494,
      "Ġ×ŀ×Ĺ×ĸ×ķ×¨": 4495,
      "×Ļ×Ĺ×¡×ª": 4496,
      "×Ļ×ŀ×ł": 4497,
      "×ķ×ŀ×¤": 4498,
      "Ġ×Ķ×ª×Ĺ×Ļ×ľ": 4499,
      "Ġ×Ĳ×¤×¡": 4500,
      "Ġ×ŀ×¦×ķ×¨": 4501,
      "Ġ×ŀ×¦×ĺ": 4502,
      "Ġ×ŀ×¦×Ļ×Ĳ×ª": 4503,
      "Ġ×Ĺ×©×Ļ×¤×Ķ": 4504,
      "Ġ×¨×Ĳ×©×Ļ×Ļ×Ŀ": 4505,
      "Ġ×Ĳ×ĳ×Ļ×Ķ": 4506,
      "Ġ×¤×¨×Ĺ": 4507,
      "×¨×Ľ×ª": 4508,
      "×¨×Ľ×ķ×ª": 4509,
      "Ġ×ľ×Ĳ×¡": 4510,
      "Ġ×ľ×Ĳ×¤×©×¨": 4511,
      "Ġ×Ĺ×ľ×ķ×§×ķ×ª": 4512,
      "Ġ×Ļ×Ķ×ķ×©×¢": 4513,
      "Ġ×ľ×¢×Ļ×Ļ×Ł": 4514,
      "Ġ×Ľ×ª×¨": 4515,
      "Ġ×Ļ×§×Ļ×ĸ×¦×Ļ×Ķ": 4516,
      "Ġ×ŀ×Ĳ×Ĵ": 4517,
      "Ġ×¤×¢×Ļ×ľ×Ķ": 4518,
      "×ł×ķ×Ļ×ķ×ª": 4519,
      "Ġ×ľ×Ľ×ľ×ķ×ľ": 4520,
      "Ġ×ŀ×ł×¡×Ļ×Ŀ": 4521,
      "Ġ×ĳ×¨×Ļ×¨×Ķ": 4522,
      "Ġ×ĳ×Ļ×ª×ķ": 4523,
      "Ġ×ľ×Ĵ×Ļ×Ļ×¡": 4524,
      "Ġ×ŀ×Ľ×©": 4525,
      "Ġ×ŀ×Ľ×ķ×ĳ": 4526,
      "Ġ×ŀ×Ľ×¨×Ļ×¢": 4527,
      "Ġ×ŀ×ŀ×§": 4528,
      "Ġ×ŀ×Ļ×ĵ×ª": 4529,
      "Ġ×Ķ×¢×ĳ×Ļ×¨": 4530,
      "Ġ×Ĳ×Ĺ×ĵ×ķ×ª": 4531,
      "Ġ×Ĳ×ĵ×ķ×ľ×£": 4532,
      "Ġ×Ĳ×ĵ×ľ×¨": 4533,
      "Ġ×ľ×Ĺ×Ŀ": 4534,
      "Ġ×ľ×Ĺ×Ľ×ķ×ª": 4535,
      "Ġ×ľ×Ĺ×©×ķ×ĳ": 4536,
      "Ġ×Ĳ×©×£": 4537,
      "Ġ×¨×¦×£": 4538,
      "Ġ×¨×¦×ķ×£": 4539,
      "Ġ×¨×Ĺ×ķ×§": 4540,
      "Ġ×¦×ĳ×Ĳ×Ļ×ķ×ª": 4541,
      "Ġ×Ķ×©×Ĺ×ª×Ķ": 4542,
      "×Ľ×ł×¢": 4543,
      "Ġ×ŀ×¦×ĳ×Ļ×¢": 4544,
      "Ġ×Ķ×ª×Ľ×ķ×ķ×ł×ª": 4545,
      "Ġ×©×Ļ×ŀ×ķ×©×Ļ×Ŀ": 4546,
      "Ġ×Ĵ×¨×ł": 4547,
      "Ġ×Ĵ×¨×ĸ×Ļ": 4548,
      "Ġ×ŀ×Ĵ×Ļ×¢": 4549,
      "Ġ×Ĺ×ĸ×ķ×¨": 4550,
      "×§×ĳ×Ķ": 4551,
      "Ġ×Ĳ×Ĵ×ł×ĵ×Ķ": 4552,
      "×¡×ĺ×ł×ĺ": 4553,
      "Ġ×ĺ×¢×ł×ª": 4554,
      "Ġ×¦×ĵ×ĵ×Ļ": 4555,
      "Ġ×Ķ×ķ×¦×ĳ×Ķ": 4556,
      "Ġ×Ķ×Ľ×¨×ĸ": 4557,
      "Ġ×Ķ×ľ×Ĺ×Ŀ": 4558,
      "Ġ×ľ×Ķ×¦×Ļ×ĳ": 4559,
      "Ġ×Ĳ×ķ×¨×ļ": 4560,
      "Ġ×ŀ×Ĺ×ľ×§×Ķ": 4561,
      "Ġ×ŀ×ķ×¡×§×ĳ×Ķ": 4562,
      "Ġ×Ķ×§×Ļ×ŀ×ķ": 4563,
      "Ġ×Ĺ×ķ×ľ×§": 4564,
      "Ġ×¡×ĳ×Ļ×¨×Ķ": 4565,
      "Ġ×ŀ×¤×¢×ľ×Ļ×Ŀ": 4566,
      "Ġ×Ķ×ĳ×Ķ×¨×ª": 4567,
      "Ġ×Ļ×¢×©×Ķ": 4568,
      "Ġ×Ļ×¢×ĸ×ķ×¨": 4569,
      "Ġ×¤×ł×¡": 4570,
      "Ġ×Ķ×©×ª×ľ×ĺ": 4571,
      "Ġ×ł×ķ×¦×¨×Ļ×ª": 4572,
      "Ġ×ł×¡×Ļ×ĳ×ķ×ª": 4573,
      "Ġ×ł×ĵ×ŀ×Ķ": 4574,
      "Ġ×ľ×ķ×Ĺ×Ŀ": 4575,
      "Ġ×ĳ×Ļ×ĺ×ķ×ľ": 4576,
      "Ġ×ĳ×¡×Ļ×¡×Ļ×ª": 4577,
      "Ġ×ŀ×¤×ľ×Ĵ×ķ×ª": 4578,
      "Ġ×ŀ×Ļ×ľ×Ĳ": 4579,
      "Ġ×Ķ×ķ×¨×Ĺ×ĳ": 4580,
      "Ġ×Ľ×©×ľ": 4581,
      "Ġ×ľ×¤×ª×ķ×¨": 4582,
      "Ġ×Ĳ×ŀ×¨×Ļ×§×ł×Ļ×ª": 4583,
      "Ġ×¡×Ļ×ķ×¢": 4584,
      "Ġ×¡×Ļ×Ļ×¢×Ķ": 4585,
      "Ġ×ł×Ļ×¦×ĳ": 4586,
      "Ġ×¡×ķ×¤×Ļ×ª": 4587,
      "Ġ×Ļ×ĵ×ķ×¢×Ļ×Ŀ": 4588,
      "Ġ×©×ĺ×Ĺ×Ļ": 4589,
      "Ġ×Ĺ×Ļ×¤×©×ª×Ļ": 4590,
      "Ġ×¡×¤×¨×ĵ×Ļ×ª": 4591,
      "Ġ×¨×Ĵ×Ļ×ľ": 4592,
      "×ŀ×Ĳ×ł": 4593,
      "Ġ×ľ×Ĺ×ľ×§": 4594,
      "Ġ×¡×§×Ļ×¨×Ķ": 4595,
      "×ķ×ł×ª×Ł": 4596,
      "Ġ×ŀ×Ļ×ł×Ľ×Ł": 4597,
      "Ġ×Ķ×ª×§×¤×Ķ": 4598,
      "Ġ×ĳ×ł×ķ×Ļ×Ķ": 4599,
      "Ġ×¢×ķ×ľ×ŀ×Ļ": 4600,
      "Ġ×ŀ×¨×ķ×Ľ": 4601,
      "Ġ×Ķ×ł×¨×Ļ": 4602,
      "Ġ×¢×ŀ×ĵ×Ķ": 4603,
      "Ġ×¢×ŀ×ĵ×ķ×ª": 4604,
      "Ġ×ĺ×¨×ķ×ľ": 4605,
      "Ġ×ª×¨×ķ×ŀ×Ķ": 4606,
      "Ġ×Ĳ×ķ×Ľ×ľ×ķ×¡×Ļ×Ļ×ª": 4607,
      "Ġ×©×Ĺ×ĸ×ķ×¨": 4608,
      "Ġ×Ļ×¦×Ļ×¨×ª×ķ": 4609,
      "Ġ×ª×Ľ×ª×ķ×ĳ": 4610,
      "Ġ×ĵ×Ĵ×ľ×Ļ×Ŀ": 4611,
      "Ġ×ĵ×ŀ×ķ×§×¨×ĺ×Ļ": 4612,
      "Ġ×Ľ×ľ×Ľ×ľ×ª": 4613,
      "Ġ×ŀ×¤×ķ×¨×©": 4614,
      "Ġ×¤×¦×ľ": 4615,
      "Ġ×Ĺ×Ļ×ķ×ĳ×Ļ×ª": 4616,
      "Ġ×ŀ×§×ķ×ĳ×ľ×Ļ×Ŀ": 4617,
      "Ġ×ĳ×¢×Ļ×Ļ×ª×Ļ×ª": 4618,
      "Ġ×¤×ķ×¤×ķ×ľ×¨×Ļ": 4619,
      "Ġ×ĳ×Ĵ×ĵ×¨": 4620,
      "Ġ×Ĺ×¤×¥": 4621,
      "Ġ×Ĳ×ŀ×Ł": 4622,
      "×¨×ŀ×ľ": 4623,
      "Ġ×ŀ×ĳ×ķ×¡×¡×Ļ×Ŀ": 4624,
      "Ġ×ŀ×ķ×ĳ×Ĺ×¨": 4625,
      "Ġ×©×ľ×ĺ×ķ×ł×ķ": 4626,
      "Ġ×ŀ×¡×¤×§×ª": 4627,
      "Ġ×¡×Ļ×¤×ķ×¨×Ļ×Ŀ": 4628,
      "Ġ×Ķ×ķ×Ĺ×ľ": 4629,
      "Ġ×ľ×Ļ×Ļ×¦": 4630,
      "Ġ×ł×ĳ×Ļ×Ĳ×Ļ×Ŀ": 4631,
      "Ġ×¡×ľ×ł×Ĵ": 4632,
      "Ġ×ĳ×¨×ĸ×ľ": 4633,
      "Ġ×ŀ×ĺ×ķ×¡×Ļ×Ŀ": 4634,
      "Ġ×ĵ×¤×ĵ×¤×Ł": 4635,
      "Ġ×¦×Ļ×¨×ķ×£": 4636,
      "Ġ×Ĳ×ĵ×¨×Ļ×Ľ×ľ": 4637,
      "Ġ×Ļ×Ĵ×Ĳ×ľ": 4638,
      "Ġ×Ĺ×¨×ĵ×Ļ": 4639,
      "Ġ×Ĺ×¨×ĵ×Ļ×Ŀ": 4640,
      "Ġ×ł×¤×ª×Ĺ×ķ": 4641,
      "Ġ×ª×Ľ×ł×ķ×Ł": 4642,
      "Ġ×ł×Ĳ×¦×Ļ×Ŀ": 4643,
      "Ġ×ķ×ķ×Ļ×Ľ×ķ×Ĺ": 4644,
      "Ġ×¨×ĵ×Ļ×§×ľ×Ļ": 4645,
      "Ġ×Ļ×ĵ×Ļ×¢×ª×Ļ": 4646,
      "Ġ×ĺ×ł×§×Ļ×Ŀ": 4647,
      "Ġ×Ĵ×ŀ×ķ×¨": 4648,
      "Ġ×ŀ×ł×¦×¡×ĺ×¨": 4649,
      "Ġ×Ľ×ķ×ķ×ł×ª×Ļ": 4650,
      "Ġ×Ĳ×ł×ĵ×¨×ĺ×Ķ": 4651,
      "Ġ×ŀ×©×ķ×ª×£": 4652,
      "×ĵ×¨×¦×Ļ×Ķ": 4653,
      "Ġ×Ķ×¤×¢×ľ×ª": 4654,
      "Ġ×ŀ×¤×ķ×¨×¡×ŀ×Ļ×Ŀ": 4655,
      "Ġ×ľ×Ļ×ł×§": 4656,
      "Ġ×ł×¨×¦×Ĺ×ķ": 4657,
      "Ġ×Ĳ×ķ×ŀ×ł×ķ×ª": 4658,
      "Ġ×¡×ª×Ļ×¨×Ķ": 4659,
      "Ġ×ŀ×¡×ª×ĳ×¨": 4660,
      "Ġ×ŀ×Ļ×ķ×¢×ĵ": 4661,
      "Ġ×¢×ķ×ª×ŀ×Ĳ×ł": 4662,
      "Ġ×ŀ×ŀ×ª×Ļ": 4663,
      "Ġ×Ĵ×ķ×ľ×ĵ×ĳ×¨×Ĵ": 4664,
      "Ġ×¦×ł×Ĺ×ł×Ļ×Ŀ": 4665,
      "Ġ×ľ×Ķ×Ļ×Ľ×ł×¡": 4666,
      "Ġ×¤×Ĳ×ķ×ľ×ķ×¡": 4667,
      "Ġ×§×¨×Ĳ×ª×Ļ": 4668,
      "Ġ×ŀ×¦×ķ×ŀ×¦×Ŀ": 4669,
      "Ġ×§×ķ×ľ×ķ×ŀ×ĳ×Ļ×Ķ": 4670,
      "Ġ×Ľ×Ļ×ŀ×Ļ×Ķ": 4671,
      "Ġ×ł×ĳ×ł×ķ": 4672,
      "Ġ×ŀ×ķ×ķ×Ļ×§×Ļ×¤×ĵ×Ļ×Ķ": 4673,
      "Ġ×Ķ×©×ĳ×ķ×¢": 4674,
      "Ġ×ķ×ĵ×Ĳ×Ļ": 4675,
      "Ġ×¡×Ľ×¡×ķ×ļ": 4676,
      "Ġ×ª×ķ×¢×ľ×ª": 4677,
      "Ġ×§×Ļ×¦×ķ×¥": 4678,
      "Ġ×ĸ×ł×Ļ×Ĺ×Ķ": 4679,
      "Ġ×¡×ł×§×ĺ": 4680,
      "Ġ×ĺ×¨×ł×¡": 4681,
      "Ġ×¦×¢×Ļ×¨×ķ×ª×ķ": 4682,
      "Ġ×ŀ×ŀ×Ļ×ľ×Ĳ": 4683,
      "Ġ×Ķ×Ļ×ĺ×ľ×¨": 4684,
      "Ġ×ĳ×ŀ×¤×ķ×¨×©": 4685,
      "Ġ×Ĳ×ķ×¨×ª×ķ×ĵ×ķ×§×¡": 4686,
      "Ġ×¡×ľ×Ļ×Ĺ×Ķ": 4687,
      "Ġ×Ķ×Ļ×ł": 4688,
      "Ġ×Ķ×¨×Ĳ×ľ": 4689,
      "Ġ×Ķ×¨×Ĺ×Ļ×ĳ": 4690,
      "×¨×ķ×ł×ķ×ª": 4691,
      "Ġ×ľ×ĵ×¨": 4692,
      "Ġ×ĳ×Ĳ×¨": 4693,
      "Ġ×ĳ×ķ×Ļ×§×Ļ": 4694,
      "×ľ×¨×Ļ×Ŀ": 4695,
      "Ġ×©×¨×ĵ": 4696,
      "Ġ×©×Ļ×©×Ļ": 4697,
      "Ġ×©×ª×Ļ×Ļ×Ŀ": 4698,
      "×ª×¨×ª": 4699,
      "×ª×ĳ×Ļ×Ŀ": 4700,
      "×ĳ×Ł": 4701,
      "×ķ×ª×Ļ×ª": 4702,
      "Ġ×¢×ķ": 4703,
      "Ġ×¢×ŀ×": 4704,
      "Ġ×¢×ķ×ŀ×": 4705,
      "Ġ×¢×Ļ×ŀ×ķ×ª": 4706,
      "Ġ×Ľ×¨×ŀ×ľ": 4707,
      "Ġ×Ļ×¨×©": 4708,
      "Ġ×Ļ×¨×¦×Ķ": 4709,
      "Ġ×Ĺ×Ļ×ĸ": 4710,
      "Ġ×Ĺ×Ļ×ĳ×¨": 4711,
      "×ł×ĵ×Ļ": 4712,
      "×ł×Ļ×¡×ĺ": 4713,
      "Ġ×ł×¤×ª": 4714,
      "Ġ×ł×Ĺ×ª": 4715,
      "Ġ×ŀ×Ļ×ŀ": 4716,
      "Ġ×ŀ×ķ×Ļ×§×Ļ×¤×ĵ×Ļ×Ķ": 4717,
      "Ġ×ŀ×ķ×ľ×ĵ": 4718,
      "Ġ×Ĳ×Ļ×ľ": 4719,
      "Ġ×Ĳ×ķ×ĸ": 4720,
      "Ġ×Ĳ×¨×Ļ": 4721,
      "Ġ×ª×ľ×ķ": 4722,
      "Ġ×ª×¨×Ŀ": 4723,
      "Ġ×¨×ķ×ª": 4724,
      "Ġ×¨×ķ×©": 4725,
      "Ġ×¨×ł×¡": 4726,
      "×¤×Ļ×Ļ×Ŀ": 4727,
      "Ġ×¤×ĳ×¨": 4728,
      "Ġ×¤×ķ×ł×Ķ": 4729,
      "Ġ×¤×ķ×¡×ĺ": 4730,
      "Ġ×§×¨×Ķ": 4731,
      "Ġ×§×¡×ĺ": 4732,
      "Ġ×Ĳ×ª×Ļ": 4733,
      "Ġ×ĸ×¨×ķ×ª": 4734,
      "Ġ×ĸ×ĳ×ľ": 4735,
      "×ķ×ł×ĸ×Ļ×Ķ": 4736,
      "×¦×Ļ×ª": 4737,
      "×ĺ×£": 4738,
      "×ĺ×ķ×¨×Ļ×Ķ": 4739,
      "Ġ×Ĵ×Ļ×ĳ": 4740,
      "Ġ×Ĵ×¨×Ĵ": 4741,
      "×ŀ×¨×ĺ": 4742,
      "×ŀ×Ļ×ĵ×Ļ": 4743,
      "Ġ×ĵ×ĳ": 4744,
      "Ġ×ĵ×ķ×Ľ": 4745,
      "Ġ×ĵ×¨×ŀ×": 4746,
      "Ġ×¦×Ľ×ľ": 4747,
      "Ġ×¦×ŀ×ĵ": 4748,
      "Ġ×¦×¨×¦": 4749,
      "Ġ×¦×ķ×ŀ×ª": 4750,
      "Ġ×¦×¨×Ľ×Ļ×Ŀ": 4751,
      "×Ĵ×¨×ľ": 4752,
      "×ķ×ĳ×¡×§×Ļ": 4753,
      "Ġ×¡×Ĺ×¨": 4754,
      "Ġ×¡×Ļ×ł×Ļ×ª": 4755,
      "×Ļ×ł×ĺ": 4756,
      "×Ļ×ł×¡×§×Ļ": 4757,
      "×ķ×ĵ×Ĳ": 4758,
      "×Ļ×§×Ĳ×Ļ": 4759,
      "Ġ×ľ×Ķ×ŀ×ª": 4760,
      "Ġ×ľ×Ķ×ĳ×ĵ": 4761,
      "Ġ×ľ×Ķ×Ĳ×ŀ×Ļ×Ł": 4762,
      "Ġ×ľ×Ķ×ŀ×¦×Ļ×Ĳ": 4763,
      "×Ļ×ľ×ĳ×ł×Ļ×Ķ": 4764,
      "Ġ×¢×ľ×Ļ×ķ": 4765,
      "Ġ×ŀ×©×¨×ª": 4766,
      "Ġ×ŀ×©×ĺ×¨": 4767,
      "Ġ×ŀ×©×Ĺ×Ļ×ª": 4768,
      "×ķ×¡×Ķ": 4769,
      "×Ļ×ĳ×Ĳ": 4770,
      "Ġ×Ľ×ľ×Ĳ": 4771,
      "Ġ×Ľ×ľ×ķ×Ŀ": 4772,
      "Ġ×ŀ×§×ķ×ŀ×Ļ×ķ×ª": 4773,
      "Ġ×ĺ×Ļ×¡": 4774,
      "Ġ×ĺ×Ļ×Ļ×¡": 4775,
      "Ġ×Ĳ×ľ×ķ×Ķ×Ļ×Ŀ": 4776,
      "Ġ×ŀ×¡×Ľ×ª": 4777,
      "×ķ×¦×¢": 4778,
      "×ķ×Ĺ×©×ĳ": 4779,
      "Ġ×ŀ×ĵ×¨×©": 4780,
      "Ġ×ŀ×Ĺ×Ļ×¨": 4781,
      "Ġ×ŀ×Ĺ×ĳ×¨": 4782,
      "Ġ×ŀ×Ĺ×©×ķ×ĳ": 4783,
      "Ġ×ŀ×Ĺ×¦×Ļ×ª": 4784,
      "×Ļ×ĺ×¡": 4785,
      "Ġ×ŀ×¢×ĳ×Ļ×¨": 4786,
      "Ġ×Ķ×ª×ľ×ĳ": 4787,
      "Ġ×ŀ×Ķ×Ļ×¨": 4788,
      "Ġ×Ķ×¦×Ļ×Ĵ": 4789,
      "Ġ×ŀ×¦×Ĳ": 4790,
      "×¨×ĳ×Ļ": 4791,
      "Ġ×Ĺ×©×Ļ×ĳ×Ķ": 4792,
      "×ķ×ĺ×Ļ×ł×¡×§×Ļ": 4793,
      "Ġ×ª×Ĺ×ľ×Ķ": 4794,
      "Ġ×ª×ŀ×ķ×ł×ª": 4795,
      "Ġ×ľ×¢×¦": 4796,
      "Ġ×ľ×¢×ķ×ľ×Ŀ": 4797,
      "Ġ×ľ×¢×ł×ķ×ª": 4798,
      "Ġ×ľ×¢×Ļ×ª×Ļ×Ŀ": 4799,
      "Ġ×¨×Ĳ×ķ×ª": 4800,
      "Ġ×Ĺ×ĳ×¨×ķ×Ł": 4801,
      "Ġ×Ļ×§×¨×Ķ": 4802,
      "Ġ×ĸ×Ľ×ķ×Ľ×Ļ×ª": 4803,
      "×Ļ×ĸ×Ķ": 4804,
      "Ġ×ľ×ĳ×§×¨": 4805,
      "Ġ×Ĺ×Ļ×Ļ×Ķ": 4806,
      "Ġ×Ĺ×Ļ×ķ×Ĵ": 4807,
      "Ġ×Ĺ×ľ×§×Ķ": 4808,
      "Ġ×Ĺ×ľ×§×Ļ×§×Ļ×Ŀ": 4809,
      "Ġ×Ĺ×¡×Ļ×ĵ": 4810,
      "Ġ×Ĳ×ķ×¤×¨×Ķ": 4811,
      "Ġ×ŀ×Ĳ×Ļ": 4812,
      "×ķ×ķ×ł×ª": 4813,
      "×ĳ×ľ×ķ×ª": 4814,
      "Ġ×ŀ×Ľ×ª×ĳ": 4815,
      "Ġ×¢×ĵ×ķ×ª": 4816,
      "Ġ×¢×ĵ×ķ×Ļ×ķ×ª": 4817,
      "Ġ×¢×Ļ×¨×Ļ×Ļ×ª": 4818,
      "Ġ×¢×Ļ×¨×Ĳ×§": 4819,
      "Ġ×Ĳ×ķ×ľ×ŀ×¨×ĺ": 4820,
      "Ġ×Ļ×Ķ×ķ×ĵ×Ļ×Ļ×Ŀ": 4821,
      "Ġ×Ĳ×Ĺ×ĵ×Ļ×Ŀ": 4822,
      "Ġ×Ĳ×ł×Ĵ×ľ×¡": 4823,
      "Ġ×Ĳ×ĵ×ŀ×Ķ": 4824,
      "×¨×Ĳ×Ļ×ł×Ķ": 4825,
      "Ġ×Ĳ×Ļ×Ļ×ĸ": 4826,
      "Ġ×¤×ª×¨×ķ×ł×ķ×ª": 4827,
      "Ġ×¤×¨×ķ×ĺ": 4828,
      "Ġ×Ĳ×©×ª×ķ": 4829,
      "Ġ×Ļ×ĵ×Ļ×¢×Ķ": 4830,
      "Ġ×¡×¤×Ļ×ł×Ķ": 4831,
      "Ġ×§×ĳ×ľ×Ķ": 4832,
      "Ġ×¨×¦×Ļ×¤×ķ×ª": 4833,
      "Ġ×ŀ×ĸ×ķ": 4834,
      "Ġ×Ķ×¤×¨×ĵ×Ķ": 4835,
      "Ġ×Ķ×©×Ĺ×ª": 4836,
      "Ġ×ŀ×©×ŀ×¢×ķ×ª×Ļ×Ļ×Ŀ": 4837,
      "Ġ×Ĺ×ķ×¤×Ļ": 4838,
      "Ġ×Ĺ×ķ×¤×©×Ķ": 4839,
      "Ġ×ŀ×¦×ĳ×Ķ": 4840,
      "Ġ×Ĺ×ĸ×¨×ª": 4841,
      "Ġ×ª×©×¢×Ļ×Ŀ": 4842,
      "Ġ×¢×ª×Ļ×§×ķ×ª": 4843,
      "Ġ×ŀ×ķ×¢×ª×§": 4844,
      "Ġ×ķ×Ļ×§×Ļ": 4845,
      "Ġ×ľ×ª×Ĳ×¨": 4846,
      "Ġ×¦×Ļ×ķ×ĵ": 4847,
      "Ġ×Ķ×ķ×¡×Ļ×¤×ķ": 4848,
      "Ġ×Ĳ×¨×¦×Ķ": 4849,
      "Ġ×Ĳ×ŀ×ķ": 4850,
      "Ġ×Ķ×Ľ×Ĺ×Ļ×ľ": 4851,
      "Ġ×Ľ×ķ×ľ×ľ×Ļ×Ŀ": 4852,
      "Ġ×ª×ľ×ŀ×Ļ×ĵ×Ļ": 4853,
      "Ġ×ł×Ķ×Ĵ×ķ": 4854,
      "Ġ×ŀ×ķ×¦×ĵ": 4855,
      "Ġ×Ľ×ľ×ľ×Ļ×ķ×ª": 4856,
      "Ġ×ŀ×§×¦×ķ×¢×Ļ×ķ×ª": 4857,
      "Ġ×ª×¢×©×Ķ": 4858,
      "Ġ×Ķ×ķ×¤×Ļ×¢×Ķ": 4859,
      "Ġ×§×Ļ×ĳ×ľ×ª": 4860,
      "Ġ×¤×©×ķ×ĺ×Ļ×Ŀ": 4861,
      "×¨×§×ķ×Ł": 4862,
      "Ġ×ľ×ŀ×ĵ×ķ": 4863,
      "Ġ×Ĺ×ķ×ľ×ķ×Ł": 4864,
      "Ġ×ĳ×Ļ×§×©×ª×Ļ": 4865,
      "Ġ×¡×ķ×Ĵ×Ļ": 4866,
      "Ġ×¡×ķ×Ĵ×ķ": 4867,
      "Ġ×ł×ķ×¦×¨×Ķ": 4868,
      "Ġ×ł×¡×Ļ×ķ×Ł": 4869,
      "Ġ×ª×¤×¡": 4870,
      "Ġ×ª×¤×Ļ×¡×Ķ": 4871,
      "Ġ×§×ķ×ľ×Ĵ": 4872,
      "Ġ×¤×Ļ×ľ×ĵ×ľ": 4873,
      "Ġ×Ķ×ķ×¨×Ļ×ķ": 4874,
      "Ġ×ŀ×ª×Ļ×Ļ×Ĺ×¡×ª": 4875,
      "Ġ×ĳ×ĺ×¨×Ŀ": 4876,
      "Ġ×§×ĵ×Ŀ": 4877,
      "Ġ×ł×©×Ļ×Ĳ×ķ×ª": 4878,
      "Ġ×Ľ×ĳ×©": 4879,
      "Ġ×Ĳ×ŀ×¨×Ļ×§×ł×Ļ": 4880,
      "Ġ×ŀ×ŀ×ķ×Ĺ×©×ĳ": 4881,
      "Ġ×§×©×Ļ×Ļ×Ŀ": 4882,
      "Ġ×¦×ľ×Ĺ×ª×Ļ": 4883,
      "Ġ×¡×¤×¨×ĵ×Ļ×Ŀ": 4884,
      "Ġ×Ľ×Ķ×ķ×ł×ª×ķ": 4885,
      "Ġ×ŀ×ł×Ķ×Ĵ": 4886,
      "Ġ×ŀ×ķ×Ľ×¨×Ļ×Ŀ": 4887,
      "×ķ×ķ×Ļ×ĸ": 4888,
      "Ġ×ł×ľ×§": 4889,
      "Ġ×¨×ķ×ķ×Ĺ×Ļ×Ŀ": 4890,
      "×ķ×¡×ķ×¤×ĺ": 4891,
      "Ġ×ŀ×Ļ×ł×ķ×Ĺ": 4892,
      "Ġ×ľ×ķ×ķ×ĵ×Ĳ": 4893,
      "Ġ×ĳ×ł×ķ×Ļ×Ļ×Ŀ": 4894,
      "Ġ×ŀ×¢×ł×Ļ×Ļ×ł×ª": 4895,
      "Ġ×©×Ĵ×Ļ×Ĳ×Ķ": 4896,
      "Ġ×©×Ļ×¨×Ļ": 4897,
      "Ġ×§×ķ×ĳ×¢": 4898,
      "Ġ×Ķ×¨×¦×ľ×Ļ×Ķ": 4899,
      "Ġ×ĸ×ŀ×ł×Ļ×ª": 4900,
      "Ġ×ª×¨×ķ×ŀ×ª": 4901,
      "Ġ×©×Ĺ×ŀ×ĺ": 4902,
      "Ġ×ĳ×Ļ×ł×ľ×Ĳ×ķ×ŀ×Ļ×ª": 4903,
      "×ķ×¨×Ļ×ª×Ŀ": 4904,
      "Ġ×ª×¦×ķ×Ĵ×Ķ": 4905,
      "Ġ×Ĵ×ĸ×¢×Ļ×Ŀ": 4906,
      "Ġ×ĺ×ĳ×¢×Ļ": 4907,
      "Ġ×¡×ŀ×ľ×Ļ×Ŀ": 4908,
      "Ġ×¤×¦×¦×Ķ": 4909,
      "Ġ×§×¨×Ļ×Ļ×¨×ª": 4910,
      "Ġ×Ĺ×Ļ×ķ×ĳ×Ļ": 4911,
      "Ġ×Ķ×ª×¤×ª×Ĺ×Ķ": 4912,
      "Ġ×ª×ķ×ŀ×ļ": 4913,
      "Ġ×ª×ķ×ŀ×Ľ×Ļ×Ŀ": 4914,
      "Ġ×ľ×ŀ×ł×ķ×ª": 4915,
      "Ġ×Ĳ×ķ×§×¨×Ĳ×Ļ×ł×Ķ": 4916,
      "Ġ×ŀ×ĳ×ĺ×Ļ×Ĺ": 4917,
      "Ġ×¤×ķ×ª×Ĺ×ķ": 4918,
      "Ġ×ŀ×ķ×¢×ŀ×ĵ×Ļ×Ŀ": 4919,
      "Ġ×©×¤×Ļ×¨": 4920,
      "Ġ×¤×§×ķ×ĵ×Ķ": 4921,
      "Ġ×ĳ×Ľ×Ļ×¨×Ļ×Ŀ": 4922,
      "Ġ×ŀ×¦×ĵ×Ļ×§": 4923,
      "Ġ×Ķ×¡×ª×Ľ×ľ": 4924,
      "Ġ×Ķ×¡×ª×ĵ×¨×ķ×ª": 4925,
      "Ġ×¢×ŀ×ķ×¡": 4926,
      "Ġ×©×Ļ×§×Ĵ×ķ": 4927,
      "Ġ×ª×ª×§×ĳ×ľ": 4928,
      "Ġ×ĵ×Ļ×¡×ł×Ļ": 4929,
      "Ġ×ŀ×ķ×§×ĵ×Ŀ": 4930,
      "Ġ×Ĵ×Ļ×¨×¡×Ķ": 4931,
      "Ġ×©×¨×Ļ×ĵ×Ļ×Ŀ": 4932,
      "Ġ×Ĳ×ķ×ľ×Ļ×ŀ×¤×Ļ×Ĳ×ĵ×ª": 4933,
      "×¨×¢×Ķ": 4934,
      "Ġ×¢×Ļ×ł×Ļ×Ļ×Ŀ": 4935,
      "Ġ×ª×¢×¨×ķ×Ľ×ķ×ª": 4936,
      "Ġ×Ĵ×ĸ×¢×ł×ķ×ª": 4937,
      "Ġ×©×Ļ×¢×ķ×¨×Ļ×Ŀ": 4938,
      "Ġ×Ļ×¡×ķ×ĵ×Ļ": 4939,
      "Ġ×ł×ŀ×ķ×Ľ×Ķ": 4940,
      "Ġ×Ĵ×§×¡×ķ×Ł": 4941,
      "Ġ×ŀ×Ļ×ĸ×ŀ×Ļ": 4942,
      "Ġ×ª×§×ľ×Ļ×ĺ": 4943,
      "Ġ×ª×§×ľ×Ļ×ĺ×Ļ×Ŀ": 4944,
      "Ġ×Ķ×¢×¨×ª×ļ": 4945,
      "Ġ×ł×Ĳ×¡×¨": 4946,
      "Ġ×ŀ×Ļ×§×¨×ķ×¡×ķ×¤×ĺ": 4947,
      "Ġ×Ķ×ķ×¢×ĳ×¨×ķ": 4948,
      "Ġ×¤×Ļ×§×ĵ": 4949,
      "Ġ×ĵ×ķ×§×ĺ×ķ×¨×ĺ": 4950,
      "Ġ×Ĺ×Ľ×ŀ×Ļ×Ŀ": 4951,
      "Ġ×ŀ×¨×Ĺ×§": 4952,
      "Ġ×Ĳ×ľ×Ĵ×ķ×¨×Ļ×ª×Ŀ": 4953,
      "Ġ×ŀ×¦×ķ×Ļ×Ł": 4954,
      "Ġ×ł×ŀ×ł×Ķ": 4955,
      "Ġ×ŀ×Ļ×Ļ×¡×ĵ×Ļ": 4956,
      "Ġ×ł×¤×¦×¢×ķ": 4957,
      "Ġ×Ļ×Ļ×¦×ķ×Ĵ": 4958,
      "Ġ×Ĳ×ľ×¤×ĳ": 4959,
      "Ġ×ĸ×ķ×Ľ×¨": 4960,
      "×¨×Ļ×Ĺ×Ķ": 4961,
      "Ġ×Ĳ×¡×ĺ×¨×ĺ": 4962,
      "Ġ×Ķ×ķ×¨×ĵ×ª×Ļ": 4963,
      "Ġ×Ķ×ł×Ĺ×Ļ×ķ×ª": 4964,
      "Ġ×§×ķ×ŀ×ķ×ł×Ļ×¡×ĺ×Ļ×ª": 4965,
      "Ġ×Ĳ×¡×ŀ×Ľ×ª×Ĳ": 4966,
      "Ġ×Ĳ×Ļ×ł×¡×¤×ķ×¨": 4967,
      "Ġ×Ķ×Ļ×¢×ĵ×¨": 4968,
      "Ġ×ĸ×ĳ×ķ×ĺ×Ļ×ł×¡×§×Ļ": 4969,
      "Ġ×¡×¨×ĳ×Ļ×Ķ": 4970,
      "Ġ×ĺ×ŀ×¤×ľ×¨×Ļ×Ŀ": 4971,
      "Ġ×ŀ×Ĳ×ŀ×¦×Ļ×Ŀ": 4972,
      "Ġ×ŀ×ķ×ĸ×Ļ×§×ľ×Ļ×ª": 4973,
      "Ġ×Ľ×¨×ķ×ł": 4974,
      "Ġ×ŀ×©×Ĳ×ĳ×Ļ×Ŀ": 4975,
      "Ġ×Ķ×¦×ĵ×§×Ķ": 4976,
      "Ġ×¤×¨×¦×Ķ": 4977,
      "Ġ×Ķ×ķ×ª×Ļ×¨": 4978,
      "Ġ×¢×ŀ×ł×ķ×Ĳ×ľ": 4979,
      "Ġ×ł×Ļ×Ľ×¨×ª": 4980,
      "Ġ×ŀ×Ļ×Ľ×Ĳ×ľ": 4981,
      "Ġ×ŀ×¨×ĺ×Ļ×Ł": 4982,
      "Ġ×ĵ×Ļ×¨×ķ×Ĵ": 4983,
      "Ġ×¤×ł×¡×Ļ×ľ×ĳ×ł×Ļ×Ķ": 4984,
      "Ġ×ĺ×¨×ł×¡×ł×Ļ×¡×ĺ": 4985,
      "Ġ×ľ×ĵ×¨×ķ×©": 4986,
      "Ġ×¤×ĳ×¨×ķ×Ĳ×¨": 4987,
      "Ġ×ĵ×ķ×Ľ×¡": 4988,
      "Ġ×¦×Ľ×ľ×ĳ×¨×Ķ": 4989,
      "Ġ×¦×¨×¦×Ļ×ľ": 4990,
      "Ġ×ľ×Ķ×ŀ×ª×Ļ×Ł": 4991,
      "Ġ×ľ×Ķ×ĳ×ĵ×Ļ×ľ": 4992,
      "Ġ×¤×Ļ×ľ×ĵ×ľ×¤×Ļ×Ķ": 4993,
      "Ġ×ĺ×¨×ł×¡×ł×Ļ×¡×ĺ×¨×Ļ×Ķ": 4994,
      "×Ļ×ķ×ľ×ķ×Ĵ×Ļ×Ķ": 4995,
      "×Ļ×Ļ×ł×ķ": 4996,
      "×ķ×ķ×Ľ×Ĺ": 4997,
      "Ġ×Ķ×Ļ×§": 4998,
      "Ġ×Ķ×¨×Ĵ": 4999,
      "×Ķ×Ķ": 5000,
      "Ġ×ľ×Ļ×ľ": 5001,
      "Ġ×ľ×Ļ×ĺ": 5002,
      "Ġ×ľ×ĳ×¨×¨": 5003,
      "Ġ×ľ×Ļ×ķ×ķ×Ļ": 5004,
      "Ġ×ĳ×ķ×¡": 5005,
      "Ġ×ĳ×Ļ×¡": 5006,
      "Ġ×ĳ×Ĳ×ķ": 5007,
      "Ġ×ĳ×ķ×Ĺ×¨": 5008,
      "Ġ×©×ķ×¨": 5009,
      "Ġ×©×¨×Ļ×Ŀ": 5010,
      "Ġ×©×ŀ×Ŀ": 5011,
      "Ġ×©×Ļ×©×Ļ×Ŀ": 5012,
      "×ķ×ª×Ķ": 5013,
      "Ġ×¢×ķ×§": 5014,
      "Ġ×¢×¡×§×Ķ": 5015,
      "×¨×ŀ×¨": 5016,
      "×©×Ŀ": 5017,
      "Ġ×Ľ×Ļ×©": 5018,
      "Ġ×Ļ×Ļ×ľ": 5019,
      "Ġ×Ļ×Ĳ×Ļ×¨": 5020,
      "Ġ×Ļ×ķ×ľ×Ļ": 5021,
      "Ġ×Ĺ×ķ×Ŀ": 5022,
      "Ġ×Ĺ×ķ×¦": 5023,
      "Ġ×Ĺ×ķ×ŀ×ª": 5024,
      "Ġ×Ĺ×¨×£": 5025,
      "×Ĺ×ķ×§": 5026,
      "×ķ×¨×Ļ×Ļ×ª": 5027,
      "×§×Ļ×Ł": 5028,
      "Ġ×ł×ķ": 5029,
      "Ġ×ł×ķ×¨": 5030,
      "Ġ×Ĳ×Ļ×ĵ": 5031,
      "Ġ×Ĳ×¨×ķ×Ł": 5032,
      "Ġ×¨×ķ×ĵ": 5033,
      "Ġ×¨×Ļ×§": 5034,
      "Ġ×¨×ķ×§×¡": 5035,
      "×¤×ĵ×Ļ×Ķ": 5036,
      "×¤×ĵ×¨×¦×Ļ×Ķ": 5037,
      "Ġ×¤×ķ×¨×Ļ×Ŀ": 5038,
      "Ġ×¤×Ļ×ł×Ķ": 5039,
      "Ġ×¤×¨×Ļ×Ĺ×Ķ": 5040,
      "×ŀ×¡": 5041,
      "Ġ×§×ľ×Ķ": 5042,
      "Ġ×§×©×Ļ×Ŀ": 5043,
      "Ġ×§×©×ķ×ª": 5044,
      "Ġ×§×ķ×ķ": 5045,
      "Ġ×§×ķ×ķ×Ļ×Ŀ": 5046,
      "×Ĳ×ķ×¨×Ķ": 5047,
      "Ġ×ĸ×¨×ŀ": 5048,
      "×ķ×ł×ľ×ĵ": 5049,
      "×ĺ×Ļ×ª": 5050,
      "×ĺ×ķ×ĳ×¨": 5051,
      "Ġ×Ĵ×ķ×Ļ": 5052,
      "Ġ×Ĵ×ł×Ļ×Ŀ": 5053,
      "×ŀ×ķ×Ł": 5054,
      "×ŀ×ķ×ľ×Ķ": 5055,
      "Ġ×ĵ×Ľ": 5056,
      "Ġ×ĵ×Ļ×ĸ": 5057,
      "Ġ×ĵ×Ļ×Ļ×Ł": 5058,
      "Ġ×ĵ×ķ×Ĳ×¨": 5059,
      "Ġ×ĵ×§×ª×Ļ": 5060,
      "Ġ×©×ľ×Ŀ": 5061,
      "Ġ×©×ľ×Ļ×©": 5062,
      "Ġ×©×ľ×Ļ×ľ×Ļ": 5063,
      "Ġ×¦×¨": 5064,
      "Ġ×¦×ŀ×¦": 5065,
      "Ġ×¦×ł×ĸ": 5066,
      "Ġ×¦×¦×ª×Ļ": 5067,
      "Ġ×¦×Ļ×ĵ×ķ": 5068,
      "×Ĵ×¨": 5069,
      "×Ĵ×ķ×ĳ": 5070,
      "×Ĵ×ķ×¢": 5071,
      "×ķ×ĳ×Ļ×ľ": 5072,
      "×ķ×ĳ×¨×ª": 5073,
      "Ġ×¡×ķ×¨×Ļ×Ķ": 5074,
      "Ġ×¡×Ļ×ĵ×ķ×¨": 5075,
      "×ķ×ĵ×ķ×¨": 5076,
      "×Ļ×§×ĺ×Ļ×ĳ": 5077,
      "Ġ×ľ×Ķ×Ļ×¨": 5078,
      "Ġ×ľ×Ķ×Ļ×¤": 5079,
      "Ġ×ľ×Ķ×ķ×Ľ": 5080,
      "Ġ×ľ×Ķ×¨×Ļ×¥": 5081,
      "×Ļ×ľ×Ļ×Ł": 5082,
      "Ġ×¢×ľ×ķ×ľ": 5083,
      "Ġ×ŀ×©×ķ×¨": 5084,
      "×ķ×©×¨": 5085,
      "Ġ×Ļ×©×Ļ×ĳ×ķ×ª": 5086,
      "Ġ×ĺ×ķ×¤": 5087,
      "Ġ×ĺ×ĳ×ľ": 5088,
      "Ġ×Ĳ×ľ×¤×Ļ×Ŀ": 5089,
      "Ġ×ŀ×¡×ŀ×ľ": 5090,
      "Ġ×ŀ×¡×ŀ×ļ": 5091,
      "×ķ×¦×¨×ķ×ª": 5092,
      "Ġ×ŀ×ĵ×ľ": 5093,
      "×ķ×Ľ×ª": 5094,
      "×Ļ×¡×Ļ×Ŀ": 5095,
      "Ġ×ĳ×¢×ľ×Ķ": 5096,
      "Ġ×ŀ×¢×ª": 5097,
      "Ġ×ŀ×¢×ķ×ľ×Ķ": 5098,
      "Ġ×ŀ×¢×¨×Ľ×Ļ×Ŀ": 5099,
      "×Ļ×ŀ×¨": 5100,
      "Ġ×ŀ×ª×¨×Ĺ": 5101,
      "Ġ×ŀ×ª×Ĺ×ľ": 5102,
      "Ġ×ŀ×ª×ķ×¨×Ĵ": 5103,
      "Ġ×Ķ×ª×ł": 5104,
      "Ġ×Ķ×ª×ķ×ķ×Ľ×Ĺ": 5105,
      "Ġ×ŀ×Ķ×ķ": 5106,
      "Ġ×ŀ×¦×Ĳ×ķ": 5107,
      "Ġ×ŀ×¦×ķ×ķ×Ķ": 5108,
      "Ġ×ŀ×¦×¨×Ļ×ļ": 5109,
      "×¨×ĳ×ķ×¨×Ĵ": 5110,
      "Ġ×Ĺ×©×ķ×ĵ": 5111,
      "Ġ×Ĳ×Ļ×ł×Ľ×Ŀ": 5112,
      "Ġ×Ĳ×Ļ×ł×¤×ķ×¨": 5113,
      "Ġ×¨×Ĳ×©×ķ": 5114,
      "Ġ×¨×Ĳ×©×Ļ×ķ×ª": 5115,
      "Ġ×Ĳ×ĳ×ķ×ª": 5116,
      "×ķ×Ļ×Ļ×Ł": 5117,
      "Ġ×Ĳ×Ĺ×Ľ": 5118,
      "Ġ×ľ×¤×Ĵ×ķ×¢": 5119,
      "Ġ×ľ×Ĳ×Ľ": 5120,
      "Ġ×Ĺ×ľ×Ķ": 5121,
      "Ġ×Ļ×Ķ×¤": 5122,
      "Ġ×ŀ×¤×ł×Ļ": 5123,
      "Ġ×ŀ×¤×Ĳ×ª": 5124,
      "Ġ×ŀ×¤×¨×Ļ×¢": 5125,
      "×¨×Ĺ×ª": 5126,
      "×ĵ×©×ķ×ª": 5127,
      "Ġ×Ļ×©×¨×Ĳ×ľ×Ļ×ķ×ª": 5128,
      "Ġ×¢×ĳ×¨×Ļ×Ļ×Ŀ": 5129,
      "Ġ×ŀ×ĳ×ķ×Ĳ": 5130,
      "Ġ×Ļ×§×¨": 5131,
      "Ġ×Ļ×§×ĳ×ľ": 5132,
      "Ġ×¤×¢×Ļ×ľ×Ļ×Ŀ": 5133,
      "Ġ×¡×¤×¨×Ļ×Ļ×ª": 5134,
      "Ġ×ľ×Ľ×Ĳ×ķ×¨×Ķ": 5135,
      "Ġ×§×¦×¨×ķ×ª": 5136,
      "Ġ×§×¦×Ļ×ł×Ļ×Ŀ": 5137,
      "Ġ×¢×¦×ķ×ŀ×Ķ": 5138,
      "Ġ×Ĺ×Ļ×Ļ×ľ×Ļ": 5139,
      "Ġ×Ĺ×ľ×§×Ļ×ª": 5140,
      "Ġ×Ļ×Ľ×ª×ĳ": 5141,
      "Ġ×Ĺ×¡×ķ×ª": 5142,
      "Ġ×Ĺ×¡×¨×Ķ": 5143,
      "×¤×ª×ķ×¨": 5144,
      "Ġ×ľ×Ĵ×¨×ķ×Ŀ": 5145,
      "Ġ×ł×Ļ×ª×ł×Ļ×Ŀ": 5146,
      "Ġ×ŀ×Ľ×Ļ×¨×Ķ": 5147,
      "Ġ×ª×ķ×Ľ×ľ×ķ": 5148,
      "×ľ×ª×Ķ": 5149,
      "×Ĳ×ľ×ľ×Ķ": 5150,
      "Ġ×ľ×§×ķ×Ĺ": 5151,
      "Ġ×¤×¡×ķ×§": 5152,
      "Ġ×¨×ķ×ĳ×¨×ĺ": 5153,
      "Ġ×ŀ×§×ķ×¨×ķ": 5154,
      "Ġ×Ĳ×Ļ×Ļ": 5155,
      "Ġ×Ķ×Ĺ×ľ×Ļ×£": 5156,
      "Ġ×Ķ×Ĺ×ľ×¤×ª": 5157,
      "Ġ×Ļ×ĵ×Ĳ×ķ": 5158,
      "Ġ×Ĳ×ķ×ª×Ł": 5159,
      "Ġ×¡×¤×ķ×¨": 5160,
      "Ġ×ŀ×ĸ×ŀ×Ł": 5161,
      "Ġ×ĳ×ľ×ĳ×ķ×ľ": 5162,
      "Ġ×ĳ×ľ×Ĵ×Ļ×Ķ": 5163,
      "Ġ×ł×¤×ķ×¦×Ļ×Ŀ": 5164,
      "Ġ×Ĺ×ķ×§×¨": 5165,
      "Ġ×Ĺ×ķ×§×Ļ×Ļ×Ŀ": 5166,
      "Ġ×Ķ×¤×Ľ×ķ": 5167,
      "Ġ×ł×§×¨×Ĳ×ª": 5168,
      "Ġ×Ļ×¨×ķ×§×¨×ĺ": 5169,
      "Ġ×Ķ×¡×ª×Ļ": 5170,
      "Ġ×ŀ×Ĵ×Ļ×ľ×ª": 5171,
      "Ġ×©×ĳ×ĵ×Ļ×Ķ": 5172,
      "Ġ×©×ĳ×ĺ×Ļ×Ŀ": 5173,
      "Ġ×ª×©×ľ×ķ×Ŀ": 5174,
      "Ġ×ŀ×ĵ×Ļ×ł×Ļ×ª": 5175,
      "Ġ×§×ķ×¨×Ļ×Ĳ×Ķ": 5176,
      "Ġ×ª×ł×¡×Ķ": 5177,
      "Ġ×ľ×ª×¨×Ĵ×Ŀ": 5178,
      "Ġ×ĵ×¨×Ļ×©×ķ×ª": 5179,
      "Ġ×ľ×Ķ×ª×ĳ": 5180,
      "Ġ×ŀ×§×¦×¨×ŀ×¨": 5181,
      "Ġ×¦×ĵ×§×Ķ": 5182,
      "Ġ×ł×Ļ×¡×Ł": 5183,
      "Ġ×©×ľ×ķ×©×Ļ×Ŀ": 5184,
      "Ġ×¢×ķ×ĳ×¨×Ļ×Ŀ": 5185,
      "Ġ×¢×ķ×ĳ×¨×ª": 5186,
      "Ġ×¤×ľ×Ļ×©×Ķ": 5187,
      "Ġ×¤×ľ×ŀ×Ĺ": 5188,
      "Ġ×Ĳ×ŀ×Ļ×ª": 5189,
      "Ġ×Ĳ×ŀ×Ļ×Ł": 5190,
      "Ġ×Ĳ×ŀ×ķ×¨×Ļ×Ŀ": 5191,
      "Ġ×¦×¤×ķ×Ļ×Ķ": 5192,
      "Ġ×Ķ×ķ×¦×Ĵ": 5193,
      "Ġ×Ľ×ķ×ľ×Ł": 5194,
      "Ġ×ł×Ķ×Ĵ": 5195,
      "Ġ×ł×Ķ×¨×¡": 5196,
      "Ġ×¤×¨×ĺ×Ļ×ª": 5197,
      "Ġ×ŀ×ķ×¦×¨×Ļ": 5198,
      "Ġ×ª×¢×ŀ×ķ×ľ×Ķ": 5199,
      "Ġ×ĵ×¢×ª×Ľ×Ŀ": 5200,
      "Ġ×Ĳ×¡×Ļ×¨×Ļ×Ŀ": 5201,
      "×¨×©×Ļ×Ŀ": 5202,
      "Ġ×Ĳ×¨×Ĵ×ķ×ł×Ļ": 5203,
      "Ġ×§×¨×ķ×Ļ": 5204,
      "Ġ×ľ×Ķ×¢×ł×Ļ×§": 5205,
      "Ġ×ŀ×ķ×¡×Ļ×¤×Ļ×Ŀ": 5206,
      "Ġ×Ķ×§×ĵ": 5207,
      "Ġ×¡×ĺ×ł": 5208,
      "×ŀ×Ļ×ª×ķ×ª": 5209,
      "Ġ×ŀ×¤×¢×Ļ×ľ×Ļ": 5210,
      "Ġ×¤×ł×ĺ": 5211,
      "Ġ×¤×ł×Ĳ×Ļ": 5212,
      "Ġ×¤×ł×Ļ×ª×Ļ": 5213,
      "Ġ×¤×ł×Ĺ×¡": 5214,
      "Ġ×Ĳ×ĸ×ķ×¨×Ļ×ª": 5215,
      "Ġ×¢×©×ķ×¨": 5216,
      "Ġ×¤×ķ×ľ×Ļ×ĺ×Ļ×Ļ×Ŀ": 5217,
      "Ġ×ł×¡×Ļ×ķ×ł×ķ×ª": 5218,
      "Ġ×ª×¤×Ļ×ľ×ª": 5219,
      "×ł×ĺ×Ļ": 5220,
      "Ġ×§×ľ×¤×Ļ×Ŀ": 5221,
      "Ġ×¨×Ľ×Ļ×©×ª": 5222,
      "Ġ×ł×Ĺ×©×ĳ×Ļ×Ŀ": 5223,
      "Ġ×Ĵ×ľ×¨×Ļ×Ķ": 5224,
      "Ġ×ľ×Ķ×Ĵ×Ļ×ĳ": 5225,
      "Ġ×ľ×Ķ×Ĵ×Ļ×©": 5226,
      "Ġ×©×ŀ×Ļ×¨×Ķ": 5227,
      "Ġ×ª×Ĺ×ª×ķ×Ł": 5228,
      "×¤×©×ĺ": 5229,
      "Ġ×ŀ×ķ×©×Ĵ×Ļ×Ŀ": 5230,
      "Ġ×ľ×¤×ª×Ĺ": 5231,
      "Ġ×©×ł×ķ×ª×Ļ×ķ": 5232,
      "Ġ×ł×Ľ×ª×ĳ×Ķ": 5233,
      "Ġ×Ĺ×ķ×ĸ×¨×ķ×ª": 5234,
      "Ġ×ł×Ļ×¦×ķ×ľ": 5235,
      "Ġ×©×ķ×ľ×ĳ×ķ": 5236,
      "Ġ×¦×ľ×Ļ×ľ": 5237,
      "Ġ×¡×¤×¨×ĵ×Ļ": 5238,
      "Ġ×¨×Ĵ×©×Ļ×ª": 5239,
      "Ġ×Ļ×Ļ×©×ķ×Ŀ": 5240,
      "Ġ×ŀ×ķ×Ľ×¨×ª": 5241,
      "Ġ×ĵ×ķ×ĵ×ķ": 5242,
      "Ġ×ª×Ļ×§×ķ×ł×Ļ×Ŀ": 5243,
      "Ġ×ŀ×Ĺ×©×ĳ×Ķ": 5244,
      "Ġ×ł×ķ×¢×ĵ×ķ": 5245,
      "Ġ×ŀ×Ļ×ł×Ļ×ŀ×ľ": 5246,
      "Ġ×ŀ×Ļ×ł×Ļ×ŀ×ķ×Ŀ": 5247,
      "Ġ×Ķ×ª×§×Ļ×Ļ×Ŀ": 5248,
      "Ġ×ľ×ķ×ķ×Ļ×§×Ļ×¤×ĵ×Ļ×Ķ": 5249,
      "Ġ×Ľ×ķ×Ľ×ĳ×Ļ": 5250,
      "Ġ×¤×ª×Ĺ×ª×Ļ": 5251,
      "×ķ×ŀ×ł×Ļ": 5252,
      "Ġ×©×Ĵ×ķ×Ļ": 5253,
      "Ġ×¢×§×¨×ķ×Ł": 5254,
      "Ġ×ł×ķ×Ĵ×¢×ķ×ª": 5255,
      "Ġ×§×ķ×ł×¤×ĵ×¨×¦×Ļ×Ķ": 5256,
      "Ġ×Ķ×©×¤×Ļ×¢": 5257,
      "Ġ×ł×ķ×¡×Ĺ×Ĳ×ķ×ª": 5258,
      "Ġ×Ķ×¨×¦×Ĵ×ķ×ĳ": 5259,
      "Ġ×Ĳ×Ķ×ķ×ĵ": 5260,
      "Ġ×Ĳ×Ļ×ĺ×ľ×§×Ļ×ª": 5261,
      "Ġ×Ĳ×ķ×Ľ×ľ×ķ×¡×Ļ×Ł": 5262,
      "Ġ×ŀ×ĵ×ĳ×¨×Ļ×Ŀ": 5263,
      "Ġ×ª×Ľ×ł×Ļ×Ŀ": 5264,
      "Ġ×ĵ×Ĵ×ľ×Ļ": 5265,
      "Ġ×ł×ķ×Ķ×Ĵ×Ļ×Ŀ": 5266,
      "Ġ×ª×¦×ĺ×¨×ļ": 5267,
      "Ġ×¨×ķ×Ĺ×ĳ": 5268,
      "Ġ×¤×Ļ×ª×¨×ķ×Ł": 5269,
      "Ġ×ł×ķ×ª×¨×Ķ": 5270,
      "Ġ×Ķ×¨×ķ×Ĵ×Ļ×Ŀ": 5271,
      "Ġ×Ķ×ķ×Ľ×Ĺ×ª": 5272,
      "Ġ×ł×§×¨×Ĳ×ķ": 5273,
      "Ġ×ĳ×¤×¨×ĺ": 5274,
      "Ġ×©×ķ×¤×ĺ×Ļ×Ŀ": 5275,
      "Ġ×¤×ľ×¡×ĺ×Ļ×ł×Ļ": 5276,
      "Ġ×Ĵ×¨×ķ×¢×Ļ×Ŀ": 5277,
      "Ġ×Ĳ×ķ×§×ĺ×ķ×ĳ×¨": 5278,
      "Ġ×ŀ×Ĺ×ĸ×Ļ×§": 5279,
      "Ġ×¤×ķ×ª×Ĺ": 5280,
      "Ġ×ĳ×ķ×¦×¢": 5281,
      "Ġ×ĳ×Ľ×ķ×¨×Ķ": 5282,
      "Ġ×ĳ×ķ×ľ×ĺ×ª": 5283,
      "Ġ×Ĳ×ķ×ĺ×ķ×ĳ×ķ×¡": 5284,
      "Ġ×ķ×¢×ĵ×Ķ": 5285,
      "Ġ×ŀ×ĺ×¨×ª×ķ": 5286,
      "Ġ×Ļ×ŀ×Ĺ×§×ķ": 5287,
      "Ġ×ŀ×ķ×ĵ×¨×ł×Ļ": 5288,
      "Ġ×Ķ×¡×ª×Ļ×Ļ×Ŀ": 5289,
      "Ġ×©×ĳ×¢×Ļ×Ŀ": 5290,
      "Ġ×ŀ×ª×§×Ļ×Ļ×ŀ×Ļ×Ŀ": 5291,
      "Ġ×¨×ķ×ŀ×Ł": 5292,
      "Ġ×ĸ×ķ×Ĵ×ķ×ª": 5293,
      "Ġ×ľ×Ķ×ĸ×Ļ×ĸ": 5294,
      "Ġ×¤×¡×Ļ×Ľ×ķ×ľ×ķ×Ĵ×Ļ": 5295,
      "Ġ×Ľ×¤×ķ×ľ×Ķ": 5296,
      "Ġ×ł×Ļ×ŀ×ķ×§×Ļ×Ŀ": 5297,
      "Ġ×¤×ĺ×¨×ĳ×ķ×¨×Ĵ": 5298,
      "Ġ×¢×ķ×¨×Ľ×Ļ": 5299,
      "Ġ×ŀ×Ķ×¤×ļ": 5300,
      "Ġ×Ĺ×©×ŀ×ľ×Ļ": 5301,
      "Ġ×¡×Ļ×ŀ×¤×ķ×ł×Ļ×Ķ": 5302,
      "Ġ×ĳ×Ĺ×Ļ×¨×ª×ķ": 5303,
      "Ġ×Ļ×¦×Ļ×¨×ķ×ª×Ļ×ķ": 5304,
      "Ġ×ł×¨×Ĳ×Ļ×Ŀ": 5305,
      "Ġ×Ĳ×ł×ķ×©×Ļ×ª": 5306,
      "Ġ×ŀ×¦×ķ×Ļ×Ļ×Ł": 5307,
      "Ġ×ł×Ļ×Ķ×ľ": 5308,
      "Ġ×Ĳ×¢×¨×ķ×ļ": 5309,
      "Ġ×¢×Ļ×ł×Ļ×ļ": 5310,
      "Ġ×ľ×ĸ×Ľ×ķ×ª": 5311,
      "Ġ×§×ķ×ŀ×Ļ×§×¡": 5312,
      "Ġ×ľ×Ķ×¡×ª×¤×§": 5313,
      "Ġ×Ķ×ŀ×©×Ļ×Ľ×Ķ": 5314,
      "Ġ×©×Ļ×¢×ķ×¨": 5315,
      "Ġ×Ķ×ķ×ĳ×Ļ×ľ": 5316,
      "×ľ×ĵ×ķ×¨": 5317,
      "Ġ×¡×Ļ×Ľ×ķ×Ļ": 5318,
      "Ġ×ĵ×ķ×ĳ×¨×Ļ": 5319,
      "Ġ×Ĳ×ľ×§×ĺ×¨×ķ×ł×Ļ": 5320,
      "Ġ×¨×ĵ×Ļ×ķ": 5321,
      "Ġ×ŀ×Ļ×Ļ×¦×Ĵ×Ļ×Ŀ": 5322,
      "Ġ×¤×ł×Ļ×ŀ×Ļ×ª": 5323,
      "Ġ×¤×ł×Ļ×ŀ×Ļ×Ļ×Ŀ": 5324,
      "Ġ×ŀ×¨×©×Ļ×ŀ×ª": 5325,
      "Ġ×¨×Ļ×ĳ×ķ×¢": 5326,
      "×Ļ×Ĳ×ł×Ķ": 5327,
      "Ġ×¦×Ķ×ķ×ĳ": 5328,
      "Ġ×ł×ķ×ª×¨×ķ": 5329,
      "Ġ×¤×Ļ×§×ķ×Ĺ": 5330,
      "Ġ×ĵ×ķ×§×ĺ×ķ×¨": 5331,
      "Ġ×Ĳ×ķ×Ĵ×ł×ĵ×Ķ": 5332,
      "Ġ×¡×ķ×¦×Ļ×Ĳ×ľ": 5333,
      "Ġ×¡×ķ×¦×Ļ×ķ×ľ×ķ×Ĵ×Ļ×Ķ": 5334,
      "Ġ×ł×Ľ×ľ×ľ": 5335,
      "Ġ×¡×ķ×ĳ×Ļ×Ļ×ĺ×Ļ": 5336,
      "Ġ×ª×¤×Ļ×¡×ª": 5337,
      "Ġ×Ĺ×¨×Ļ×¤×ķ×ª": 5338,
      "Ġ×¦×Ĳ×¦": 5339,
      "Ġ×ŀ×ľ×Ľ×ª×Ĺ×Ļ×ľ×Ķ": 5340,
      "Ġ×¤×ķ×¨×¡×ŀ×ķ": 5341,
      "Ġ×Ķ×ª×§×Ļ×Ļ×ŀ×Ķ": 5342,
      "Ġ×Ļ×ķ×¤×Ļ×¢×ķ": 5343,
      "Ġ×ŀ×Ľ×Ķ×Ł": 5344,
      "Ġ×ł×ª×§×ľ×ª×Ļ": 5345,
      "Ġ×ª×ķ×ŀ×Ľ×Ļ": 5346,
      "Ġ×ľ×Ļ×Ĵ×ª": 5347,
      "Ġ×¢×ĳ×ķ×ĵ×ª×ķ": 5348,
      "Ġ×Ķ×Ļ×Ĵ×Ļ×ķ×Ł": 5349,
      "Ġ×ľ×Ļ×Ľ×ķ×ĵ": 5350,
      "Ġ×ĸ×ł×ĳ×Ķ": 5351,
      "Ġ×ŀ×¡×§×ł×ķ×ª": 5352,
      "Ġ×ŀ×¡×Ľ×Ļ×ŀ×Ļ×Ŀ": 5353,
      "Ġ×ŀ×Ĺ×ķ×ĵ×©×ª": 5354,
      "Ġ×ł×¢×¦×¨×ķ": 5355,
      "Ġ×ķ×ķ×ĵ×Ĳ×ķ×ª": 5356,
      "Ġ×ŀ×Ĳ×Ĵ×¨": 5357,
      "Ġ×¨×ķ×©×Ŀ": 5358,
      "Ġ×¨×ł×¡×Ĳ×ł×¡": 5359,
      "Ġ×Ĳ×ª×Ļ×ķ×¤": 5360,
      "Ġ×ľ×¢×¦×ķ×¨": 5361,
      "Ġ×¤×¨×ķ×ĺ×¡×ĺ×ł×ĺ": 5362,
      "Ġ×Ķ×©×Ĺ×ª×ķ×ª": 5363,
      "Ġ×©×¤×Ļ×¨×Ĳ": 5364,
      "Ġ×Ķ×Ļ×§×£": 5365,
      "Ġ×ĳ×ķ×¡×ł×Ļ×Ķ": 5366,
      "Ġ×Ĳ×Ļ×ĵ×Ĳ": 5367,
      "Ġ×¦×ŀ×¦×ķ×Ŀ": 5368,
      "Ġ×¦×ł×ĸ×ķ×¨×Ķ": 5369,
      "Ġ×ľ×Ķ×ķ×Ľ×Ļ×Ĺ": 5370,
      "Ġ×ĺ×ĳ×ľ×Ĳ×ķ×ª": 5371,
      "Ġ×Ķ×¨×¦×Ĵ×ķ×ĳ×Ļ×ł×Ķ": 5372,
      "ľ×Ĳ": 5373,
      "Ġ×ļ": 5374,
      "Ġ×Ķ×Ļ×ĵ": 5375,
      "×Ķ×ķ×ª": 5376,
      "Ġ×ľ×Ļ×Ĳ": 5377,
      "Ġ×ľ×Ļ×ĸ": 5378,
      "Ġ×ľ×Ļ×ĵ×Ļ": 5379,
      "Ġ×ľ×ķ×Ĳ×Ļ": 5380,
      "Ġ×ľ×Ļ×ĳ×ķ×ĳ": 5381,
      "Ġ×ĳ×ķ×©": 5382,
      "Ġ×©×¨×Ķ": 5383,
      "Ġ×©×¢×ª": 5384,
      "×ª×Ļ×¤": 5385,
      "×ĳ×Ĳ×ľ×ľ×Ķ": 5386,
      "Ġ×¢×Ļ×ĺ": 5387,
      "Ġ×¢×Ļ×ķ×Ł": 5388,
      "Ġ×¢×¤×Ļ": 5389,
      "Ġ×¢×ķ×ŀ×¨": 5390,
      "×ĵ×ĵ": 5391,
      "×ĵ×Ł": 5392,
      "Ġ×Ľ×Ľ": 5393,
      "Ġ×Ľ×Ļ×¡": 5394,
      "Ġ×Ļ×ķ×Ľ": 5395,
      "Ġ×Ļ×Ļ×Ĵ": 5396,
      "Ġ×Ļ×ŀ×¦×Ĳ": 5397,
      "Ġ×Ĺ×ķ×ŀ×¦": 5398,
      "Ġ×Ĺ×ł×ķ×Ļ×ķ×ª": 5399,
      "×ł×Ļ×§×Ķ": 5400,
      "×Ĺ×ķ×£": 5401,
      "×¢×ķ×Ł": 5402,
      "Ġ×ł×ķ×Ľ": 5403,
      "Ġ×ł×Ļ×ĺ": 5404,
      "Ġ×ł×¨×©": 5405,
      "Ġ×ł×¡×Ķ": 5406,
      "Ġ×ŀ×Ļ×ķ×Ł": 5407,
      "Ġ×ŀ×Ļ×ł×Ķ": 5408,
      "Ġ×ŀ×Ļ×ł×Ĵ": 5409,
      "Ġ×ŀ×¨×¥": 5410,
      "Ġ×Ĳ×ķ×ĵ×Ķ": 5411,
      "Ġ×Ĳ×ķ×¡×Ļ×£": 5412,
      "Ġ×Ĳ×¨×ľ": 5413,
      "Ġ×Ĳ×ķ×§×¡": 5414,
      "Ġ×Ĳ×ķ×¦×¨": 5415,
      "Ġ×Ĳ×ķ×ĳ×Ļ": 5416,
      "Ġ×ª×Ĳ×Ļ": 5417,
      "Ġ×ª×ķ×ķ×Ļ×Ŀ": 5418,
      "Ġ×ª×¨×©×Ļ×Ŀ": 5419,
      "Ġ×¨×¥": 5420,
      "Ġ×¨×Ļ×©×Ļ": 5421,
      "Ġ×¤×Ļ×Ļ×Ł": 5422,
      "Ġ×¤×ĺ×¨": 5423,
      "Ġ×¤×ķ×§×¡": 5424,
      "Ġ×¤×ĵ×¨×¦": 5425,
      "Ġ×¤×ķ×©×¢": 5426,
      "Ġ×§×Ļ×¨": 5427,
      "Ġ×§×¨×ª": 5428,
      "Ġ×§×ľ×Ļ×Ŀ": 5429,
      "Ġ×§×ĳ×ľ": 5430,
      "Ġ×§×¨×ķ": 5431,
      "Ġ×§×¤×Ķ": 5432,
      "Ġ×ĸ×ŀ×¨": 5433,
      "Ġ×ĸ×ķ×Ľ×Ļ×Ŀ": 5434,
      "Ġ×ĸ×Ļ×ľ×ł×ĵ": 5435,
      "×ķ×ł×Ł": 5436,
      "×ĺ×ĺ": 5437,
      "×ĺ×Ļ×Ĺ": 5438,
      "Ġ×Ĵ×Ļ×Ĳ": 5439,
      "Ġ×Ĵ×ķ×ŀ×": 5440,
      "Ġ×Ĵ×ŀ×ľ": 5441,
      "×ķ×ľ×ķ×¦": 5442,
      "×Ĵ×¨×Ļ×Ŀ": 5443,
      "Ġ×¡×¨": 5444,
      "Ġ×¡×Ļ×ķ": 5445,
      "Ġ×¡×ķ×Ĺ×¨": 5446,
      "Ġ×ľ×Ķ×ĳ×Ĺ": 5447,
      "Ġ×ľ×Ķ×Ĵ×ĵ": 5448,
      "Ġ×ľ×Ķ×§×ª": 5449,
      "Ġ×ľ×Ķ×Ľ×Ļ×¨": 5450,
      "Ġ×ľ×Ķ×§×Ļ×Ŀ": 5451,
      "Ġ×ľ×Ķ×§×¤": 5452,
      "×ķ×¤×Ļ×Ł": 5453,
      "Ġ×Ļ×©×¢": 5454,
      "Ġ×Ļ×©×Ļ×¨×Ķ": 5455,
      "Ġ×Ļ×©×ł×Ļ×Ŀ": 5456,
      "×ķ×¡×ľ": 5457,
      "Ġ×ŀ×§×ĵ": 5458,
      "Ġ×ŀ×§×©×¨": 5459,
      "Ġ×ŀ×§×¨×Ļ": 5460,
      "Ġ×ŀ×§×ķ×ŀ×Ļ": 5461,
      "Ġ×ľ×ŀ×ľ×Ĳ": 5462,
      "×Ļ×ĵ×ļ": 5463,
      "Ġ×ĺ×Ĳ×ķ": 5464,
      "Ġ×Ĳ×ľ×Ļ×ĸ": 5465,
      "×Ļ×¢×ĸ×¨": 5466,
      "Ġ×ŀ×ĵ×ķ×Ļ×Ļ×§": 5467,
      "Ġ×ŀ×ĵ×ķ×ŀ×ł×Ļ": 5468,
      "Ġ×ŀ×Ĺ×ľ×Ķ": 5469,
      "Ġ×ŀ×Ĺ×ª×¨×ª": 5470,
      "Ġ×ŀ×Ĺ×ĺ×£": 5471,
      "×Ļ×ĺ×Ļ×Ł": 5472,
      "Ġ×ĳ×¢×Ļ×Ļ×Ķ": 5473,
      "Ġ×ŀ×¢×Ĵ×ľ": 5474,
      "Ġ×ŀ×¢×©×Ļ×ª": 5475,
      "×Ļ×ŀ×ĳ": 5476,
      "Ġ×ŀ×ª×Ĺ×Ļ×ľ×Ķ": 5477,
      "Ġ×ŀ×ª×Ĵ×ķ×¨": 5478,
      "Ġ×Ķ×ª×Ĵ×ķ×¨": 5479,
      "Ġ×ŀ×Ķ×¨": 5480,
      "Ġ×ŀ×Ķ×ł×ĵ": 5481,
      "Ġ×ŀ×Ķ×ķ×ķ×Ļ×Ŀ": 5482,
      "Ġ×ŀ×Ķ×Ĵ×¨×Ļ×Ŀ": 5483,
      "Ġ×Ķ×¦×Ĵ×Ķ": 5484,
      "Ġ×ŀ×¦×Ļ×Ļ×Ł": 5485,
      "Ġ×ŀ×¦×ķ×Ļ×Ļ×Ŀ": 5486,
      "Ġ×Ĳ×Ļ×ł×¤×ľ": 5487,
      "Ġ×Ĳ×Ļ×ł×ª×Ļ×¤": 5488,
      "×ķ×Ĳ×¨×ĺ": 5489,
      "Ġ×¤×¨×ĵ×Ķ": 5490,
      "Ġ×¨×ĳ×ł×Ļ": 5491,
      "Ġ×Ĺ×ľ×ķ×Ł": 5492,
      "Ġ×ĳ×Ĺ×¨": 5493,
      "Ġ×ª×Ĺ×ľ": 5494,
      "Ġ×ľ×¢×§": 5495,
      "Ġ×ľ×¢×ĸ": 5496,
      "Ġ×Ĳ×¨×ŀ×¡": 5497,
      "Ġ×ľ×ŀ×Ĺ×ķ×ª": 5498,
      "Ġ×Ĳ×ĸ×¨×ĳ×Ļ": 5499,
      "×ĳ×ł×ķ×ª": 5500,
      "Ġ×¨×Ĳ×Ļ×ª": 5501,
      "Ġ×¨×Ĳ×Ļ×ķ×Ł": 5502,
      "Ġ×Ĺ×ĳ×¨×ķ": 5503,
      "Ġ×ŀ×ĳ×ķ×§": 5504,
      "Ġ×ŀ×Ĳ×ŀ×Ł": 5505,
      "Ġ×ª×§×Ļ×Ł": 5506,
      "Ġ×¤×¢×ķ×ľ×ª": 5507,
      "Ġ×¡×¤×¨×Ļ×Ļ×Ķ": 5508,
      "Ġ×¨×©×ŀ×Ļ×Ļ×Ŀ": 5509,
      "Ġ×ľ×Ľ×ĵ×Ļ": 5510,
      "Ġ×ľ×Ľ×ĳ×ķ×ĵ": 5511,
      "Ġ×ľ×©×Ľ×ł×¢": 5512,
      "Ġ×ĸ×Ľ×ķ×¨": 5513,
      "×ķ×Ķ×Ķ": 5514,
      "Ġ×ŀ×ł×Ļ×¢×Ķ": 5515,
      "Ġ×ŀ×ł×ĵ×ľ": 5516,
      "×¨×Ĵ×ľ": 5517,
      "Ġ×Ĺ×Ļ×ķ×ł×Ļ": 5518,
      "Ġ×Ļ×Ľ×ľ": 5519,
      "Ġ×Ļ×Ľ×ª×ķ×ĳ": 5520,
      "Ġ×Ĺ×¡×ķ×Ŀ": 5521,
      "Ġ×ŀ×Ĳ×Ļ×ĵ×ļ": 5522,
      "×Ļ×Ĵ×ķ×ª": 5523,
      "Ġ×Ļ×¦×ķ×¨": 5524,
      "Ġ×Ļ×Ľ×ķ×ľ×ª×Ļ": 5525,
      "Ġ×Ľ×ł×ľ": 5526,
      "Ġ×Ľ×ł×¤×Ļ×Ļ×Ŀ": 5527,
      "Ġ×ł×Ļ×ª×ł×ª": 5528,
      "Ġ×ŀ×¡×¤×¨×Ļ": 5529,
      "Ġ×¢×ĵ×Ļ×¤×Ķ": 5530,
      "Ġ×ŀ×Ļ×Ļ×§×ľ": 5531,
      "Ġ×Ķ×Ĵ×Ļ×¨×Ķ": 5532,
      "Ġ×¢×Ļ×¨×ķ×ł×Ļ": 5533,
      "Ġ×Ļ×Ķ×ķ×ĵ×Ļ×ķ×ª": 5534,
      "Ġ×ľ×§×©×¨": 5535,
      "Ġ×ľ×§×ĵ×Ŀ": 5536,
      "Ġ×¤×¡×Ļ×§×Ķ": 5537,
      "×ŀ×ķ×ª×ķ": 5538,
      "Ġ×ŀ×§×ķ×¨×Ļ×Ļ×Ŀ": 5539,
      "Ġ×¤×¨×ķ": 5540,
      "Ġ×¢×ķ×ĵ×ĵ": 5541,
      "Ġ×Ķ×Ļ×ķ×ķ×¦×¨": 5542,
      "Ġ×Ķ×Ļ×ķ×ķ×¦×¨×ķ×ª": 5543,
      "Ġ×Ĵ×ĵ×ķ×ľ×Ļ": 5544,
      "Ġ×Ĳ×Ļ×¨×ķ×¤×Ļ": 5545,
      "Ġ×Ĳ×Ļ×¨×ķ×ķ×Ļ×ĸ": 5546,
      "Ġ×ŀ×ĸ×ķ×Ķ×Ļ×Ŀ": 5547,
      "Ġ×ĳ×ľ×¢": 5548,
      "Ġ×ł×¤×©": 5549,
      "Ġ×ł×¤×ĺ": 5550,
      "×Ļ×ŀ×ª×Ļ": 5551,
      "Ġ×ŀ×©×ŀ×¢×ķ": 5552,
      "Ġ×Ķ×©×¨×Ĳ×Ķ": 5553,
      "Ġ×¤×ķ×¨×ĵ": 5554,
      "Ġ×ł×¢×©×ª×Ķ": 5555,
      "Ġ×Ķ×ª×Ľ×ķ×ķ×ł×ª×Ļ": 5556,
      "Ġ×§×ĺ×Ĵ×ķ×¨×Ļ×ª": 5557,
      "Ġ×Ķ×¡×¨×ª": 5558,
      "Ġ×ŀ×ĺ×¢×Ķ": 5559,
      "Ġ×ł×Ĺ×ŀ×Ł": 5560,
      "Ġ×Ļ×ķ×¦×Ĳ×ª": 5561,
      "Ġ×Ļ×ķ×¦×Ĳ×Ļ×Ŀ": 5562,
      "Ġ×Ĵ×¨×£": 5563,
      "Ġ×Ĵ×¨×Ŀ": 5564,
      "Ġ×ŀ×Ĵ×ķ": 5565,
      "Ġ×Ĺ×ĸ×ľ": 5566,
      "Ġ×Ĳ×Ĵ×ĵ×Ķ": 5567,
      "Ġ×Ĳ×ķ×ł×Ļ×ķ×ª": 5568,
      "×¡×ĺ×Ł": 5569,
      "Ġ×ķ×Ļ×§×Ļ×¤×ĵ×Ļ×Ŀ": 5570,
      "Ġ×¢×¨×Ļ×Ľ×ª×ļ": 5571,
      "Ġ×¦×¢×ĵ×Ļ×Ŀ": 5572,
      "Ġ×ľ×Ķ×ª×Ĳ×Ļ×Ŀ": 5573,
      "Ġ×ľ×Ķ×ª×¤×ª×Ĺ": 5574,
      "Ġ×ľ×Ķ×ª×ŀ×§×ĵ": 5575,
      "Ġ×ł×ª×¤×¡": 5576,
      "Ġ×ł×Ļ×¡×ķ": 5577,
      "Ġ×ł×Ļ×¡×ķ×Ļ×Ļ×Ŀ": 5578,
      "Ġ×Ĳ×ŀ×ķ×ł×Ķ": 5579,
      "Ġ×Ķ×ķ×¦×Ĳ×ķ×ª": 5580,
      "Ġ×Ķ×Ľ×¨×Ķ": 5581,
      "Ġ×Ķ×Ľ×ł×ķ×ª": 5582,
      "Ġ×¢×ĸ×¨×ķ": 5583,
      "Ġ×¢×ĸ×ĳ×ķ": 5584,
      "Ġ×ª×ľ×ķ×Ļ": 5585,
      "Ġ×Ķ×ķ×¤×¢×Ķ": 5586,
      "Ġ×ľ×¦×Ĳ×ª": 5587,
      "Ġ×ľ×¦×¤×ķ×ª": 5588,
      "Ġ×Ļ×Ĺ×Ļ×ĵ×ª": 5589,
      "Ġ×ĳ×Ĺ×Ļ×ł×ª×ķ": 5590,
      "Ġ×ľ×ĵ×Ĺ×ķ×£": 5591,
      "Ġ×ŀ×ķ×ł×Ļ×ĺ×Ļ×Ł": 5592,
      "×ł×ª×Ķ": 5593,
      "×ĺ×¨×ķ×ł×Ĵ": 5594,
      "Ġ×¢×¨×Ľ×ķ": 5595,
      "Ġ×ľ×ŀ×ĵ×ª×Ļ": 5596,
      "Ġ×Ĺ×ŀ×Ļ×©×Ļ×Ŀ": 5597,
      "Ġ×¤×ķ×¢×ľ×ķ": 5598,
      "Ġ×ŀ×¡×ķ×Ļ×ŀ×ķ×ª": 5599,
      "Ġ×¡×ĳ×ķ×¨×Ļ×Ŀ": 5600,
      "Ġ×¡×ķ×Ĵ×Ļ×Ķ": 5601,
      "Ġ×Ķ×ĳ×Ļ×Ĳ×Ķ": 5602,
      "Ġ×Ķ×ĳ×Ķ×¨×Ķ": 5603,
      "Ġ×Ļ×¢×Ļ×ľ": 5604,
      "Ġ×Ĳ×ĸ×ķ×¨×Ļ": 5605,
      "Ġ×¦×¨×¤×ª×Ļ×Ŀ": 5606,
      "Ġ×¢×©×ķ×Ļ×Ķ": 5607,
      "Ġ×¤×ķ×ľ×Ļ×ĺ×Ļ×ķ×ª": 5608,
      "Ġ×¤×ķ×¨×ĺ×ķ×Ĵ": 5609,
      "Ġ×ľ×ķ×Ĺ×ŀ×ª": 5610,
      "Ġ×ľ×ķ×Ĺ×ŀ×Ļ": 5611,
      "Ġ×Ĵ×ľ×ķ×Ļ": 5612,
      "Ġ×Ĺ×©×ĳ×ª": 5613,
      "Ġ×©×ŀ×Ļ×¨": 5614,
      "Ġ×©×ŀ×Ļ×ł×Ļ": 5615,
      "Ġ×©×ŀ×ķ×¢×ķ×ª": 5616,
      "Ġ×ª×Ĵ×Ļ×ĵ": 5617,
      "Ġ×¨×¤×ķ×Ĳ": 5618,
      "Ġ×¨×¤×Ĳ×ľ": 5619,
      "Ġ×¢×¨×ĳ×Ļ×Ļ×Ŀ": 5620,
      "Ġ×Ĳ×ĸ×¨×Ĺ×Ļ×Ķ": 5621,
      "Ġ×Ĵ×¨×ķ×¡": 5622,
      "Ġ×ľ×Ķ×ĳ×Ķ×Ļ×¨": 5623,
      "Ġ×¢×Ļ×§×¨×Ļ×ķ×ª": 5624,
      "Ġ×ª×¨×ĳ×ķ×ª×Ļ": 5625,
      "Ġ×¤×Ĵ×Ŀ": 5626,
      "Ġ×Ķ×ĵ×¨×Ľ×Ķ": 5627,
      "Ġ×¢×ŀ×ķ×ĵ×Ļ×Ŀ": 5628,
      "Ġ×ľ×¡×ŀ×Ł": 5629,
      "Ġ×¡×Ļ×Ļ×ŀ×ª×Ļ": 5630,
      "Ġ×Ĳ×ŀ×ł×Ļ×Ŀ": 5631,
      "Ġ×ŀ×ŀ×ķ×¦×¢": 5632,
      "Ġ×§×©×ķ×¨×Ķ": 5633,
      "Ġ×ľ×Ķ×¡×Ľ×Ļ×Ŀ": 5634,
      "Ġ×ŀ×ķ×¨×Ĺ×ĳ×ª": 5635,
      "Ġ×Ľ×ł×¡×Ļ×ķ×ª": 5636,
      "×Ļ×ŀ×©×ļ": 5637,
      "×ķ×ķ×Ļ×¥": 5638,
      "Ġ×ŀ×Ĳ×¤×Ļ×Ļ×ł×Ļ×Ŀ": 5639,
      "Ġ×Ķ×¡×ĳ×¨×Ļ×Ŀ": 5640,
      "Ġ×Ķ×ª×§×¤×ķ×ª": 5641,
      "Ġ×ľ×ķ×ķ×Ĳ×Ļ": 5642,
      "Ġ×Ķ×ķ×¢×ľ×ª×Ķ": 5643,
      "Ġ×Ļ×ĳ×ķ×Ĳ": 5644,
      "Ġ×§×¨×ĳ×ª": 5645,
      "Ġ×ľ×ĵ×¢×ª×ļ": 5646,
      "Ġ×Ĺ×ĵ×¨×Ļ": 5647,
      "Ġ×ĺ×ķ×¨×§×Ļ×Ķ": 5648,
      "Ġ×Ĺ×Ĵ×Ļ×Ĵ×ķ×ª": 5649,
      "Ġ×Ķ×ª×ł×Ķ×ľ": 5650,
      "Ġ×ĸ×ŀ×ł×Ļ×Ŀ": 5651,
      "Ġ×ł×¤×¨×ĵ×ķ×ª": 5652,
      "×ŀ×Ļ×ĵ×Ķ": 5653,
      "Ġ×©×Ĺ×Ļ×Ļ×Ķ": 5654,
      "Ġ×ľ×ł×¡×ķ×¢": 5655,
      "Ġ×ŀ×ķ×Ĵ×ĳ×ľ": 5656,
      "Ġ×ŀ×ķ×Ĵ×ł×ª": 5657,
      "Ġ×©×¢×ķ×Ł": 5658,
      "Ġ×ĸ×Ľ×ķ×ª×ķ": 5659,
      "Ġ×©×§×Ļ×¢×ª": 5660,
      "Ġ×ŀ×Ĳ×¤×©×¨×Ļ×Ŀ": 5661,
      "Ġ×Ľ×¤×¨×Ļ×Ŀ": 5662,
      "Ġ×ł×ķ×ª×ł×ª": 5663,
      "Ġ×ĵ×¨×Ĵ×Ķ": 5664,
      "Ġ×Ķ×Ļ×Ľ×ľ": 5665,
      "Ġ×ĳ×¢×Ļ×Ļ×ª×Ļ×ķ×ª": 5666,
      "Ġ×©×ķ×¤×¨": 5667,
      "Ġ×¤×ľ×¡×ĺ×Ļ×Ł": 5668,
      "Ġ×Ķ×Ĺ×ľ×Ļ×ĺ×ķ": 5669,
      "Ġ×ŀ×ķ×©×ĳ×ķ×ª": 5670,
      "Ġ×Ĵ×ķ×ĵ×ľ×Ķ": 5671,
      "Ġ×ŀ×ķ×¢×ŀ×ĵ×ķ×ª": 5672,
      "Ġ×¡×Ļ×ŀ×ķ×Ł": 5673,
      "Ġ×ŀ×ĺ×¨×ª×Ķ": 5674,
      "Ġ×Ĺ×¨×Ļ×Ĵ×Ķ": 5675,
      "Ġ×Ĺ×ķ×ĳ×ª": 5676,
      "Ġ×Ĺ×ķ×ĳ×ĳ×Ļ": 5677,
      "Ġ×ª×ĳ×Ļ×Ĳ": 5678,
      "Ġ×ª×ķ×¤×¢×ķ×ª": 5679,
      "Ġ×ľ×§×¦×¨": 5680,
      "Ġ×ĵ×Ĺ×Ļ×¤×ķ×ª": 5681,
      "Ġ×©×ľ×Ļ×ĺ×ª": 5682,
      "Ġ×ķ×ķ×¢×ĵ": 5683,
      "Ġ×©×ķ×ķ×Ļ×ķ×Ł": 5684,
      "Ġ×¨×Ļ×©×ķ×Ŀ": 5685,
      "Ġ×ŀ×¢×ķ×¨×ĳ": 5686,
      "Ġ×ŀ×¢×ķ×¨×ĳ×Ļ×Ŀ": 5687,
      "Ġ×ŀ×¢×ķ×¨×ĳ×ķ×ª": 5688,
      "Ġ×¡×ĺ×ĺ×ķ×¡": 5689,
      "Ġ×ĺ×§×¡×¡": 5690,
      "Ġ×Ĺ×ķ×Ĵ×Ļ×Ŀ": 5691,
      "Ġ×ŀ×ŀ×ķ×§×ŀ×ª": 5692,
      "Ġ×ľ×ĸ×Ķ×ķ×ª": 5693,
      "Ġ×ŀ×Ľ×ľ×ľ×Ķ": 5694,
      "Ġ×Ĺ×§×ľ×Ĳ×Ļ": 5695,
      "Ġ×Ĳ×Ļ×¡×ķ×£": 5696,
      "Ġ×ª×ķ×¨×ŀ×Ļ×Ŀ": 5697,
      "Ġ×©×Ļ×¤×ķ×¥": 5698,
      "Ġ×ŀ×ª×ĳ×¦×¢": 5699,
      "Ġ×ĸ×Ľ×¨×ķ×ł×Ļ": 5700,
      "Ġ×¡×Ļ×ŀ×ł×Ļ": 5701,
      "Ġ×ľ×Ķ×Ľ×Ļ×Ł": 5702,
      "Ġ×©×Ĺ×¨×ķ×¨×ķ": 5703,
      "Ġ×ĳ×ķ×Ĵ×¨": 5704,
      "Ġ×ĳ×ķ×Ĵ×¨×Ļ×Ŀ": 5705,
      "Ġ×©×ŀ×¢×ķ×Ł": 5706,
      "Ġ×ª×ķ×¨×Ĵ×ŀ×ķ": 5707,
      "Ġ×ŀ×ł×¦×Ĺ": 5708,
      "Ġ×Ĳ×Ļ×¨×ķ×¤×Ĳ×Ļ": 5709,
      "Ġ×ŀ×ľ×Ĳ×Ľ×Ļ": 5710,
      "Ġ×ŀ×ĳ×¦×¨": 5711,
      "Ġ×ŀ×ĳ×¦×¢×Ļ×Ŀ": 5712,
      "Ġ×ĳ×ĸ×ĳ×ķ×ĸ": 5713,
      "Ġ×Ķ×ª×ŀ×ķ×ĵ×ĵ": 5714,
      "Ġ×ª×Ĵ×ķ×ĳ×ª×ļ": 5715,
      "Ġ×Ĳ×ķ×Ĵ×ķ×¡×ĺ": 5716,
      "Ġ×ķ×ª×Ļ×§": 5717,
      "Ġ×¡×ĺ×ł×ĵ×¨×ĺ×Ļ×Ŀ": 5718,
      "Ġ×Ĺ×§×ľ×Ĳ×Ļ×ķ×ª": 5719,
      "Ġ×¡×ķ×Ľ×ł×ķ×ª": 5720,
      "Ġ×ŀ×ķ×Ĺ×ľ×ĺ×ª": 5721,
      "Ġ×ĳ×ķ×ľ×Ĵ": 5722,
      "Ġ×Ĳ×Ļ×ª×Ł": 5723,
      "Ġ×ľ×Ĵ×Ļ×ĺ×Ļ×ŀ×Ļ": 5724,
      "Ġ×Ĳ×¨×Ľ×Ĳ×ķ×ľ×ķ×Ĵ×Ļ×ķ×ª": 5725,
      "Ġ×Ķ×ķ×ł×Ĵ×¨×Ļ×Ķ": 5726,
      "Ġ×ĳ×Ļ×¨×ķ×¨": 5727,
      "Ġ×©×ķ×ª×£": 5728,
      "Ġ×¢×Ļ×ĵ×ķ×ĵ": 5729,
      "Ġ×¤×¨×Ļ×ĵ×ŀ×Ł": 5730,
      "Ġ×¡×Ļ×¨×ĳ": 5731,
      "Ġ×ĺ×ľ×¤×ķ×Ł": 5732,
      "Ġ×ª×©×ķ×ĳ×ª×ļ": 5733,
      "Ġ×Ķ×¨×©×Ĳ×ķ×ª": 5734,
      "Ġ×¢×ľ×Ļ×ķ×ł×Ķ": 5735,
      "Ġ×Ķ×Ľ×¨×Ĺ×Ļ": 5736,
      "Ġ×Ļ×ľ×ĵ×ķ×ª×ķ": 5737,
      "Ġ×ŀ×Ķ×ĵ×ķ×¨×Ķ": 5738,
      "Ġ×ł×¤×ķ×ľ×Ļ×Ĳ×ķ×Ł": 5739,
      "Ġ×©×¨×Ļ×¨×ķ×ª×Ļ": 5740,
      "Ġ×ľ×ķ×Ĳ×Ļ×¡": 5741,
      "Ġ×©×ķ×Ĺ×¨×¨×ķ": 5742,
      "Ġ×¢×§×Ļ×ĳ×Ĳ": 5743,
      "Ġ×Ĺ×Ļ×¡×ķ×Ł": 5744,
      "Ġ×¤×Ĺ×ĵ": 5745,
      "Ġ×ĵ×¨×Ľ×Ļ": 5746,
      "Ġ×ŀ×ł×Ĵ×ł×ķ×Ł": 5747,
      "Ġ×Ĵ×Ĳ×ķ×Ĵ×¨×¤×Ļ": 5748,
      "Ġ×Ĵ×ķ×¤×ķ": 5749,
      "Ġ×Ķ×Ľ×¨×ĸ×Ķ": 5750,
      "Ġ×Ķ×©×ª×ľ×ĺ×ķ": 5751,
      "Ġ×ľ×Ļ×Ļ×¦×¨": 5752,
      "Ġ×¢×ķ×ª×ŀ×Ĳ×ł×Ļ×ª": 5753,
      "Ġ×Ĳ×ķ×¨×ª×ķ×ĵ×ķ×§×¡×Ļ×ª": 5754,
      "Ġ×Ķ×ª×ľ×ĳ×ĺ×ķ×ª": 5755,
      "Ġ×Ĳ×ľ×¤×ĳ×Ļ×ª": 5756,
      "Ġ×Ĳ×¡×ĺ×¨×ĺ×Ĵ×Ļ×Ķ": 5757,
      "Ġ×ĸ×¨×ŀ×Ļ×Ŀ": 5758,
      "Ġ×Ķ×ª×ł×Ĺ×ľ": 5759,
      "Ġ×¤×ł×ĺ×ĸ×Ļ×Ķ": 5760,
      "Ġ×Ĳ×ª×Ļ×ķ×¤×Ļ×Ķ": 5761,
      "Ġ×ľ×Ļ×ĳ×ķ×ĳ×Ļ×¥": 5762,
      "Ġ×Ļ×ķ×Ľ×ľ×ķ": 5763,
      "Ġ×ł×ķ×Ľ×Ĺ×ķ×ª": 5764,
      "Ġ×Ĳ×ķ×§×¡×¤×ķ×¨×ĵ": 5765,
      "Ġ×¨×Ļ×©×Ļ×ķ×ł×ķ×ª": 5766,
      "Ġ×¤×ĵ×¨×¦×Ļ×Ļ×ª": 5767,
      "Ġ×¡×Ļ×ķ×ķ×Ĵ": 5768,
      "Ġ×ľ×Ķ×ĳ×Ĺ×Ļ×Ł": 5769,
      "Ġ×Ĳ×Ļ×ł×¤×ľ×¦×Ļ×Ķ": 5770,
      "Ġ×Ĳ×Ļ×ł×ª×Ļ×¤×Ĳ×": 5771,
      "Ġ×Ĳ×¨×ŀ×¡×ĺ×¨×ķ×ł×Ĵ": 5772,
      "Ġ×Ĳ×ĸ×¨×ĳ×Ļ×Ļ×Ĵ×Ł": 5773,
      "Ġ×Ĳ×Ļ×¨×ķ×ķ×Ļ×ĸ×Ļ×ķ×Ł": 5774,
      "©×Ŀ": 5775,
      "Ĵ×ķ×ķ×Ĳ×Ļ": 5776,
      "ŀ×Ļ×ª": 5777,
      "×Ļ×Ļ×ĳ×ķ×ª": 5778,
      "Ġ×Ķ×ŀ×ª": 5779,
      "Ġ×Ķ×Ľ×ł×Ļ×¡": 5780,
      "×¨×Ļ×ķ×Ł": 5781,
      "Ġ×ľ×¨×Ľ": 5782,
      "Ġ×ľ×ķ×ª×¨": 5783,
      "Ġ×ĳ×©": 5784,
      "Ġ×ĳ×ķ×Ĳ": 5785,
      "Ġ×ĳ×Ļ×ĸ": 5786,
      "×ľ×ĳ×ľ": 5787,
      "Ġ×©×ª": 5788,
      "Ġ×©×ŀ×Ł": 5789,
      "Ġ×©×Ļ×©×Ļ×ª": 5790,
      "×ĳ×ķ×©": 5791,
      "×ĳ×Ļ×ĳ": 5792,
      "×ĳ×ľ×Ļ×Ŀ": 5793,
      "Ġ×¢×ķ×¤": 5794,
      "Ġ×¢×Ļ×Ļ×Ł": 5795,
      "Ġ×¢×ł×§": 5796,
      "Ġ×¢×©×ª×Ķ": 5797,
      "Ġ×Ľ×Ļ×ł": 5798,
      "Ġ×Ľ×¨×ĺ": 5799,
      "Ġ×Ľ×Ĳ×ľ": 5800,
      "Ġ×Ľ×¨×Ĳ": 5801,
      "Ġ×Ľ×¤×ª×ķ×¨": 5802,
      "Ġ×ľ×ļ": 5803,
      "Ġ×Ļ×¨×Ļ": 5804,
      "Ġ×Ļ×ľ×Ķ": 5805,
      "Ġ×Ļ×ł×ĵ": 5806,
      "Ġ×Ļ×ķ×¤×Ļ": 5807,
      "Ġ×Ļ×ķ×ł×ª×Ł": 5808,
      "Ġ×Ĺ×Ŀ": 5809,
      "Ġ×Ĺ×Ļ×¨": 5810,
      "Ġ×Ĺ×Ļ×ķ": 5811,
      "Ġ×Ĺ×ŀ×Ķ": 5812,
      "Ġ×Ĺ×ķ×¦×Ķ": 5813,
      "Ġ×Ĺ×ŀ×Ĳ×": 5814,
      "Ġ×Ĺ×Ĵ×Ļ×Ŀ": 5815,
      "×ł×Ĺ": 5816,
      "×ł×ļ": 5817,
      "×ł×Ĳ×Ļ": 5818,
      "×ł×Ĳ×ķ×ª": 5819,
      "×¢×¨": 5820,
      "×ķ×¨×Ļ×ķ": 5821,
      "Ġ×ł×Ļ×¨": 5822,
      "Ġ×ł×ķ×¤": 5823,
      "Ġ×ł×ķ×ĺ": 5824,
      "Ġ×ł×ķ×ĺ×Ķ": 5825,
      "Ġ×Ĳ×Ļ×ĳ": 5826,
      "Ġ×Ĳ×ķ×Ŀ": 5827,
      "Ġ×Ĳ×Ļ×¦": 5828,
      "Ġ×Ĳ×Ļ×©×Ķ": 5829,
      "Ġ×Ĳ×ķ×Ĺ×ĵ": 5830,
      "Ġ×Ĳ×Ļ×ŀ×Ļ": 5831,
      "Ġ×ª×Ł": 5832,
      "Ġ×ª×©×ª": 5833,
      "Ġ×ª×ķ×Ĳ×": 5834,
      "Ġ×ª×¤×ª×Ĺ": 5835,
      "Ġ×ª×Ļ×ŀ×Ł": 5836,
      "Ġ×ķ×ľ": 5837,
      "Ġ×ķ×Ļ×¨": 5838,
      "Ġ×ķ×Ļ×ł×Ķ": 5839,
      "Ġ×ķ×ķ×ľ×ĺ": 5840,
      "Ġ×ķ×Ļ×Ļ×ĺ": 5841,
      "×¤×ł×Ļ": 5842,
      "Ġ×¤×ķ": 5843,
      "Ġ×¤×ĸ": 5844,
      "Ġ×¤×¨×Ļ": 5845,
      "Ġ×¤×¨×Ļ×¦": 5846,
      "Ġ×§×ķ×§": 5847,
      "Ġ×§×ķ×Ĳ": 5848,
      "Ġ×§×Ļ×ł×Ĵ": 5849,
      "Ġ×§×ł×ĵ×Ļ": 5850,
      "Ġ×ĸ×Ļ": 5851,
      "Ġ×ĸ×¨×Ļ×Ŀ": 5852,
      "×ĺ×Ĳ": 5853,
      "×ĺ×Ļ×ł×Ķ": 5854,
      "Ġ×Ĵ×©": 5855,
      "Ġ×Ĵ×¡": 5856,
      "Ġ×Ĵ×ķ×¤×Ļ×Ŀ": 5857,
      "×Ľ×Ĺ": 5858,
      "×Ľ×ķ×Ŀ": 5859,
      "×ŀ×ķ×¡": 5860,
      "Ġ×ĵ×ķ×ĳ×¨": 5861,
      "Ġ×ĵ×Ļ×ł×Ļ": 5862,
      "Ġ×ĵ×ķ×§×Ĳ": 5863,
      "Ġ×©×ľ×ĳ×Ļ": 5864,
      "Ġ×¦×ŀ×ķ×ĵ": 5865,
      "Ġ×¦×Ĺ×ķ×§": 5866,
      "Ġ×¦×ŀ×Ļ×ª×ķ×ª": 5867,
      "×Ĵ×Ļ×©": 5868,
      "Ġ×¡×Ļ×ĵ": 5869,
      "Ġ×¡×ŀ×Ļ×Ŀ": 5870,
      "Ġ×¡×ķ×ĳ×ľ": 5871,
      "Ġ×¡×ŀ×Ļ×ª": 5872,
      "Ġ×¡×Ľ×ķ×Ŀ": 5873,
      "×Ļ×ł×ĺ×ķ×ª": 5874,
      "Ġ×Ĳ×ł×¨×Ľ": 5875,
      "×Ļ×§×ķ×ĳ×¡×§×Ļ": 5876,
      "Ġ×ľ×Ĳ×ķ×ŀ×Ļ×Ļ×Ŀ": 5877,
      "Ġ×ľ×Ķ×ĵ": 5878,
      "Ġ×ľ×Ķ×ŀ×ľ": 5879,
      "Ġ×¢×ľ×ķ×ľ×Ķ": 5880,
      "Ġ×¢×ľ×ª×Ķ": 5881,
      "Ġ×ŀ×©×ĺ": 5882,
      "Ġ×ŀ×©×Ļ×ļ": 5883,
      "Ġ×ŀ×©×ŀ×¨": 5884,
      "Ġ×ŀ×©×§×ľ": 5885,
      "×ķ×¤×Ļ×ª": 5886,
      "Ġ×Ļ×©×Ļ×¨": 5887,
      "×Ļ×ĳ×¦×Ļ×Ķ": 5888,
      "×ķ×§×ľ×Ļ×Ł": 5889,
      "Ġ×Ľ×ľ×Ļ×ľ": 5890,
      "Ġ×Ľ×ľ×ľ×Ķ": 5891,
      "×Ļ×¤×ķ×¨×Ļ×Ŀ": 5892,
      "Ġ×ŀ×§×ķ×¨×Ķ": 5893,
      "Ġ×ŀ×§×Ļ×¤×Ķ": 5894,
      "×Ļ×Ĳ×ķ×ł×Ļ×Ŀ": 5895,
      "×ł×Ļ×Ļ×ł×ķ×ª": 5896,
      "×ĸ×Ļ×Ł": 5897,
      "Ġ×ĺ×ķ×§": 5898,
      "×Ļ×¦×Ļ×ĺ×ķ×ĺ": 5899,
      "Ġ×Ĳ×ľ×Ļ": 5900,
      "Ġ×Ĳ×ľ×ķ×Ł": 5901,
      "Ġ×Ĳ×ľ×Ļ×Ķ×ķ": 5902,
      "Ġ×Ĳ×ľ×Ļ×¢×ĸ×¨": 5903,
      "Ġ×ŀ×¡×ķ×ĳ": 5904,
      "Ġ×ŀ×¡×ķ×Ľ": 5905,
      "Ġ×ŀ×¡×ŀ×Ľ×Ļ×Ŀ": 5906,
      "Ġ×ŀ×¡×ĳ×Ļ×ĳ": 5907,
      "×©×¨×ª": 5908,
      "×ķ×Ĵ×ķ×ķ×Ĳ×Ļ": 5909,
      "Ġ×ŀ×ĵ×¨×Ĵ": 5910,
      "Ġ×ŀ×ĵ×¢×Ļ×Ŀ": 5911,
      "Ġ×ŀ×ĵ×ķ×ĳ×¨×ª": 5912,
      "Ġ×ŀ×Ĺ×ľ×ķ×ª": 5913,
      "Ġ×ŀ×Ĺ×ĵ×ľ": 5914,
      "×Ļ×ĺ×Ķ": 5915,
      "×Ļ×ĺ×ĵ": 5916,
      "×Ļ×Ĺ×Ļ": 5917,
      "×Ļ×Ĺ×ĵ×©×ķ×ª": 5918,
      "×Ļ×ŀ×Ļ×ľ×ķ×Ł": 5919,
      "Ġ×ŀ×ª×ł×ĵ": 5920,
      "Ġ×ŀ×ª×ł×¦×ľ": 5921,
      "Ġ×Ķ×ª×Ĳ×ĳ": 5922,
      "Ġ×Ķ×ª×ĳ×¨×¨": 5923,
      "Ġ×Ķ×ª×ĳ×ł×Ļ×ª": 5924,
      "Ġ×Ĳ×¤×ķ×¨": 5925,
      "Ġ×ŀ×¦×Ļ×Ĵ×Ķ": 5926,
      "Ġ×¨×Ĳ×©×Ķ": 5927,
      "Ġ×¨×Ĳ×©×ķ×ł×Ļ×Ļ×Ŀ": 5928,
      "Ġ×Ĳ×ĳ×ķ": 5929,
      "Ġ×¤×¨×Ĵ×ķ×ķ×Ĳ×Ļ": 5930,
      "Ġ×ľ×Ĳ×Ĺ": 5931,
      "Ġ×¨×ĳ×¢": 5932,
      "Ġ×¨×ĳ×ł×ķ×ª": 5933,
      "Ġ×Ĺ×ľ×ķ×¥": 5934,
      "Ġ×Ĺ×ľ×©×ķ×ª": 5935,
      "Ġ×Ĺ×ľ×ķ×§×Ļ×Ŀ": 5936,
      "Ġ×ª×Ĺ×ķ×©×ª": 5937,
      "×Ĵ×ľ×Ļ×ª": 5938,
      "Ġ×ľ×¢×ķ×¨×¨": 5939,
      "Ġ×ľ×¢×ķ×ĵ×ĵ": 5940,
      "Ġ×ŀ×¤×ķ×ĸ": 5941,
      "Ġ×Ĺ×Ļ×¦×ķ×ł×Ļ×ª": 5942,
      "×¨×Ĺ×©×ķ": 5943,
      "Ġ×Ĳ×ĸ×Ľ×ķ×¨": 5944,
      "Ġ×¢×ĳ×¨×Ļ×ķ×ª": 5945,
      "Ġ×¨×Ĳ×Ļ×Ļ×Ķ": 5946,
      "Ġ×Ĺ×ĳ×¨×Ļ×Ķ": 5947,
      "Ġ×ł×ŀ×Ľ": 5948,
      "Ġ×©×ł×ķ×Ļ×ķ×ª": 5949,
      "Ġ×ŀ×ĳ×Ĺ": 5950,
      "Ġ×ŀ×ĳ×Ļ×ł×Ļ×Ŀ": 5951,
      "Ġ×Ļ×§×Ļ×¨": 5952,
      "Ġ×Ļ×§×ķ×Ŀ": 5953,
      "Ġ×Ļ×§×Ļ×©×Ļ×ª×ķ×£": 5954,
      "Ġ×Ļ×§×¤×ĵ×Ļ×Ķ": 5955,
      "Ġ×Ļ×§×Ļ×Ĺ×ĵ×©×ķ×ª": 5956,
      "Ġ×ª×§×¤×Ķ": 5957,
      "Ġ×¨×©×Ĳ×Ļ": 5958,
      "Ġ×¨×©×ķ×Ļ×ķ×ª": 5959,
      "Ġ×¨×©×ŀ×ª×Ļ": 5960,
      "Ġ×ľ×©×Ľ": 5961,
      "Ġ×¢×¦×ķ×ĳ": 5962,
      "Ġ×¢×¦×ķ×Ŀ": 5963,
      "Ġ×ľ×ĳ×¡×¡": 5964,
      "Ġ×ŀ×ł×Ĺ×Ļ×Ŀ": 5965,
      "×¨×ĵ×ª": 5966,
      "Ġ×ĳ×¨×ķ×§×ľ×Ļ×Ł": 5967,
      "Ġ×Ĺ×¡×Ļ×ŀ×ª": 5968,
      "Ġ×Ĺ×¡×Ļ×ĵ×Ļ": 5969,
      "Ġ×Ĳ×ķ×¤×ķ×ľ×ĵ": 5970,
      "Ġ×Ļ×¦×Ļ×ĳ×ķ×ª": 5971,
      "Ġ×Ļ×¦×Ĳ×Ķ": 5972,
      "Ġ×Ľ×ł×Ļ×¡": 5973,
      "Ġ×Ľ×ł×¨×ª": 5974,
      "×¨×¡×ķ×Ł": 5975,
      "Ġ×Ĵ×ĵ×¨×ª": 5976,
      "Ġ×ŀ×Ľ×ķ×ł×Ķ": 5977,
      "Ġ×ŀ×Ľ×Ļ×¨×ķ×ª": 5978,
      "Ġ×ŀ×Ľ×Ļ×ľ×Ķ": 5979,
      "Ġ×ŀ×Ľ×ª×ĳ×Ļ×Ŀ": 5980,
      "Ġ×ŀ×Ľ×ķ×ķ×ł×ª": 5981,
      "Ġ×Ļ×Ĺ×¤×©": 5982,
      "Ġ×ł×Ľ×ĳ×ĵ": 5983,
      "Ġ×ľ×§×Ĺ×Ķ": 5984,
      "Ġ×©×Ļ×Ĺ×§×Ķ": 5985,
      "Ġ×©×Ļ×Ĺ×ĸ×¨": 5986,
      "Ġ×¨×Ĳ×ķ×Ļ×Ķ": 5987,
      "×¨×Ĳ×ķ×¡": 5988,
      "Ġ×¤×¡×Ļ×§×ª": 5989,
      "Ġ×¨×ķ×ĳ×Ķ": 5990,
      "Ġ×ľ×Ĺ×Ļ×ķ×ª": 5991,
      "Ġ×Ĳ×Ļ×ķ×¨": 5992,
      "Ġ×Ĳ×©×Ľ": 5993,
      "Ġ×Ļ×ĵ×Ļ×Ļ×Ŀ": 5994,
      "Ġ×Ļ×ĵ×Ļ×¢×ª": 5995,
      "Ġ×§×ĳ×Ļ×¢×Ķ": 5996,
      "Ġ×¨×¦×Ļ×ł×ķ×ª": 5997,
      "Ġ×ŀ×©×ª×ŀ×©×ª": 5998,
      "Ġ×ł×¤×Ļ×ľ×ª": 5999,
      "Ġ×Ľ×ª×ĳ×Ļ×ķ": 6000,
      "Ġ×¦×ķ×¨×Ľ×Ļ": 6001,
      "Ġ×Ĺ×ķ×§×Ļ×ķ×ª": 6002,
      "Ġ×Ĺ×ķ×§×ª×Ļ×ª": 6003,
      "Ġ×ł×©×Ļ×ŀ×Ķ": 6004,
      "Ġ×Ķ×¤×¡×§": 6005,
      "Ġ×Ķ×©×Ĳ×Ļ×¨": 6006,
      "Ġ×©×Ļ×ŀ×ķ×¨": 6007,
      "×Ľ×ł×ª": 6008,
      "Ġ×¤×Ļ×¨×ķ×§": 6009,
      "Ġ×Ĺ×ķ×¤×¤×Ļ×Ŀ": 6010,
      "Ġ×ł×¢×©×Ļ×ª": 6011,
      "Ġ×ŀ×¦×ĳ×Ļ×Ŀ": 6012,
      "Ġ×§×ĺ×Ĵ×ķ×¨×Ļ×Ļ×ª": 6013,
      "Ġ×ł×§×ĳ×Ķ": 6014,
      "Ġ×Ķ×¡×¨×ª×Ļ": 6015,
      "Ġ×ŀ×ķ×ĸ×Ļ×Ĳ×ķ×ł×Ļ×Ŀ": 6016,
      "Ġ×©×Ľ×ł×Ķ": 6017,
      "Ġ×ŀ×ĺ×ĳ×Ĺ": 6018,
      "Ġ×ł×ĳ×Ĺ×¨×ķ": 6019,
      "Ġ×¤×¨×¡×Ļ": 6020,
      "Ġ×¤×¨×¡×ķ×ŀ×Ļ×Ŀ": 6021,
      "Ġ×ŀ×Ĵ×ĵ": 6022,
      "Ġ×ŀ×Ĵ×ŀ×Ķ": 6023,
      "Ġ×ŀ×Ĵ×ĸ×Ļ×Ł": 6024,
      "Ġ×©×ĳ×ķ×Ļ×Ļ×Ŀ": 6025,
      "Ġ×Ĺ×ĸ×¨×ķ": 6026,
      "Ġ×Ĺ×ĸ×§×Ķ": 6027,
      "Ġ×ª×©×¢×Ķ": 6028,
      "Ġ×ŀ×ĵ×Ļ×ł×Ļ": 6029,
      "Ġ×¢×ł×Ļ×Ļ×ł": 6030,
      "Ġ×§×ķ×¨×ĳ×ł×ķ×ª": 6031,
      "Ġ×ŀ×ķ×¢×Ļ×ľ": 6032,
      "Ġ×¡×¨×ĺ×Ł": 6033,
      "Ġ×ĺ×¢×Ł": 6034,
      "Ġ×Ĳ×Ļ×©×Ļ×Ļ×Ŀ": 6035,
      "Ġ×ķ×Ļ×§×Ļ×©×Ļ×ª×ķ×£": 6036,
      "Ġ×¦×Ļ×Ļ×ł×Ķ": 6037,
      "Ġ×¦×Ļ×Ļ×§×ķ×ĳ×¡×§×Ļ": 6038,
      "Ġ×©×Ĳ×ľ×ª×ļ": 6039,
      "Ġ×ľ×Ķ×ª×ł×¦×ľ": 6040,
      "Ġ×Ĳ×¦×ĳ×¢": 6041,
      "Ġ×ł×ª×§": 6042,
      "Ġ×ł×ª×ª×Ļ": 6043,
      "×ŀ×ķ×ĵ×ĵ": 6044,
      "Ġ×¤×ľ×Ļ×ľ×Ļ": 6045,
      "Ġ×¤×ľ×ķ×¨×Ļ×ĵ": 6046,
      "Ġ×¤×ľ×ķ×Ĵ×Ķ": 6047,
      "Ġ×¦×¤×ķ×ł×Ļ×ª": 6048,
      "Ġ×Ķ×ķ×¦×¢": 6049,
      "Ġ×Ķ×ķ×¦×Ĳ": 6050,
      "Ġ×Ĳ×Ļ×ĸ×Ľ×ķ×¨": 6051,
      "Ġ×Ķ×Ľ×Ķ": 6052,
      "Ġ×Ķ×Ľ×Ļ×¨": 6053,
      "Ġ×Ķ×Ľ×¨×¢×Ķ": 6054,
      "Ġ×Ľ×ķ×ľ×Ľ×Ŀ": 6055,
      "Ġ×¤×¨×ĺ×Ļ×Ļ×Ŀ": 6056,
      "Ġ×ŀ×ķ×¦×Ĵ×Ļ×Ŀ": 6057,
      "Ġ×ª×¢×ľ×Ķ": 6058,
      "Ġ×ª×¢×ķ×ĵ×ª": 6059,
      "Ġ×ĵ×Ļ×ķ×ł×Ļ": 6060,
      "Ġ×Ķ×ľ×Ľ×ª×Ļ": 6061,
      "Ġ×ĳ×ĵ×ķ×§": 6062,
      "Ġ×ĳ×ĵ×ķ×Ĳ×Ļ×Ŀ": 6063,
      "Ġ×Ĳ×¡×ķ×Ł": 6064,
      "Ġ×Ĳ×¡×ª×¨": 6065,
      "Ġ×Ķ×ķ×¤×¡×§×Ķ": 6066,
      "Ġ×ª×¤×§×Ļ×ĵ×Ķ": 6067,
      "Ġ×ŀ×©×¤×Ĺ×ª×Ķ": 6068,
      "Ġ×ŀ×©×¤×Ĺ×ª×Ļ×ª": 6069,
      "Ġ×ľ×ł×¦": 6070,
      "Ġ×Ĳ×¨×Ĵ×ł×ĺ": 6071,
      "Ġ×ľ×¦×ŀ×¦": 6072,
      "Ġ×Ĳ×ķ×¨×Ľ×ķ": 6073,
      "Ġ×Ĳ×ķ×¨×ķ×Ĵ×ķ×ķ×Ĳ×Ļ": 6074,
      "Ġ×ŀ×Ĺ×ľ×§×ķ×ª": 6075,
      "Ġ×ľ×ĵ×Ĺ×ķ×ª": 6076,
      "Ġ×§×ķ×ĵ×ŀ×Ļ×Ŀ": 6077,
      "Ġ×Ķ×ķ×ĵ×Ļ×¢×ķ": 6078,
      "Ġ×©×ĺ×¨×Ĳ×ķ×¡": 6079,
      "Ġ×Ĺ×ŀ×ķ×¨": 6080,
      "Ġ×Ĺ×ŀ×ķ×¨×Ļ×Ŀ": 6081,
      "Ġ×Ĺ×ŀ×ķ×¨×Ķ": 6082,
      "Ġ×Ĺ×ŀ×ķ×©×Ļ×Ŀ": 6083,
      "Ġ×Ĺ×ķ×ĵ×©×Ļ": 6084,
      "Ġ×©×Ĺ×§×Ļ×Ŀ": 6085,
      "Ġ×©×Ĺ×§×ł×Ļ": 6086,
      "Ġ×ĳ×¨×Ļ×ĺ×Ļ×Ļ×Ŀ": 6087,
      "Ġ×ĳ×Ļ×§×©×ª": 6088,
      "Ġ×Ĳ×§×ľ×Ļ×Ŀ": 6089,
      "Ġ×ª×¨×Ĵ×ķ×ŀ×Ļ×Ŀ": 6090,
      "Ġ×ľ×Ķ×©×§×Ļ×¢": 6091,
      "Ġ×ª×Ĳ×¨×Ļ×Ŀ": 6092,
      "Ġ×ª×Ĳ×ķ×¨×Ļ×Ķ": 6093,
      "Ġ×ª×Ĳ×ķ×ŀ×Ļ×Ŀ": 6094,
      "Ġ×Ļ×¢×ĵ": 6095,
      "Ġ×Ļ×¢×ĳ×ķ×¨": 6096,
      "Ġ×Ĵ×ķ×¨×ĵ×Ļ": 6097,
      "Ġ×Ĵ×ķ×¨×ĵ×ķ×Ł": 6098,
      "×ł×Ĵ×ķ×£": 6099,
      "Ġ×¤×Ļ×Ļ×Ĵ": 6100,
      "Ġ×ŀ×ª×§×¤×ª": 6101,
      "Ġ×Ļ×ª×§×ĳ×ľ": 6102,
      "Ġ×¢×©×ķ": 6103,
      "Ġ×¢×©×Ļ×¨": 6104,
      "Ġ×ª×¤×ķ×¦": 6105,
      "Ġ×ª×¤×ķ×ĸ": 6106,
      "Ġ×Ļ×§×Ļ×¤×ĵ×Ļ": 6107,
      "Ġ×¨×Ľ×ķ×©": 6108,
      "Ġ×¨×Ľ×ĸ": 6109,
      "Ġ×Ľ×ķ×Ĺ×ķ": 6110,
      "Ġ×ĳ×Ļ×ĺ×ķ×Ĺ": 6111,
      "Ġ×Ĳ×¨×ĳ×¢×Ļ×Ŀ": 6112,
      "Ġ×Ĵ×ľ×§×¡": 6113,
      "Ġ×¡×ĵ×ł×Ĳ×ķ×ª": 6114,
      "Ġ×¡×Ĵ×ł": 6115,
      "Ġ×Ĺ×©×ĳ×ķ": 6116,
      "Ġ×©×ŀ×ķ×ł×Ļ×Ŀ": 6117,
      "Ġ×ª×Ĵ×Ļ×Ļ×¡": 6118,
      "Ġ×¨×¤×ķ×¨": 6119,
      "Ġ×ŀ×¡×Ĺ×¨×Ļ×ķ×ª": 6120,
      "×ķ×Ĳ×ľ×Ļ×ª": 6121,
      "Ġ×Ĳ×ľ×ĳ×ķ×ŀ×Ļ×Ŀ": 6122,
      "Ġ×ŀ×Ļ×ľ×¨": 6123,
      "Ġ×ľ×Ķ×ĳ×Ļ×¢": 6124,
      "Ġ×§×ĵ×ķ×ŀ×Ķ": 6125,
      "Ġ×§×ĵ×ķ×©×Ķ": 6126,
      "Ġ×¤×Ĵ×ŀ×Ļ×Ŀ": 6127,
      "Ġ×ķ×ķ×Ļ×§×Ļ×¤×ĵ×Ļ×ķ×ª": 6128,
      "Ġ×§×©×ķ×¨×ķ×ª": 6129,
      "Ġ×¡×ķ×¤×¨×Ļ×Ŀ": 6130,
      "×ŀ×¦×Ļ×Ķ": 6131,
      "Ġ×Ľ×ł×¡×Ļ×Ļ×ª": 6132,
      "Ġ×Ļ×Ļ×©×Ĳ×¨": 6133,
      "Ġ×Ĺ×§×Ļ×§×Ķ": 6134,
      "Ġ×¡×¤×¨×ķ×ª×Ļ×ª": 6135,
      "Ġ×Ļ×ŀ×Ļ×Ķ": 6136,
      "×¨×ľ×Ļ×ª": 6137,
      "Ġ×¨×ķ×ķ×Ĺ×Ķ": 6138,
      "Ġ×ŀ×Ĳ×¤×Ļ×Ļ×Ł": 6139,
      "Ġ×Ľ×ª×Ļ×ĳ×ª×ķ": 6140,
      "Ġ×Ĳ×¨×Ľ×ĳ": 6141,
      "Ġ×ŀ×Ļ×ł×Ļ×ª": 6142,
      "Ġ×ľ×ķ×ķ×Ļ×Ļ×Ł": 6143,
      "Ġ×Ĺ×ĳ×¨×ª×Ļ×ķ×ª": 6144,
      "Ġ×©×Ļ×ŀ×©×Ķ": 6145,
      "Ġ×ł×ķ×Ĵ×¢×Ļ×Ŀ": 6146,
      "Ġ×Ĳ×¨×ķ×Ľ×ķ×ª": 6147,
      "Ġ×©×Ļ×Ļ×Ľ×Ļ×Ŀ": 6148,
      "Ġ×©×Ļ×Ļ×Ľ×ª": 6149,
      "Ġ×Ļ×ĳ×©×Ķ": 6150,
      "Ġ×Ļ×ĳ×ķ×Ĳ×ķ": 6151,
      "Ġ×§×ķ×ĳ×¢×ª": 6152,
      "Ġ×§×ķ×ĳ×¦×Ļ": 6153,
      "Ġ×ŀ×Ĳ×ķ×Ĺ×¨×ª": 6154,
      "Ġ×Ĳ×Ķ×Ļ×Ķ": 6155,
      "Ġ×ĺ×¨×ķ×ŀ×¤": 6156,
      "Ġ×ł×¤×¨×ĵ×Ļ×Ŀ": 6157,
      "Ġ×ª×¨×ķ×¤×ķ×ª": 6158,
      "Ġ×ŀ×©×ŀ×©×ª": 6159,
      "Ġ×¢×ķ×ŀ×ĵ×ª": 6160,
      "Ġ×ŀ×ķ×Ĵ×ĵ×¨": 6161,
      "Ġ×ĺ×ĳ×¢×ķ": 6162,
      "Ġ×ŀ×ķ×ĺ×Ļ×ĳ×¦×Ļ×Ķ": 6163,
      "Ġ×ĺ×ķ×¢×ł×Ļ×Ŀ": 6164,
      "Ġ×ŀ×ª×Ĳ×¨×Ļ×Ŀ": 6165,
      "Ġ×ĺ×Ļ×¤×ķ×¡": 6166,
      "Ġ×¤×¦×¦×ª": 6167,
      "Ġ×¤×¨×ł×§×¤": 6168,
      "Ġ×Ĳ×§×ĵ×ŀ×Ļ×Ļ×Ŀ": 6169,
      "Ġ×¤×ķ×¤×ķ×ľ×¨×Ļ×ª": 6170,
      "Ġ×ĳ×Ĵ×Ļ×Ł": 6171,
      "Ġ×©×ķ×¤×¥": 6172,
      "Ġ×Ľ×¡×¤×Ļ": 6173,
      "Ġ×§×¨×Ļ×ĺ×¨×Ļ×ķ×Ł": 6174,
      "Ġ×ŀ×ĵ×ķ×Ļ×§×Ļ×Ŀ": 6175,
      "Ġ×Ĵ×¨×ķ×¢×Ķ": 6176,
      "Ġ×Ĵ×ķ×ĵ×ľ×ķ": 6177,
      "Ġ×§×Ļ×¡×¨×Ļ×ª": 6178,
      "Ġ×ŀ×ķ×ĳ×Ļ×ľ": 6179,
      "Ġ×ĳ×Ľ×ĵ×Ļ": 6180,
      "Ġ×ŀ×ķ×¤×¢×Ļ×Ŀ": 6181,
      "Ġ×Ĵ×ĳ×¢×Ķ": 6182,
      "Ġ×Ĺ×ķ×ĳ×ĳ×Ļ×Ŀ": 6183,
      "Ġ×¤×Ļ×ĸ×Ļ×ª": 6184,
      "Ġ×ŀ×¢×ķ×ł×Ļ×Ļ×ł×Ļ×Ŀ": 6185,
      "Ġ×ŀ×¤×ķ×¨×ĺ×Ļ×Ŀ": 6186,
      "Ġ×©×ĳ×¢×Ķ": 6187,
      "Ġ×¢×ķ×ĸ×¨": 6188,
      "Ġ×ŀ×ª×§×Ļ×Ļ×ŀ×ķ×ª": 6189,
      "Ġ×ľ×Ļ×Ļ×©": 6190,
      "Ġ×ĳ×ķ×ķ×Ļ×§×Ļ×¤×ĵ×Ļ×Ķ": 6191,
      "Ġ×¢×ŀ×Ļ×Ĺ×Ļ": 6192,
      "Ġ×Ĵ×ķ×ľ×Ł": 6193,
      "Ġ×Ķ×ª×Ĺ×Ļ×Ļ×ĳ×ķ×ª": 6194,
      "Ġ×Ķ×©×ª×ŀ×©×ķ": 6195,
      "Ġ×Ľ×¤×ķ×ľ": 6196,
      "Ġ×Ļ×ĸ×ķ×Ĳ×ľ×Ļ×ª": 6197,
      "Ġ×ľ×Ķ×Ĺ×ĸ×Ļ×§": 6198,
      "Ġ×ŀ×¡×ķ×ĵ×¨×Ļ×Ŀ": 6199,
      "Ġ×ŀ×ķ×§×ĵ×ŀ×ķ×ª": 6200,
      "Ġ×Ļ×¤×Ł": 6201,
      "×ł×¦×Ļ×Ĳ×ľ": 6202,
      "Ġ×Ķ×ª×¢×ł×Ļ×Ļ×ł×ķ×ª": 6203,
      "Ġ×Ķ×¢×ľ×Ļ×ª": 6204,
      "Ġ×Ĳ×ł×ķ×©×Ļ": 6205,
      "Ġ×ŀ×©×ľ×Ĺ×ª": 6206,
      "Ġ×Ķ×ŀ×ķ×ł×Ļ": 6207,
      "Ġ×©×ķ×Ľ×Ł": 6208,
      "Ġ×Ĳ×¦×ĺ×¨×ļ": 6209,
      "Ġ×Ĳ×¢×©×Ķ": 6210,
      "Ġ×ľ×ĸ×Ľ×ķ×¨": 6211,
      "Ġ×ł×Ĳ×ķ×¨": 6212,
      "Ġ×ľ×Ķ×¡×ª×ŀ×ļ": 6213,
      "Ġ×ŀ×ķ×¡×ľ×ŀ×Ļ×ª": 6214,
      "Ġ×ª×Ľ×ł×Ł": 6215,
      "Ġ×ĸ×Ļ×Ķ×ķ×Ŀ": 6216,
      "Ġ×Ķ×Ļ×©×Ĵ×Ļ×Ŀ": 6217,
      "Ġ×ŀ×ľ×Ľ×ķ×ª×Ļ×ª": 6218,
      "Ġ×¨×¤×ķ×ĳ×ľ×Ļ×§": 6219,
      "Ġ×¨×ķ×§×ķ×ľ×Ļ": 6220,
      "Ġ×ŀ×ķ×ĸ×Ľ×¨×Ļ×Ŀ": 6221,
      "Ġ×ŀ×ķ×¨×Ľ×ĳ": 6222,
      "Ġ×¡×Ļ×ŀ×ł×Ļ×Ŀ": 6223,
      "Ġ×Ļ×ķ×ł×Ļ×Ļ×ĺ×ĵ": 6224,
      "Ġ×Ĳ×ł×ķ×ł×Ļ×ŀ": 6225,
      "Ġ×ĳ×§×©×ª×ķ": 6226,
      "Ġ×ĳ×§×©×ª×ļ": 6227,
      "Ġ×ŀ×Ļ×ª×¨×Ļ×Ŀ": 6228,
      "Ġ×ł×©×Ĳ×¨×Ķ": 6229,
      "Ġ×Ķ×¨×Ĺ×ĳ×ª": 6230,
      "Ġ×ª×¡×ĳ×Ļ×¨": 6231,
      "Ġ×ª×¡×Ľ×Ļ×Ŀ": 6232,
      "Ġ×ŀ×¡×ķ×¨×ĳ×ľ": 6233,
      "Ġ×ľ×ķ×ŀ×ĵ×Ļ×Ŀ": 6234,
      "Ġ×ŀ×¨×Ĵ×Ļ×©": 6235,
      "Ġ×¦×Ķ×¨×Ļ×Ļ×Ŀ": 6236,
      "Ġ×¡×ŀ×ķ×Ĳ×ľ": 6237,
      "Ġ×ŀ×ŀ×ľ×Ľ×ª×Ļ×ª": 6238,
      "Ġ×¦×ķ×ľ×ľ×ķ×ª": 6239,
      "Ġ×Ķ×ª×ŀ×ķ×ĵ×ĵ×Ķ": 6240,
      "Ġ×Ķ×¤×¢×Ŀ": 6241,
      "Ġ×Ĳ×Ļ×¤×©×¨": 6242,
      "Ġ×Ĳ×Ļ×¤×ķ×Ĳ": 6243,
      "Ġ×ª×ķ×ª×Ĺ×ł×Ļ×Ŀ": 6244,
      "Ġ×¡×ĺ×ł×ĵ×¨×ĺ×Ļ×ª": 6245,
      "Ġ×ĵ×Ļ×ĳ×¨×ª×Ļ": 6246,
      "Ġ×ľ×ķ×¢×ĸ×Ļ": 6247,
      "Ġ×©×ķ×Ĺ×ĸ×¨": 6248,
      "Ġ×¦×Ľ×ķ×¡×ľ": 6249,
      "Ġ×ľ×Ĵ×Ļ×ĺ×Ļ×ŀ": 6250,
      "Ġ×Ķ×¢×ĵ×¤×ª×Ļ": 6251,
      "Ġ×Ĵ×¨×¢×Ļ×Ł": 6252,
      "Ġ×Ĵ×¨×¢×Ļ×ł×Ļ": 6253,
      "Ġ×¢×Ļ×ĵ×Ł": 6254,
      "Ġ×ŀ×ĺ×¢×Ł": 6255,
      "Ġ×ľ×Ķ×ª×¢×ľ×Ŀ": 6256,
      "Ġ×ĳ×¨×ł×¨": 6257,
      "Ġ×ĺ×Ľ×ł×Ļ×ķ×Ł": 6258,
      "Ġ×©×ĳ×Ļ×¢×Ļ": 6259,
      "Ġ×©×ĳ×Ļ×¢×Ļ×ª": 6260,
      "Ġ×ĵ×Ļ×ķ×§×Ł": 6261,
      "Ġ×Ķ×ł×ĵ×¡×ª": 6262,
      "Ġ×¢×ĺ×Ļ×¤×ª": 6263,
      "Ġ×§×ŀ×¤×Ļ×Ļ×Ł": 6264,
      "×ĺ×ķ×Ĳ×ľ×Ļ": 6265,
      "Ġ×Ĵ×ķ×ł×¡": 6266,
      "Ġ×Ķ×ķ×©×ŀ×ĵ": 6267,
      "Ġ×Ĳ×Ļ×ł×ĵ×§×¡": 6268,
      "Ġ×ŀ×Ļ×ķ×¦×Ĵ×ª": 6269,
      "Ġ×Ķ×¤×Ĵ×ł×ķ×ª": 6270,
      "Ġ×Ķ×¦×ľ×Ĺ×ª×ķ": 6271,
      "Ġ×ŀ×ķ×¦×ľ×Ĺ×ª": 6272,
      "Ġ×¢×Ļ×ª×ķ×ł×Ĳ×Ļ×Ŀ": 6273,
      "Ġ×¤×ĺ×Ļ×¨×ª×ķ": 6274,
      "Ġ×Ļ×ķ×ķ×¦×¨": 6275,
      "Ġ×ŀ×ķ×ĳ×Ķ×§": 6276,
      "Ġ×Ĳ×ķ×©×ķ×ķ×Ļ×¥": 6277,
      "Ġ×Ĳ×Ļ×ŀ×ķ×¥": 6278,
      "Ġ×¨×ķ×¦×Ĺ×Ļ×Ŀ": 6279,
      "Ġ×ĵ×Ļ×¤×ľ×ķ×ŀ×ĺ×Ļ×ª": 6280,
      "Ġ×ŀ×ª×ķ×Ĳ×¨×ª": 6281,
      "×ķ×¨×ĵ×Ļ×ł×ĺ×ķ×ª": 6282,
      "Ġ×¤×ķ×Ĵ×¢": 6283,
      "Ġ×¤×ķ×ĺ×ł×¦×Ļ×Ĳ×ľ": 6284,
      "Ġ×ĵ×ķ×ľ×¨": 6285,
      "Ġ×ŀ×§×¡×Ļ×ŀ×ķ×Ŀ": 6286,
      "Ġ×ľ×Ĳ×¡×ķ×£": 6287,
      "Ġ×ŀ×ŀ×§×ķ×¨×ķ×ª": 6288,
      "Ġ×Ĵ×¨×ł×ĺ": 6289,
      "Ġ×¢×ŀ×ŀ×Ļ×ª": 6290,
      "Ġ×¢×ķ×ŀ×¡": 6291,
      "Ġ×ª×ľ×ķ×Ļ×Ļ×Ŀ": 6292,
      "Ġ×ĵ×¨×ŀ×Ķ": 6293,
      "Ġ×Ļ×Ļ×ľ×¡": 6294,
      "Ġ×ĵ×Ļ×ĸ×ł×Ĵ×ķ×£": 6295,
      "×Ļ×§×ĺ×Ļ×ĳ×Ļ": 6296,
      "Ġ×ľ×Ĳ×Ľ×ķ×ľ": 6297,
      "Ġ×Ķ×§×ĵ×Ļ×©": 6298,
      "Ġ×ŀ×Ļ×ł×Ļ×ŀ×ľ×Ļ": 6299,
      "Ġ×¦×Ĳ×¦×Ĳ×Ļ": 6300,
      "Ġ×Ĳ×Ļ×ĵ×Ĳ×ķ×ľ×ķ×Ĵ×Ļ×Ķ": 6301,
      "Ġ×Ľ×Ļ×¡×ķ×Ļ": 6302,
      "Ġ×§×¨×ª×Ĵ×ķ": 6303,
      "×ķ×ľ×ķ×¦×Ļ×Ķ": 6304,
      "Ġ×ľ×Ķ×Ĵ×ĵ×Ļ×¨": 6305,
      "Ġ×Ĳ×ľ×Ļ×ĸ×ĳ×ª": 6306,
      "Ġ×ŀ×Ķ×ł×ĵ×¡": 6307,
      "Ġ×ľ×¢×ĸ×ķ×ĳ": 6308,
      "Ġ×Ķ×ŀ×ª×ł×Ķ": 6309,
      "Ġ×ľ×¨×Ľ×ķ×©": 6310,
      "Ġ×ĳ×Ļ×ĸ×ł×ĺ": 6311,
      "Ġ×Ľ×¨×Ĳ×ķ×Ļ": 6312,
      "Ġ×Ļ×ľ×Ķ×ľ×Ŀ": 6313,
      "Ġ×Ĳ×Ļ×¦×Ļ×§": 6314,
      "Ġ×Ĳ×Ļ×ŀ×Ļ×Ļ×ľ": 6315,
      "Ġ×§×ķ×Ĳ×ķ×¨×ĵ×Ļ×ł×ĺ×ķ×ª": 6316,
      "Ġ×ľ×Ķ×ŀ×ľ×Ļ×¥": 6317,
      "Ġ×ŀ×ª×ł×ĵ×ĳ×Ļ×Ŀ": 6318,
      "Ġ×ŀ×¤×ķ×ĸ×¨×Ļ×Ŀ": 6319,
      "Ġ×¤×ľ×ķ×¨×Ļ×ĵ×Ķ": 6320,
      "Ġ×Ĳ×¨×Ĵ×ł×ĺ×Ļ×ł×Ķ": 6321,
      "Ġ×ľ×¦×ŀ×¦×Ŀ": 6322,
      "Ġ×ĺ×¨×ķ×ŀ×¤×ľ×ĵ×ķ×¨": 6323,
      "Ġ×¤×¨×ł×§×¤×ķ×¨×ĺ": 6324,
      "Ġ×¦×Ľ×ķ×¡×ľ×ķ×ĳ×§×Ļ×Ķ": 6325,
      "ª×¨": 6326,
      "Ľ×ķ×¨": 6327,
      "ľ×Ļ×Ł": 6328,
      "×Ļ×Ļ×ĵ": 6329,
      "×Ļ×Ļ×ł×ķ×ª": 6330,
      "Ġ×Ķ×ķ": 6331,
      "Ġ×Ķ×Ļ×¨": 6332,
      "Ġ×Ķ×Ļ×ĳ": 6333,
      "Ġ×Ķ×ķ×¨×Ļ×Ŀ": 6334,
      "Ġ×Ķ×Ļ×ł×Ķ": 6335,
      "Ġ×Ķ×ķ×ľ×ĵ": 6336,
      "Ġ×Ķ×Ļ×Ļ": 6337,
      "Ġ×ľ×ķ×ľ": 6338,
      "Ġ×ľ×¨×ķ×¥": 6339,
      "Ġ×ľ×Ļ×ŀ×ĵ": 6340,
      "Ġ×ľ×¨×ĵ×ª": 6341,
      "Ġ×ĳ×ķ×ĳ": 6342,
      "Ġ×ĳ×¨×Ļ×Ľ": 6343,
      "Ġ×ĳ×ŀ×Ĳ": 6344,
      "Ġ×ĳ×¡×ķ×£": 6345,
      "×ľ×Ļ×ª": 6346,
      "×ľ×ķ×Ł": 6347,
      "×ľ×ŀ×Ķ": 6348,
      "×ľ×ŀ×Ļ": 6349,
      "Ġ×©×ĵ": 6350,
      "Ġ×©×ŀ×Ļ×Ŀ": 6351,
      "Ġ×¢×ķ×¨×¨": 6352,
      "×©×Ļ×ķ": 6353,
      "×ĵ×Ļ×Ļ×Ŀ": 6354,
      "×ĵ×ķ×§": 6355,
      "×ĵ×Ĳ×ķ": 6356,
      "×ĵ×Ļ×Ĳ×ľ": 6357,
      "Ġ×ľ×Ł": 6358,
      "Ġ×Ļ×¤×ª×Ĺ": 6359,
      "Ġ×Ĺ×ķ×ķ×Ķ": 6360,
      "Ġ×Ĺ×ķ×ŀ×ķ×ª": 6361,
      "Ġ×Ĺ×¤×©": 6362,
      "×ł×Ļ×¡": 6363,
      "×ł×¦×Ķ": 6364,
      "×ł×©×ĺ×Ļ×Ļ×Ł": 6365,
      "×¢×ľ": 6366,
      "×¢×Ł": 6367,
      "Ġ×ł×ķ×ĸ": 6368,
      "Ġ×ł×ķ×ķ×Ķ": 6369,
      "Ġ×ł×ł×Ļ×Ĺ": 6370,
      "Ġ×ŀ×ķ×¨×Ļ×Ŀ": 6371,
      "Ġ×ŀ×ķ×¦×Ķ": 6372,
      "Ġ×ŀ×Ļ×Ķ×ķ": 6373,
      "Ġ×Ĳ×Ļ×Ľ": 6374,
      "Ġ×Ĳ×Ļ×ŀ×¦": 6375,
      "Ġ×ª×Ļ×¢": 6376,
      "Ġ×ª×ľ×ª": 6377,
      "Ġ×ª×Ļ×ĳ×ķ×ª": 6378,
      "Ġ×ª×Ļ×Ĺ×¡": 6379,
      "Ġ×ª×ĳ×ķ×¨": 6380,
      "Ġ×ª×ŀ×¦": 6381,
      "Ġ×ª×Ĵ×ľ×ķ": 6382,
      "Ġ×ķ×ĳ": 6383,
      "Ġ×ķ×Ļ×Ļ×¡": 6384,
      "Ġ×¨×ŀ": 6385,
      "×¤×Ļ×¨": 6386,
      "×¤×ķ×¡": 6387,
      "Ġ×¤×ķ×§": 6388,
      "Ġ×¤×Ļ×©": 6389,
      "Ġ×¤×Ļ×ł×ª": 6390,
      "Ġ×¤×Ļ×ł×ķ×Ļ": 6391,
      "Ġ×§×ł×Ļ": 6392,
      "Ġ×§×ŀ×Ķ": 6393,
      "Ġ×§×ł×ĺ": 6394,
      "Ġ×§×¤×ľ": 6395,
      "Ġ×§×ķ×©×Ļ": 6396,
      "×Ĳ×¨×ª": 6397,
      "Ġ×ĸ×¨×Ļ×": 6398,
      "×¦×ĳ×ķ×¨×Ĵ": 6399,
      "×ĺ×Ł": 6400,
      "×ĺ×ª×Ļ": 6401,
      "Ġ×Ĵ×Ĵ": 6402,
      "Ġ×Ĵ×Ļ×ĺ": 6403,
      "Ġ×Ĵ×¨×Ļ": 6404,
      "Ġ×Ĵ×ĳ×Ļ": 6405,
      "Ġ×Ĵ×ľ×Ļ": 6406,
      "Ġ×Ĵ×ľ×ķ": 6407,
      "Ġ×Ĵ×Ļ×ĳ×ķ×¨": 6408,
      "Ġ×Ĵ×Ļ×ľ×ķ": 6409,
      "Ġ×Ĵ×ķ×Ļ×Ķ": 6410,
      "Ġ×Ĵ×ķ×ª×Ļ×ª": 6411,
      "×ŀ×ķ×¨": 6412,
      "×ŀ×ķ×ł": 6413,
      "×ŀ×ķ×ł×Ļ×Ŀ": 6414,
      "×ŀ×¨×§": 6415,
      "Ġ×ĵ×ľ×ª": 6416,
      "Ġ×ĵ×ķ×Ĳ×": 6417,
      "Ġ×ĵ×Ļ×ĳ×ķ×¨": 6418,
      "Ġ×©×ľ×ľ": 6419,
      "Ġ×©×ľ×Ļ×ľ×Ļ×ª": 6420,
      "Ġ×¦×ķ×ľ×Ŀ": 6421,
      "Ġ×¦×Ļ×ľ×Ķ": 6422,
      "×¡×¡×Ķ": 6423,
      "Ġ×¡×ķ×ĵ": 6424,
      "Ġ×¡×ĳ×ľ": 6425,
      "Ġ×¡×Ļ×ł×Ļ": 6426,
      "Ġ×¡×Ļ×¡×Ļ×Ŀ": 6427,
      "Ġ×¡×Ľ×ł×ª": 6428,
      "×Ļ×ł×ķ×ĳ×Ļ×¥": 6429,
      "×Ļ×§×Ļ×Ł": 6430,
      "Ġ×ľ×Ķ×¨×Ĳ×ķ×ª": 6431,
      "Ġ×ľ×Ķ×§×ľ": 6432,
      "Ġ×ľ×Ķ×Ļ×ŀ×ľ": 6433,
      "Ġ×ľ×Ķ×ķ×ĳ×Ļ×ľ": 6434,
      "Ġ×¢×ľ×Ļ×ķ×ª": 6435,
      "Ġ×¢×ľ×ķ×ľ×Ļ×Ŀ": 6436,
      "Ġ×¢×ľ×Ļ×Ļ": 6437,
      "Ġ×ŀ×©×Ĳ": 6438,
      "Ġ×ŀ×©×ľ×Ļ": 6439,
      "Ġ×ŀ×©×ķ×¨×¨": 6440,
      "Ġ×ŀ×©×ŀ×Ĳ×ľ": 6441,
      "×ĳ×¨×ķ×ª": 6442,
      "×ĳ×¨×Ļ×Ķ": 6443,
      "×ķ×©×¨×Ļ×Ŀ": 6444,
      "Ġ×Ļ×©×ķ": 6445,
      "Ġ×Ļ×©×ĳ": 6446,
      "×ķ×¡×Ļ×Ŀ": 6447,
      "×ķ×¡×£": 6448,
      "×ķ×¡×ķ×£": 6449,
      "×ķ×§×¤×§": 6450,
      "×Ļ×¤×ķ×Ļ": 6451,
      "Ġ×ŀ×§×ľ": 6452,
      "×Ļ×Ĳ×¨×ĵ": 6453,
      "Ġ×ľ×ŀ×Ľ×ķ×¨": 6454,
      "Ġ×ĺ×ĳ×¨×Ļ×Ķ": 6455,
      "Ġ×Ĳ×ľ×ª": 6456,
      "Ġ×Ĳ×ľ×Ļ×¡": 6457,
      "Ġ×ŀ×¡×ķ×Ĵ": 6458,
      "Ġ×ŀ×¡×Ĵ×ĵ": 6459,
      "Ġ×ŀ×¡×ķ×¨×ķ×ª": 6460,
      "Ġ×ŀ×¡×¢×ķ": 6461,
      "Ġ×ŀ×¡×ķ×Ĵ×ľ": 6462,
      "Ġ×ŀ×¡×ķ×ŀ×Ł": 6463,
      "×Ļ×¢×ĵ": 6464,
      "×ķ×Ĵ×ķ×ª": 6465,
      "Ġ×ŀ×ĵ×ķ×Ļ": 6466,
      "Ġ×ŀ×Ĺ×ķ×¦×Ķ": 6467,
      "Ġ×ŀ×Ĺ×Ľ×Ķ": 6468,
      "Ġ×ŀ×Ĺ×ĳ×ľ×Ļ×Ŀ": 6469,
      "Ġ×ŀ×¢×ķ×ĵ": 6470,
      "×ķ×ŀ×¥": 6471,
      "Ġ×ŀ×ª×Ľ×ł": 6472,
      "Ġ×ŀ×ª×ķ×Ĳ×¨": 6473,
      "Ġ×ŀ×ª×¤×ª×Ĺ": 6474,
      "Ġ×ŀ×ª×¤×ľ": 6475,
      "Ġ×ŀ×ª×ŀ×Ļ×ĵ": 6476,
      "Ġ×Ķ×ª×ł×ª": 6477,
      "Ġ×Ķ×ª×ł×§": 6478,
      "Ġ×Ķ×ª×Ĵ×ķ×¨×¨": 6479,
      "Ġ×Ĳ×¤×©×ĺ×Ļ×Ļ×Ł": 6480,
      "Ġ×Ķ×¦×Ķ×¨×Ķ": 6481,
      "Ġ×ŀ×¦×ķ×ķ×ª": 6482,
      "Ġ×Ĳ×ĳ×Ļ×¨": 6483,
      "Ġ×Ĳ×ĳ×ķ×ĵ": 6484,
      "Ġ×Ĳ×ĳ×ĵ×ķ×§": 6485,
      "Ġ×Ĳ×ĳ×Ļ×¢×ĵ": 6486,
      "Ġ×ŀ×ľ×Ĳ×ķ×ª": 6487,
      "Ġ×ŀ×ľ×ķ×ķ×Ķ": 6488,
      "×¨×Ľ×Ļ×Ķ": 6489,
      "Ġ×Ĳ×Ĺ×¨×Ĳ": 6490,
      "Ġ×Ĳ×Ĺ×ķ×¨×Ļ": 6491,
      "Ġ×Ĳ×Ĺ×Ļ×ĵ×Ķ": 6492,
      "Ġ×ľ×¤×¨×ĺ": 6493,
      "Ġ×ľ×Ĳ×ª×¨": 6494,
      "Ġ×¨×ĳ×Ļ×ł×ķ×ĳ×Ļ×¥": 6495,
      "Ġ×Ĺ×ľ×ķ": 6496,
      "Ġ×Ĺ×ľ×Ļ×Ŀ": 6497,
      "Ġ×Ĺ×ľ×©": 6498,
      "Ġ×Ĺ×ľ×ķ×ł×ķ×ª": 6499,
      "Ġ×Ĺ×ľ×ľ×Ļ×Ŀ": 6500,
      "Ġ×Ĺ×ľ×Ļ×¤×Ķ": 6501,
      "Ġ×ĳ×Ĺ×ķ×¨": 6502,
      "Ġ×ª×Ĺ×ĸ": 6503,
      "Ġ×ª×Ĺ×©×ķ×ĳ": 6504,
      "Ġ×ŀ×¤×ķ×§×¤×§": 6505,
      "Ġ×Ĳ×¨×ĸ": 6506,
      "×¨×Ĺ×ķ": 6507,
      "×ķ×ª×¨×ķ×ª": 6508,
      "Ġ×¨×Ĳ×Ļ×Ķ": 6509,
      "Ġ×¨×Ĳ×Ļ×ķ×ª": 6510,
      "Ġ×©×ł×ª×Ļ": 6511,
      "Ġ×ŀ×ĳ×ł×Ļ": 6512,
      "Ġ×Ļ×§×©×ª": 6513,
      "Ġ×ŀ×Ĳ×Ł": 6514,
      "Ġ×ª×§×Ļ×ł×Ķ": 6515,
      "Ġ×ª×§×ĵ×Ļ×Ŀ": 6516,
      "Ġ×¤×¢×ľ×Ķ": 6517,
      "Ġ×¨×©×Ĳ×Ļ×Ŀ": 6518,
      "Ġ×ľ×Ľ×ĳ×ķ×©": 6519,
      "Ġ×ľ×©×¤": 6520,
      "Ġ×ĸ×Ľ×¨×ķ×Ł": 6521,
      "Ġ×ĸ×Ľ×Ĳ×Ļ×ª": 6522,
      "Ġ×ŀ×ł×ķ×Ĵ": 6523,
      "Ġ×ŀ×ł×Ļ×¢×ª": 6524,
      "Ġ×Ĺ×Ļ×Ļ×Ķ×Ŀ": 6525,
      "Ġ×Ĺ×Ļ×ķ×ł×Ļ×Ļ×Ŀ": 6526,
      "Ġ×Ĺ×ľ×§×Ł": 6527,
      "Ġ×Ļ×Ľ×ł×¡": 6528,
      "Ġ×ŀ×©×Ĺ×§×Ķ": 6529,
      "Ġ×ĳ×¨×Ļ×¨×ª": 6530,
      "Ġ×Ĺ×¡×Ļ×ĵ×Ļ×Ŀ": 6531,
      "Ġ×¦×ĳ×ķ×¨": 6532,
      "Ġ×Ĳ×ķ×¤×Ĳ": 6533,
      "Ġ×Ĳ×ķ×¤×ł×Ķ": 6534,
      "Ġ×ŀ×Ĳ×¨×§": 6535,
      "Ġ×ŀ×Ĳ×¨×Ĺ×ª": 6536,
      "Ġ×Ļ×¦×ķ×¨×Ļ×Ŀ": 6537,
      "Ġ×Ļ×¦×Ļ×ĳ×Ķ": 6538,
      "×¨×¡×ŀ×ķ": 6539,
      "Ġ×Ĵ×ĵ×ľ×Ļ×Ŀ": 6540,
      "Ġ×ª×ķ×Ľ×ķ": 6541,
      "Ġ×ª×ķ×Ľ×ľ×Ļ": 6542,
      "Ġ×Ķ×Ĵ×Ļ×Ļ×Ķ": 6543,
      "Ġ×Ķ×Ĵ×ĳ×Ļ×ľ": 6544,
      "Ġ×ŀ×©×ª×ł×Ļ×Ŀ": 6545,
      "Ġ×ŀ×©×ª×¨×¢": 6546,
      "Ġ×ł×Ľ×ł": 6547,
      "Ġ×ł×Ľ×©×ľ": 6548,
      "Ġ×Ĳ×ł×Ĵ×ľ×Ļ×Ŀ": 6549,
      "×ľ×ª×ķ": 6550,
      "×¨×¤×ķ×ľ": 6551,
      "Ġ×ľ×§×¡×Ļ×§": 6552,
      "×Ļ×¡×ĺ×¨": 6553,
      "×Ļ×¡×ĺ×Ļ×Ŀ": 6554,
      "Ġ×¤×¡×ľ×Ļ×Ŀ": 6555,
      "Ġ×¤×¡×ķ×§×Ļ×Ŀ": 6556,
      "Ġ×¨×ķ×ĳ×Ļ×ł×©×ĺ×Ļ×Ļ×Ł": 6557,
      "×ķ×Ĳ×Ł": 6558,
      "Ġ×ľ×Ĺ×©": 6559,
      "Ġ×ľ×Ĺ×ª×Ļ": 6560,
      "Ġ×Ĳ×Ļ×Ļ×ľ": 6561,
      "Ġ×Ĳ×©×Ĳ×Ļ×¨": 6562,
      "Ġ×Ĳ×©×§×ľ": 6563,
      "Ġ×§×ĳ×ķ×¨×Ķ": 6564,
      "Ġ×¨×¦×ķ×¢": 6565,
      "Ġ×¨×¦×Ļ×£": 6566,
      "Ġ×¨×¦×ķ×ł×Ļ": 6567,
      "Ġ×¨×¦×Ļ×ł×Ļ×ª": 6568,
      "Ġ×¨×¦×ķ×ł×ķ": 6569,
      "Ġ×ŀ×ĸ×ľ": 6570,
      "Ġ×ŀ×ĸ×Ĵ": 6571,
      "Ġ×ŀ×ĸ×ķ×Ł": 6572,
      "Ġ×ł×¤×ľ×ķ": 6573,
      "Ġ×ŀ×©×ŀ×¢×Ļ": 6574,
      "Ġ×ŀ×©×ŀ×¢×ķ×Ļ×ķ×ª": 6575,
      "Ġ×Ĳ×ł×¦×Ļ×§×ľ×ķ×¤×ĵ×Ļ×Ļ×Ŀ": 6576,
      "Ġ×Ĺ×ķ×§×¨×Ļ": 6577,
      "Ġ×ł×©×ľ": 6578,
      "Ġ×ŀ×¨×Ľ×ĸ×Ķ": 6579,
      "Ġ×ĳ×ł×Ļ×Ļ×ł×Ļ×Ŀ": 6580,
      "Ġ×ĳ×ł×Ļ×Ļ×ª×Ķ": 6581,
      "Ġ×¤×ķ×¨×ł×ķ": 6582,
      "Ġ×¤×Ļ×¨×ł×¦×Ķ": 6583,
      "Ġ×Ĺ×ķ×¤×©×ª": 6584,
      "Ġ×ł×¢×ľ": 6585,
      "Ġ×ł×¢×¨×Ļ×Ŀ": 6586,
      "Ġ×ł×¢×¨×Ľ×ķ×ª": 6587,
      "×ŀ×ł×¢": 6588,
      "Ġ×Ķ×Ļ×¡×ĺ×ķ×¨×Ļ×ķ×ª": 6589,
      "Ġ×ł×§×¨×Ĳ×Ķ": 6590,
      "Ġ×Ļ×¨×ķ×ĵ×Ķ": 6591,
      "Ġ×Ķ×¡×Ļ×¨": 6592,
      "Ġ×Ĺ×©×Ļ×ĳ×ķ×ª×Ķ": 6593,
      "Ġ×¤×¨×¡×Ļ×ª": 6594,
      "Ġ×ŀ×Ĵ×ķ×Ĺ": 6595,
      "Ġ×ŀ×Ĵ×¨×©": 6596,
      "Ġ×ŀ×Ĵ×Ļ×¡×ĺ×¨": 6597,
      "Ġ×©×ĳ×ĺ": 6598,
      "Ġ×Ĳ×Ĵ×Ł": 6599,
      "Ġ×ª×©×Ļ×¢": 6600,
      "Ġ×¢×ª×Ļ×§×Ļ×Ŀ": 6601,
      "×¡×ĺ×ķ×Ł": 6602,
      "Ġ×ŀ×ķ×¢×ĺ": 6603,
      "Ġ×ĺ×¢×ł×ª×Ļ": 6604,
      "Ġ×§×Ļ×ķ×ŀ×Ķ": 6605,
      "Ġ×ķ×Ļ×§×ĺ×ķ×¨×Ļ×Ķ": 6606,
      "Ġ×©×Ļ×ł×Ļ×ª×Ļ": 6607,
      "Ġ×ľ×ª×§": 6608,
      "Ġ×¤×ķ×ľ×ŀ×ķ×¡": 6609,
      "Ġ×ĵ×¨×ķ×ŀ×Ķ": 6610,
      "Ġ×ĵ×¨×ķ×©×Ļ×Ŀ": 6611,
      "Ġ×Ķ×ķ×¡×¨×ķ": 6612,
      "Ġ×¦×ĳ×¢×Ļ": 6613,
      "Ġ×ľ×Ķ×ª×ŀ×ķ×ĵ×ĵ": 6614,
      "Ġ×ŀ×§×¦×Ķ": 6615,
      "Ġ×ł×ª×ª": 6616,
      "Ġ×ł×ª×Ļ×Ļ×Ŀ": 6617,
      "Ġ×ł×ª×Ĺ×Ļ×ľ": 6618,
      "Ġ×¤×ľ×ĺ×Ļ×ł×Ķ": 6619,
      "Ġ×¤×ľ×ķ×Ĵ×ķ×ª": 6620,
      "Ġ×Ĳ×ŀ×Ļ×ł×Ļ×Ŀ": 6621,
      "Ġ×¦×¤×ķ×Ļ×Ļ×Ŀ": 6622,
      "Ġ×Ķ×ķ×¦×Ĵ×ķ": 6623,
      "Ġ×Ļ×¨×ķ×©×Ķ": 6624,
      "Ġ×Ļ×¨×ķ×©×ľ×ŀ×Ļ": 6625,
      "Ġ×ª×ľ×ķ×ł×Ķ": 6626,
      "Ġ×ł×Ķ×ĵ×¨×ª": 6627,
      "Ġ×¤×¨×ĺ×Ļ×ķ×ª": 6628,
      "Ġ×ŀ×ķ×¦×¨": 6629,
      "Ġ×ŀ×ķ×¦×Ĳ×ª": 6630,
      "Ġ×ŀ×ķ×¦×Ĵ×ķ×ª": 6631,
      "Ġ×Ľ×ľ×ľ×Ļ×Ļ×Ŀ": 6632,
      "Ġ×Ĳ×ŀ×¨×ķ": 6633,
      "Ġ×Ķ×ľ×Ļ×ļ": 6634,
      "Ġ×Ĳ×¡×£": 6635,
      "Ġ×ª×¤×§×Ļ×ĵ×Ļ": 6636,
      "Ġ×ľ×ł×ĵ×Ĳ×ķ": 6637,
      "×¨×©×Ķ": 6638,
      "Ġ×ľ×¦×¨×£": 6639,
      "Ġ×ľ×¦×ĺ×ĺ": 6640,
      "Ġ×Ĳ×ķ×¨×ľ": 6641,
      "Ġ×Ļ×Ĺ×¡×Ļ×ķ×ª": 6642,
      "Ġ×ŀ×ķ×ł×¢": 6643,
      "Ġ×ŀ×ķ×ł×ĵ×Ļ×Ĳ×ľ": 6644,
      "Ġ×ŀ×ķ×¡×¨": 6645,
      "Ġ×ŀ×ķ×¡×ŀ×ļ": 6646,
      "Ġ×Ķ×ķ×ĵ×Ĺ×Ķ": 6647,
      "Ġ×Ķ×§×ľ": 6648,
      "Ġ×ª×Ĺ×Ļ×ľ×ª×ķ": 6649,
      "Ġ×Ĺ×ŀ×ķ×¨×ķ×ª": 6650,
      "Ġ×Ĺ×ķ×ľ×¦×Ķ": 6651,
      "Ġ×Ĺ×ķ×ľ×§×Ļ×Ŀ": 6652,
      "Ġ×¤×ķ×¢×ľ×ķ×ª": 6653,
      "Ġ×ŀ×¡×ķ×ķ×Ĵ": 6654,
      "Ġ×ŀ×¡×ķ×ķ×Ĵ×Ļ×Ŀ": 6655,
      "Ġ×Ĳ×§×¨×Ĳ×Ļ": 6656,
      "Ġ×ª×¨×Ĵ×ŀ×ª×Ļ": 6657,
      "Ġ×ľ×Ķ×©×Ļ×ĳ": 6658,
      "Ġ×¦×¨×Ļ×Ľ×ª": 6659,
      "Ġ×Ĺ×Ļ×ľ×ķ×ł×Ļ": 6660,
      "Ġ×ª×Ĳ×ķ×¨": 6661,
      "Ġ×ª×Ĳ×ķ×¦×Ķ": 6662,
      "Ġ×ª×Ĳ×ķ×¨×ĺ": 6663,
      "Ġ×ª×Ĳ×ķ×¨×Ļ×ķ×ª": 6664,
      "Ġ×Ķ×ĳ×Ļ×¢": 6665,
      "Ġ×¤×ł×ķ×Ļ": 6666,
      "Ġ×ª×§×ķ×¤×ª×ķ": 6667,
      "Ġ×ŀ×ª×§×Ł": 6668,
      "Ġ×ŀ×ª×§×©×Ķ": 6669,
      "Ġ×Ļ×ª×ĳ×¨×¨": 6670,
      "Ġ×¢×©×ķ×¨×Ļ×Ŀ": 6671,
      "Ġ×¢×©×Ļ×¨×Ķ": 6672,
      "Ġ×¤×ķ×ľ×Ļ×ĺ×Ļ×§×Ĳ×Ļ×Ŀ": 6673,
      "Ġ×Ĳ×Ľ×ª×ķ×ĳ": 6674,
      "Ġ×ł×¡×Ļ×Ľ×ķ×ª": 6675,
      "Ġ×¤×ķ×¨×ĺ×ķ×Ĵ×ľ": 6676,
      "Ġ×ª×¤×ķ×¡": 6677,
      "Ġ×§×ľ×ĺ×ķ×ª": 6678,
      "Ġ×¨×Ľ×ĳ×ķ×ª": 6679,
      "Ġ×ĳ×Ļ×ĺ×ľ×¡": 6680,
      "Ġ×Ĵ×ľ×¨": 6681,
      "Ġ×ľ×Ķ×Ĵ×©×Ļ×Ŀ": 6682,
      "Ġ×¡×ĵ×Ļ×¨": 6683,
      "Ġ×§×ķ×ľ×ķ×ª": 6684,
      "Ġ×ŀ×ķ×ĵ×¢": 6685,
      "Ġ×ª×Ĺ×ª×ķ×ł×Ķ": 6686,
      "×ķ×Ĳ×ľ×Ķ": 6687,
      "×ķ×Ĳ×ľ×Ļ×Ŀ": 6688,
      "Ġ×ľ×Ķ×¤×Ļ×¥": 6689,
      "Ġ×¤×Ļ×ľ×ķ×¡×ķ×£": 6690,
      "Ġ×¨×ľ×ķ×ķ×ł×ĺ×Ļ×ķ×ª": 6691,
      "Ġ×ŀ×Ļ×ľ×Ļ×ķ×ł×Ļ": 6692,
      "Ġ×ŀ×Ļ×ľ×Ļ×Ĳ×¨×ĵ": 6693,
      "×§×ĵ×Ŀ": 6694,
      "Ġ×ĳ×Ļ×ķ×Ĵ×¨×¤": 6695,
      "Ġ×ĳ×Ļ×ķ×ľ×ķ×Ĵ×Ļ": 6696,
      "×ĵ×ľ×¨": 6697,
      "Ġ×§×ĵ×Ļ×ŀ×Ķ": 6698,
      "Ġ×§×ĵ×ķ×©×Ļ×Ŀ": 6699,
      "Ġ×Ĵ×Ĳ×ķ×ľ×Ķ": 6700,
      "Ġ×©×¨×Ļ×¨": 6701,
      "Ġ×ł×¦×ĺ×¨×ļ": 6702,
      "Ġ×ŀ×ĵ×¢×Ļ×Ļ×Ŀ": 6703,
      "Ġ×ŀ×ĵ×¢×ł×Ļ×Ŀ": 6704,
      "Ġ×ĳ×¢×ľ×Ļ×ľ": 6705,
      "Ġ×Ķ×ĵ×¨×Ĵ": 6706,
      "Ġ×ľ×¡×Ĵ×ķ×¨": 6707,
      "Ġ×Ĺ×ķ×ĸ×Ķ": 6708,
      "Ġ×ł×Ĳ×ŀ×ł": 6709,
      "Ġ×ŀ×ŀ×Ļ×Ļ×¡": 6710,
      "Ġ×ŀ×¡×Ĵ×¨×ķ×ª": 6711,
      "Ġ×¨×Ĵ×©×ķ×ª": 6712,
      "Ġ×¨×Ĵ×Ļ×ľ×Ļ×Ŀ": 6713,
      "Ġ×ĳ×Ļ×¦×¢×ª×Ļ": 6714,
      "Ġ×Ļ×ŀ×Ļ×ķ": 6715,
      "Ġ×Ĵ×ĳ×ķ×Ķ×Ļ×Ŀ": 6716,
      "Ġ×ł×¨×Ĺ×ĳ×ķ×ª": 6717,
      "Ġ×¨×ķ×ķ×Ĺ×ª": 6718,
      "Ġ×Ķ×¡×ĳ×¨×ª×Ļ": 6719,
      "Ġ×ŀ×©×¨×ĵ×Ļ": 6720,
      "Ġ×Ķ×ķ×ľ×Ľ×ª": 6721,
      "Ġ×ł×ķ×¢×ĵ×Ķ": 6722,
      "Ġ×Ĳ×ŀ×¦×Ĳ": 6723,
      "Ġ×ł×Ĵ×Ļ×ł×Ķ": 6724,
      "Ġ×ł×Ĵ×¨×Ŀ": 6725,
      "Ġ×ĺ×Ľ×ł×Ļ×Ļ×Ŀ": 6726,
      "Ġ×Ĳ×§×ĵ×ŀ×Ļ": 6727,
      "Ġ×ĳ×ł×Ŀ": 6728,
      "Ġ×ĳ×ł×ķ×¡×£": 6729,
      "Ġ×Ĺ×ª×Ļ×ŀ×ª": 6730,
      "Ġ×Ĳ×¨×Ļ×§": 6731,
      "Ġ×Ķ×Ĵ×ĵ×¨×ª": 6732,
      "Ġ×©×Ļ×Ļ×Ľ×ķ×ª": 6733,
      "Ġ×Ļ×ĳ×ł×Ķ": 6734,
      "Ġ×Ķ×¦×¢×ª×ļ": 6735,
      "Ġ×ŀ×Ĳ×ķ×Ĺ×¨×ķ×ª": 6736,
      "Ġ×Ĺ×ĵ×¨×Ķ": 6737,
      "Ġ×¢×ł×Ļ×ķ×ª": 6738,
      "Ġ×Ĳ×Ķ×¨×ķ×Ł": 6739,
      "Ġ×Ĳ×Ķ×ĳ×Ķ": 6740,
      "Ġ×Ĳ×Ļ×ĺ×ľ×§×Ļ×Ŀ": 6741,
      "Ġ×Ĳ×Ļ×ĺ×ľ×§×Ļ": 6742,
      "Ġ×ĺ×¨×Ļ×ķ": 6743,
      "Ġ×ł×¤×¨×ĵ×ª": 6744,
      "Ġ×Ķ×Ĺ×ĸ×Ļ×¨": 6745,
      "Ġ×ŀ×ķ×§×ŀ×ª": 6746,
      "Ġ×ª×Ķ×ľ×Ļ×Ľ×Ļ×Ŀ": 6747,
      "Ġ×ĵ×ŀ×ķ×§×¨×ĺ×Ļ×ķ×ª": 6748,
      "Ġ×©×¢×¨×Ļ×Ŀ": 6749,
      "Ġ×©×§×Ļ×¤×ķ×ª": 6750,
      "Ġ×¢×¡×§×Ļ×Ŀ": 6751,
      "Ġ×ł×Ĳ×ľ×¦×ķ": 6752,
      "Ġ×ł×ķ×ª×ł×Ļ×Ŀ": 6753,
      "Ġ×ŀ×ķ×ĺ×¢×Ķ": 6754,
      "Ġ×ľ×©×ľ×ĳ": 6755,
      "Ġ×Ľ×Ĺ×©×ª": 6756,
      "Ġ×ł×ĺ×Ļ×Ļ×Ķ": 6757,
      "Ġ×¤×¡×§×Ļ": 6758,
      "Ġ×¡×¤×ķ×¨×ĺ×Ĳ×Ļ×Ŀ": 6759,
      "Ġ×¤×ķ×¤×ķ×ľ×¨×Ļ×Ļ×Ŀ": 6760,
      "Ġ×Ķ×ĳ×ĵ×ľ×Ļ×Ŀ": 6761,
      "Ġ×ĳ×ķ×ĵ×¤×©×ĺ": 6762,
      "Ġ×Ĳ×ŀ×Ķ": 6763,
      "Ġ×ĵ×ª×ķ×ª": 6764,
      "Ġ×ľ×ĳ×ĵ×ķ": 6765,
      "Ġ×ł×ĸ×Ļ×§×Ļ×Ł": 6766,
      "Ġ×§×Ļ×¡×¨×ķ×ª": 6767,
      "Ġ×ŀ×Ļ×ķ×ª×¨×Ļ×Ŀ": 6768,
      "Ġ×ŀ×ª×ŀ×ĺ×Ļ×ª": 6769,
      "Ġ×Ļ×§×Ļ×¤×ĵ×Ļ×ķ×ª": 6770,
      "Ġ×©×¤×ľ×Ķ": 6771,
      "Ġ×¢×ĳ×ĵ×Ļ×Ŀ": 6772,
      "Ġ×¤×§×ķ×ĵ×ª": 6773,
      "Ġ×¤×Ļ×¡×ķ×§": 6774,
      "Ġ×©×ľ×ĺ×ķ×ł×ķ×ª": 6775,
      "Ġ×ª×§×¦×Ļ×ĳ": 6776,
      "Ġ×Ļ×ķ×¡×Ļ": 6777,
      "Ġ×Ĺ×ķ×ĳ×¨×ª": 6778,
      "Ġ×ŀ×¤×ķ×¨×ĺ×ª": 6779,
      "Ġ×¡×Ļ×¤×ķ×Ĺ": 6780,
      "Ġ×¢×ŀ×Ļ×¨": 6781,
      "Ġ×Ĵ×ķ×ľ×©×Ļ×Ŀ": 6782,
      "Ġ×ł×Ľ×ł×¡×ª×Ļ": 6783,
      "Ġ×¤×¡×Ļ×Ľ×ķ×ľ×ķ×Ĵ": 6784,
      "Ġ×ł×¤×Ĵ×¢×Ķ": 6785,
      "Ġ×ŀ×ŀ×©×ľ×ª×ķ": 6786,
      "Ġ×Ľ×ĳ×ķ×ĵ×ķ": 6787,
      "Ġ×©×Ļ×§×ķ×Ŀ": 6788,
      "Ġ×ŀ×ķ×§×ĵ×ŀ×ª": 6789,
      "Ġ×ł×Ļ×Ļ×ĺ×¨×ľ×Ļ": 6790,
      "Ġ×¤×ł×Ļ×Ķ×Ŀ": 6791,
      "Ġ×ľ×Ķ×©×ª×ľ×ĳ": 6792,
      "Ġ×Ĳ×ĵ×¨×Ļ×Ľ×ľ×Ļ×Ŀ": 6793,
      "Ġ×§×ĳ×ķ×¢×Ķ": 6794,
      "Ġ×Ļ×¤×ł×Ļ×Ŀ": 6795,
      "Ġ×Ķ×©×Ľ×ľ×ª×ķ": 6796,
      "Ġ×§×ĺ×¢×Ļ": 6797,
      "Ġ×Ķ×ł×Ķ×ľ×ª": 6798,
      "Ġ×¨×ķ×¤×Ĳ×Ļ×Ŀ": 6799,
      "Ġ×Ĵ×ł×Ļ×Ł": 6800,
      "Ġ×Ĵ×ł×Ĳ×Ļ": 6801,
      "Ġ×ŀ×¤×ľ×Ĵ×ª×Ļ×ª": 6802,
      "Ġ×Ľ×ĳ×Ļ×©×Ļ×Ŀ": 6803,
      "Ġ×Ľ×ľ×Ľ×ľ×Ļ×Ļ×Ŀ": 6804,
      "Ġ×ł×Ĳ×¦×Ļ×ĸ×Ŀ": 6805,
      "Ġ×©×Ļ×¤×ķ×¨×Ļ×Ŀ": 6806,
      "Ġ×ķ×ķ×Ļ×ł×Ķ": 6807,
      "Ġ×ĸ×§×ķ×§": 6808,
      "Ġ×ĸ×§×ķ×§×Ļ×Ŀ": 6809,
      "Ġ×¡×Ļ×ŀ×ł×Ļ×Ķ": 6810,
      "Ġ×Ĳ×ľ×§×ĺ×¨×ķ×ł×Ļ×Ŀ": 6811,
      "Ġ×Ļ×ķ×ķ×ł×Ļ": 6812,
      "Ġ×ŀ×Ĳ×Ĺ×ĸ×Ļ×Ŀ": 6813,
      "Ġ×ŀ×Ļ×Ļ×¦×Ĵ": 6814,
      "Ġ×ł×ķ×Ĺ×Ķ": 6815,
      "Ġ×ŀ×Ļ×©×Ļ×Ĵ×Ł": 6816,
      "Ġ×ŀ×¨×©×ľ": 6817,
      "Ġ×©×ŀ×¢×ª×Ļ": 6818,
      "×ĳ×§×Ļ×¡×ĺ×Ł": 6819,
      "Ġ×ŀ×ª×¢×ł×Ļ×Ļ×Ł": 6820,
      "Ġ×Ķ×ª×ĳ×¡×¡×Ķ": 6821,
      "Ġ×Ĳ×Ļ×¨×ķ×¤×Ĳ×Ļ×Ŀ": 6822,
      "Ġ×ª×¢×©×Ļ×Ļ×ª×Ļ×ª": 6823,
      "Ġ×ŀ×ľ×Ĳ×Ľ×Ķ": 6824,
      "Ġ×¢×ŀ×ķ×ª×ª": 6825,
      "Ġ×ŀ×¨×Ĵ×¨×ĺ": 6826,
      "Ġ×ŀ×Ļ×§×¨×ķ×ł×ĸ×Ļ×Ķ": 6827,
      "Ġ×ŀ×©×ķ×ª×¤×ª": 6828,
      "Ġ×Ļ×Ļ×Ĺ×ķ×ĵ×Ļ": 6829,
      "Ġ×ł×ķ×ĵ×¢": 6830,
      "Ġ×ł×ķ×ĵ×¢×Ķ": 6831,
      "Ġ×¦×ķ×ľ×ŀ×ķ": 6832,
      "×Ļ×ŀ×¦×Ĳ": 6833,
      "Ġ×Ĳ×©×Ľ×ł×ĸ×Ļ×Ŀ": 6834,
      "Ġ×ŀ×¤×ķ×¨×¡×ŀ×ª": 6835,
      "Ġ×©×ķ×ĵ×¨×Ķ": 6836,
      "Ġ×ł×¨×¦×Ĺ": 6837,
      "Ġ×ª×ķ×ª×Ĺ": 6838,
      "Ġ×ķ×ª×Ļ×§×Ļ×Ŀ": 6839,
      "Ġ×¨×Ĵ×ľ×Ļ×Ŀ": 6840,
      "Ġ×ĸ×ľ×ŀ×Ł": 6841,
      "Ġ×ĸ×ľ×¦×ĳ×ķ×¨×Ĵ": 6842,
      "Ġ×Ĳ×ľ×Ĵ×ĳ×¨×Ķ": 6843,
      "Ġ×ŀ×Ļ×Ļ×¡×ĵ": 6844,
      "Ġ×Ķ×©×§×¢×Ķ": 6845,
      "Ġ×Ĺ×§×ľ×Ĳ×Ļ×Ļ×Ŀ": 6846,
      "Ġ×ľ×ķ×¢×ĸ×Ļ×ª": 6847,
      "Ġ×¦×Ľ×Ļ×Ķ": 6848,
      "Ġ×¡×§×¨×ľ×ĺ": 6849,
      "Ġ×Ķ×ķ×ŀ×ķ×¨": 6850,
      "Ġ×Ĳ×Ĺ×ķ×ª×ķ": 6851,
      "Ġ×ł×Ĺ×©×¤×ķ": 6852,
      "Ġ×Ķ×Ĳ×¨×¥": 6853,
      "Ġ×Ļ×Ļ×ŀ×Ĺ×§×ķ": 6854,
      "Ġ×¤×ķ×¨×¡×ŀ×Ķ": 6855,
      "Ġ×ª×©×ķ×ĳ×ª×Ļ": 6856,
      "Ġ×Ķ×ª×§×Ļ×Ļ×ŀ×ķ": 6857,
      "Ġ×Ķ×ª×§×ĳ×ľ×ķ": 6858,
      "Ġ×Ķ×¤×§×ª": 6859,
      "Ġ×ĳ×Ĳ×ª×Ļ": 6860,
      "Ġ×Ĺ×ķ×ª×Ŀ": 6861,
      "Ġ×Ĵ×ķ×ĺ×ł×ĳ×¨×Ĵ": 6862,
      "Ġ×¡×¦×ł×Ķ": 6863,
      "Ġ×Ĳ×ł×ĺ×Ļ×ķ×Ľ": 6864,
      "Ġ×Ķ×¤×¡×Ļ×ĵ×Ķ": 6865,
      "Ġ×Ķ×ķ×¤×¢×ª×ķ": 6866,
      "Ġ×Ķ×¢×ª×§×Ķ": 6867,
      "Ġ×ŀ×Ļ×Ļ×ĵ×Ļ×ª": 6868,
      "Ġ×¢×Ļ×ª×ķ×ł×Ĳ×Ļ": 6869,
      "Ġ×ł×ķ×ĳ×ŀ×ĳ×¨": 6870,
      "Ġ×§×¨×ł×Ļ": 6871,
      "Ġ×Ķ×Ľ×Ĺ×Ļ×©": 6872,
      "Ġ×Ķ×Ľ×Ĺ×ĵ×Ķ": 6873,
      "Ġ×¢×ŀ×Ļ×ª×Ļ×Ŀ": 6874,
      "Ġ×ĵ×Ļ×ķ×ķ×Ĺ": 6875,
      "Ġ×ŀ×Ĺ×¤×©×ª": 6876,
      "Ġ×ŀ×¦×ĺ×¢×¨": 6877,
      "Ġ×ŀ×Ľ×©×Ļ×¨": 6878,
      "Ġ×ŀ×Ľ×ķ×ĳ×ĵ": 6879,
      "Ġ×Ķ×¢×ĳ×Ļ×¨×ķ": 6880,
      "Ġ×Ķ×Ļ×ł×Ŀ": 6881,
      "Ġ×Ĺ×Ļ×ĸ×ĳ×Ĳ×ľ×ľ×Ķ": 6882,
      "Ġ×ł×¤×ª×Ĺ×Ķ": 6883,
      "Ġ×Ĳ×ķ×ĸ×ĳ×§×Ļ×¡×ĺ×Ł": 6884,
      "Ġ×Ĵ×¨×Ĵ×ķ×¨×Ļ": 6885,
      "Ġ×ĺ×Ļ×¡×ķ×ª": 6886,
      "Ġ×ŀ×ĸ×ķ×Ļ×ł×Ļ×Ŀ": 6887,
      "Ġ×ŀ×ķ×¦×ĵ×§×ª": 6888,
      "Ġ×Ľ×¨×ķ×ł×ķ×ľ×ķ×Ĵ×Ļ": 6889,
      "Ġ×ľ×Ļ×ĺ×Ĳ": 6890,
      "Ġ×ĳ×Ļ×¡×ķ×¡": 6891,
      "Ġ×Ľ×Ļ×©×ľ×ķ×Ł": 6892,
      "Ġ×ľ×Ķ×Ļ×¨×Ĳ×ķ×ª": 6893,
      "Ġ×ľ×Ķ×Ļ×¤×ļ": 6894,
      "Ġ×ŀ×ª×ķ×¨×Ĵ×Ŀ": 6895,
      "Ġ×Ĳ×Ļ×ł×¤×ķ×¨×ŀ×¦×Ļ×Ķ": 6896,
      "Ġ×Ļ×Ľ×ª×ĳ×ķ": 6897,
      "Ġ×ľ×Ķ×ª×ĳ×¦×¢": 6898,
      "Ġ×¡×ĺ×ł×¤×ķ×¨×ĵ": 6899,
      "Ġ×Ķ×Ļ×ĵ×¢×ª": 6900,
      "Ġ×ľ×Ļ×Ĳ×ķ": 6901,
      "Ġ×Ĵ×ķ×ŀ×ľ×Ļ×Ł": 6902,
      "Ġ×Ĵ×ŀ×ľ×Ļ×Ĳ×ľ": 6903,
      "Ġ×ľ×Ķ×§×¤×Ļ×ĵ": 6904,
      "Ġ×Ļ×©×¢×Ļ×Ķ×ķ": 6905,
      "Ġ×Ķ×ª×Ĵ×ķ×¨×¨×ķ": 6906,
      "Ġ×ľ×¢×§×ķ×ĳ": 6907,
      "Ġ×ŀ×ĳ×ķ×§×©×Ļ×Ŀ": 6908,
      "Ġ×ŀ×ł×ĵ×ľ×¡×ķ×Ł": 6909,
      "Ġ×ĳ×ľ×¢×ĵ×Ļ": 6910,
      "Ġ×¤×ķ×¨×ĺ×ķ×Ĵ×ĸ": 6911,
      "Ġ×Ľ×¨×ĺ×Ļ×¡": 6912,
      "Ġ×Ĺ×ŀ×Ĳ×¡": 6913,
      "Ġ×¤×¨×Ļ×¦×ª": 6914,
      "Ġ×ľ×Ķ×ĵ×Ĵ×Ļ×©": 6915,
      "Ġ×ĺ×ķ×§×Ļ×ķ": 6916,
      "Ġ×Ķ×ª×Ĳ×ĳ×ĵ×ķ×ª": 6917,
      "Ġ×Ĳ×©×Ľ×ķ×ľ": 6918,
      "Ġ×Ķ×¤×¡×§×ª": 6919,
      "Ġ×¤×Ļ×Ļ×Ĵ×ľ×Ļ×Ł": 6920,
      "Ġ×ª×¤×ķ×¦×ª×ķ": 6921,
      "Ġ×¡×Ĵ×ł×ķ×ł×ķ×ª": 6922,
      "Ġ×ľ×Ļ×Ļ×©×Ŀ": 6923,
      "Ġ×Ĳ×ł×ķ×ł×Ļ×ŀ×Ļ×Ļ×Ŀ": 6924,
      "Ġ×ľ×Ĵ×Ļ×ĺ×Ļ×ŀ×Ļ×ª": 6925,
      "Ġ×ĳ×Ļ×ĸ×ł×ĺ×Ļ×ª": 6926,
      "Ġ×ŀ×ķ×¦×Ķ×¨×ª": 6927,
      "Ġ×ª×Ļ×¢×ķ×ĵ": 6928,
      "Ġ×ĸ×¨×Ļ×ŀ×Ķ": 6929,
      "Ġ×Ĵ×ľ×ķ×Ļ×Ķ": 6930,
      "Ġ×ĵ×ķ×Ĳ×Ĵ": 6931,
      "Ġ×ľ×Ķ×Ļ×ŀ×ľ×ĺ": 6932,
      "Ġ×ŀ×ª×¤×ľ×ľ×Ļ×Ŀ": 6933,
      "Ġ×Ķ×ª×ł×ª×§×ķ×ª": 6934,
      "Ġ×Ķ×ª×ł×§×©×ķ×ª": 6935,
      "Ġ×ľ×§×¡×Ļ×§×ķ×Ł": 6936,
      "Ġ×Ĳ×©×§×ľ×ķ×Ł": 6937,
      "Ġ×ŀ×ŀ×Ļ×Ļ×¡×ĵ×Ļ": 6938,
      "¡×ĺ": 6939,
      "Ĺ×Ļ×ĳ": 6940,
      "ľ×¥": 6941,
      "ľ×ª×¨": 6942,
      "×Ļ×Ļ×ľ": 6943,
      "×Ļ×ķ×ł×Ļ×Ŀ": 6944,
      "×Ļ×Ļ×¢×ķ": 6945,
      "×Ļ×Ļ×ŀ×¨": 6946,
      "×ķ×ķ×Ĳ×ľ": 6947,
      "Ġ×Ķ×¨×Ļ×Ŀ": 6948,
      "Ġ×Ķ×ķ×ĳ×Ķ": 6949,
      "Ĳ×¡": 6950,
      "Ĳ×©×Ŀ": 6951,
      "Ĳ×ľ×¥": 6952,
      "×Ķ×Ľ": 6953,
      "Ġ×ľ×ķ×¡": 6954,
      "Ġ×ľ×Ļ×¤": 6955,
      "Ġ×ľ×©×ª": 6956,
      "Ġ×ľ×¨×ĳ×ķ×ª": 6957,
      "Ġ×ľ×¨×ŀ": 6958,
      "Ġ×ľ×¨×Ĵ×ľ": 6959,
      "Ġ×ĳ×ĳ": 6960,
      "Ġ×ĳ×©×¨": 6961,
      "Ġ×ĳ×ĵ×Ļ×Ķ": 6962,
      "Ġ×ĳ×Ļ×ľ×Ķ": 6963,
      "Ġ×ĳ×ķ×ĵ×Ķ": 6964,
      "Ġ×ĳ×Ļ×§×¨": 6965,
      "Ġ×ĳ×ķ×ĳ×ķ×ª": 6966,
      "×ľ×ķ×ł×Ł": 6967,
      "Ġ×Ĳ×Ł": 6968,
      "Ġ×Ĳ×Ĳ×ľ×¥": 6969,
      "Ġ×©×ķ×ł": 6970,
      "Ġ×©×¨×ķ×ª": 6971,
      "Ġ×©×Ļ×Ĳ×Ķ": 6972,
      "Ġ×©×ķ×¨×©": 6973,
      "Ġ×©×ķ×Ĳ×ľ×Ļ×Ŀ": 6974,
      "×ĳ×©": 6975,
      "×ĳ×ľ×Ķ": 6976,
      "×ĳ×ķ×¨×ª": 6977,
      "×ĳ×Ļ×¥": 6978,
      "Ġ×¢×¨": 6979,
      "Ġ×¢×ķ×ł": 6980,
      "Ġ×¢×ķ×¦": 6981,
      "Ġ×¢×ķ×ł×ķ×ª": 6982,
      "Ġ×¢×Ľ×ķ": 6983,
      "×©×ĺ": 6984,
      "×©×ķ×¢×Ļ×Ŀ": 6985,
      "Ġ×Ľ×¨×Ľ×Ļ×Ŀ": 6986,
      "Ġ×Ľ×Ļ×¤×ķ×¨×Ļ×Ŀ": 6987,
      "Ġ×ľ×Ĺ×§": 6988,
      "Ġ×Ļ×Ĳ×": 6989,
      "Ġ×Ļ×ķ×§": 6990,
      "Ġ×Ļ×Ļ×ĵ": 6991,
      "Ġ×Ļ×¨×Ĺ": 6992,
      "Ġ×Ļ×¨×Ĵ": 6993,
      "Ġ×Ļ×¨×Ĳ×Ķ": 6994,
      "Ġ×Ļ×¤×Ļ×Ŀ": 6995,
      "Ġ×Ļ×ŀ×Ļ×ª": 6996,
      "Ġ×Ļ×ķ×ľ×ķ×Ĵ×Ļ×Ķ": 6997,
      "Ġ×Ļ×ŀ×¦": 6998,
      "Ġ×Ļ×¨×Ļ×Ĺ": 6999,
      "Ġ×Ļ×¨×§×ķ×Ł": 7000,
      "Ġ×Ĺ×Ļ×ŀ": 7001,
      "Ġ×Ĺ×Ļ×¨×ķ×ª": 7002,
      "Ġ×Ĺ×ķ×ĳ×ķ×ª": 7003,
      "Ġ×Ĺ×Ļ×¦×Ķ": 7004,
      "×ł×¢": 7005,
      "×Ĺ×Ļ": 7006,
      "×Ĺ×¡×ĺ×Ł": 7007,
      "×¢×ĸ×¨": 7008,
      "×ķ×¨×ķ×Ł": 7009,
      "×§×ĺ": 7010,
      "×§×Ļ×¤": 7011,
      "×§×ķ×ĺ": 7012,
      "×§×©×Ļ×Ŀ": 7013,
      "Ġ×ł×ķ×Ł": 7014,
      "Ġ×ł×ķ×Ļ": 7015,
      "Ġ×ł×ķ×£": 7016,
      "Ġ×ł×ĳ×ĵ": 7017,
      "Ġ×ł×Ĳ×ķ×ª": 7018,
      "Ġ×ł×Ĳ×ķ": 7019,
      "Ġ×ł×Ļ×ľ×Ļ": 7020,
      "Ġ×ŀ×¨×ª": 7021,
      "Ġ×ŀ×ķ×ļ": 7022,
      "Ġ×ŀ×¨×¦": 7023,
      "Ġ×ŀ×Ļ×ŀ×Ł": 7024,
      "Ġ×Ĳ×Ļ×ķ": 7025,
      "Ġ×Ĳ×Ļ×ŀ×ķ×ª": 7026,
      "Ġ×Ĳ×¨×Ļ×¡": 7027,
      "Ġ×ª×¡×ª": 7028,
      "Ġ×ª×Ľ×ľ": 7029,
      "Ġ×ª×¨×¦": 7030,
      "Ġ×ª×ķ×ĳ×ķ×ª": 7031,
      "Ġ×ª×ŀ×©×Ļ×ļ": 7032,
      "Ġ×ķ×ķ×ª": 7033,
      "Ġ×ķ×Ļ×¡": 7034,
      "Ġ×ķ×¨×©×Ķ": 7035,
      "Ġ×¨×Ŀ": 7036,
      "Ġ×¨×ķ×Ł": 7037,
      "Ġ×¨×¢×Ķ": 7038,
      "Ġ×¨×ł×ĵ": 7039,
      "Ġ×¨×Ľ×ª": 7040,
      "Ġ×¨×ĵ×ľ×¨": 7041,
      "×¤×Ļ×ľ×Ļ×Ŀ": 7042,
      "Ġ×¤×ĵ×¨": 7043,
      "Ġ×¤×¨×Ļ×ĺ": 7044,
      "Ġ×¤×ķ×ĺ×¨": 7045,
      "Ġ×§×Ĺ": 7046,
      "Ġ×§×ŀ": 7047,
      "Ġ×§×Ĳ×": 7048,
      "Ġ×§×ĸ": 7049,
      "Ġ×§×¨×Ļ×Ŀ": 7050,
      "Ġ×§×¨×ĺ": 7051,
      "Ġ×§×ķ×ĳ×Ķ": 7052,
      "Ġ×§×ķ×¦×¨": 7053,
      "Ġ×§×¨×Ļ×Ĳ": 7054,
      "Ġ×Ĳ×ª×ł×Ļ×ķ×ª": 7055,
      "×Ĳ×Ļ×ķ×ª": 7056,
      "×Ĳ×ķ×Ŀ": 7057,
      "Ġ×ĸ×Ĳ×Ł": 7058,
      "Ġ×ĸ×ĳ×ķ×ľ": 7059,
      "×ķ×ł×ķ×ŀ": 7060,
      "×¦×Ļ×Ĵ": 7061,
      "×¦×¦×ª": 7062,
      "×ĺ×¨×ķ": 7063,
      "Ġ×Ĵ×ł×Ļ": 7064,
      "Ġ×Ĵ×¨×Ļ×Ŀ": 7065,
      "Ġ×Ĵ×ķ×ĸ": 7066,
      "Ġ×Ĵ×Ļ×ľ×Ķ": 7067,
      "Ġ×Ĵ×ľ×ķ×ª": 7068,
      "Ġ×Ĵ×ķ×Ļ×Ļ×Ŀ": 7069,
      "Ġ×Ĵ×Ļ×ŀ×ł": 7070,
      "Ġ×Ĵ×Ķ×Ķ": 7071,
      "×Ľ×¨": 7072,
      "×Ľ×ķ×ķ×Ł": 7073,
      "×ŀ×ķ×©×ª": 7074,
      "×ŀ×ķ×ł×ĵ": 7075,
      "Ġ×ĵ×Ŀ": 7076,
      "Ġ×ĵ×Ļ×Ķ": 7077,
      "Ġ×ĵ×ł×Ķ": 7078,
      "Ġ×ĵ×§×ĵ": 7079,
      "Ġ×ĵ×Ĳ×ĸ": 7080,
      "Ġ×ĵ×Ĳ×Ĵ": 7081,
      "Ġ×ĵ×¨×§×ķ×Ł": 7082,
      "Ġ×©×ľ×Ļ×ĺ×Ļ×Ŀ": 7083,
      "×ķ×ľ×Ł": 7084,
      "Ġ×¦×¡": 7085,
      "Ġ×¦×ķ×§": 7086,
      "Ġ×¦×Ĳ×ł×¡": 7087,
      "×¡×Ļ×Ķ": 7088,
      "Ġ×¡×£": 7089,
      "Ġ×¡×Ļ×ł×Ĵ": 7090,
      "Ġ×¡×ŀ×ļ": 7091,
      "Ġ×¡×Ķ×Ľ": 7092,
      "×Ļ×ł×Ļ×Ķ": 7093,
      "Ġ×Ĳ×ł×ĵ×¨": 7094,
      "Ġ×Ķ×ķ×Ĳ×©×Ŀ": 7095,
      "×Ļ×¨×ķ×©": 7096,
      "×ķ×ĵ×Ļ×¢": 7097,
      "×ķ×ĵ×¨×ª": 7098,
      "Ġ×ľ×Ĳ×¨×Ĵ": 7099,
      "Ġ×ľ×Ķ×Ļ×¢": 7100,
      "×Ļ×ľ×Ļ×Ķ": 7101,
      "×Ļ×ľ×ª×Ļ": 7102,
      "×Ļ×ľ×ķ×Ļ×ķ×ª": 7103,
      "×Ļ×ľ×ķ×¤×Ļ×Ł": 7104,
      "Ġ×¢×ľ×ķ×ª": 7105,
      "Ġ×¢×ľ×ª×Ļ": 7106,
      "Ġ×¢×ľ×Ļ×ļ": 7107,
      "Ġ×ŀ×©×¢": 7108,
      "Ġ×ŀ×©×Ŀ": 7109,
      "Ġ×ŀ×©×ª×Ļ": 7110,
      "Ġ×ŀ×©×Ĳ×ľ": 7111,
      "Ġ×ŀ×©×Ľ×Ł": 7112,
      "Ġ×ŀ×©×ł×Ļ×ķ×ª": 7113,
      "Ġ×ŀ×©×ķ×ĵ×¨×ª": 7114,
      "Ġ×Ļ×©×ķ×¨×ķ×Ł": 7115,
      "×Ļ×ĳ×ķ": 7116,
      "Ġ×ĸ×Ķ×Ļ×¨×ķ×ª": 7117,
      "×Ļ×©×ŀ×Ļ×ķ×ª": 7118,
      "Ġ×Ľ×ľ×ľ×ķ": 7119,
      "×Ļ×¤×¦×Ļ×Ĵ": 7120,
      "×ĸ×¨×Ķ": 7121,
      "×ĸ×¨×ª": 7122,
      "Ġ×ľ×ŀ×ª": 7123,
      "×Ļ×ĵ×Ĳ×ķ": 7124,
      "Ġ×ĺ×Ļ×ľ×Ļ×Ŀ": 7125,
      "Ġ×ĺ×Ļ×¤×Ķ": 7126,
      "Ġ×Ĳ×ľ×Ł": 7127,
      "Ġ×Ĳ×ľ×ĵ×ĵ": 7128,
      "Ġ×Ĳ×ľ×¢×ĸ×¨": 7129,
      "Ġ×ŀ×¡×ĳ×Ļ×¨": 7130,
      "×ķ×¦×Ļ": 7131,
      "×©×¨×Ļ": 7132,
      "×©×¨×ķ×ª": 7133,
      "×ķ×Ĵ×¨": 7134,
      "Ġ×ŀ×ĵ×Ķ": 7135,
      "Ġ×ŀ×ĵ×ķ×¨×Ĵ": 7136,
      "Ġ×ŀ×ĵ×¨×Ļ×Ľ×Ļ×Ŀ": 7137,
      "Ġ×ŀ×Ĺ×¦×Ķ": 7138,
      "Ġ×ĳ×¢×§×Ļ×¤": 7139,
      "Ġ×ŀ×¢×ŀ": 7140,
      "Ġ×ŀ×¢×ł×Ķ": 7141,
      "Ġ×ŀ×¢×ķ×ķ×ª": 7142,
      "Ġ×ŀ×¢×¨×Ļ×Ľ×Ļ×Ŀ": 7143,
      "Ġ×ŀ×¢×ĳ×ķ×¨×ª": 7144,
      "Ġ×ŀ×¢×¤×Ļ×ľ×Ļ×Ŀ": 7145,
      "×ł×Ķ×Ĵ×Ł": 7146,
      "Ġ×ŀ×ª×Ļ×Ŀ": 7147,
      "Ġ×ŀ×ª×ķ×Ľ": 7148,
      "Ġ×ŀ×ª×Ľ×ķ×ķ×ł": 7149,
      "Ġ×ŀ×ª×Ļ×©×Ķ×ķ": 7150,
      "Ġ×Ķ×ª×¨×Ĺ×ĳ": 7151,
      "Ġ×Ķ×ª×¤×©": 7152,
      "Ġ×Ķ×ª×¨×Ĺ×©": 7153,
      "Ġ×Ķ×ª×Ľ×ķ×ķ×Ł": 7154,
      "Ġ×Ĳ×¤×ľ": 7155,
      "Ġ×ŀ×¦×Ļ×¢×Ķ": 7156,
      "Ġ×ŀ×¦×ķ×Ļ×Ķ": 7157,
      "Ġ×Ĺ×©×ĵ": 7158,
      "Ġ×Ĺ×©×ķ×ķ×Ł": 7159,
      "Ġ×Ĺ×©×ŀ×ķ×ł": 7160,
      "×ķ×Ĳ×¨×Ļ×Ķ": 7161,
      "Ġ×ŀ×ľ×ľ": 7162,
      "Ġ×ŀ×ľ×ķ×Ĳ": 7163,
      "Ġ×ŀ×ľ×Ľ×Ļ": 7164,
      "×¨×Ľ×ª×Ļ": 7165,
      "Ġ×Ĳ×Ĺ×Ļ×ĵ": 7166,
      "Ġ×Ĳ×Ĺ×¡×ķ×Ł": 7167,
      "Ġ×ľ×¤×¨×ķ×¥": 7168,
      "Ġ×ľ×Ĳ×Ķ": 7169,
      "Ġ×ľ×Ĳ×Ł": 7170,
      "Ġ×ľ×Ĳ×ľ×ª×¨": 7171,
      "Ġ×Ĳ×¤×©×¨×Ļ×Ļ×Ŀ": 7172,
      "Ġ×ª×Ĺ×ł×ķ×ª": 7173,
      "Ġ×ª×Ĺ×ŀ×ķ×©×ª": 7174,
      "Ġ×ª×ŀ×ķ×ĸ": 7175,
      "Ġ×ľ×¢×ĳ×¨": 7176,
      "Ġ×ŀ×¤×¨×Ļ×ĵ": 7177,
      "×ķ×ĸ×Ķ": 7178,
      "Ġ×Ĳ×¨×Ĺ×Ļ×ĳ": 7179,
      "×ĵ×©×ĺ×Ļ×Ļ×Ł": 7180,
      "Ġ×Ľ×ª×ķ×Ŀ": 7181,
      "×Ļ×Ļ×ª×ķ": 7182,
      "Ġ×Ĳ×ĸ×Ļ": 7183,
      "Ġ×¨×Ĳ×ķ×ĳ×Ł": 7184,
      "Ġ×ŀ×ĳ×Ĺ×¨": 7185,
      "Ġ×ŀ×ĳ×ľ×ĳ×ľ": 7186,
      "×ķ×Ļ×§×Ļ×©×Ļ×ª×ķ×£": 7187,
      "×ķ×Ļ×§×Ļ×¤×ĵ×Ļ×Ŀ": 7188,
      "×Ļ×Ľ×Ŀ": 7189,
      "×Ļ×Ľ×ŀ×Ł": 7190,
      "Ġ×ª×§×¨×Ĳ": 7191,
      "Ġ×ª×§×ľ×ķ×ª": 7192,
      "Ġ×ª×§×Ļ×¤×Ķ": 7193,
      "Ġ×¡×¤×¨×Ļ×Ķ": 7194,
      "Ġ×Ĳ×ķ×Ļ×ĳ": 7195,
      "Ġ×¨×©×Ĳ×Ļ×ª": 7196,
      "Ġ×ľ×Ľ×ķ×ª": 7197,
      "Ġ×ľ×©×Ĺ×¨×¨": 7198,
      "Ġ×¢×¦×Ļ×ķ×Ł": 7199,
      "Ġ×ľ×ĳ×ķ×©": 7200,
      "Ġ×ľ×ĳ×ł×Ķ": 7201,
      "×¨×ĵ×Ŀ": 7202,
      "Ġ×ĳ×Ļ×ª×Ļ": 7203,
      "Ġ×ĳ×Ļ×ª×¨": 7204,
      "Ġ×Ĺ×¡×ĵ": 7205,
      "Ġ×Ĺ×¡×Ļ×ŀ×ķ×ª": 7206,
      "Ġ×Ĺ×¡×ŀ×ª×Ļ": 7207,
      "×ľ×Ļ×Ļ×Ł": 7208,
      "Ġ×Ĳ×ķ×¤×ĺ×Ļ×ª": 7209,
      "Ġ×ŀ×Ĳ×ķ×¨×Ĵ": 7210,
      "Ġ×§×ĺ×ľ×Ĵ": 7211,
      "×Ļ×Ĵ×ľ": 7212,
      "Ġ×Ļ×¦×Ļ×ĳ": 7213,
      "Ġ×Ļ×¦×Ĵ×¨×ľ": 7214,
      "Ġ×Ļ×Ľ×ķ×ľ×ª×ķ": 7215,
      "Ġ×ľ×Ĵ×ķ×¨": 7216,
      "Ġ×ł×Ļ×ª×ł×Ķ": 7217,
      "Ġ×ŀ×Ľ×¨": 7218,
      "Ġ×ŀ×Ľ×Ĳ×Ł": 7219,
      "Ġ×ŀ×Ľ×ķ×ķ×Ł": 7220,
      "Ġ×ŀ×Ľ×ķ×ł×Ļ×ķ×ª": 7221,
      "Ġ×ŀ×ľ×Ĺ×Ļ×Ł": 7222,
      "Ġ×ŀ×Ļ×Ļ×ĵ×Ļ": 7223,
      "Ġ×Ķ×Ĵ×Ļ×©": 7224,
      "Ġ×Ĳ×ķ×ľ×¤×ł×Ļ": 7225,
      "Ġ×Ķ×¢×ľ×ķ": 7226,
      "Ġ×Ķ×¢×¨×ª×Ļ": 7227,
      "Ġ×Ķ×¢×¨×Ľ×ª×Ļ": 7228,
      "Ġ×Ĳ×ĵ×¨": 7229,
      "Ġ×ľ×§×Ĺ": 7230,
      "×¨×Ĳ×ķ": 7231,
      "Ġ×¤×¡×ł×ª": 7232,
      "×ķ×Ĳ×ĳ": 7233,
      "Ġ×ľ×Ĺ×Ļ×Ł": 7234,
      "Ġ×ľ×Ĺ×¦×ķ": 7235,
      "Ġ×ľ×Ĺ×Ļ×ľ×ķ×¤×Ļ×Ł": 7236,
      "Ġ×Ĳ×Ļ×Ļ×ł×©×ĺ×Ļ×Ļ×Ł": 7237,
      "Ġ×Ĳ×Ļ×Ļ×Ľ×ŀ×Ł": 7238,
      "Ġ×¤×ª×Ĳ×ķ×Ŀ": 7239,
      "Ġ×¢×ķ×ĵ×ĵ×Ļ": 7240,
      "Ġ×Ļ×ĵ×ļ": 7241,
      "Ġ×Ļ×ĵ×ł×Ļ×ª": 7242,
      "Ġ×Ļ×ĵ×Ļ×ĵ×ķ×ª": 7243,
      "Ġ×Ķ×Ļ×ķ×ķ×ª×Ķ": 7244,
      "Ġ×¨×¦×ķ": 7245,
      "Ġ×¨×¦×ķ×¤×Ķ": 7246,
      "Ġ×ŀ×ĸ×ĳ×Ĺ": 7247,
      "Ġ×ŀ×ĸ×ŀ×Ļ×Ł": 7248,
      "Ġ×ĳ×ľ×ķ×¡": 7249,
      "Ġ×ĳ×ľ×ķ×Ĵ": 7250,
      "Ġ×Ľ×ª×ĳ×Ļ×Ŀ": 7251,
      "Ġ×Ľ×ª×ĳ×ķ×ª": 7252,
      "Ġ×¨×Ĺ×ķ×§×ķ×ª": 7253,
      "Ġ×ŀ×¨×Ľ×ĸ×Ļ×Ŀ": 7254,
      "Ġ×Ķ×¤×ķ×Ľ×Ķ": 7255,
      "Ġ×Ķ×¤×Ļ×Ľ×Ķ": 7256,
      "Ġ×Ķ×¤×Ļ×Ľ×ª": 7257,
      "Ġ×Ķ×¤×¦×¦×ª": 7258,
      "Ġ×Ķ×©×ŀ": 7259,
      "Ġ×Ķ×©×ľ×Ļ×Ŀ": 7260,
      "Ġ×Ķ×©×Ļ×Ĵ": 7261,
      "Ġ×Ķ×©×Ĵ×ª": 7262,
      "Ġ×Ķ×©×Ĳ×¨×ª": 7263,
      "Ġ×ł×¢×ķ×¨×Ļ×ķ": 7264,
      "Ġ×©×Ļ×ŀ×ķ×©×Ļ×ª": 7265,
      "×ŀ×ĵ×Ķ": 7266,
      "Ġ×Ķ×¡×¨": 7267,
      "Ġ×Ķ×¡×ĳ×Ļ×¨": 7268,
      "Ġ×Ķ×¡×Ľ×Ļ×Ŀ": 7269,
      "Ġ×ŀ×ķ×ĸ×¨": 7270,
      "Ġ×©×Ľ×Ĺ×ª": 7271,
      "Ġ×©×Ľ×Ļ×Ĺ×ķ×ª": 7272,
      "×ĵ×Ķ×ķ×ª": 7273,
      "Ġ×ŀ×ŀ×©×§": 7274,
      "Ġ×ŀ×ĺ×¨": 7275,
      "Ġ×ŀ×ĺ×Ĳ×ľ": 7276,
      "Ġ×ł×Ĺ×¡": 7277,
      "Ġ×ł×Ĺ×¨×¦": 7278,
      "Ġ×ł×Ĺ×ķ×©×ª": 7279,
      "Ġ×¤×¨×¡×ķ×ŀ×ķ×ª": 7280,
      "Ġ×¤×¨×¡×ķ×ŀ×Ļ": 7281,
      "Ġ×Ļ×ķ×¦×¨×ķ": 7282,
      "Ġ×ŀ×Ĵ×ĸ×¨": 7283,
      "Ġ×ŀ×Ĵ×ĳ×ľ×ķ×ª": 7284,
      "Ġ×©×ĳ×ķ×ª": 7285,
      "Ġ×©×ĳ×Ļ×ľ": 7286,
      "Ġ×Ĺ×ĸ×Ķ": 7287,
      "Ġ×Ĳ×Ĵ×ĵ": 7288,
      "Ġ×Ĳ×Ĵ×Ŀ": 7289,
      "Ġ×Ĳ×Ĵ×ķ×ĸ": 7290,
      "Ġ×ª×©×Ľ×Ĺ": 7291,
      "Ġ×¢×ª×Ļ×§": 7292,
      "Ġ×ĳ×§×©": 7293,
      "Ġ×ĳ×§×ķ×©×Ļ": 7294,
      "Ġ×¢×ł×Ļ×Ļ×ł×Ļ×ª": 7295,
      "Ġ×§×ķ×¨×Ĳ×Ļ": 7296,
      "Ġ×ĺ×¢×ŀ×Ļ×Ŀ": 7297,
      "Ġ×ľ×ª×ŀ×ķ×ļ": 7298,
      "Ġ×¤×ķ×ľ×ł×Ļ×Ŀ": 7299,
      "Ġ×¤×ķ×ľ×ł×Ļ×ª": 7300,
      "Ġ×ĵ×¨×Ļ×©×Ķ": 7301,
      "Ġ×ĵ×¨×ķ×ŀ×Ļ×ª": 7302,
      "Ġ×Ķ×ķ×¡×¤×Ķ": 7303,
      "Ġ×¦×ĳ×¢×ª×Ļ": 7304,
      "Ġ×Ĳ×¨×¦×Ļ×ª": 7305,
      "Ġ×¤×Ļ×¨×ķ×©×ķ": 7306,
      "Ġ×ľ×Ķ×ª×¤": 7307,
      "Ġ×ł×ª×Ļ×ĳ": 7308,
      "Ġ×ł×ª×Ļ×ĳ×Ļ": 7309,
      "Ġ×¤×ľ×ķ×¡": 7310,
      "Ġ×¤×ľ×Ļ×§×¡": 7311,
      "Ġ×¦×¤×ķ×ł×Ķ": 7312,
      "Ġ×¦×¤×ķ×£": 7313,
      "Ġ×Ķ×ķ×¦×ĳ": 7314,
      "Ġ×Ķ×ķ×¦×¢×ķ": 7315,
      "Ġ×Ķ×ķ×¦×Ļ×Ĳ×Ķ": 7316,
      "Ġ×Ķ×Ľ×ķ×ľ": 7317,
      "Ġ×Ķ×Ľ×Ļ×ľ": 7318,
      "Ġ×ł×Ķ×ł×Ķ": 7319,
      "Ġ×ł×Ķ×ĵ×¨": 7320,
      "Ġ×¤×©×¢×Ļ×Ŀ": 7321,
      "Ġ×ŀ×ķ×¦×ĳ": 7322,
      "Ġ×ŀ×ķ×¦×Ĳ×Ļ": 7323,
      "Ġ×ŀ×ķ×¦×§×Ļ×Ł": 7324,
      "Ġ×ŀ×§×¦×ķ×¢×ķ": 7325,
      "Ġ×ª×¢×ľ×ª": 7326,
      "Ġ×ª×¢×ĳ×ķ×¨": 7327,
      "Ġ×Ķ×ľ×ļ": 7328,
      "Ġ×Ķ×ľ×Ľ×ķ×ª": 7329,
      "Ġ×ĳ×ĵ×ľ×Ļ×Ŀ": 7330,
      "Ġ×ĳ×ĵ×§×ª×Ļ": 7331,
      "Ġ×ĳ×ĵ×Ļ×Ĺ×Ķ": 7332,
      "Ġ×Ĳ×¡×¤×§": 7333,
      "Ġ×Ĳ×¡×¤×Ķ": 7334,
      "Ġ×Ķ×ķ×¤×Ľ×ª": 7335,
      "×¨×©×ĺ": 7336,
      "Ġ×¢×Ļ×¦×ķ×¨×Ļ×Ŀ": 7337,
      "Ġ×ľ×¦×¢": 7338,
      "Ġ×ľ×¦×ľ×Ŀ": 7339,
      "Ġ×§×¨×Ļ×ª": 7340,
      "Ġ×Ļ×Ĺ×Ļ×ĵ×Ļ": 7341,
      "Ġ×Ļ×Ĺ×Ļ×ĵ×Ļ×Ŀ": 7342,
      "Ġ×ľ×ĵ×ķ×ķ×Ĺ": 7343,
      "Ġ×ŀ×ķ×ł×¨×ļ": 7344,
      "Ġ×ŀ×ķ×¡×£": 7345,
      "Ġ×ŀ×ķ×¡×Ľ×Ŀ": 7346,
      "Ġ×ŀ×ķ×¡×¨×Ļ×ª": 7347,
      "Ġ×¢×©×¨×ª": 7348,
      "Ġ×Ķ×ķ×ĵ×Ļ": 7349,
      "Ġ×Ķ×ķ×ĵ×¤×¡": 7350,
      "Ġ×§×Ķ×Ļ×ľ×ª×Ļ": 7351,
      "Ġ×Ķ×§×Ļ×ŀ×Ķ": 7352,
      "Ġ×ª×Ĺ×Ļ×ľ×ª×Ķ": 7353,
      "Ġ×Ļ×ľ×Ļ×ĵ": 7354,
      "Ġ×©×Ĺ×§×ł×Ļ×ª": 7355,
      "Ġ×¡×ĺ×ľ×Ļ×Ł": 7356,
      "Ġ×ŀ×ĸ×¨×Ĺ×Ļ×Ŀ": 7357,
      "Ġ×Ĳ×§×¨×Ĳ": 7358,
      "Ġ×Ĳ×§×ĺ×ķ×Ĳ×ľ×Ļ": 7359,
      "Ġ×ľ×Ķ×©×ķ×ķ×ª": 7360,
      "Ġ×Ĺ×Ļ×ľ×ķ×ł×Ļ×Ļ×Ŀ": 7361,
      "Ġ×¡×ķ×Ĵ×Ļ×ķ×ª": 7362,
      "Ġ×Ķ×ĳ×Ĳ": 7363,
      "Ġ×Ĵ×ķ×¨×£": 7364,
      "Ġ×Ĵ×ķ×¨×ĵ×Ł": 7365,
      "×ł×Ĵ×¨×ķ": 7366,
      "Ġ×Ĵ×Ļ×ľ×Ŀ": 7367,
      "Ġ×©×ķ×ĳ×ķ": 7368,
      "Ġ×ŀ×ª×§×ĳ×ľ×ª": 7369,
      "Ġ×ŀ×ª×§×ĵ×Ŀ": 7370,
      "Ġ×ľ×Ļ×ŀ×ķ×ĵ×Ļ×Ķ": 7371,
      "Ġ×Ļ×ª×¨×ķ×Ł": 7372,
      "×ķ×¡×§×¡": 7373,
      "Ġ×¢×©×ķ×Ļ×Ļ×Ŀ": 7374,
      "Ġ×ł×ķ×¦×¨×Ļ": 7375,
      "Ġ×ł×¡×¢": 7376,
      "Ġ×ł×¡×Ļ×Ķ": 7377,
      "Ġ×ł×¡×Ĵ": 7378,
      "×ľ×Ĵ×ķ×ª": 7379,
      "Ġ×ª×¤×ķ×Ĺ": 7380,
      "Ġ×ª×¤×Ļ×ľ×Ļ×Ł": 7381,
      "Ġ×ł×ĵ×ķ×Ł": 7382,
      "Ġ×ł×ĵ×ĳ×¨": 7383,
      "Ġ×ł×ĵ×Ļ×¨×ķ×ª": 7384,
      "Ġ×ł×ĵ×Ĺ×Ķ": 7385,
      "Ġ×ľ×ŀ×©×ķ×ļ": 7386,
      "Ġ×¨×Ľ×Ļ×ĳ": 7387,
      "Ġ×Ĳ×Ļ×ł×ĺ×Ĵ": 7388,
      "Ġ×Ĳ×Ļ×ł×ĺ×¨×¡": 7389,
      "Ġ×Ĳ×Ļ×ł×ĺ×Ĵ×¨×ľ": 7390,
      "Ġ×ľ×ķ×Ĺ×ķ×ª": 7391,
      "Ġ×¢×ķ×¡×§×ķ×ª": 7392,
      "Ġ×Ľ×ķ×Ĺ×Ķ": 7393,
      "Ġ×ĳ×Ļ×ĺ×ķ×Ļ×Ļ×Ŀ": 7394,
      "Ġ×Ĳ×¨×ĳ×¢×ª": 7395,
      "Ġ×ĳ×Ļ×ł×ķ×ł×Ļ×ª": 7396,
      "Ġ×¨×¤×Ĳ×Ļ×Ŀ": 7397,
      "Ġ×ĳ×¡×Ļ×¡×Ļ×Ļ×Ŀ": 7398,
      "Ġ×Ļ×ķ×ĵ×¢×ª": 7399,
      "Ġ×Ĳ×ľ×ĳ×¨×ĺ": 7400,
      "Ġ×ŀ×¢×¨×ĳ×Ļ×Ļ×Ŀ": 7401,
      "Ġ×Ķ×ķ×¨×ĵ×Ķ": 7402,
      "Ġ×Ķ×ķ×¨×ĵ×ª": 7403,
      "Ġ×Ķ×ķ×¨×ĳ×Ļ×¥": 7404,
      "Ġ×Ļ×ķ×¨×©": 7405,
      "Ġ×Ľ×©×Ŀ": 7406,
      "Ġ×ŀ×ŀ×ľ×Ľ×ª×Ļ": 7407,
      "Ġ×ĳ×Ļ×Ļ×¨×ķ×ª": 7408,
      "Ġ×ŀ×¡×¤×¨×Ŀ": 7409,
      "Ġ×§×ĵ×Ļ×©": 7410,
      "Ġ×§×ĵ×ŀ×Ķ": 7411,
      "Ġ×§×ĵ×ķ×ŀ×ķ×ª": 7412,
      "Ġ×ł×¦×Ĺ×Ķ": 7413,
      "Ġ×¤×Ĵ×¢×ķ": 7414,
      "Ġ×¤×Ĵ×Ļ×¢×ķ×ª": 7415,
      "Ġ×ľ×¡×ĵ×¨": 7416,
      "Ġ×ľ×¡×ŀ×ķ×ļ": 7417,
      "Ġ×Ĳ×ķ×¡×ľ×ķ": 7418,
      "Ġ×Ĳ×ķ×¡×ķ×ķ×Ĳ×ľ": 7419,
      "Ġ×¡×Ļ×Ļ×¨×ª": 7420,
      "Ġ×¡×Ļ×Ļ×¢×ķ": 7421,
      "Ġ×Ĳ×ŀ×ł×ª": 7422,
      "Ġ×ł×Ļ×¦×ķ×ľ×Ļ": 7423,
      "Ġ×ŀ×ŀ×ķ×ł×Ķ": 7424,
      "Ġ×©×ķ×ľ×Ĺ": 7425,
      "Ġ×¦×ľ×Ŀ": 7426,
      "Ġ×¦×ľ×Ļ×ľ×Ķ": 7427,
      "Ġ×¦×ľ×Ļ×ľ×Ļ": 7428,
      "Ġ×¦×ľ×ĳ×ł×Ļ×ª": 7429,
      "Ġ×¦×ľ×¡×Ļ": 7430,
      "Ġ×¨×Ĵ×Ļ×ľ×Ķ": 7431,
      "Ġ×Ľ×ł×¡×ª×Ļ": 7432,
      "Ġ×Ľ×Ķ×ł×Ļ×Ŀ": 7433,
      "Ġ×Ĺ×§×Ļ×¨×ª": 7434,
      "Ġ×Ĺ×ķ×¡×ŀ×Ļ×Ŀ": 7435,
      "Ġ×ŀ×¢×ĺ×Ķ": 7436,
      "Ġ×ł×ľ×Ĺ×Ŀ": 7437,
      "Ġ×ª×Ļ×§×ķ×ł×Ļ": 7438,
      "Ġ×ĳ×ķ×ĺ×Ķ": 7439,
      "Ġ×ł×Ĵ×Ļ×©": 7440,
      "Ġ×ł×Ĵ×Ļ×£": 7441,
      "Ġ×ŀ×Ļ×ł×ķ×Ļ": 7442,
      "Ġ×ĺ×Ľ×ł×Ļ×§×Ķ": 7443,
      "×ķ×ľ×ĺ×Ķ": 7444,
      "Ġ×¤×ª×Ĺ×ķ": 7445,
      "Ġ×ĵ×ķ×¨×Ļ×ª": 7446,
      "Ġ×Ķ×ķ×¢×ł×§": 7447,
      "Ġ×©×Ĵ×¨": 7448,
      "Ġ×ŀ×¨×ķ×¦×Ķ": 7449,
      "Ġ×ĵ×ŀ×ķ×Ĵ×¨×¤×Ļ×Ķ": 7450,
      "Ġ×Ĺ×ª×ķ×Ŀ": 7451,
      "Ġ×Ĺ×ª×ŀ×ª": 7452,
      "Ġ×Ĺ×ª×Ļ×ŀ×ķ×ª": 7453,
      "Ġ×Ĳ×¨×ķ×Ľ×ª": 7454,
      "Ġ×Ķ×©×¤×¢×ķ×ª": 7455,
      "Ġ×Ķ×©×¤×Ļ×¢×ķ": 7456,
      "Ġ×Ķ×ķ×§×¨×Ķ": 7457,
      "Ġ×¤×ª×ķ×Ĺ×ķ×ª": 7458,
      "Ġ×Ķ×ł×¦": 7459,
      "Ġ×Ĺ×¨×Ļ×£": 7460,
      "Ġ×¢×ŀ×ĵ×ķ": 7461,
      "Ġ×¢×ŀ×ĵ×ª": 7462,
      "Ġ×ĺ×ķ×¨×§×Ļ×Ŀ": 7463,
      "Ġ×ĺ×ķ×¨×§×Ļ": 7464,
      "Ġ×¢×ł×¤×Ļ": 7465,
      "Ġ×Ķ×ª×ł×Ķ×ľ×ķ": 7466,
      "Ġ×Ĳ×Ķ×ĳ": 7467,
      "Ġ×¤×¨×ķ×¤×Ļ×ľ": 7468,
      "Ġ×ª×¨×ķ×¤×Ķ": 7469,
      "Ġ×ª×Ļ×Ĳ×ķ×Ŀ": 7470,
      "Ġ×©×Ĺ×Ļ×ª": 7471,
      "Ġ×ŀ×ķ×ª×Ŀ": 7472,
      "Ġ×ŀ×ķ×ª×Ļ×¨": 7473,
      "Ġ×ŀ×ķ×§×ĵ×©": 7474,
      "Ġ×ŀ×ķ×Ĵ×ĳ×ľ×ª": 7475,
      "Ġ×ŀ×ķ×Ĵ×ĵ×¨×ª": 7476,
      "Ġ×ª×Ľ×ķ×¤×ķ×ª": 7477,
      "Ġ×©×¢×©×ķ×¢×Ļ×Ŀ": 7478,
      "Ġ×ª×¦×ľ×Ļ×Ĺ": 7479,
      "Ġ×ª×¦×ľ×ķ×Ŀ": 7480,
      "Ġ×¤×ł×Ļ×ķ": 7481,
      "Ġ×Ļ×ª×¨×ķ×ł×ķ×ª": 7482,
      "Ġ×Ķ×ª×ł×Ĵ×©×ķ×ª": 7483,
      "Ġ×ŀ×Ĳ×¤×©×¨×ķ×ª": 7484,
      "Ġ×Ĺ×ŀ×©×ª": 7485,
      "Ġ×ŀ×ķ×ĺ×Ķ": 7486,
      "Ġ×¡×¢×ĵ": 7487,
      "Ġ×ŀ×ª×Ĳ×Ļ×ŀ×ķ×ª": 7488,
      "Ġ×ĵ×¨×Ĵ×ķ×ª": 7489,
      "Ġ×Ķ×ķ×Ľ×ł×¡": 7490,
      "Ġ×¤×¨×ł×§": 7491,
      "Ġ×¤×¨×ł×¥": 7492,
      "Ġ×¤×¨×ł×§×ķ": 7493,
      "Ġ×Ļ×¡×ķ×ĵ×ķ×ª": 7494,
      "Ġ×Ļ×¡×Ļ×Ļ×¢×ķ": 7495,
      "Ġ×Ĺ×ĺ×Ļ×ĳ×ķ×ª": 7496,
      "Ġ×ł×ĺ×ķ": 7497,
      "Ġ×ł×ĺ×ľ": 7498,
      "Ġ×ł×ĺ×¢×Ł": 7499,
      "Ġ×¦×Ļ×ľ×ķ×ŀ×Ļ×Ŀ": 7500,
      "Ġ×¦×Ļ×ľ×ŀ×ª×Ļ": 7501,
      "Ġ×Ĺ×Ļ×ķ×ĳ×Ļ×Ļ×Ŀ": 7502,
      "Ġ×Ķ×¡×Ľ×ŀ×Ļ": 7503,
      "Ġ×ŀ×§×ķ×ĳ×ľ×ķ×ª": 7504,
      "Ġ×Ĵ×ĳ×ķ×ľ×Ļ": 7505,
      "Ġ×ĳ×Ĵ×¨×ķ×ª": 7506,
      "Ġ×¤×ľ×¡×ĺ×Ļ×ł×Ļ×ª": 7507,
      "Ġ×ĳ×ķ×ĵ×ĵ": 7508,
      "Ġ×Ĺ×¤×¦×Ļ×Ŀ": 7509,
      "Ġ×¢×¦×ŀ×Ĳ×Ļ×Ļ×Ŀ": 7510,
      "Ġ×¢×ĸ×¨×ª×ļ": 7511,
      "Ġ×Ķ×ĸ×ĵ×Ķ×ķ×ª": 7512,
      "Ġ×Ĳ×ŀ×¡×ĺ": 7513,
      "Ġ×ŀ×ķ×Ĺ×§": 7514,
      "Ġ×ŀ×ķ×Ĺ×¥": 7515,
      "Ġ×ŀ×ķ×Ĺ×§×Ļ×Ŀ": 7516,
      "Ġ×ł×ĸ×Ļ×¨×Ļ×Ŀ": 7517,
      "Ġ×ŀ×Ĺ×ĸ×ķ×ª": 7518,
      "Ġ×¤×¢×ķ×ľ×ķ×ª×Ļ×ķ": 7519,
      "Ġ×ĸ×ķ×Ķ×¨": 7520,
      "Ġ×ŀ×ª×ŀ×ĺ×Ļ": 7521,
      "Ġ×ŀ×ķ×¢×ŀ×ĵ×ª": 7522,
      "Ġ×©×¤×ķ×ļ": 7523,
      "Ġ×ŀ×ķ×ĳ×ł×ª": 7524,
      "Ġ×¤×§×ķ×ľ×ĺ×Ķ": 7525,
      "Ġ×ł×ĵ×¨×©×Ļ×Ŀ": 7526,
      "Ġ×ĳ×Ľ×ķ×¨": 7527,
      "Ġ×Ĵ×ĳ×¢×ķ×ª": 7528,
      "Ġ×Ĺ×ķ×ĳ×ĳ": 7529,
      "Ġ×ª×ĳ×Ļ×¢×Ķ": 7530,
      "Ġ×ª×ĳ×Ļ×¢×ķ×ª": 7531,
      "Ġ×¡×Ļ×¤×ķ×¨×Ļ": 7532,
      "Ġ×¡×Ļ×¤×§×ķ": 7533,
      "Ġ×ľ×Ļ×Ļ×¤×¦×Ļ×Ĵ": 7534,
      "Ġ×¢×ŀ×ķ×§×Ķ": 7535,
      "Ġ×Ĳ×ķ×Ķ×ĵ×Ļ×Ŀ": 7536,
      "Ġ×Ĵ×ķ×ľ×ĵ×©×ĺ×Ļ×Ļ×Ł": 7537,
      "Ġ×¡×ľ×¢×Ļ×Ŀ": 7538,
      "Ġ×ł×Ľ×ł×¡×ķ": 7539,
      "Ġ×ł×¤×Ĵ×©": 7540,
      "Ġ×Ľ×¤×Ļ×ľ×ķ×Ļ×ķ×ª": 7541,
      "Ġ×Ļ×ĸ×Ľ×Ķ": 7542,
      "Ġ×ŀ×¢×ĵ×Ļ×¤×Ļ×Ŀ": 7543,
      "Ġ×Ĳ×ŀ×ł×ķ×ª×Ļ×ª": 7544,
      "Ġ×ŀ×Ķ×¤×Ľ×ł×Ļ": 7545,
      "Ġ×Ĺ×©×ŀ×ľ×Ļ×ª": 7546,
      "Ġ×Ļ×¤×ł×Ļ": 7547,
      "Ġ×¡×Ļ×ŀ×¤×ķ×ł×Ļ×ª": 7548,
      "Ġ×Ķ×ª×¢×¨×ĳ×ķ×ª": 7549,
      "Ġ×Ļ×Ĵ×¨×ķ×Ŀ": 7550,
      "Ġ×Ĳ×ł×ķ×©×Ļ×Ļ×Ŀ": 7551,
      "Ġ×ŀ×ª×Ľ×ķ×ł×ª": 7552,
      "Ġ×ŀ×ª×Ľ×ķ×ł×ª×ķ": 7553,
      "Ġ×ŀ×¦×ľ×Ļ×Ĺ×Ķ": 7554,
      "Ġ×ľ×ķ×Ĵ×Ļ": 7555,
      "Ġ×Ĺ×ķ×Ĵ×Ļ": 7556,
      "Ġ×¨×ķ×ŀ×ł×Ļ×ª": 7557,
      "Ġ×ŀ×§×ĳ×Ļ×ľ×Ķ": 7558,
      "Ġ×©×ŀ×©×ķ×Ł": 7559,
      "Ġ×ľ×Ķ×¡×ª×Ļ×¨": 7560,
      "Ġ×Ķ×¤×¨×Ķ": 7561,
      "Ġ×©×Ļ×¢×ķ×¨×Ļ": 7562,
      "Ġ×¨×Ļ×¦×¨×ĵ×¡×ķ×Ł": 7563,
      "Ġ×ł×ŀ×ķ×Ľ×Ļ×Ŀ": 7564,
      "Ġ×ł×ŀ×ķ×Ľ×ķ×ª": 7565,
      "Ġ×ª×ķ×¨×Ŀ": 7566,
      "Ġ×ŀ×ª×Ĺ×¨×Ļ×Ŀ": 7567,
      "Ġ×Ķ×ª×Ĳ×ŀ×Ķ": 7568,
      "Ġ×ŀ×Ļ×ķ×Ĺ×¡": 7569,
      "Ġ×ŀ×Ļ×ķ×Ĺ×ĵ×ķ×ª": 7570,
      "Ġ×Ķ×ķ×ľ×ł×ĵ×Ļ×ª": 7571,
      "Ġ×©×Ļ×¤×ķ×¦×Ļ×Ŀ": 7572,
      "Ġ×Ĺ×ĳ×Ļ×ĳ": 7573,
      "Ġ×ĸ×§×ł×Ļ×Ŀ": 7574,
      "Ġ×ĸ×§×ķ×§×Ķ": 7575,
      "Ġ×Ĳ×ľ×§×ĺ×¨×ķ×ł×Ļ×ª": 7576,
      "Ġ×ĳ×ķ×¨×¡×Ķ": 7577,
      "Ġ×ŀ×Ļ×Ļ×¦×Ĵ×ķ×ª": 7578,
      "Ġ×¤×ł×Ļ×ŀ×Ļ×ķ×ª": 7579,
      "Ġ×ł×ķ×Ĺ×ķ×ª": 7580,
      "Ġ×ŀ×Ļ×ª×ķ×ľ×ķ×Ĵ×Ļ×Ķ": 7581,
      "×ŀ×ĸ×Ķ": 7582,
      "Ġ×ĵ×Ķ×Ļ×Ļ×ł×ķ": 7583,
      "Ġ×ľ×Ķ×Ľ×Ĺ×Ļ×ľ": 7584,
      "Ġ×Ķ×ª×¤×¨×§": 7585,
      "Ġ×Ķ×ª×¤×ĺ×¨": 7586,
      "Ġ×Ķ×ª×¤×ľ×Ĵ×ķ×ª": 7587,
      "Ġ×ł×©×Ĳ×¨×ķ": 7588,
      "Ġ×ľ×Ķ×ĸ×Ľ×Ļ×¨×ļ": 7589,
      "Ġ×ķ×Ļ×ľ×Ļ×Ĳ×ŀ×¡": 7590,
      "Ġ×Ĺ×ķ×ŀ×¨×Ķ": 7591,
      "Ġ×ŀ×Ļ×ĸ×ŀ×Ļ×Ŀ": 7592,
      "Ġ×Ĵ×ŀ×ķ×¨×Ķ": 7593,
      "Ġ×ĵ×Ĵ×Ŀ": 7594,
      "Ġ×ŀ×¡×ķ×¨×ª×Ļ×ª": 7595,
      "Ġ×ŀ×ª×¢×§×©": 7596,
      "Ġ×ł×Ĳ×¡×Ĳ": 7597,
      "Ġ×¨×ķ×ĸ×ł×ĳ×¨×Ĵ": 7598,
      "Ġ×ĸ×ŀ×Ļ×Ł": 7599,
      "Ġ×Ķ×ľ×Ľ×ª×Ļ×ª": 7600,
      "Ġ×Ļ×ł×ķ×Ĳ×¨": 7601,
      "Ġ×Ļ×ł×¡×ĺ×ķ×Ł": 7602,
      "Ġ×Ļ×Ļ×Ĺ×ķ×ĵ×Ļ×ķ×ª": 7603,
      "Ġ×§×¤×ķ×¥": 7604,
      "Ġ×¦×ķ×ľ×ŀ×Ķ": 7605,
      "Ġ×ª×Ĵ×ķ×ĳ×ª×Ļ": 7606,
      "Ġ×¡×¤×¦×Ļ×¤×Ļ×Ļ×Ŀ": 7607,
      "Ġ×ĵ×Ļ×¡×§×ķ×Ĵ×¨×¤×Ļ×Ķ": 7608,
      "Ġ×Ĳ×ķ×ŀ×ł×Ŀ": 7609,
      "Ġ×ª×ķ×ª×Ĺ×Ļ×Ŀ": 7610,
      "Ġ×¨×Ĵ×ľ×Ļ×Ļ×Ŀ": 7611,
      "Ġ×§×ķ×¤×ł×Ķ×Ĵ×Ł": 7612,
      "Ġ×¡×ª×Ļ×¨×ķ×ª": 7613,
      "Ġ×ŀ×¦×ķ×Ļ×ł×ª": 7614,
      "Ġ×ŀ×Ļ×ķ×¢×ĵ×ª": 7615,
      "Ġ×Ķ×©×§×¤×Ķ": 7616,
      "Ġ×§×ª×ĵ×¨×ľ×ª": 7617,
      "Ġ×¢×ķ×ª×§×Ļ×Ŀ": 7618,
      "Ġ×ł×Ļ×©×ķ×Ĳ×Ļ×Ŀ": 7619,
      "Ġ×Ĵ×¨×¤×Ļ×§×Ķ": 7620,
      "Ġ×¦×ķ×ķ×Ĳ×¨": 7621,
      "Ġ×¡×ķ×Ľ×Ł": 7622,
      "Ġ×ĺ×Ļ×ķ×ĺ×Ķ": 7623,
      "Ġ×Ķ×©×¤×¢×ª×ķ": 7624,
      "Ġ×Ķ×¦×ĺ×¨×¤×Ķ": 7625,
      "Ġ×©×Ķ×Ķ": 7626,
      "Ġ×Ļ×ķ×ĸ×£": 7627,
      "Ġ×Ļ×ķ×ĸ×ŀ×Ķ": 7628,
      "Ġ×Ĵ×ķ×ľ×ĵ×ŀ×Ł": 7629,
      "Ġ×¦×ł×Ļ×¢×ķ×ª": 7630,
      "Ġ×Ķ×ķ×ŀ×ķ×¡×§×¡": 7631,
      "Ġ×¢×ľ×Ļ×Ļ×ª×ķ": 7632,
      "Ġ×ŀ×ķ×ł×ĺ×ł×Ĵ×¨×ķ": 7633,
      "Ġ×ª×¤×Ļ×¡×ķ×ª": 7634,
      "Ġ×Ĺ×¨×Ļ×¤×Ķ": 7635,
      "Ġ×ĳ×Ļ×¨×ķ×¨×Ļ×Ŀ": 7636,
      "Ġ×ĸ×¢×Ļ×¨": 7637,
      "Ġ×ĸ×¢×Ļ×¨×Ļ×Ŀ": 7638,
      "Ġ×ŀ×¢×¦×ŀ×ķ×ª": 7639,
      "Ġ×¤×¨×ĵ×ķ×§×¡": 7640,
      "Ġ×ľ×Ķ×ª×¢×¨×ĳ": 7641,
      "Ġ×Ķ×ķ×¨×ĵ×ķ×¡": 7642,
      "Ġ×Ĳ×¡×ŀ×Ľ×ª×Ĳ×ķ×ª": 7643,
      "Ġ×Ķ×¤×§×Ķ": 7644,
      "Ġ×Ĺ×ķ×ª×ŀ×Ļ×Ŀ": 7645,
      "Ġ×ł×ŀ×©×Ľ×ª": 7646,
      "Ġ×ł×ŀ×©×Ľ×ķ": 7647,
      "Ġ×Ķ×¤×¡×Ļ×ĵ": 7648,
      "Ġ×Ķ×ĳ×Ĺ×Ļ×Ł": 7649,
      "Ġ×Ķ×ł×ĵ×¡×Ķ": 7650,
      "×ĺ×ķ×Ĳ×ľ×Ļ×ª": 7651,
      "Ġ×ŀ×¤×ķ×ª×Ĺ×ª": 7652,
      "Ġ×ł×¤×ķ×ľ×Ļ×ķ×Ł": 7653,
      "Ġ×ŀ×ĺ×ĳ×¢×ķ×ª": 7654,
      "Ġ×Ķ×ķ×¦×Ļ×Ĳ×ķ": 7655,
      "Ġ×Ĵ×¨×Ļ×ł×ĳ×¨×Ĵ": 7656,
      "Ġ×©×¨×Ļ×¨×ķ×ª×Ļ×ª": 7657,
      "Ġ×Ĳ×©×Ľ×ł×ĸ×Ļ": 7658,
      "Ġ×Ķ×Ļ×¤×ķ×ļ": 7659,
      "Ġ×Ĺ×ķ×©×©": 7660,
      "Ġ×¨×ķ×¦×Ĺ": 7661,
      "Ġ×ĵ×Ļ×¤×ľ×ķ×ŀ×ĺ": 7662,
      "Ġ×¦×ŀ×ķ×ĵ×Ķ": 7663,
      "Ġ×¡×ķ×ķ×Ĵ": 7664,
      "Ġ×¡×ķ×ľ×ķ": 7665,
      "Ġ×ŀ×Ĺ×Ļ×Ļ×ĳ": 7666,
      "Ġ×ŀ×Ĺ×Ļ×Ļ×ĳ×ª": 7667,
      "Ġ×ŀ×ª×ķ×Ĳ×¨×Ļ×Ŀ": 7668,
      "Ġ×ŀ×ŀ×ĵ×Ļ": 7669,
      "Ġ×§×ľ×Ĳ×¡×Ļ": 7670,
      "Ġ×§×ľ×Ĳ×¡×Ļ×ª": 7671,
      "Ġ×¡×Ļ×ł×Ĵ×ľ×Ļ×Ŀ": 7672,
      "Ġ×ĳ×ķ×§×¨": 7673,
      "Ġ×ĳ×ķ×§×¨×©×ĺ": 7674,
      "Ġ×ª×Ļ×Ľ×ķ×ł×Ļ×Ļ×Ŀ": 7675,
      "Ġ×ĵ×Ļ×ķ×ķ": 7676,
      "Ġ×Ĳ×ł×ĺ×Ļ×©×ŀ×Ļ×ķ×ª": 7677,
      "Ġ×ŀ×Ĺ×¤×©×Ļ×Ŀ": 7678,
      "Ġ×ĺ×¢×ł×ª×ļ": 7679,
      "Ġ×ŀ×¨×ķ×Ľ×ĸ": 7680,
      "Ġ×Ķ×ķ×Ĺ×ľ×¤×ķ": 7681,
      "Ġ×ŀ×Ļ×ŀ×ķ×Ł": 7682,
      "Ġ×ŀ×Ļ×ŀ×ķ×©": 7683,
      "Ġ×§×¡×ĺ×ł×¨": 7684,
      "Ġ×Ĵ×Ļ×ĳ×ķ×Ļ": 7685,
      "Ġ×ŀ×©×¨×ª×Ļ×Ŀ": 7686,
      "Ġ×ŀ×¢×ĳ×Ļ×¨×Ļ×Ŀ": 7687,
      "Ġ×ª×¤×¡×ķ": 7688,
      "Ġ×ĳ×ķ×Ĺ×¨×Ļ×Ŀ": 7689,
      "Ġ×¢×ķ×§×ĳ×Ļ×Ŀ": 7690,
      "Ġ×ŀ×ĵ×ľ×Ļ×Ļ×ª": 7691,
      "Ġ×ŀ×ª×¨×Ĺ×©×ª": 7692,
      "Ġ×Ļ×Ķ×¤×ķ×ļ": 7693,
      "Ġ×ľ×§×ķ×Ĺ×ķ×ª": 7694,
      "Ġ×Ķ×¡×ª×Ļ×Ļ×ŀ×Ķ": 7695,
      "Ġ×Ĳ×ŀ×Ļ×ª×Ļ×Ļ×Ŀ": 7696,
      "Ġ×ł×Ķ×¨×¡×ķ": 7697,
      "Ġ×¤×¨×ķ×ĺ×¡×ĺ×ł×ĺ×Ļ×Ŀ": 7698,
      "Ġ×ľ×Ļ×ĸ×ķ×Ŀ": 7699,
      "Ġ×Ļ×Ļ×Ĵ×Ļ×ł×Ĵ": 7700,
      "Ġ×Ĳ×ķ×ĳ×Ļ×Ļ×§×ĺ×Ļ×ĳ×Ļ": 7701,
      "Ġ×ŀ×ª×Ĵ×ķ×¨×¨×Ļ×Ŀ": 7702,
      "Ġ×ª×Ĺ×ľ×Ļ×£": 7703,
      "Ġ×ŀ×Ĵ×ķ×ķ×ł×Ļ×Ŀ": 7704,
      "Ġ×ĳ×ķ×ľ×Ĵ×¨×Ļ×Ķ": 7705,
      "Ġ×Ķ×ª×ł×Ĺ×ľ×ķ×Ļ×ķ×ª": 7706,
      "Ġ×Ĳ×Ļ×ł×ª×Ļ×¤×Ĳ×ĵ×Ķ": 7707,
      "Ġ×ĳ×©×ķ×¨×Ķ": 7708,
      "Ġ×ł×ķ×ĺ×Ļ×Ŀ": 7709,
      "Ġ×ª×ķ×Ĳ×Ŀ": 7710,
      "Ġ×ł×ŀ×Ľ×¨": 7711,
      "Ġ×Ķ×©×Ĳ×Ļ×¨×ķ": 7712,
      "Ġ×Ĳ×¦×ĳ×¢×ķ×ª": 7713,
      "Ġ×ł×ª×§×ľ×ª": 7714,
      "Ġ×ľ×ł×¦×Ĺ": 7715,
      "Ġ×¢×©×Ļ×¨×Ļ×ª": 7716,
      "Ġ×Ĵ×ľ×§×¡×Ļ×Ķ": 7717,
      "Ġ×¨×¤×ķ×ĳ×ľ×Ļ×§×ł×Ļ×ª": 7718,
      "Ġ×Ķ×ķ×©×ŀ×ĵ×ķ": 7719,
      "Ġ×ĳ×ŀ×Ĳ×Ļ": 7720,
      "Ġ×©×ĵ×¨×Ķ": 7721,
      "Ġ×Ĳ×Ļ×ŀ×¦×ķ": 7722,
      "Ġ×¤×Ļ×©×¨": 7723,
      "Ġ×Ĵ×Ļ×ĺ×¨×Ķ": 7724,
      "Ġ×ŀ×¡×ķ×Ĵ×ľ×Ļ×Ŀ": 7725,
      "Ġ×Ĳ×ķ×¤×ł×Ķ×Ļ×Ļ×ŀ×¨": 7726,
      "Ġ×Ĵ×ľ×¨×Ļ×Ļ×ª": 7727,
      "Ġ×¤×¡×Ļ×Ľ×ķ×ľ×ķ×Ĵ×Ļ×Ŀ": 7728,
      "Ġ×Ĵ×¨×Ĵ×ķ×¨×Ļ×ķ×¡": 7729,
      "Ġ×¤×ķ×¨×ĺ×ķ×Ĵ×ĸ×Ļ×ª": 7730,
      "Ġ×Ķ×ķ×ĳ×Ķ×¨×Ķ": 7731,
      "Ġ×ľ×©×ª×£": 7732,
      "Ġ×ĳ×ĳ×ľ×Ļ": 7733,
      "Ġ×ĳ×ķ×ĵ×Ķ×Ļ×ĸ×Ŀ": 7734,
      "Ġ×©×ķ×ł×Ĳ": 7735,
      "Ġ×¢×ķ×ł×©": 7736,
      "Ġ×Ļ×¨×Ĵ×Ļ×ł×Ļ×Ķ": 7737,
      "Ġ×Ļ×ŀ×¦×Ĳ×ķ": 7738,
      "Ġ×Ļ×¨×Ļ×Ĺ×ķ": 7739,
      "Ġ×Ĺ×Ļ×ŀ×ķ×©": 7740,
      "Ġ×§×ĸ×Ĺ×¡×ĺ×Ł": 7741,
      "Ġ×ĸ×ĳ×ķ×ľ×ķ×Ł": 7742,
      "×ķ×ł×ķ×ŀ×Ļ×Ķ": 7743,
      "Ġ×Ĵ×Ļ×ŀ×ł×¡×Ļ×Ķ": 7744,
      "Ġ×ĵ×§×ĵ×ķ×§": 7745,
      "Ġ×¦×ķ×§×¨×ŀ×Ł": 7746,
      "Ġ×¡×Ļ×ł×Ĵ×¤×ķ×¨": 7747,
      "Ġ×ľ×Ĳ×¨×Ĵ×Ł": 7748,
      "Ġ×ĳ×¢×§×Ļ×¤×Ļ×Ł": 7749,
      "Ġ×ŀ×ª×Ľ×ķ×ķ×ł×ª": 7750,
      "Ġ×Ķ×ª×¤×©×ĺ×ķ×ª": 7751,
      "Ġ×Ĺ×©×ŀ×ķ×ł×Ĳ×Ļ×Ŀ": 7752,
      "Ġ×Ļ×¦×Ĵ×¨×ľ×ĵ": 7753,
      "Ġ×Ĳ×ķ×¡×ķ×ķ×Ĳ×ľ×ĵ": 7754,
      "Ġ×Ĳ×ŀ×¡×ĺ×¨×ĵ×Ŀ": 7755,
      "¢×ķ×ª": 7756,
      "¤×¡×ķ×Ł": 7757,
      "ĳ×ĵ": 7758,
      "ł×Ĵ×ľ×Ļ×ª": 7759,
      "×Ļ×ķ×ł×Ļ×ª": 7760,
      "×Ļ×ķ×Ĳ×¨×ĺ": 7761,
      "×ķ×Ļ×ª": 7762,
      "×ķ×Ļ×ľ": 7763,
      "×ķ×ķ×Ĳ": 7764,
      "Ġ×Ķ×¨×ĳ": 7765,
      "Ġ×Ķ×ĳ×¢": 7766,
      "Ġ×Ķ×ķ×Ļ×§×Ļ×¤×ĵ×Ļ×Ķ": 7767,
      "Ġ×Ķ×¨×Ĳ×Ķ": 7768,
      "Ġ×Ķ×ŀ×ł": 7769,
      "Ġ×Ķ×Ĳ×ł×¡": 7770,
      "Ġ×Ķ×Ļ×Ļ×ĵ": 7771,
      "×¨×ķ×ĵ": 7772,
      "×Ķ×Ĳ×Ŀ": 7773,
      "×Ķ×ŀ×¡": 7774,
      "Ġ×ľ×Ļ×Ŀ": 7775,
      "Ġ×ľ×Ļ×©": 7776,
      "Ġ×ľ×ķ×Ļ×§×Ļ": 7777,
      "Ġ×ĳ×¦": 7778,
      "Ġ×ĳ×¡": 7779,
      "Ġ×ĳ×Ļ×ĳ": 7780,
      "Ġ×ĳ×¨×ĳ": 7781,
      "Ġ×ĳ×Ĳ×Ŀ": 7782,
      "Ġ×ĳ×¨×Ĵ": 7783,
      "Ġ×ĳ×ĳ×ľ": 7784,
      "Ġ×ĳ×¨×Ĳ": 7785,
      "Ġ×ĳ×¨×¦": 7786,
      "Ġ×ĳ×ķ×¨×Ĵ": 7787,
      "Ġ×ĳ×ł×Ļ×Ķ": 7788,
      "Ġ×ĳ×¨×Ļ×Ĳ×": 7789,
      "Ġ×ĳ×ķ×©×Ķ": 7790,
      "Ġ×ĳ×Ļ×ĵ×ķ×¨": 7791,
      "Ġ×ĳ×ķ×Ļ×§×Ļ×©×Ļ×ª×ķ×£": 7792,
      "×ľ×ķ×ł×Ķ": 7793,
      "Ġ×©×ķ×Ł": 7794,
      "Ġ×©×Ļ×ĵ": 7795,
      "Ġ×©×ķ×ŀ×": 7796,
      "Ġ×©×ķ×ĺ": 7797,
      "Ġ×©×ĳ×Ļ": 7798,
      "Ġ×©×Ļ×ľ×Ķ": 7799,
      "Ġ×©×Ļ×ł×ª": 7800,
      "Ġ×©×ķ×Ĺ×ĵ": 7801,
      "Ġ×©×ŀ×ļ": 7802,
      "Ġ×©×¨×Ļ×¤": 7803,
      "Ġ×©×Ĺ×ª×Ķ": 7804,
      "Ġ×©×ķ×¢×¨": 7805,
      "×ª×§×Ļ×Ŀ": 7806,
      "×ĳ×ķ×Ĳ×Ķ": 7807,
      "×ĳ×ķ×©×ª": 7808,
      "×ķ×ª×Ļ": 7809,
      "Ġ×¢×Ĵ": 7810,
      "Ġ×¢×ķ×Ĵ": 7811,
      "Ġ×¢×§×ĳ×ķ×ª": 7812,
      "Ġ×¢×¡×ķ×§": 7813,
      "Ġ×¢×ŀ×Ļ×ĵ×Ķ": 7814,
      "×©×¢": 7815,
      "×©×Ĳ": 7816,
      "×©×Ļ×¥": 7817,
      "×ĵ×ķ×ľ": 7818,
      "×ĵ×¨×Ļ×Ŀ": 7819,
      "Ġ×Ľ×Ļ×ª": 7820,
      "Ġ×Ľ×ĺ": 7821,
      "Ġ×Ľ×ķ×ĳ": 7822,
      "Ġ×Ľ×Ļ×¤×Ķ": 7823,
      "Ġ×Ľ×ķ×©×¨": 7824,
      "Ġ×Ľ×ķ×ª×¨×ķ×ª": 7825,
      "Ġ×Ļ×Ļ×Ł": 7826,
      "Ġ×Ļ×ķ×Ķ": 7827,
      "Ġ×Ļ×ķ×Ĳ×ľ": 7828,
      "Ġ×Ļ×¨×Ļ×ĵ": 7829,
      "Ġ×Ļ×ķ×ŀ×Ł": 7830,
      "Ġ×Ĺ×ł×Ķ": 7831,
      "Ġ×Ĺ×¨×ķ×ª": 7832,
      "Ġ×Ĺ×ŀ×ª": 7833,
      "Ġ×Ĺ×ŀ×Ļ×Ŀ": 7834,
      "Ġ×Ĺ×ª×Ŀ": 7835,
      "Ġ×Ĺ×¨×ª×Ļ": 7836,
      "×ł×ľ": 7837,
      "×ł×ĳ×Ļ": 7838,
      "×ł×Ĳ×ľ": 7839,
      "×ł×ª×Ŀ": 7840,
[...]
